{
  "version": "1.0",
  "truncation": null,
  "padding": null,
  "added_tokens": [
    {
      "id": 0,
      "content": "<UNK>",
      "single_word": false,
      "lstrip": false,
      "rstrip": false,
      "normalized": false,
      "special": true
    },
    {
      "id": 1,
      "content": "<BOS>",
      "single_word": false,
      "lstrip": false,
      "rstrip": false,
      "normalized": false,
      "special": true
    },
    {
      "id": 2,
      "content": "<PAD>",
      "single_word": false,
      "lstrip": false,
      "rstrip": false,
      "normalized": false,
      "special": true
    },
    {
      "id": 3,
      "content": "<EOS>",
      "single_word": false,
      "lstrip": false,
      "rstrip": false,
      "normalized": false,
      "special": true
    }
  ],
  "normalizer": {
    "type": "NFKC"
  },
  "pre_tokenizer": {
    "type": "Metaspace",
    "replacement": "▁",
    "prepend_scheme": "always",
    "split": true
  },
  "post_processor": {
    "type": "TemplateProcessing",
    "single": [
      {
        "SpecialToken": {
          "id": "<BOS>",
          "type_id": 0
        }
      },
      {
        "Sequence": {
          "id": "A",
          "type_id": 0
        }
      },
      {
        "SpecialToken": {
          "id": "<EOS>",
          "type_id": 0
        }
      }
    ],
    "pair": [
      {
        "SpecialToken": {
          "id": "<BOS>",
          "type_id": 0
        }
      },
      {
        "Sequence": {
          "id": "A",
          "type_id": 0
        }
      },
      {
        "SpecialToken": {
          "id": "<EOS>",
          "type_id": 0
        }
      },
      {
        "SpecialToken": {
          "id": "<BOS>",
          "type_id": 1
        }
      },
      {
        "Sequence": {
          "id": "B",
          "type_id": 1
        }
      },
      {
        "SpecialToken": {
          "id": "<EOS>",
          "type_id": 1
        }
      }
    ],
    "special_tokens": {
      "<BOS>": {
        "id": "<BOS>",
        "ids": [
          1
        ],
        "tokens": [
          "<BOS>"
        ]
      },
      "<EOS>": {
        "id": "<EOS>",
        "ids": [
          3
        ],
        "tokens": [
          "<EOS>"
        ]
      }
    }
  },
  "decoder": {
    "type": "Sequence",
    "decoders": [
      {
        "type": "Metaspace",
        "replacement": "▁",
        "prepend_scheme": "always",
        "split": true
      }
    ]
  },
  "model": {
    "type": "BPE",
    "dropout": 0.1,
    "unk_token": "<UNK>",
    "continuing_subword_prefix": null,
    "end_of_word_suffix": null,
    "fuse_unk": true,
    "byte_fallback": false,
    "ignore_merges": false,
    "vocab": {
      "<UNK>": 0,
      "<BOS>": 1,
      "<PAD>": 2,
      "<EOS>": 3,
      "\t": 4,
      "\n": 5,
      "\u000b": 6,
      "\f": 7,
      "\r": 8,
      " ": 9,
      "!": 10,
      "\"": 11,
      "#": 12,
      "$": 13,
      "%": 14,
      "&": 15,
      "'": 16,
      "(": 17,
      ")": 18,
      "*": 19,
      "+": 20,
      ",": 21,
      "-": 22,
      ".": 23,
      "/": 24,
      "0": 25,
      "1": 26,
      "2": 27,
      "3": 28,
      "4": 29,
      "5": 30,
      "6": 31,
      "7": 32,
      "8": 33,
      "9": 34,
      ":": 35,
      ";": 36,
      "<": 37,
      "=": 38,
      ">": 39,
      "?": 40,
      "@": 41,
      "A": 42,
      "B": 43,
      "C": 44,
      "D": 45,
      "E": 46,
      "F": 47,
      "G": 48,
      "H": 49,
      "I": 50,
      "J": 51,
      "K": 52,
      "L": 53,
      "M": 54,
      "N": 55,
      "O": 56,
      "P": 57,
      "Q": 58,
      "R": 59,
      "S": 60,
      "T": 61,
      "U": 62,
      "V": 63,
      "W": 64,
      "X": 65,
      "Y": 66,
      "Z": 67,
      "[": 68,
      "\\": 69,
      "]": 70,
      "^": 71,
      "_": 72,
      "`": 73,
      "a": 74,
      "b": 75,
      "c": 76,
      "d": 77,
      "e": 78,
      "f": 79,
      "g": 80,
      "h": 81,
      "i": 82,
      "j": 83,
      "k": 84,
      "l": 85,
      "m": 86,
      "n": 87,
      "o": 88,
      "p": 89,
      "q": 90,
      "r": 91,
      "s": 92,
      "t": 93,
      "u": 94,
      "v": 95,
      "w": 96,
      "x": 97,
      "y": 98,
      "z": 99,
      "{": 100,
      "|": 101,
      "}": 102,
      "~": 103,
      "Ó": 104,
      "ó": 105,
      "Ą": 106,
      "ą": 107,
      "Ć": 108,
      "ć": 109,
      "Ę": 110,
      "ę": 111,
      "Ł": 112,
      "ł": 113,
      "Ń": 114,
      "ń": 115,
      "Ś": 116,
      "ś": 117,
      "Ź": 118,
      "ź": 119,
      "Ż": 120,
      "ż": 121,
      " ": 122,
      " ": 123,
      "▁": 124,
      "ie": 125,
      "▁p": 126,
      "▁w": 127,
      "▁s": 128,
      "▁n": 129,
      "▁z": 130,
      "cz": 131,
      "▁t": 132,
      "▁d": 133,
      "ow": 134,
      "ch": 135,
      "▁m": 136,
      "rz": 137,
      "ra": 138,
      "st": 139,
      "ia": 140,
      "▁o": 141,
      "▁j": 142,
      "sz": 143,
      "▁k": 144,
      "nie": 145,
      "▁na": 146,
      "▁i": 147,
      "ię": 148,
      "ro": 149,
      "dz": 150,
      "▁po": 151,
      "le": 152,
      "ak": 153,
      "▁b": 154,
      "am": 155,
      "an": 156,
      "go": 157,
      "rze": 158,
      "▁do": 159,
      "▁nie": 160,
      "ne": 161,
      "li": 162,
      "ar": 163,
      "▁je": 164,
      "na": 165,
      "ny": 166,
      "ni": 167,
      "▁się": 168,
      "ka": 169,
      "że": 170,
      "▁za": 171,
      "ła": 172,
      "ci": 173,
      "re": 174,
      "ki": 175,
      "▁a": 176,
      "ów": 177,
      "▁wy": 178,
      "ko": 179,
      "la": 180,
      "czy": 181,
      "▁u": 182,
      "▁c": 183,
      "em": 184,
      "rzy": 185,
      "▁to": 186,
      "ty": 187,
      "ło": 188,
      "en": 189,
      "ją": 190,
      "ry": 191,
      "wa": 192,
      "je": 193,
      "ta": 194,
      "▁mo": 195,
      "da": 196,
      "▁ko": 197,
      "▁prze": 198,
      "te": 199,
      "▁jak": 200,
      "▁P": 201,
      "ym": 202,
      "dzie": 203,
      "oś": 204,
      "owa": 205,
      ".\n": 206,
      "▁te": 207,
      "cie": 208,
      "▁jest": 209,
      "cze": 210,
      "ku": 211,
      "po": 212,
      "ce": 213,
      "▁g": 214,
      "▁ro": 215,
      "▁że": 216,
      "▁od": 217,
      "▁W": 218,
      "dy": 219,
      "to": 220,
      "tó": 221,
      "sta": 222,
      "wi": 223,
      "lu": 224,
      "wo": 225,
      "cj": 226,
      "ych": 227,
      "▁ma": 228,
      "▁któ": 229,
      "ob": 230,
      "▁tak": 231,
      "dzi": 232,
      "kie": 233,
      "er": 234,
      "tu": 235,
      "▁by": 236,
      "wie": 237,
      "▁N": 238,
      "▁przy": 239,
      "my": 240,
      "nia": 241,
      "ży": 242,
      "ły": 243,
      "▁ch": 244,
      "▁S": 245,
      "cy": 246,
      "..": 247,
      "raz": 248,
      "ru": 249,
      "as": 250,
      "sze": 251,
      "▁dz": 252,
      "▁f": 253,
      "lo": 254,
      "mi": 255,
      "__": 256,
      "łam": 257,
      "▁C": 258,
      "no": 259,
      "▁J": 260,
      "▁M": 261,
      "▁T": 262,
      "▁cz": 263,
      "by": 264,
      "owie": 265,
      "▁sz": 266,
      "▁czy": 267,
      "szy": 268,
      "▁pro": 269,
      "▁wie": 270,
      "nych": 271,
      "pi": 272,
      "ma": 273,
      "▁pod": 274,
      "owe": 275,
      "ró": 276,
      "owan": 277,
      "du": 278,
      "łu": 279,
      "▁D": 280,
      "pa": 281,
      "▁mi": 282,
      "▁ś": 283,
      "de": 284,
      "▁A": 285,
      "▁co": 286,
      "pra": 287,
      "▁K": 288,
      "wia": 289,
      "mie": 290,
      "▁ni": 291,
      "▁ale": 292,
      "or": 293,
      "ną": 294,
      "ości": 295,
      "ja": 296,
      "▁ty": 297,
      "bi": 298,
      "▁-": 299,
      "si": 300,
      "▁in": 301,
      "▁Z": 302,
      "ca": 303,
      "bie": 304,
      "▁dla": 305,
      "zy": 306,
      "ek": 307,
      "cia": 308,
      "▁roz": 309,
      "▁B": 310,
      "▁1": 311,
      "▁(": 312,
      "ami": 313,
      "▁pra": 314,
      "▁Po": 315,
      "▁O": 316,
      "ania": 317,
      "ba": 318,
      "▁st": 319,
      "▁naj": 320,
      "ga": 321,
      "pie": 322,
      "▁ze": 323,
      "we": 324,
      "▁mie": 325,
      "niej": 326,
      "uż": 327,
      "▁dzie": 328,
      "al": 329,
      "▁ob": 330,
      "cji": 331,
      "mu": 332,
      "▁lu": 333,
      "wy": 334,
      "▁jed": 335,
      "▁bo": 336,
      "za": 337,
      "owi": 338,
      "nym": 339,
      "▁2": 340,
      "▁spo": 341,
      "ję": 342,
      "nego": 343,
      "▁ka": 344,
      "▁są": 345,
      "il": 346,
      "▁bar": 347,
      "ści": 348,
      "mo": 349,
      "ez": 350,
      "ani": 351,
      "dzo": 352,
      "▁które": 353,
      "▁tym": 354,
      "ość": 355,
      "owo": 356,
      "▁le": 357,
      "pe": 358,
      "▁go": 359,
      "gi": 360,
      "nej": 361,
      "▁e": 362,
      "____": 363,
      "jąc": 364,
      "on": 365,
      "▁R": 366,
      "lko": 367,
      "▁Na": 368,
      "pu": 369,
      "sa": 370,
      "▁może": 371,
      "▁zna": 372,
      "▁bę": 373,
      "praw": 374,
      "su": 375,
      "▁wię": 376,
      "ować": 377,
      "▁wi": 378,
      "cza": 379,
      "szyst": 380,
      "▁przez": 381,
      "▁re": 382,
      "▁I": 383,
      "rów": 384,
      "▁który": 385,
      "bo": 386,
      "▁sie": 387,
      "ść": 388,
      "sy": 389,
      "owy": 390,
      "ane": 391,
      "ski": 392,
      "▁Je": 393,
      "enia": 394,
      "▁mnie": 395,
      "▁pa": 396,
      "▁sam": 397,
      "▁tego": 398,
      "▁ku": 399,
      "▁mu": 400,
      "▁czas": 401,
      "▁pie": 402,
      "▁Nie": 403,
      "▁tylko": 404,
      "łe": 405,
      "▁już": 406,
      "▁wszyst": 407,
      "...": 408,
      "amy": 409,
      "ności": 410,
      "▁dob": 411,
      "▁\"": 412,
      "ków": 413,
      "sza": 414,
      "cho": 415,
      "▁h": 416,
      "sto": 417,
      "▁swo": 418,
      "ście": 419,
      "kę": 420,
      "do": 421,
      "▁bardzo": 422,
      "śli": 423,
      "skie": 424,
      "▁sk": 425,
      "▁ra": 426,
      "▁pe": 427,
      "▁bez": 428,
      "▁sob": 429,
      "▁la": 430,
      "dni": 431,
      "im": 432,
      "▁G": 433,
      "szcze": 434,
      "gl": 435,
      "m,": 436,
      "▁też": 437,
      "▁poz": 438,
      "ter": 439,
      "men": 440,
      "ć,": 441,
      "▁sta": 442,
      "ką": 443,
      "rza": 444,
      "nak": 445,
      "cha": 446,
      "art": 447,
      "łą": 448,
      "rę": 449,
      "▁li": 450,
      "▁cie": 451,
      "cja": 452,
      "ana": 453,
      "ża": 454,
      "▁L": 455,
      "▁moż": 456,
      "dzia": 457,
      "rzą": 458,
      "tów": 459,
      "osta": 460,
      "łem": 461,
      "▁mia": 462,
      "owych": 463,
      "fi": 464,
      "▁ja": 465,
      "tem": 466,
      "▁sp": 467,
      "gu": 468,
      "▁da": 469,
      "▁wo": 470,
      "▁ży": 471,
      "nie,": 472,
      "▁będzie": 473,
      "tycz": 474,
      "▁os": 475,
      "zu": 476,
      "▁raz": 477,
      "▁oraz": 478,
      "ład": 479,
      "▁kon": 480,
      "jem": 481,
      "sty": 482,
      "mia": 483,
      "powie": 484,
      "▁lub": 485,
      "dę": 486,
      "▁mam": 487,
      "▁wła": 488,
      "▁sobie": 489,
      "▁cho": 490,
      "sią": 491,
      "bu": 492,
      "▁produ": 493,
      "sp": 494,
      "sia": 495,
      "▁ca": 496,
      "nu": 497,
      "bra": 498,
      "dze": 499,
      "▁pi": 500,
      "?\n": 501,
      "▁20": 502,
      "ół": 503,
      "czo": 504,
      "rw": 505,
      "tk": 506,
      "in": 507,
      "stę": 508,
      "▁powie": 509,
      "ska": 510,
      "nę": 511,
      "róż": 512,
      "dza": 513,
      "▁Jak": 514,
      "ste": 515,
      "cią": 516,
      "czą": 517,
      "owane": 518,
      "niem": 519,
      "▁zd": 520,
      "▁ta": 521,
      "sie": 522,
      "czę": 523,
      "un": 524,
      "▁mog": 525,
      "▁kie": 526,
      "▁każ": 527,
      "▁Za": 528,
      "śmy": 529,
      "io": 530,
      "wet": 531,
      "glą": 532,
      "▁zak": 533,
      "ór": 534,
      "gra": 535,
      "cu": 536,
      "zna": 537,
      "▁de": 538,
      "me": 539,
      "▁przed": 540,
      "▁jeszcze": 541,
      "niu": 542,
      "js": 543,
      "▁F": 544,
      "dziej": 545,
      "▁być": 546,
      "▁cze": 547,
      "▁pot": 548,
      "▁jakie": 549,
      "▁su": 550,
      "▁tu": 551,
      "ki,": 552,
      "ój": 553,
      "▁my": 554,
      "▁można": 555,
      "▁tem": 556,
      "kiem": 557,
      "▁ce": 558,
      "▁jednak": 559,
      "▁produk": 560,
      "ona": 561,
      "ięk": 562,
      "ób": 563,
      "▁ok": 564,
      "▁ten": 565,
      "rak": 566,
      "lej": 567,
      "ność": 568,
      "▁wz": 569,
      "szym": 570,
      "▁pew": 571,
      "▁znaj": 572,
      "▁U": 573,
      "ne,": 574,
      "ch,": 575,
      "▁bu": 576,
      "▁uży": 577,
      "ć.": 578,
      "jące": 579,
      "▁zosta": 580,
      "wią": 581,
      "tego": 582,
      "▁ich": 583,
      "rą": 584,
      "gie": 585,
      "▁war": 586,
      "owania": 587,
      "▁rów": 588,
      "▁no": 589,
      "▁takie": 590,
      "szych": 591,
      "▁było": 592,
      "▁sto": 593,
      "nie.": 594,
      "▁jej": 595,
      "▁wa": 596,
      "▁kil": 597,
      "▁ba": 598,
      "co": 599,
      "ble": 600,
      "▁To": 601,
      "▁og": 602,
      "▁dzi": 603,
      "▁H": 604,
      "stęp": 605,
      "cje": 606,
      "▁nawet": 607,
      "spo": 608,
      "▁we": 609,
      "owej": 610,
      "▁zro": 611,
      "ich": 612,
      "lę": 613,
      "ii": 614,
      "szą": 615,
      "śnie": 616,
      "▁jego": 617,
      "▁Mo": 618,
      "▁czę": 619,
      "cyj": 620,
      "▁roku": 621,
      "▁sy": 622,
      "▁róż": 623,
      "▁miejs": 624,
      "lep": 625,
      "▁więc": 626,
      "▁me": 627,
      "sko": 628,
      "ran": 629,
      "ny,": 630,
      "dą": 631,
      "▁Do": 632,
      "▁odpowie": 633,
      "▁kom": 634,
      "cznie": 635,
      "▁także": 636,
      "▁E": 637,
      "dź": 638,
      "▁Wy": 639,
      "rowa": 640,
      "owym": 641,
      "▁3": 642,
      "00": 643,
      "▁tej": 644,
      "▁Ch": 645,
      "tek": 646,
      "nik": 647,
      "▁zam": 648,
      "▁gdy": 649,
      "▁ak": 650,
      "nika": 651,
      "▁równie": 652,
      "nię": 653,
      "ól": 654,
      "________": 655,
      "os": 656,
      "owanie": 657,
      "ch.": 658,
      "ów,": 659,
      "ze": 660,
      "oba": 661,
      "▁wyko": 662,
      "pad": 663,
      "▁sm": 664,
      "stu": 665,
      "czne": 666,
      "so": 667,
      "liw": 668,
      "yta": 669,
      "at": 670,
      "wiet": 671,
      "▁spraw": 672,
      "lar": 673,
      "cję": 674,
      "tor": 675,
      "owego": 676,
      "kład": 677,
      "lam": 678,
      "czu": 679,
      "▁się,": 680,
      "▁swoje": 681,
      "czas": 682,
      "▁pierw": 683,
      "▁,": 684,
      "▁rze": 685,
      "▁nas": 686,
      "pis": 687,
      "ony": 688,
      "one": 689,
      "▁wyda": 690,
      "▁również": 691,
      "▁spos": 692,
      "m.": 693,
      ").": 694,
      "▁gł": 695,
      "▁op": 696,
      "any": 697,
      "ent": 698,
      "liśmy": 699,
      "dzą": 700,
      "rzę": 701,
      "▁coś": 702,
      "cej": 703,
      "▁pre": 704,
      "▁świa": 705,
      "tni": 706,
      "iu": 707,
      "▁samo": 708,
      "▁teraz": 709,
      "▁tam": 710,
      "▁ek": 711,
      "prze": 712,
      "▁ła": 713,
      "▁Dz": 714,
      "rzu": 715,
      "▁wybra": 716,
      "▁stro": 717,
      "▁powi": 718,
      "czenia": 719,
      "dzenia": 720,
      "▁uwa": 721,
      "for": 722,
      "▁ser": 723,
      "▁dru": 724,
      "▁aby": 725,
      "▁słu": 726,
      "ej": 727,
      "▁jaki": 728,
      "tyw": 729,
      "ju": 730,
      "owia": 731,
      "ięki": 732,
      "▁dzia": 733,
      "ciu": 734,
      "▁rodzi": 735,
      "▁zw": 736,
      "▁kiedy": 737,
      "▁był": 738,
      "rem": 739,
      "dzy": 740,
      "▁zrobi": 741,
      "dnie": 742,
      "▁19": 743,
      "ową": 744,
      "▁dłu": 745,
      "▁zaw": 746,
      "bli": 747,
      "cą": 748,
      "▁nad": 749,
      "▁doda": 750,
      "arty": 751,
      "kt": 752,
      "▁mode": 753,
      "▁lat": 754,
      "se": 755,
      "▁al": 756,
      "ki.": 757,
      "up": 758,
      "▁dziec": 759,
      "▁szy": 760,
      "▁Prze": 761,
      "gląda": 762,
      "aniu": 763,
      "▁oka": 764,
      "▁wszystki": 765,
      "▁Ma": 766,
      "szę": 767,
      "▁gra": 768,
      "▁pow": 769,
      "▁moje": 770,
      "tnie": 771,
      "▁która": 772,
      "▁201": 773,
      "ówi": 774,
      "lan": 775,
      "ka,": 776,
      "yba": 777,
      "fon": 778,
      "▁du": 779,
      "▁ksią": 780,
      "▁proble": 781,
      "▁tele": 782,
      "▁urzą": 783,
      "▁trze": 784,
      "jemy": 785,
      "ji": 786,
      "▁wszystko": 787,
      "trzy": 788,
      "▁wło": 789,
      "▁fi": 790,
      "ł,": 791,
      "sk": 792,
      "na,": 793,
      "wię": 794,
      "▁fa": 795,
      "się": 796,
      "czywi": 797,
      "▁osob": 798,
      "),": 799,
      "▁ry": 800,
      "rod": 801,
      "▁tro": 802,
      "▁praw": 803,
      "wać": 804,
      "peł": 805,
      "chę": 806,
      "res": 807,
      "▁wiele": 808,
      "▁fil": 809,
      "ów.": 810,
      "▁duż": 811,
      "▁Ko": 812,
      "▁domu": 813,
      "▁dro": 814,
      "▁żeby": 815,
      "▁gdzie": 816,
      "bym": 817,
      "▁au": 818,
      "▁robi": 819,
      "▁tra": 820,
      "▁fo": 821,
      "▁zale": 822,
      "▁kilka": 823,
      "▁tych": 824,
      "unk": 825,
      "▁5": 826,
      "gę": 827,
      "▁bardziej": 828,
      "czyć": 829,
      ".\nW": 830,
      ".\nN": 831,
      "▁.": 832,
      "▁sko": 833,
      "▁pu": 834,
      "▁dobrze": 835,
      ".\nP": 836,
      "▁jestem": 837,
      "tki": 838,
      "ńst": 839,
      "skiego": 840,
      "nymi": 841,
      "▁to,": 842,
      "▁jako": 843,
      "ec": 844,
      "biera": 845,
      "tka": 846,
      "▁najlep": 847,
      "waż": 848,
      "\nN": 849,
      "szcza": 850,
      "szej": 851,
      "▁wsp": 852,
      "▁Co": 853,
      "nku": 854,
      "▁Bo": 855,
      "▁ele": 856,
      "anych": 857,
      "▁miesz": 858,
      "▁więk": 859,
      "cę": 860,
      "▁zap": 861,
      "▁warto": 862,
      "▁ci": 863,
      "▁nic": 864,
      "sł": 865,
      "war": 866,
      "▁niż": 867,
      "▁smart": 868,
      "▁dzieci": 869,
      "ny.": 870,
      "▁potrze": 871,
      "▁koń": 872,
      "▁lo": 873,
      "uje": 874,
      "cen": 875,
      "ral": 876,
      "rud": 877,
      "▁niez": 878,
      "k,": 879,
      "szego": 880,
      "▁pracy": 881,
      "▁była": 882,
      "▁kolo": 883,
      "▁więcej": 884,
      "▁Pol": 885,
      "▁Ale": 886,
      "▁4": 887,
      "▁pomo": 888,
      "▁osta": 889,
      "taj": 890,
      "dzić": 891,
      "ng": 892,
      "tku": 893,
      "t.": 894,
      "▁szko": 895,
      "▁zawsze": 896,
      "nki": 897,
      "▁mają": 898,
      "bar": 899,
      "fer": 900,
      "▁jeśli": 901,
      "stan": 902,
      "▁Czy": 903,
      "▁nich": 904,
      "▁chce": 905,
      "el": 906,
      "dem": 907,
      "▁szyb": 908,
      "▁stan": 909,
      "▁zda": 910,
      "▁spra": 911,
      "▁chyba": 912,
      "ha": 913,
      "szu": 914,
      "wyk": 915,
      "wczy": 916,
      "▁siebie": 917,
      "t,": 918,
      "▁pole": 919,
      "słu": 920,
      "▁hi": 921,
      "▁książ": 922,
      "▁ga": 923,
      "▁ją": 924,
      "▁Od": 925,
      "▁zn": 926,
      "▁dy": 927,
      "skiej": 928,
      "▁Ja": 929,
      "piej": 930,
      "▁powin": 931,
      ".\nJ": 932,
      "two": 933,
      "▁im": 934,
      "▁osób": 935,
      "amię": 936,
      "▁powo": 937,
      "!\n": 938,
      "▁mę": 939,
      "▁kobie": 940,
      "▁Ka": 941,
      "p.": 942,
      "▁mówi": 943,
      "▁ż": 944,
      "▁właśnie": 945,
      "got": 946,
      "od": 947,
      "czej": 948,
      "▁sposób": 949,
      "ne.": 950,
      "cznych": 951,
      "tra": 952,
      "ród": 953,
      "▁lek": 954,
      "jący": 955,
      "zie": 956,
      "stem": 957,
      "▁nam": 958,
      "▁szcze": 959,
      "▁zmie": 960,
      "staw": 961,
      "wiąz": 962,
      "▁Mi": 963,
      "kami": 964,
      "▁zapa": 965,
      "cić": 966,
      "żej": 967,
      "ckie": 968,
      "▁kupi": 969,
      "nek": 970,
      "nością": 971,
      "ty,": 972,
      "▁znajdzie": 973,
      "tę": 974,
      "▁Cz": 975,
      "fek": 976,
      "▁Te": 977,
      "▁on": 978,
      "tą": 979,
      "py": 980,
      "om": 981,
      "▁opi": 982,
      "▁czasu": 983,
      "▁bi": 984,
      "chodzi": 985,
      "rg": 986,
      "wki": 987,
      "▁albo": 988,
      ".\nC": 989,
      "▁którym": 990,
      "▁mar": 991,
      "um": 992,
      "łości": 993,
      "▁kolej": 994,
      "▁wp": 995,
      "▁trzeba": 996,
      "▁nale": 997,
      ".\nT": 998,
      "▁wszystkie": 999,
      "tel": 1000,
      "tach": 1001,
      "jących": 1002,
      "▁ża": 1003,
      ".\nM": 1004,
      "▁poja": 1005,
      "aka": 1006,
      "▁nau": 1007,
      "▁mię": 1008,
      "czywiście": 1009,
      "ene": 1010,
      "zd": 1011,
      "▁chcia": 1012,
      "▁Pod": 1013,
      "ował": 1014,
      "kach": 1015,
      "▁posia": 1016,
      "▁musi": 1017,
      "▁sa": 1018,
      "mal": 1019,
      "▁Spraw": 1020,
      "owany": 1021,
      "▁wybrać": 1022,
      "▁Re": 1023,
      "▁cią": 1024,
      "▁two": 1025,
      "pular": 1026,
      "▁zdję": 1027,
      "▁Jed": 1028,
      "▁nim": 1029,
      ",\n": 1030,
      "▁działa": 1031,
      "▁pas": 1032,
      "sku": 1033,
      "łowie": 1034,
      "▁:": 1035,
      "▁Jeśli": 1036,
      "▁mogą": 1037,
      "▁sku": 1038,
      "▁cię": 1039,
      "▁Ro": 1040,
      "wania": 1041,
      "▁Ś": 1042,
      "▁arty": 1043,
      "▁spe": 1044,
      "łym": 1045,
      "prawdę": 1046,
      "▁słucha": 1047,
      "▁Przy": 1048,
      "tera": 1049,
      "łam,": 1050,
      "▁włas": 1051,
      "kry": 1052,
      "naj": 1053,
      "ła,": 1054,
      "ka.": 1055,
      "▁taki": 1056,
      "▁cia": 1057,
      "tro": 1058,
      "czenie": 1059,
      "owni": 1060,
      "nić": 1061,
      "▁każde": 1062,
      "▁których": 1063,
      "lą": 1064,
      "▁Dla": 1065,
      "▁wielu": 1066,
      "czego": 1067,
      "▁podczas": 1068,
      "▁myś": 1069,
      "tr": 1070,
      "▁Pro": 1071,
      "▁Wie": 1072,
      "▁pol": 1073,
      "▁wą": 1074,
      "▁si": 1075,
      "▁Tak": 1076,
      "▁bra": 1077,
      "▁będą": 1078,
      "▁wiem": 1079,
      "▁trochę": 1080,
      "tami": 1081,
      "▁często": 1082,
      "rzysta": 1083,
      "maga": 1084,
      "dział": 1085,
      "pew": 1086,
      "cie,": 1087,
      "▁jedno": 1088,
      "▁przypad": 1089,
      "ur": 1090,
      "▁gru": 1091,
      "▁dom": 1092,
      "nią": 1093,
      "▁so": 1094,
      "bardziej": 1095,
      "▁per": 1096,
      "dzę": 1097,
      "▁rodza": 1098,
      "▁powiet": 1099,
      "star": 1100,
      "strze": 1101,
      "chu": 1102,
      "god": 1103,
      "▁ide": 1104,
      "▁innych": 1105,
      "ców": 1106,
      "tak": 1107,
      "▁wygląda": 1108,
      "mniej": 1109,
      "▁stu": 1110,
      "chy": 1111,
      "fe": 1112,
      "gól": 1113,
      "kła": 1114,
      "wał": 1115,
      "▁pły": 1116,
      "▁kto": 1117,
      "nia,": 1118,
      "▁chwi": 1119,
      "▁pomy": 1120,
      "▁6": 1121,
      "▁okre": 1122,
      "▁ru": 1123,
      "▁In": 1124,
      "lika": 1125,
      "wój": 1126,
      "dać": 1127,
      "ku,": 1128,
      ".\nD": 1129,
      "den": 1130,
      "ale": 1131,
      "▁dzięki": 1132,
      "któ": 1133,
      "▁zło": 1134,
      "▁czym": 1135,
      "▁star": 1136,
      "▁wybo": 1137,
      "▁an": 1138,
      "wier": 1139,
      "czny": 1140,
      "▁zach": 1141,
      "▁chodzi": 1142,
      "▁stra": 1143,
      "gdy": 1144,
      "glę": 1145,
      "powia": 1146,
      "▁użytk": 1147,
      "▁lep": 1148,
      "dar": 1149,
      "▁temu": 1150,
      "▁Wi": 1151,
      "try": 1152,
      "▁peł": 1153,
      "▁mieć": 1154,
      "▁Jest": 1155,
      "▁cieka": 1156,
      "rt": 1157,
      "am,": 1158,
      "para": 1159,
      "dia": 1160,
      "liwości": 1161,
      "▁funk": 1162,
      "▁kla": 1163,
      "logi": 1164,
      "tua": 1165,
      "▁trzy": 1166,
      "cji,": 1167,
      "▁uwagę": 1168,
      ".\nA": 1169,
      "na.": 1170,
      "▁świe": 1171,
      "▁począ": 1172,
      "▁Naj": 1173,
      "▁oczy": 1174,
      "▁kar": 1175,
      "▁telefon": 1176,
      "▁dostęp": 1177,
      "stety": 1178,
      "kre": 1179,
      "tych": 1180,
      "▁naprawdę": 1181,
      "▁wra": 1182,
      "▁niej": 1183,
      "▁czego": 1184,
      "▁Sz": 1185,
      "▁bie": 1186,
      "▁ofer": 1187,
      "▁r": 1188,
      "▁mamy": 1189,
      "▁prez": 1190,
      "▁X": 1191,
      "forma": 1192,
      "▁dlatego": 1193,
      "▁Pa": 1194,
      "\nC": 1195,
      "▁życia": 1196,
      "pro": 1197,
      "wala": 1198,
      "▁oko": 1199,
      "skich": 1200,
      "▁dużo": 1201,
      "▁skó": 1202,
      "▁sty": 1203,
      "▁najbardziej": 1204,
      "▁ani": 1205,
      "▁zdr": 1206,
      "tedy": 1207,
      "bia": 1208,
      "ce,": 1209,
      "▁świet": 1210,
      "▁dobre": 1211,
      "▁gło": 1212,
      "▁zde": 1213,
      "czes": 1214,
      "niejsze": 1215,
      "chni": 1216,
      "sz,": 1217,
      "▁mło": 1218,
      "▁zie": 1219,
      "toś": 1220,
      "dzenie": 1221,
      "óź": 1222,
      "rom": 1223,
      "▁wiel": 1224,
      "bę": 1225,
      "szta": 1226,
      "nąć": 1227,
      "ud": 1228,
      "▁for": 1229,
      "le,": 1230,
      "▁rę": 1231,
      "▁cy": 1232,
      "liza": 1233,
      "raj": 1234,
      "▁wia": 1235,
      "▁Sprawdź": 1236,
      "▁razem": 1237,
      "▁prostu": 1238,
      "\nNa": 1239,
      "▁waż": 1240,
      "▁inte": 1241,
      "owana": 1242,
      "▁posta": 1243,
      "łego": 1244,
      "▁pamię": 1245,
      "▁pyta": 1246,
      "cznej": 1247,
      "▁efek": 1248,
      "▁produkty": 1249,
      "▁kole": 1250,
      "▁sł": 1251,
      "▁moc": 1252,
      "▁pięk": 1253,
      "▁dobry": 1254,
      "log": 1255,
      "▁związ": 1256,
      "ri": 1257,
      "▁artyku": 1258,
      "▁kos": 1259,
      "▁ostatni": 1260,
      "ą,": 1261,
      "▁Ci": 1262,
      "▁sło": 1263,
      "oby": 1264,
      "▁pół": 1265,
      "▁dosta": 1266,
      "▁szu": 1267,
      "ta,": 1268,
      "cki": 1269,
      "rób": 1270,
      "▁czyli": 1271,
      "▁ideal": 1272,
      "▁posiada": 1273,
      "my,": 1274,
      "trze": 1275,
      "cyd": 1276,
      "ód": 1277,
      "stor": 1278,
      "cji.": 1279,
      "▁sze": 1280,
      "cjal": 1281,
      "▁para": 1282,
      "▁trud": 1283,
      "▁kró": 1284,
      "cznego": 1285,
      "▁problem": 1286,
      "gląd": 1287,
      "▁one": 1288,
      "▁konie": 1289,
      "▁ponie": 1290,
      "▁czu": 1291,
      "▁wszystkim": 1292,
      "tury": 1293,
      "duje": 1294,
      "sła": 1295,
      "ers": 1296,
      "▁dziewczy": 1297,
      "cją": 1298,
      "▁wzglę": 1299,
      "▁były": 1300,
      "częście": 1301,
      "▁zaba": 1302,
      "żą": 1303,
      "▁ludzi": 1304,
      "▁każdy": 1305,
      "dziel": 1306,
      "teria": 1307,
      "pisane": 1308,
      "li,": 1309,
      "zji": 1310,
      "▁ju": 1311,
      "▁godzi": 1312,
      "łość": 1313,
      "wanie": 1314,
      "c,": 1315,
      "pisa": 1316,
      "▁śmie": 1317,
      ".\nZ": 1318,
      "▁człowie": 1319,
      "▁jedy": 1320,
      "▁niego": 1321,
      "▁mniej": 1322,
      "▁zad": 1323,
      "▁ktoś": 1324,
      "▁uro": 1325,
      "▁No": 1326,
      "żyć": 1327,
      "żu": 1328,
      "ge": 1329,
      "i,": 1330,
      "!!": 1331,
      "stą": 1332,
      "▁tym,": 1333,
      "ł.": 1334,
      "▁wyso": 1335,
      "▁jeden": 1336,
      "czki": 1337,
      "tar": 1338,
      "tery": 1339,
      "łabym": 1340,
      "▁par": 1341,
      "▁inter": 1342,
      "zo": 1343,
      "cześ": 1344,
      "▁eksp": 1345,
      "▁właści": 1346,
      "▁szybko": 1347,
      "▁powietrza": 1348,
      "▁pora": 1349,
      "▁dzień": 1350,
      "\nJ": 1351,
      "tal": 1352,
      "▁głów": 1353,
      "▁należy": 1354,
      "▁sytua": 1355,
      "trz": 1356,
      "▁pan": 1357,
      "cam": 1358,
      "▁informa": 1359,
      "▁podob": 1360,
      "▁żad": 1361,
      "▁której": 1362,
      "▁Ar": 1363,
      "▁zapew": 1364,
      "▁jeste": 1365,
      "kro": 1366,
      "gł": 1367,
      "▁którzy": 1368,
      "▁popular": 1369,
      "▁dwa": 1370,
      "t:": 1371,
      "▁zapo": 1372,
      "▁10": 1373,
      "wić": 1374,
      "byt": 1375,
      "▁Two": 1376,
      "▁choć": 1377,
      "▁drugie": 1378,
      "▁coraz": 1379,
      ".\n-": 1380,
      "▁przygot": 1381,
      "dzien": 1382,
      "▁zar": 1383,
      "owe,": 1384,
      "rek": 1385,
      "rwa": 1386,
      "stra": 1387,
      "dł": 1388,
      "▁dni": 1389,
      "liz": 1390,
      "tw": 1391,
      "he": 1392,
      "▁takich": 1393,
      "per": 1394,
      "szcz": 1395,
      "zuje": 1396,
      "▁obec": 1397,
      "▁Mar": 1398,
      "▁spa": 1399,
      "śla": 1400,
      "świa": 1401,
      "ple": 1402,
      "▁wtedy": 1403,
      "dowane": 1404,
      "▁świat": 1405,
      "▁odpowiedni": 1406,
      "▁War": 1407,
      "sor": 1408,
      "\".": 1409,
      "▁mogę": 1410,
      "▁aż": 1411,
      "▁Ż": 1412,
      "▁ona": 1413,
      ".\nNie": 1414,
      "▁kilku": 1415,
      "▁se": 1416,
      "▁umie": 1417,
      "▁Może": 1418,
      "tam": 1419,
      "ser": 1420,
      "▁pla": 1421,
      "ków,": 1422,
      "▁7": 1423,
      "sów": 1424,
      "▁V": 1425,
      "piero": 1426,
      "tycznie": 1427,
      "emu": 1428,
      "▁kre": 1429,
      "che": 1430,
      "prasz": 1431,
      "trzyma": 1432,
      "▁życie": 1433,
      "wykle": 1434,
      "▁prak": 1435,
      "▁między": 1436,
      "ciw": 1437,
      "▁15": 1438,
      "▁inne": 1439,
      "▁sprzę": 1440,
      "▁czasie": 1441,
      "▁zu": 1442,
      "ami,": 1443,
      "▁np.": 1444,
      "nia.": 1445,
      "rum": 1446,
      "▁dw": 1447,
      "▁miałam": 1448,
      "lak": 1449,
      "▁Ty": 1450,
      "i.": 1451,
      "▁potem": 1452,
      "nd": 1453,
      "▁kosme": 1454,
      "▁pozwala": 1455,
      "▁dobra": 1456,
      "tania": 1457,
      "▁temat": 1458,
      "▁rzeczy": 1459,
      "▁ozna": 1460,
      "skona": 1461,
      "▁nada": 1462,
      "stana": 1463,
      "▁masz": 1464,
      "▁stanie": 1465,
      "s.": 1466,
      "▁Le": 1467,
      "dzieć": 1468,
      "▁sama": 1469,
      "onych": 1470,
      "nic": 1471,
      "gro": 1472,
      "▁pozosta": 1473,
      "▁potra": 1474,
      "________________": 1475,
      "ytat:": 1476,
      "mina": 1477,
      "skim": 1478,
      "▁Cie": 1479,
      "k.": 1480,
      "więk": 1481,
      "▁smartf": 1482,
      "s,": 1483,
      "tural": 1484,
      "▁uda": 1485,
      "▁cha": 1486,
      "cznym": 1487,
      "ło,": 1488,
      "▁poli": 1489,
      "▁sza": 1490,
      "sem": 1491,
      "śni": 1492,
      "wycza": 1493,
      "stanawia": 1494,
      "zn": 1495,
      "di": 1496,
      "▁naz": 1497,
      "stawie": 1498,
      "\nW": 1499,
      "▁twa": 1500,
      "▁dość": 1501,
      "▁pom": 1502,
      "ję,": 1503,
      "prowa": 1504,
      "wiel": 1505,
      "óż": 1506,
      "▁elemen": 1507,
      "pl": 1508,
      "scy": 1509,
      "▁kro": 1510,
      "▁znajdziesz": 1511,
      "stwo": 1512,
      "▁be": 1513,
      "▁perf": 1514,
      "łej": 1515,
      "__________________": 1516,
      "laz": 1517,
      "ti": 1518,
      "▁8": 1519,
      "daw": 1520,
      "miast": 1521,
      "▁tyle": 1522,
      "dłu": 1523,
      "rgani": 1524,
      "▁fak": 1525,
      "kar": 1526,
      "▁Ni": 1527,
      "owała": 1528,
      "nad": 1529,
      "łat": 1530,
      "▁naszym": 1531,
      "▁zdecyd": 1532,
      "resu": 1533,
      "▁znale": 1534,
      "ku.": 1535,
      "▁histor": 1536,
      "komen": 1537,
      "\nP": 1538,
      "liwe": 1539,
      "▁urządzenia": 1540,
      "czną": 1541,
      "▁wpły": 1542,
      "▁póź": 1543,
      "▁obraz": 1544,
      "▁kra": 1545,
      "▁nigdy": 1546,
      "cem": 1547,
      "gle": 1548,
      "▁chło": 1549,
      "▁zakup": 1550,
      "kol": 1551,
      "gna": 1552,
      "siaj": 1553,
      "▁poka": 1554,
      "▁swoim": 1555,
      "świet": 1556,
      "▁py": 1557,
      "▁Dzięki": 1558,
      "▁dziś": 1559,
      "ytat:\nNa": 1560,
      "tora": 1561,
      "fa": 1562,
      "ytat:\nNapisane": 1563,
      "pełnie": 1564,
      "▁lepiej": 1565,
      "▁środ": 1566,
      "▁zrobić": 1567,
      "▁blo": 1568,
      "cześniej": 1569,
      "ien": 1570,
      "▁codzien": 1571,
      "czyna": 1572,
      "▁jakieś": 1573,
      "gar": 1574,
      ".\nO": 1575,
      "▁pewno": 1576,
      "▁By": 1577,
      "\",": 1578,
      "mawia": 1579,
      "gą": 1580,
      "▁mieszka": 1581,
      "owu": 1582,
      "be": 1583,
      "▁wszystkich": 1584,
      "ren": 1585,
      "▁długo": 1586,
      "▁cen": 1587,
      "▁tutaj": 1588,
      "▁apara": 1589,
      "▁muzy": 1590,
      "ń,": 1591,
      "pada": 1592,
      "▁ile": 1593,
      "▁skła": 1594,
      "ciaż": 1595,
      "▁nadzie": 1596,
      "▁jakiś": 1597,
      "▁producen": 1598,
      "20": 1599,
      "▁miejsca": 1600,
      "▁będę": 1601,
      "▁prowa": 1602,
      "żeli": 1603,
      "owałam": 1604,
      "ul": 1605,
      "ho": 1606,
      "u.": 1607,
      "▁współ": 1608,
      "czka": 1609,
      "dów": 1610,
      "tuje": 1611,
      "ke": 1612,
      "▁tę": 1613,
      "▁dnia": 1614,
      "▁poko": 1615,
      "ten": 1616,
      "\nD": 1617,
      "▁interne": 1618,
      "anego": 1619,
      "▁cięż": 1620,
      "cie.": 1621,
      "stępu": 1622,
      "▁wsze": 1623,
      "▁kompu": 1624,
      "▁jakości": 1625,
      "▁różnych": 1626,
      "▁minu": 1627,
      "stos": 1628,
      "▁czyta": 1629,
      "▁film": 1630,
      "owaniu": 1631,
      "▁Bar": 1632,
      "▁wspo": 1633,
      "wiera": 1634,
      "▁swoją": 1635,
      "▁tego,": 1636,
      "stwa": 1637,
      "jącym": 1638,
      "ans": 1639,
      "czna": 1640,
      "rócić": 1641,
      "▁organi": 1642,
      "gry": 1643,
      "▁łą": 1644,
      "\nM": 1645,
      "ner": 1646,
      "▁pozna": 1647,
      "pera": 1648,
      "aki": 1649,
      "▁pozio": 1650,
      "cież": 1651,
      "ńczy": 1652,
      "stro": 1653,
      "▁daw": 1654,
      "▁Ra": 1655,
      "▁wypo": 1656,
      "kę,": 1657,
      "▁osoby": 1658,
      "komendowane": 1659,
      "łę": 1660,
      "▁zmia": 1661,
      ">>": 1662,
      "pia": 1663,
      "mar": 1664,
      "▁miejsce": 1665,
      "da,": 1666,
      "▁którego": 1667,
      "▁miał": 1668,
      "łaś": 1669,
      "▁tłu": 1670,
      ".\nS": 1671,
      "▁pozy": 1672,
      "czni": 1673,
      "dy,": 1674,
      "▁moim": 1675,
      "bór": 1676,
      "▁porów": 1677,
      "\nA": 1678,
      "now": 1679,
      "▁Ł": 1680,
      "w.": 1681,
      "▁bli": 1682,
      "nka": 1683,
      "▁it": 1684,
      "dym": 1685,
      "▁em": 1686,
      "▁przypadku": 1687,
      "stru": 1688,
      "▁ład": 1689,
      "damy": 1690,
      "śród": 1691,
      "cych": 1692,
      "▁bud": 1693,
      "▁cały": 1694,
      "▁faj": 1695,
      "owanych": 1696,
      "▁wol": 1697,
      "pre": 1698,
      "jąca": 1699,
      "kiej": 1700,
      "roni": 1701,
      "ano": 1702,
      "▁możesz": 1703,
      "▁poprze": 1704,
      "ków.": 1705,
      "▁200": 1706,
      "▁zoba": 1707,
      "zi": 1708,
      "twa": 1709,
      "dek": 1710,
      "▁nowo": 1711,
      "onal": 1712,
      "▁dodatk": 1713,
      "▁Li": 1714,
      "▁raczej": 1715,
      "▁kosz": 1716,
      "▁ki": 1717,
      "▁możemy": 1718,
      "▁początku": 1719,
      "<<": 1720,
      "żenie": 1721,
      "▁zain": 1722,
      "▁mój": 1723,
      "ta.": 1724,
      "ly": 1725,
      "ństwa": 1726,
      "▁charak": 1727,
      "--": 1728,
      "ry,": 1729,
      "▁taka": 1730,
      "▁przeciw": 1731,
      "▁swoich": 1732,
      "....": 1733,
      "▁szuka": 1734,
      "▁pewnością": 1735,
      "▁ję": 1736,
      "▁przyjem": 1737,
      "pod": 1738,
      "▁cu": 1739,
      "▁razie": 1740,
      "szko": 1741,
      "ń.": 1742,
      "wod": 1743,
      "łych": 1744,
      "west": 1745,
      "▁fir": 1746,
      "▁zapach": 1747,
      "tne": 1748,
      "ty.": 1749,
      "▁obie": 1750,
      "▁Pie": 1751,
      "▁bezpie": 1752,
      "n,": 1753,
      "▁szczegól": 1754,
      "▁potrzeb": 1755,
      "▁rynku": 1756,
      "li.": 1757,
      "▁prac": 1758,
      "▁został": 1759,
      "owią": 1760,
      "sce": 1761,
      "▁momen": 1762,
      "▁zaku": 1763,
      "▁dziecko": 1764,
      "▁Wa": 1765,
      "tan": 1766,
      "raż": 1767,
      "łów": 1768,
      "ły,": 1769,
      "▁zim": 1770,
      "je,": 1771,
      "ją,": 1772,
      "jesz": 1773,
      "mnia": 1774,
      "ek,": 1775,
      "IE": 1776,
      "▁ar": 1777,
      "▁zamie": 1778,
      "ształ": 1779,
      "▁strony": 1780,
      "nk": 1781,
      "▁przyja": 1782,
      "ura": 1783,
      "nych,": 1784,
      "▁dokład": 1785,
      "▁mó": 1786,
      "ła.": 1787,
      "▁Jednak": 1788,
      "▁dowie": 1789,
      "przy": 1790,
      "tów.": 1791,
      "u,": 1792,
      "▁ranki": 1793,
      "▁il": 1794,
      "▁takiego": 1795,
      "▁bia": 1796,
      "▁ź": 1797,
      "▁doskona": 1798,
      "świad": 1799,
      "▁18": 1800,
      "▁zbyt": 1801,
      "▁wal": 1802,
      "cenia": 1803,
      "ówno": 1804,
      "cy,": 1805,
      "rii": 1806,
      "▁specjal": 1807,
      "o.": 1808,
      "▁kupić": 1809,
      "óle": 1810,
      "▁same": 1811,
      "▁wykon": 1812,
      "▁później": 1813,
      "▁Cho": 1814,
      "wyczaj": 1815,
      "▁natural": 1816,
      "▁ap": 1817,
      "wiąza": 1818,
      "▁tre": 1819,
      "tomiast": 1820,
      "tyku": 1821,
      "▁typu": 1822,
      "▁włosy": 1823,
      "▁nor": 1824,
      "źć": 1825,
      "▁pisa": 1826,
      "▁jaką": 1827,
      "▁którą": 1828,
      "▁miesią": 1829,
      "▁wcześniej": 1830,
      "▁czasem": 1831,
      "ami.": 1832,
      "▁stos": 1833,
      "ią": 1834,
      "szka": 1835,
      "▁przysz": 1836,
      "▁dopiero": 1837,
      "redni": 1838,
      "▁ne": 1839,
      "tować": 1840,
      "lepiej": 1841,
      "c.": 1842,
      "▁rozpo": 1843,
      "stnie": 1844,
      "▁cał": 1845,
      "owych.": 1846,
      "ścia": 1847,
      "▁zaj": 1848,
      "ąd": 1849,
      "uro": 1850,
      "owy,": 1851,
      "anym": 1852,
      "▁części": 1853,
      "▁zwie": 1854,
      "▁kry": 1855,
      "ok": 1856,
      "▁eksper": 1857,
      "chodzą": 1858,
      "mę": 1859,
      "▁miała": 1860,
      "owarzy": 1861,
      "▁sprze": 1862,
      "▁sen": 1863,
      "kolwie": 1864,
      "▁9": 1865,
      "leg": 1866,
      "jcie": 1867,
      "lubi": 1868,
      "▁zdjęcia": 1869,
      "ck": 1870,
      "▁ludzie": 1871,
      "▁Ta": 1872,
      "<<U": 1873,
      "▁Mam": 1874,
      "▁większ": 1875,
      "liwość": 1876,
      "▁plan": 1877,
      "▁at": 1878,
      "▁ponieważ": 1879,
      "▁materia": 1880,
      "▁języ": 1881,
      "min": 1882,
      "▁samocho": 1883,
      "▁parame": 1884,
      "▁końcu": 1885,
      "▁smartfon": 1886,
      "▁swojej": 1887,
      "dom": 1888,
      "▁Lu": 1889,
      "tu,": 1890,
      "▁względu": 1891,
      "▁urządze": 1892,
      "▁przede": 1893,
      "la,": 1894,
      "owych,": 1895,
      "czone": 1896,
      "▁decy": 1897,
      "menta": 1898,
      "stawia": 1899,
      "rząd": 1900,
      "tów,": 1901,
      "em,": 1902,
      "iedy": 1903,
      "▁każdego": 1904,
      "ster": 1905,
      "lni": 1906,
      "cię": 1907,
      "kon": 1908,
      "▁skute": 1909,
      "▁pierwszy": 1910,
      "ło.": 1911,
      "▁Kup": 1912,
      "▁...": 1913,
      "▁podoba": 1914,
      "tual": 1915,
      "lub": 1916,
      "▁oczywiście": 1917,
      "▁dź": 1918,
      "ciąg": 1919,
      "▁tak,": 1920,
      "róci": 1921,
      "lić": 1922,
      "▁każdym": 1923,
      "\nT": 1924,
      "nosi": 1925,
      "▁ł": 1926,
      "ve": 1927,
      "▁nasze": 1928,
      "▁mieszk": 1929,
      "▁połą": 1930,
      "starczy": 1931,
      "tura": 1932,
      "nem": 1933,
      "lnie": 1934,
      "▁lubi": 1935,
      "ę,": 1936,
      "▁Roz": 1937,
      "powiadamy": 1938,
      "stawi": 1939,
      "▁Cene": 1940,
      "▁razy": 1941,
      "▁regu": 1942,
      "omi": 1943,
      "▁gro": 1944,
      "▁bym": 1945,
      "▁pła": 1946,
      "lik": 1947,
      "▁prezen": 1948,
      "▁jednym": 1949,
      "der": 1950,
      "▁nieco": 1951,
      "▁czeka": 1952,
      "grani": 1953,
      "por": 1954,
      "łania": 1955,
      "▁komu": 1956,
      "▁Rekomendowane": 1957,
      "rze,": 1958,
      ".\nJe": 1959,
      "▁ponad": 1960,
      "kolwiek": 1961,
      "gan": 1962,
      "▁przykład": 1963,
      "▁zasa": 1964,
      "▁niektó": 1965,
      "▁niestety": 1966,
      "tu.": 1967,
      "▁Wo": 1968,
      "▁następ": 1969,
      "▁wymaga": 1970,
      "▁kam": 1971,
      "mart": 1972,
      "▁prawdzi": 1973,
      "bud": 1974,
      "▁takim": 1975,
      "▁trak": 1976,
      "man": 1977,
      "▁odpowiednie": 1978,
      "▁stop": 1979,
      "▁moja": 1980,
      "▁czar": 1981,
      "sych": 1982,
      "▁auto": 1983,
      "▁gó": 1984,
      "stanowi": 1985,
      "▁chę": 1986,
      "lem": 1987,
      "▁zarówno": 1988,
      "▁kur": 1989,
      "▁musia": 1990,
      "rzenia": 1991,
      "▁kieru": 1992,
      "▁trwa": 1993,
      "łeś": 1994,
      "robi": 1995,
      "▁ciep": 1996,
      "mi.": 1997,
      "▁spotka": 1998,
      "ot": 1999,
      "▁mojej": 2000,
      "▁system": 2001,
      "▁tez": 2002,
      "▁ogrom": 2003,
      "▁prawie": 2004,
      "ce.": 2005,
      "▁znalaz": 2006,
      "▁miejscu": 2007,
      "szyscy": 2008,
      "pozy": 2009,
      "▁Jakie": 2010,
      "tek,": 2011,
      "▁skle": 2012,
      "ską": 2013,
      "owe.": 2014,
      "▁smak": 2015,
      "▁dzisiaj": 2016,
      "żczy": 2017,
      "ron": 2018,
      "▁kosmety": 2019,
      "\nw": 2020,
      "ński": 2021,
      ".\nPo": 2022,
      "▁My": 2023,
      "▁wydaj": 2024,
      "▁leka": 2025,
      "lek": 2026,
      ".\nK": 2027,
      "cale": 2028,
      "▁lata": 2029,
      "▁życiu": 2030,
      "▁obu": 2031,
      "cześnie": 2032,
      "▁Wszyst": 2033,
      "▁licz": 2034,
      "ą.": 2035,
      "ństwo": 2036,
      "▁Mu": 2037,
      "▁Ob": 2038,
      "▁kolor": 2039,
      "ni,": 2040,
      "resz": 2041,
      "czności": 2042,
      "▁woj": 2043,
      "▁Pi": 2044,
      "▁elekt": 2045,
      "żenia": 2046,
      "▁drugi": 2047,
      "rp": 2048,
      "j,": 2049,
      "mi,": 2050,
      "▁tema": 2051,
      "muje": 2052,
      "▁sztu": 2053,
      "towa": 2054,
      "▁juz": 2055,
      "▁Dzie": 2056,
      "▁wieku": 2057,
      "▁wymie": 2058,
      "▁potrafi": 2059,
      "▁zau": 2060,
      "▁swojego": 2061,
      "▁latach": 2062,
      "▁wszel": 2063,
      "▁gar": 2064,
      "▁ogóle": 2065,
      "▁Dzi": 2066,
      "▁podstaw": 2067,
      "kowi": 2068,
      "szyć": 2069,
      "duk": 2070,
      "wę": 2071,
      "▁dalej": 2072,
      "▁jakoś": 2073,
      "▁przyj": 2074,
      "▁sposob": 2075,
      "▁Ba": 2076,
      "raca": 2077,
      "▁oznacza": 2078,
      "▁katego": 2079,
      "▁wody": 2080,
      "▁znaleźć": 2081,
      "▁poszu": 2082,
      "wal": 2083,
      "moż": 2084,
      "▁społe": 2085,
      "stąpi": 2086,
      "jącego": 2087,
      "▁Sam": 2088,
      "▁brak": 2089,
      "▁śmier": 2090,
      "▁ekra": 2091,
      "▁pojawia": 2092,
      "▁wido": 2093,
      "nien": 2094,
      "kich": 2095,
      "▁moni": 2096,
      "▁jakby": 2097,
      "▁dop": 2098,
      "▁pier": 2099,
      "kuje": 2100,
      "▁powsta": 2101,
      "lenie": 2102,
      "▁jaka": 2103,
      "▁autor": 2104,
      "kiego": 2105,
      "mnie": 2106,
      "wam": 2107,
      "▁poni": 2108,
      "kim": 2109,
      "łaszcza": 2110,
      "czyta": 2111,
      "ngu": 2112,
      "▁klasy": 2113,
      "ną,": 2114,
      "▁wąt": 2115,
      "▁wska": 2116,
      "togra": 2117,
      "▁dziecka": 2118,
      "rzyć": 2119,
      "ania,": 2120,
      "▁tygo": 2121,
      "sam": 2122,
      "▁Jaki": 2123,
      "obra": 2124,
      "wat": 2125,
      "▁wyposa": 2126,
      "▁pracu": 2127,
      "▁pry": 2128,
      "▁jas": 2129,
      "wą": 2130,
      "▁zako": 2131,
      "▁Artyku": 2132,
      "▁wiem,": 2133,
      "▁Gdy": 2134,
      "▁nowe": 2135,
      "▁Polsce": 2136,
      "▁zaczyna": 2137,
      "▁model": 2138,
      "goś": 2139,
      "bez": 2140,
      "▁stosu": 2141,
      "▁ką": 2142,
      "nych.": 2143,
      "▁łat": 2144,
      "▁poza": 2145,
      "ciąż": 2146,
      "▁boha": 2147,
      "▁wybiera": 2148,
      "wają": 2149,
      "▁tek": 2150,
      "cjon": 2151,
      "▁poda": 2152,
      "kę.": 2153,
      "▁kiedyś": 2154,
      "▁artykule": 2155,
      "▁Bardzo": 2156,
      "▁nasz": 2157,
      "▁rozwiąza": 2158,
      "sły": 2159,
      "▁napisa": 2160,
      "▁wyj": 2161,
      "▁;": 2162,
      "▁poś": 2163,
      "▁sły": 2164,
      "ościa": 2165,
      "▁wykona": 2166,
      "▁perfu": 2167,
      "▁chociaż": 2168,
      "▁kul": 2169,
      "▁progra": 2170,
      "tyczne": 2171,
      "▁spoko": 2172,
      "wen": 2173,
      "▁dwó": 2174,
      "hi": 2175,
      "▁pewnie": 2176,
      "ca,": 2177,
      "▁rodzaju": 2178,
      "▁delika": 2179,
      "nio": 2180,
      "rew": 2181,
      "▁proce": 2182,
      "▁zaczę": 2183,
      "▁Artykuły": 2184,
      "nach": 2185,
      "▁wyją": 2186,
      "rzo": 2187,
      "▁jakim": 2188,
      "szczy": 2189,
      "▁mimo": 2190,
      "▁dwie": 2191,
      "▁powodu": 2192,
      "▁jakość": 2193,
      "▁pani": 2194,
      "wane": 2195,
      "▁De": 2196,
      "▁część": 2197,
      "fika": 2198,
      "▁mojego": 2199,
      "▁r.": 2200,
      "rzyst": 2201,
      "ry.": 2202,
      "▁ho": 2203,
      "▁nią": 2204,
      "▁wcale": 2205,
      "...\n": 2206,
      "▁mężczy": 2207,
      "zja": 2208,
      "leż": 2209,
      "▁Są": 2210,
      "szczę": 2211,
      "▁stwo": 2212,
      "▁rozm": 2213,
      "▁Twoje": 2214,
      "▁Smart": 2215,
      "fia": 2216,
      "▁została": 2217,
      "▁ulubi": 2218,
      "▁jedynie": 2219,
      "RL": 2220,
      "▁grze": 2221,
      "▁malu": 2222,
      "▁:)": 2223,
      "▁twarzy": 2224,
      "▁doświad": 2225,
      ".\nNa": 2226,
      "▁zwrócić": 2227,
      "▁chłop": 2228,
      "▁eksperckie": 2229,
      "▁ć": 2230,
      "▁wymia": 2231,
      "▁pomie": 2232,
      "▁Kiedy": 2233,
      "▁psych": 2234,
      "niki": 2235,
      "owiem": 2236,
      "▁wybór": 2237,
      "▁100": 2238,
      "▁słuchawki": 2239,
      "l,": 2240,
      "sił": 2241,
      "▁czer": 2242,
      "tej": 2243,
      "jecha": 2244,
      "▁naszych": 2245,
      "▁Każ": 2246,
      "len": 2247,
      "ność,": 2248,
      "▁rozu": 2249,
      "▁Al": 2250,
      "▁Da": 2251,
      "kam": 2252,
      "czoraj": 2253,
      "▁myśli": 2254,
      "nego,": 2255,
      "gnie": 2256,
      "▁kup": 2257,
      "▁słuchaw": 2258,
      "▁Sprawdź,": 2259,
      "▁am": 2260,
      "\npo": 2261,
      "▁die": 2262,
      "praszamy": 2263,
      "▁ha": 2264,
      "▁zgo": 2265,
      "▁dwóch": 2266,
      "bior": 2267,
      "szenia": 2268,
      "▁korzysta": 2269,
      "▁przyda": 2270,
      "▁tą": 2271,
      "▁30": 2272,
      "▁spę": 2273,
      "dne": 2274,
      "▁pielę": 2275,
      "niejszych": 2276,
      "d.": 2277,
      "śmie": 2278,
      "▁dziw": 2279,
      "▁ubra": 2280,
      "▁oczyszcza": 2281,
      "▁zależy": 2282,
      "dam": 2283,
      "▁chcesz": 2284,
      "II": 2285,
      "▁najlepiej": 2286,
      "lne": 2287,
      "▁podej": 2288,
      "nii": 2289,
      "row": 2290,
      "▁przecież": 2291,
      "niają": 2292,
      "▁super": 2293,
      "▁sek": 2294,
      "▁zamia": 2295,
      "dania": 2296,
      "▁Was": 2297,
      "▁okaza": 2298,
      "▁zupełnie": 2299,
      "▁<<U": 2300,
      "nętrz": 2301,
      "▁Pra": 2302,
      "▁telewi": 2303,
      "▁muszę": 2304,
      "czyn": 2305,
      "▁ot": 2306,
      "▁towarzy": 2307,
      "▁Cię": 2308,
      "▁stanowi": 2309,
      "▁wśród": 2310,
      "lenia": 2311,
      "▁jednej": 2312,
      "▁ucze": 2313,
      "▁szczęście": 2314,
      "▁naszego": 2315,
      "tna": 2316,
      "wali": 2317,
      "▁potrzebu": 2318,
      "▁produkt": 2319,
      "▁warun": 2320,
      "\nCytat:\nNapisane": 2321,
      "▁usta": 2322,
      "▁sła": 2323,
      "dził": 2324,
      "fo": 2325,
      "▁znak": 2326,
      "▁najwięk": 2327,
      "▁13": 2328,
      "▁kategorii": 2329,
      "▁świę": 2330,
      "kra": 2331,
      "gen": 2332,
      "spi": 2333,
      "▁Dlatego": 2334,
      "syw": 2335,
      "▁dzien": 2336,
      "▁powinien": 2337,
      "▁przej": 2338,
      "▁mało": 2339,
      "▁proje": 2340,
      "▁swój": 2341,
      ".\nJa": 2342,
      "\nJa": 2343,
      "struk": 2344,
      "▁pomocą": 2345,
      "▁?": 2346,
      "domo": 2347,
      "▁dlaczego": 2348,
      "▁Tu": 2349,
      "ciel": 2350,
      "chno": 2351,
      "▁kwest": 2352,
      "▁zawiera": 2353,
      "▁byłam": 2354,
      "teres": 2355,
      "▁usu": 2356,
      "jącej": 2357,
      "▁sumie": 2358,
      ".\nB": 2359,
      "śnia": 2360,
      "kom": 2361,
      "kiem,": 2362,
      "owy.": 2363,
      "jęcia": 2364,
      "▁14": 2365,
      "▁wygod": 2366,
      "lę,": 2367,
      "▁stara": 2368,
      ".\nTo": 2369,
      "zje": 2370,
      "naczej": 2371,
      "▁internet": 2372,
      "jak": 2373,
      "▁powa": 2374,
      "▁Zoba": 2375,
      "czony": 2376,
      "▁około": 2377,
      "▁publi": 2378,
      "▁zastanawia": 2379,
      "tym": 2380,
      "cer": 2381,
      "▁normal": 2382,
      "\nz": 2383,
      "▁interesu": 2384,
      "jącą": 2385,
      "▁wspól": 2386,
      "▁Pe": 2387,
      "▁Me": 2388,
      "▁isto": 2389,
      "kona": 2390,
      "dzielcz": 2391,
      "▁koniec": 2392,
      "zumie": 2393,
      "▁każdej": 2394,
      "▁okoli": 2395,
      "▁pytanie": 2396,
      "▁wers": 2397,
      "▁modeli": 2398,
      "n.": 2399,
      "▁pierwsze": 2400,
      "▁strasz": 2401,
      "▁16": 2402,
      "tyka": 2403,
      "▁lubię": 2404,
      "▁12": 2405,
      "zję": 2406,
      "▁obecnie": 2407,
      "▁Ze": 2408,
      "ut": 2409,
      "▁samym": 2410,
      "▁najważ": 2411,
      "▁różne": 2412,
      "▁najlepsze": 2413,
      "żo": 2414,
      "cach": 2415,
      "siej": 2416,
      "▁mógł": 2417,
      "▁razu": 2418,
      "▁drugiej": 2419,
      "▁organiz": 2420,
      "chi": 2421,
      "▁niepo": 2422,
      "▁Ciebie": 2423,
      "▁rad": 2424,
      "▁prezent": 2425,
      "▁wyja": 2426,
      "▁przypo": 2427,
      "▁ćwi": 2428,
      "wil": 2429,
      "tkowo": 2430,
      "nął": 2431,
      "▁ciebie": 2432,
      "▁chcę": 2433,
      "▁nimi": 2434,
      "ra,": 2435,
      "mio": 2436,
      "▁sobą": 2437,
      "▁witami": 2438,
      "▁Ceneo.": 2439,
      "▁książki": 2440,
      "ol": 2441,
      "▁różni": 2442,
      "▁kontak": 2443,
      "kość": 2444,
      "▁istnie": 2445,
      "▁Pan": 2446,
      "cep": 2447,
      "▁wart": 2448,
      "RL>>": 2449,
      "kow": 2450,
      "ką,": 2451,
      "▁aktyw": 2452,
      "vi": 2453,
      "▁zatem": 2454,
      "czeniu": 2455,
      "ing": 2456,
      "żd": 2457,
      "częściej": 2458,
      "▁fotogra": 2459,
      "▁krzy": 2460,
      "▁rok": 2461,
      "nt": 2462,
      "ją.": 2463,
      "▁komple": 2464,
      "▁mas": 2465,
      "▁Ku": 2466,
      "▁uzy": 2467,
      "bezpie": 2468,
      "▁widzia": 2469,
      ":\n": 2470,
      "wy,": 2471,
      "obie": 2472,
      "ły.": 2473,
      "▁Przed": 2474,
      "▁zł": 2475,
      "▁trzyma": 2476,
      "łem,": 2477,
      "żan": 2478,
      "▁aplika": 2479,
      "▁zało": 2480,
      "pon": 2481,
      "pto": 2482,
      "▁daje": 2483,
      "wych": 2484,
      "bię": 2485,
      "▁ły": 2486,
      "czek": 2487,
      "owanym": 2488,
      "grze": 2489,
      "▁pojawi": 2490,
      "najmniej": 2491,
      "pły": 2492,
      "zno": 2493,
      "żna": 2494,
      "▁fizy": 2495,
      "▁jedna": 2496,
      "▁atrak": 2497,
      "wa,": 2498,
      "wego": 2499,
      "▁czyn": 2500,
      "▁jesteś": 2501,
      "anej": 2502,
      "▁rozmia": 2503,
      "▁och": 2504,
      "▁pozwo": 2505,
      "▁uczu": 2506,
      "▁sprawdzi": 2507,
      "▁trafi": 2508,
      "▁końca": 2509,
      "y,": 2510,
      "wem": 2511,
      "dniej": 2512,
      "▁rozumie": 2513,
      "szczenia": 2514,
      "▁twoje": 2515,
      "sji": 2516,
      "owania.": 2517,
      "tru": 2518,
      "▁powiedzia": 2519,
      "ńskiego": 2520,
      "▁sez": 2521,
      "rach": 2522,
      "▁osób,": 2523,
      "▁got": 2524,
      "▁kuch": 2525,
      "czne,": 2526,
      "19": 2527,
      "▁)": 2528,
      "▁dokładnie": 2529,
      "cy.": 2530,
      "tory": 2531,
      "dług": 2532,
      "wej": 2533,
      "▁niezwykle": 2534,
      "▁ad": 2535,
      "▁pytania": 2536,
      "▁takiej": 2537,
      "▁naszej": 2538,
      "▁robić": 2539,
      "▁face": 2540,
      "▁opinie": 2541,
      "▁Dob": 2542,
      "▁wyboru": 2543,
      "▁zainteres": 2544,
      "wym": 2545,
      "akija": 2546,
      "owej,": 2547,
      "▁zada": 2548,
      "ować,": 2549,
      "▁inaczej": 2550,
      "wielbia": 2551,
      "▁kli": 2552,
      "nym,": 2553,
      "▁Au": 2554,
      "▁mocno": 2555,
      "zależ": 2556,
      "▁Tym": 2557,
      "roz": 2558,
      "▁bla": 2559,
      "▁mą": 2560,
      "▁pró": 2561,
      "▁typ": 2562,
      "tny": 2563,
      "\n__________________": 2564,
      "powiada": 2565,
      "▁far": 2566,
      "▁wę": 2567,
      "▁włosów": 2568,
      "▁zy": 2569,
      "ni.": 2570,
      "fony": 2571,
      "zwyczaj": 2572,
      "▁dostępne": 2573,
      "bieg": 2574,
      "kuję": 2575,
      "▁ter": 2576,
      "▁celu": 2577,
      "▁fan": 2578,
      "▁tytu": 2579,
      "▁choro": 2580,
      "▁charaktery": 2581,
      "▁zwłaszcza": 2582,
      "mach": 2583,
      "▁gdyby": 2584,
      "▁zwyk": 2585,
      "▁okreś": 2586,
      "▁moich": 2587,
      "▁modele": 2588,
      "▁rozwi": 2589,
      "▁rodzaj": 2590,
      "▁wraz": 2591,
      "▁taką": 2592,
      "prawia": 2593,
      "▁kuchni": 2594,
      "10": 2595,
      "▁wyra": 2596,
      "▁fry": 2597,
      "▁lecz": 2598,
      "▁ostatnio": 2599,
      "▁okazji": 2600,
      "ręcz": 2601,
      "▁sil": 2602,
      "▁nikt": 2603,
      "▁szero": 2604,
      "▁olej": 2605,
      "pełnia": 2606,
      "▁Zobacz": 2607,
      "▁możliwości": 2608,
      "dli": 2609,
      "▁mini": 2610,
      "ździe": 2611,
      "mow": 2612,
      "▁studia": 2613,
      "ością": 2614,
      "dy.": 2615,
      "trów": 2616,
      "▁wszyscy": 2617,
      "▁sport": 2618,
      "▁Spo": 2619,
      "onie": 2620,
      "▁znajdu": 2621,
      "▁czemu": 2622,
      "▁wydaje": 2623,
      "ności.": 2624,
      "▁ścia": 2625,
      "let": 2626,
      "Nie": 2627,
      "ką.": 2628,
      "▁innymi": 2629,
      "▁zastos": 2630,
      "▁obowią": 2631,
      "rzenie": 2632,
      "▁nu": 2633,
      "\nS": 2634,
      "▁zapro": 2635,
      "dowa": 2636,
      "▁Zapraszamy": 2637,
      "▁dopas": 2638,
      "ryka": 2639,
      "▁sporo": 2640,
      "▁tygodni": 2641,
      "▁innego": 2642,
      "ium": 2643,
      "ować.": 2644,
      "cent": 2645,
      "▁całą": 2646,
      "▁polecam": 2647,
      "ier": 2648,
      "cym": 2649,
      "▁obsłu": 2650,
      "wierdzi": 2651,
      "cego": 2652,
      "▁biu": 2653,
      "cjonal": 2654,
      "ko,": 2655,
      "ss": 2656,
      "wyż": 2657,
      "▁'": 2658,
      "▁tempera": 2659,
      "▁odci": 2660,
      "▁obja": 2661,
      "rwi": 2662,
      "▁kształ": 2663,
      "??": 2664,
      "ciem": 2665,
      "▁najlepszych": 2666,
      "▁popraw": 2667,
      "▁oto": 2668,
      "▁nadal": 2669,
      "▁ab": 2670,
      "szczo": 2671,
      "▁<<URL>>": 2672,
      "pierw": 2673,
      "▁znajom": 2674,
      "▁Oczywiście": 2675,
      "▁An": 2676,
      "ania.": 2677,
      "▁We": 2678,
      "lin": 2679,
      "▁zaczą": 2680,
      ".\nI": 2681,
      "▁szczę": 2682,
      "▁gdyż": 2683,
      "iem": 2684,
      "nios": 2685,
      "no,": 2686,
      "▁zabaw": 2687,
      "wiam": 2688,
      "▁zmieni": 2689,
      "▁Czas": 2690,
      "\nZ": 2691,
      "▁oba": 2692,
      "tyk": 2693,
      "▁ocze": 2694,
      "▁ciem": 2695,
      "▁Szu": 2696,
      "▁(w": 2697,
      "▁techno": 2698,
      "▁pomysł": 2699,
      "zne": 2700,
      "▁part": 2701,
      "ment": 2702,
      "giel": 2703,
      "pach": 2704,
      "sym": 2705,
      "and": 2706,
      "du,": 2707,
      "▁łatwo": 2708,
      "szedł": 2709,
      "pę": 2710,
      "▁obej": 2711,
      "▁wybrać?": 2712,
      "▁[": 2713,
      "cesor": 2714,
      "▁por": 2715,
      "ks": 2716,
      "▁ranking": 2717,
      "▁iż": 2718,
      "▁zmienia": 2719,
      "▁pię": 2720,
      "wnętrz": 2721,
      "▁wciąż": 2722,
      "▁przezna": 2723,
      "▁emo": 2724,
      "ot.": 2725,
      "▁punk": 2726,
      "▁Ca": 2727,
      "▁Słu": 2728,
      "ności,": 2729,
      "czył": 2730,
      "▁dzisiej": 2731,
      "możli": 2732,
      "rych": 2733,
      "wu": 2734,
      "▁pę": 2735,
      "spół": 2736,
      "▁zadowo": 2737,
      "▁przestrze": 2738,
      "▁sprawia": 2739,
      "sti": 2740,
      "myś": 2741,
      "▁bowiem": 2742,
      "▁wystarczy": 2743,
      "▁szczególnie": 2744,
      "▁pogo": 2745,
      "▁gi": 2746,
      "▁wyborem": 2747,
      "▁powinna": 2748,
      "▁odży": 2749,
      "łow": 2750,
      "▁mak": 2751,
      "go,": 2752,
      "▁Warsza": 2753,
      "▁trady": 2754,
      "owymi": 2755,
      "znok": 2756,
      "▁gu": 2757,
      "wiej": 2758,
      "▁doro": 2759,
      "▁La": 2760,
      "niem.": 2761,
      "▁opowie": 2762,
      "▁forum": 2763,
      "▁szk": 2764,
      "dro": 2765,
      "\nO": 2766,
      "▁Teraz": 2767,
      "owej.": 2768,
      "gina": 2769,
      "▁wrze": 2770,
      "▁większość": 2771,
      "▁maja": 2772,
      "▁danych": 2773,
      "ski,": 2774,
      "▁pomaga": 2775,
      "tyczą": 2776,
      "▁ska": 2777,
      "▁ple": 2778,
      "▁głównie": 2779,
      "wór": 2780,
      "▁Jeżeli": 2781,
      "ci,": 2782,
      "▁prób": 2783,
      "▁ban": 2784,
      "▁papie": 2785,
      "▁nadzieję,": 2786,
      "ca.": 2787,
      "r.": 2788,
      "▁zamk": 2789,
      "le.": 2790,
      "▁gry": 2791,
      "▁Ceneo.pl": 2792,
      "▁zaraz": 2793,
      "▁poczu": 2794,
      "▁zre": 2795,
      "ców,": 2796,
      "\nNie": 2797,
      "▁znajduje": 2798,
      "ary": 2799,
      "▁pracę": 2800,
      "▁salo": 2801,
      ".\nMo": 2802,
      "▁wielo": 2803,
      "▁rek": 2804,
      "▁pielęgna": 2805,
      "oo": 2806,
      "▁sym": 2807,
      "ę.": 2808,
      "▁jedną": 2809,
      "podob": 2810,
      "▁miasta": 2811,
      "▁składni": 2812,
      "▁księ": 2813,
      "▁rzu": 2814,
      "▁Kon": 2815,
      "▁dotyczą": 2816,
      "piera": 2817,
      "▁17": 2818,
      "▁Sta": 2819,
      "▁znacznie": 2820,
      "sięcy": 2821,
      "em.": 2822,
      "du.": 2823,
      "łka": 2824,
      "▁spokoj": 2825,
      "▁zauwa": 2826,
      "iędzy": 2827,
      "▁zależ": 2828,
      "▁musisz": 2829,
      "kać": 2830,
      "▁wiadomo": 2831,
      "▁stronie": 2832,
      "▁jednocześnie": 2833,
      "ciąga": 2834,
      "kowa": 2835,
      "▁komfor": 2836,
      "▁zdoby": 2837,
      "dzieć,": 2838,
      "▁konkre": 2839,
      "dzone": 2840,
      "\nK": 2841,
      "▁25": 2842,
      "dnia": 2843,
      "ną.": 2844,
      "▁rozwo": 2845,
      "▁stylu": 2846,
      "prac": 2847,
      "▁ok.": 2848,
      "▁nauczy": 2849,
      "▁propozy": 2850,
      "kowe": 2851,
      "las": 2852,
      "▁Sk": 2853,
      "▁miejsc": 2854,
      "cje,": 2855,
      "▁So": 2856,
      "ot.:": 2857,
      "wała": 2858,
      "▁się.": 2859,
      "▁table": 2860,
      "stów": 2861,
      "ber": 2862,
      "▁robo": 2863,
      "\nna": 2864,
      "▁głę": 2865,
      "▁eg": 2866,
      "▁paznok": 2867,
      "▁ogląda": 2868,
      "▁słowa": 2869,
      "▁ucie": 2870,
      "▁was": 2871,
      "▁będziesz": 2872,
      "ler": 2873,
      "▁rzecz": 2874,
      "kowane": 2875,
      "wan": 2876,
      "▁prawda": 2877,
      "▁lapto": 2878,
      "rami": 2879,
      "nej,": 2880,
      "▁pią": 2881,
      "▁Jo": 2882,
      "▁urządzenie": 2883,
      "▁seria": 2884,
      "rót": 2885,
      "▁Pierw": 2886,
      "cyjne": 2887,
      "▁chcą": 2888,
      "kości": 2889,
      "▁wyłą": 2890,
      "▁uli": 2891,
      "▁zielo": 2892,
      "l.": 2893,
      "▁ekranu": 2894,
      "▁drze": 2895,
      "▁sklep": 2896,
      "▁Euro": 2897,
      "▁wykorzy": 2898,
      "przewod": 2899,
      "▁Niestety": 2900,
      "gło": 2901,
      "▁wnę": 2902,
      "▁kwia": 2903,
      "▁wyświet": 2904,
      "ników": 2905,
      "dzie,": 2906,
      "▁pia": 2907,
      "rój": 2908,
      "d,": 2909,
      "▁poważ": 2910,
      "łam.": 2911,
      "▁50": 2912,
      "▁Be": 2913,
      "▁natomiast": 2914,
      "▁efekt": 2915,
      "\n-": 2916,
      "gn": 2917,
      "▁uważ": 2918,
      "▁zaś": 2919,
      "▁plu": 2920,
      "▁głoś": 2921,
      "LI": 2922,
      "▁samego": 2923,
      "▁Sa": 2924,
      "żone": 2925,
      "▁trudno": 2926,
      "\nnie": 2927,
      "▁rea": 2928,
      "rócz": 2929,
      "lny": 2930,
      "czność": 2931,
      "▁jest,": 2932,
      "▁osobi": 2933,
      "▁wysz": 2934,
      "▁klu": 2935,
      "▁nowych": 2936,
      "▁wątp": 2937,
      "▁możliwość": 2938,
      "rysty": 2939,
      "▁duże": 2940,
      "▁ograni": 2941,
      "▁nowoczes": 2942,
      "ścić": 2943,
      "▁noc": 2944,
      "łon": 2945,
      "stości": 2946,
      "ek.": 2947,
      "niejszy": 2948,
      "▁zobaczy": 2949,
      "▁ludz": 2950,
      "▁widzę": 2951,
      "th": 2952,
      "niw": 2953,
      "▁ode": 2954,
      "▁sch": 2955,
      "nuje": 2956,
      "▁Warto": 2957,
      "ii,": 2958,
      "▁sprzeda": 2959,
      "▁try": 2960,
      "▁niezbę": 2961,
      "pisy": 2962,
      "bywa": 2963,
      "jemni": 2964,
      "▁innym": 2965,
      "jęt": 2966,
      "▁nowego": 2967,
      "▁Sy": 2968,
      "▁zmy": 2969,
      "▁komenta": 2970,
      "▁mówią": 2971,
      "▁książe": 2972,
      "▁roku.": 2973,
      "▁makija": 2974,
      "▁boga": 2975,
      "▁wczoraj": 2976,
      "ową,": 2977,
      "▁domu,": 2978,
      "▁wyobra": 2979,
      "kłada": 2980,
      "▁dam": 2981,
      "cjach": 2982,
      "krę": 2983,
      "▁matera": 2984,
      "▁zao": 2985,
      "oł": 2986,
      "▁podło": 2987,
      "▁jesteśmy": 2988,
      "▁mle": 2989,
      "▁użytkowni": 2990,
      "▁moze": 2991,
      "▁ogól": 2992,
      "\no": 2993,
      "▁komór": 2994,
      "▁zostały": 2995,
      "?\n-": 2996,
      "jed": 2997,
      "▁jednego": 2998,
      "wy.": 2999,
      "▁przesz": 3000,
      "▁całkiem": 3001,
      "usz": 3002,
      "▁czytel": 3003,
      "▁wyd": 3004,
      "▁Mia": 3005,
      "▁poch": 3006,
      "▁jakich": 3007,
      "▁ener": 3008,
      "▁pomi": 3009,
      "▁11": 3010,
      "▁wygląd": 3011,
      "▁owo": 3012,
      "▁rozdzielcz": 3013,
      "lig": 3014,
      "▁litera": 3015,
      "▁znowu": 3016,
      "kaza": 3017,
      "nej.": 3018,
      "▁sprawdza": 3019,
      "giem": 3020,
      "▁Szuka": 3021,
      "▁uczy": 3022,
      "▁problemu": 3023,
      "▁Fo": 3024,
      "▁podzie": 3025,
      "szenie": 3026,
      "▁atrakcyj": 3027,
      "▁kraju": 3028,
      "▁stycz": 3029,
      "▁199": 3030,
      "ić": 3031,
      "lach": 3032,
      "pisu": 3033,
      "▁Ga": 3034,
      "▁powierz": 3035,
      "▁postanowi": 3036,
      "lew": 3037,
      "noś": 3038,
      "▁zawo": 3039,
      "▁oj": 3040,
      "▁buty": 3041,
      "tują": 3042,
      "▁zdecydowanie": 3043,
      "▁zabra": 3044,
      "▁wizy": 3045,
      "▁meto": 3046,
      "sić": 3047,
      "▁świecie": 3048,
      "▁zestaw": 3049,
      "▁uko": 3050,
      "lacji": 3051,
      "▁wios": 3052,
      "▁niewiel": 3053,
      "gii": 3054,
      "óg": 3055,
      "▁kobiety": 3056,
      "▁zwykle": 3057,
      "sja": 3058,
      "▁osią": 3059,
      "▁produktów": 3060,
      "▁Ros": 3061,
      "sek": 3062,
      "▁powinny": 3063,
      "▁PO": 3064,
      "par": 3065,
      "▁inten": 3066,
      "▁umożli": 3067,
      "▁krem": 3068,
      "la.": 3069,
      "▁Y": 3070,
      "czy,": 3071,
      "▁pory": 3072,
      "▁odkry": 3073,
      "▁szpi": 3074,
      "bio": 3075,
      "▁opo": 3076,
      "cenie": 3077,
      "▁trakcie": 3078,
      "kój": 3079,
      "▁gospo": 3080,
      "ra.": 3081,
      "▁zni": 3082,
      "▁budy": 3083,
      "tur": 3084,
      ".\nZa": 3085,
      "nam": 3086,
      "▁klo": 3087,
      "▁bater": 3088,
      "▁Można": 3089,
      "▁ws": 3090,
      "▁czegoś": 3091,
      "zda": 3092,
      "▁skrzy": 3093,
      "▁Słucha": 3094,
      "▁łazie": 3095,
      "▁długi": 3096,
      "▁miłości": 3097,
      "ździer": 3098,
      "▁pierwszym": 3099,
      "▁l": 3100,
      "▁Ten": 3101,
      "▁wzro": 3102,
      "iękuję": 3103,
      "▁powinno": 3104,
      "▁śro": 3105,
      "▁m.": 3106,
      "powiedzi": 3107,
      "mów": 3108,
      "mier": 3109,
      "pię": 3110,
      "▁or": 3111,
      "▁grani": 3112,
      "▁kocha": 3113,
      ",5": 3114,
      "▁pamięta": 3115,
      "▁wraże": 3116,
      "rzystać": 3117,
      "▁pis": 3118,
      "▁pl": 3119,
      "▁czerw": 3120,
      "▁Fran": 3121,
      "▁zachwy": 3122,
      "▁smartfona": 3123,
      "▁widać": 3124,
      "symal": 3125,
      "▁krót": 3126,
      "▁suk": 3127,
      "anim": 3128,
      "22": 3129,
      "▁średni": 3130,
      "▁nawil": 3131,
      "▁kontro": 3132,
      "▁zależności": 3133,
      "▁Wam": 3134,
      "wałam": 3135,
      "AN": 3136,
      "▁0": 3137,
      "▁pal": 3138,
      "▁mat": 3139,
      "popular": 3140,
      "▁bezprzewod": 3141,
      "▁gdzieś": 3142,
      "▁sub": 3143,
      "▁krę": 3144,
      "▁polec": 3145,
      "▁utrzy": 3146,
      "asa": 3147,
      "▁listo": 3148,
      "owaliśmy": 3149,
      "us": 3150,
      "wsze": 3151,
      "▁bio": 3152,
      "▁grafi": 3153,
      "ądź": 3154,
      "▁niedo": 3155,
      "nami": 3156,
      "▁komi": 3157,
      "▁klima": 3158,
      "▁powinni": 3159,
      "▁Mie": 3160,
      "tem,": 3161,
      "▁zasko": 3162,
      "owego.": 3163,
      "▁małe": 3164,
      "▁obiek": 3165,
      "▁St": 3166,
      "▁odpowiedzi": 3167,
      "ir": 3168,
      "▁cud": 3169,
      "▁wprowa": 3170,
      "torów": 3171,
      "aa": 3172,
      "▁\n": 3173,
      "▁spod": 3174,
      "▁przynajmniej": 3175,
      "nij": 3176,
      "rze.": 3177,
      "▁paździer": 3178,
      "▁bizne": 3179,
      "▁poświę": 3180,
      "▁urodzi": 3181,
      "▁praktycznie": 3182,
      "▁smartfony": 3183,
      "▁posz": 3184,
      "▁drz": 3185,
      "▁her": 3186,
      "▁poniż": 3187,
      "czym": 3188,
      "je.": 3189,
      "----": 3190,
      "▁poradni": 3191,
      "▁proste": 3192,
      "kiem.": 3193,
      "▁całe": 3194,
      "iaomi": 3195,
      "dr": 3196,
      "ują": 3197,
      "in.": 3198,
      "starcza": 3199,
      "▁Jego": 3200,
      "▁uwielbia": 3201,
      "łoby": 3202,
      "▁Wszystko": 3203,
      "▁koch": 3204,
      "nego.": 3205,
      "▁widzi": 3206,
      "▁przeczyta": 3207,
      "prez": 3208,
      "▁skoro": 3209,
      "logii": 3210,
      "ger": 3211,
      "cja,": 3212,
      "▁postaci": 3213,
      "▁zadowolo": 3214,
      "▁lip": 3215,
      "▁loka": 3216,
      "▁bezpiecze": 3217,
      "▁kwa": 3218,
      "rygina": 3219,
      "szczenie": 3220,
      "▁gaz": 3221,
      "▁Fa": 3222,
      "▁telefonów": 3223,
      "▁ukry": 3224,
      "▁Xiaomi": 3225,
      "owali": 3226,
      "▁prawo": 3227,
      "widł": 3228,
      "ńskiej": 3229,
      "▁wyg": 3230,
      "▁możliwe": 3231,
      "▁akcesor": 3232,
      "▁bezp": 3233,
      "▁czerwo": 3234,
      "urat": 3235,
      "▁pozytyw": 3236,
      "▁włos": 3237,
      "ach": 3238,
      "ciej": 3239,
      "▁specy": 3240,
      "▁pracy,": 3241,
      "sc": 3242,
      "▁odda": 3243,
      "▁przepis": 3244,
      "łącz": 3245,
      "▁Jestem": 3246,
      "tualnie": 3247,
      "▁chciał": 3248,
      "▁udało": 3249,
      "▁w\n": 3250,
      "▁rozmawia": 3251,
      "▁chwili": 3252,
      "lien": 3253,
      "▁domu.": 3254,
      "▁opak": 3255,
      "wany": 3256,
      "▁ułat": 3257,
      "▁obser": 3258,
      "ownie": 3259,
      "czne.": 3260,
      "▁informacje": 3261,
      "▁siebie.": 3262,
      "▁głu": 3263,
      "tnych": 3264,
      "▁wej": 3265,
      "▁sio": 3266,
      "▁powy": 3267,
      "▁Go": 3268,
      "▁chwilę": 3269,
      "▁II": 3270,
      "▁ważne": 3271,
      "▁idzie": 3272,
      "▁sposoby": 3273,
      "cję,": 3274,
      "\nza": 3275,
      "ców.": 3276,
      "▁lam": 3277,
      "▁odpowiedniego": 3278,
      "▁tran": 3279,
      "▁Hi": 3280,
      "▁skończy": 3281,
      "▁miło": 3282,
      "▁poło": 3283,
      "▁opu": 3284,
      "obec": 3285,
      "▁inny": 3286,
      "ciół": 3287,
      "▁wiedzia": 3288,
      "▁wątpliwości": 3289,
      "▁eko": 3290,
      "bry": 3291,
      "▁tz": 3292,
      "▁wręcz": 3293,
      "dra": 3294,
      "sli": 3295,
      "▁znajdziemy": 3296,
      "reb": 3297,
      "▁kości": 3298,
      "▁obowiąz": 3299,
      "▁poszuki": 3300,
      "▁profe": 3301,
      "▁opowia": 3302,
      "znaj": 3303,
      "▁dźwię": 3304,
      "óki": 3305,
      "▁Słuchawki": 3306,
      "niku": 3307,
      "▁drew": 3308,
      "▁rodzin": 3309,
      "tom": 3310,
      "▁obo": 3311,
      "▁akurat": 3312,
      "▁wróci": 3313,
      "▁komputer": 3314,
      "▁najmniej": 3315,
      "▁wieczo": 3316,
      "ga,": 3317,
      "▁ciąży": 3318,
      "▁anty": 3319,
      "▁zja": 3320,
      "sło": 3321,
      "sj": 3322,
      "dio": 3323,
      "▁zanie": 3324,
      "▁bły": 3325,
      "▁całym": 3326,
      "▁opie": 3327,
      "praszam": 3328,
      "▁wyż": 3329,
      "▁łatwiej": 3330,
      "▁Podpowiadamy": 3331,
      "▁cór": 3332,
      "▁korzyst": 3333,
      "▁mogła": 3334,
      "▁Każdy": 3335,
      "▁uważa": 3336,
      "▁Du": 3337,
      "▁porząd": 3338,
      "▁umy": 3339,
      "▁pomó": 3340,
      "▁dziewczyny": 3341,
      "▁zakupi": 3342,
      "▁doku": 3343,
      "▁Bi": 3344,
      "owości": 3345,
      "niach": 3346,
      ".\nAle": 3347,
      "▁Doda": 3348,
      "rzad": 3349,
      "rudnia": 3350,
      "ownik": 3351,
      "ność.": 3352,
      "▁standar": 3353,
      "▁wspania": 3354,
      "▁Bu": 3355,
      "▁niemow": 3356,
      "▁wypad": 3357,
      "▁najlepszy": 3358,
      "aną": 3359,
      "▁rzeczywi": 3360,
      "nięcia": 3361,
      "zio": 3362,
      "▁Już": 3363,
      "▁działania": 3364,
      "zer": 3365,
      "▁zespo": 3366,
      "tyki": 3367,
      "rzej": 3368,
      "▁niedzie": 3369,
      "▁oczeki": 3370,
      "▁przesta": 3371,
      "▁konku": 3372,
      "▁kogoś": 3373,
      "▁oni": 3374,
      "▁treni": 3375,
      "▁fotografi": 3376,
      "▁dwo": 3377,
      "▁wyk": 3378,
      "nowa": 3379,
      "▁wiec": 3380,
      "▁oferty": 3381,
      "▁roku,": 3382,
      "nienia": 3383,
      "▁dia": 3384,
      "▁dal": 3385,
      "▁wyróż": 3386,
      "▁serii": 3387,
      "▁najczęściej": 3388,
      "▁nowy": 3389,
      "my.": 3390,
      "szki": 3391,
      "spek": 3392,
      "▁pomoc": 3393,
      "▁wskaz": 3394,
      "▁Bez": 3395,
      "▁słod": 3396,
      "▁Jez": 3397,
      "\nB": 3398,
      "▁dowo": 3399,
      "21": 3400,
      ".\nCo": 3401,
      "▁gorą": 3402,
      "czar": 3403,
      "▁angiel": 3404,
      "lnych": 3405,
      "▁kawał": 3406,
      "czkę": 3407,
      "▁Dziś": 3408,
      "▁poziomie": 3409,
      "▁gene": 3410,
      "▁wszelkie": 3411,
      "et": 3412,
      "▁żadnych": 3413,
      "▁kas": 3414,
      "▁Tylko": 3415,
      "owaniem": 3416,
      "▁sierp": 3417,
      "▁dłuż": 3418,
      "owano": 3419,
      "nó": 3420,
      "▁ilość": 3421,
      "▁według": 3422,
      "▁mal": 3423,
      "▁pój": 3424,
      "▁niemal": 3425,
      "resztą": 3426,
      "▁kart": 3427,
      "samowi": 3428,
      "łó": 3429,
      "▁jeżeli": 3430,
      "AM": 3431,
      "▁Osta": 3432,
      "▁odpowiada": 3433,
      "▁przeprowa": 3434,
      "owanej": 3435,
      "▁ciągu": 3436,
      "listy": 3437,
      "rzeć": 3438,
      "szech": 3439,
      "dow": 3440,
      "▁świetnie": 3441,
      "▁sprawdzą": 3442,
      "▁dużą": 3443,
      "ckiego": 3444,
      "▁sobo": 3445,
      "▁orygina": 3446,
      "▁lekko": 3447,
      "?\nC": 3448,
      "▁czasami": 3449,
      "zdy": 3450,
      ".\nR": 3451,
      "▁perfum": 3452,
      "by,": 3453,
      "▁przyczy": 3454,
      "▁intensyw": 3455,
      "cieli": 3456,
      "▁poprzez": 3457,
      "▁myśla": 3458,
      "▁byli": 3459,
      "▁poniedział": 3460,
      "dzień": 3461,
      "▁Polski": 3462,
      "▁i\n": 3463,
      "deł": 3464,
      "▁przyzna": 3465,
      "wka": 3466,
      "▁dra": 3467,
      "▁egz": 3468,
      "▁krwi": 3469,
      "▁będziemy": 3470,
      "▁cena": 3471,
      "▁Pole": 3472,
      "wana": 3473,
      "▁zamiast": 3474,
      "▁waka": 3475,
      "▁ekran": 3476,
      "▁brz": 3477,
      "▁człowiek": 3478,
      "▁kim": 3479,
      "▁przedmio": 3480,
      "▁inspi": 3481,
      "owiedz": 3482,
      "▁chętnie": 3483,
      "tore": 3484,
      "▁kolejne": 3485,
      "óz": 3486,
      "siąż": 3487,
      "▁wiesz,": 3488,
      "is": 3489,
      "▁całkowi": 3490,
      "?\nJ": 3491,
      "świe": 3492,
      "▁świata": 3493,
      "ówczas": 3494,
      "▁niech": 3495,
      "wa.": 3496,
      "▁samej": 3497,
      "▁złotych": 3498,
      "sci": 3499,
      "▁Czę": 3500,
      "kurza": 3501,
      "▁kwiet": 3502,
      "▁nieu": 3503,
      "▁projek": 3504,
      "bać": 3505,
      "▁pełni": 3506,
      "gi,": 3507,
      "▁moją": 3508,
      "sa,": 3509,
      "▁wych": 3510,
      "▁rośli": 3511,
      "czeń": 3512,
      "ięc": 3513,
      "▁wyjątk": 3514,
      "▁Ce": 3515,
      "▁wysy": 3516,
      "▁ciężko": 3517,
      "bel": 3518,
      "?\nT": 3519,
      "ou": 3520,
      "▁klien": 3521,
      "▁każda": 3522,
      "▁jakiej": 3523,
      "▁brzu": 3524,
      "▁bedzie": 3525,
      "▁odwie": 3526,
      "▁zdaniem": 3527,
      "kier": 3528,
      "▁wyp": 3529,
      "zują": 3530,
      "▁nazy": 3531,
      "sza,": 3532,
      "bą": 3533,
      "▁kupu": 3534,
      "▁ow": 3535,
      "▁Ży": 3536,
      "▁zazwyczaj": 3537,
      "biega": 3538,
      "▁ślub": 3539,
      "▁płyn": 3540,
      "jo": 3541,
      "▁tajemni": 3542,
      "▁lepsze": 3543,
      "wszy": 3544,
      "▁promo": 3545,
      "▁odpowiednio": 3546,
      "tnia": 3547,
      "▁dwu": 3548,
      "▁Ju": 3549,
      "▁dobrze,": 3550,
      "▁czwar": 3551,
      "▁500": 3552,
      "kse": 3553,
      "▁perfumy": 3554,
      "▁przeką": 3555,
      "szo": 3556,
      "▁wywo": 3557,
      "ponu": 3558,
      "ower": 3559,
      "▁doj": 3560,
      "▁wielko": 3561,
      "▁ogro": 3562,
      "▁proszę": 3563,
      "▁tru": 3564,
      ".\n__________________": 3565,
      "▁zdrowie": 3566,
      "▁Natomiast": 3567,
      "▁historii": 3568,
      "▁uzna": 3569,
      "▁ciąg": 3570,
      "lu,": 3571,
      "▁ciągle": 3572,
      "pią": 3573,
      ".\nU": 3574,
      "turę": 3575,
      "syj": 3576,
      "owaną": 3577,
      "▁koleżan": 3578,
      "▁ocho": 3579,
      "▁odczu": 3580,
      "▁względem": 3581,
      "▁blogu": 3582,
      "▁komfort": 3583,
      "▁pisze": 3584,
      "▁kana": 3585,
      "tacji": 3586,
      "zm": 3587,
      "stym": 3588,
      "▁najnow": 3589,
      "▁marca": 3590,
      "orów": 3591,
      "▁obro": 3592,
      "▁oce": 3593,
      "▁źród": 3594,
      "dzie.": 3595,
      "▁przyjaciół": 3596,
      "terów": 3597,
      "cyjny": 3598,
      "wamy": 3599,
      "▁wykony": 3600,
      "▁doskonale": 3601,
      "Po": 3602,
      "▁lak": 3603,
      "▁Nawet": 3604,
      "mam": 3605,
      "▁jesie": 3606,
      "▁dysku": 3607,
      "▁pach": 3608,
      "▁zrozumie": 3609,
      "▁posiadają": 3610,
      "▁skóry": 3611,
      "ię,": 3612,
      "▁lutego": 3613,
      "ian": 3614,
      "czona": 3615,
      "▁cenie": 3616,
      "jmy": 3617,
      "▁przeży": 3618,
      "▁długie": 3619,
      "nomi": 3620,
      "▁bądź": 3621,
      "▁wil": 3622,
      "▁regular": 3623,
      "racji": 3624,
      "▁psycho": 3625,
      "▁dar": 3626,
      "▁elegan": 3627,
      "\ni": 3628,
      "▁wyglą": 3629,
      "▁spotk": 3630,
      "eli": 3631,
      "cieka": 3632,
      "▁niewie": 3633,
      "▁Aby": 3634,
      "nym.": 3635,
      "▁wzią": 3636,
      "▁minut": 3637,
      "▁przewo": 3638,
      "▁zab": 3639,
      "gólnie": 3640,
      "▁wychodzi": 3641,
      "▁świad": 3642,
      "▁gospodar": 3643,
      "▁techni": 3644,
      "▁Podczas": 3645,
      "▁Pani": 3646,
      "ligent": 3647,
      "owego,": 3648,
      "dach": 3649,
      "stw": 3650,
      "bliż": 3651,
      "owa,": 3652,
      "▁recen": 3653,
      "które": 3654,
      "niu.": 3655,
      "▁otwar": 3656,
      "▁zamknię": 3657,
      "▁skład": 3658,
      "bija": 3659,
      "zyj": 3660,
      "kach.": 3661,
      "czem": 3662,
      "▁pomiędzy": 3663,
      "▁gór": 3664,
      "▁sma": 3665,
      "▁wier": 3666,
      "▁spowo": 3667,
      "owało": 3668,
      "▁ster": 3669,
      "ść,": 3670,
      "▁Dlaczego": 3671,
      "▁wraca": 3672,
      "▁Choć": 3673,
      "▁resz": 3674,
      "▁macie": 3675,
      "jest": 3676,
      "▁określa": 3677,
      "▁lektury": 3678,
      "▁herba": 3679,
      "▁wam": 3680,
      "▁umożliwia": 3681,
      "▁poje": 3682,
      "▁poziom": 3683,
      "▁fe": 3684,
      "cka": 3685,
      "▁podkre": 3686,
      "▁bro": 3687,
      "dzeniem": 3688,
      ".\nJak": 3689,
      "▁okazję": 3690,
      "▁Smartfony": 3691,
      "▁cos": 3692,
      "▁podróż": 3693,
      "▁sytuacji": 3694,
      "▁otrzyma": 3695,
      "▁Zastanawia": 3696,
      "▁smu": 3697,
      "iar": 3698,
      "róży": 3699,
      "▁pierwszej": 3700,
      "źni": 3701,
      "▁niemie": 3702,
      "▁kap": 3703,
      "▁wese": 3704,
      "▁niesamowi": 3705,
      "-1": 3706,
      "jeżd": 3707,
      "▁soli": 3708,
      "ciera": 3709,
      "ST": 3710,
      "▁wyz": 3711,
      "▁musimy": 3712,
      "pienia": 3713,
      "nęła": 3714,
      "lat": 3715,
      "▁zdo": 3716,
      "▁października": 3717,
      "o,": 3718,
      "▁elektry": 3719,
      "ć?": 3720,
      "▁Op": 3721,
      "▁24": 3722,
      "▁urządzeń": 3723,
      "cił": 3724,
      "wości": 3725,
      "▁drob": 3726,
      "▁popra": 3727,
      "tniej": 3728,
      "▁zauważy": 3729,
      "strzy": 3730,
      "owania,": 3731,
      "anki": 3732,
      "▁Se": 3733,
      "▁wyraz": 3734,
      "kowy": 3735,
      "OW": 3736,
      "▁Pu": 3737,
      "niesie": 3738,
      "▁m.in.": 3739,
      "▁Wła": 3740,
      "emi": 3741,
      "▁US": 3742,
      "▁powieści": 3743,
      "matycz": 3744,
      "ska,": 3745,
      "pełni": 3746,
      "kola": 3747,
      "▁muszą": 3748,
      "▁związku": 3749,
      "▁stronę": 3750,
      "▁skórę": 3751,
      "▁powiedzieć": 3752,
      "▁obia": 3753,
      "▁zdrowia": 3754,
      "▁drzwi": 3755,
      "▁tłuma": 3756,
      "▁(nie": 3757,
      "▁świą": 3758,
      "▁czuje": 3759,
      "▁Szcze": 3760,
      "waran": 3761,
      "▁życia.": 3762,
      "▁zdjęć": 3763,
      "▁idealny": 3764,
      "\nprze": 3765,
      "lizacji": 3766,
      "▁czerwca": 3767,
      "▁194": 3768,
      "dzam": 3769,
      "▁ochro": 3770,
      "▁mną": 3771,
      "▁tor": 3772,
      "▁Któ": 3773,
      "lama": 3774,
      "▁podstawie": 3775,
      "▁rozwiąz": 3776,
      "widu": 3777,
      "▁(po": 3778,
      "▁mnó": 3779,
      "▁słoń": 3780,
      "duka": 3781,
      "mp": 3782,
      "▁góry": 3783,
      "▁potrzeby": 3784,
      "▁Obec": 3785,
      "▁drodze": 3786,
      "▁skar": 3787,
      "▁Świę": 3788,
      "▁dzieci,": 3789,
      "▁pojem": 3790,
      "▁mnie,": 3791,
      "\na": 3792,
      "▁indy": 3793,
      "▁Wiel": 3794,
      "▁specja": 3795,
      "▁kol": 3796,
      "qu": 3797,
      "▁elektroni": 3798,
      "▁całej": 3799,
      "ver": 3800,
      "rabia": 3801,
      "▁twór": 3802,
      "50": 3803,
      "▁ponow": 3804,
      "▁tzw.": 3805,
      "▁pracy.": 3806,
      "▁mał": 3807,
      "ość,": 3808,
      "\nI": 3809,
      "▁grupy": 3810,
      "▁najwyż": 3811,
      "▁/": 3812,
      "▁ilości": 3813,
      "▁sobie,": 3814,
      "▁upo": 3815,
      "▁2013": 3816,
      "stry": 3817,
      "▁zaję": 3818,
      "niu,": 3819,
      "dopodob": 3820,
      "▁mor": 3821,
      "czenia.": 3822,
      "gno": 3823,
      "▁producentów": 3824,
      "▁2014": 3825,
      "ownika": 3826,
      "▁zmar": 3827,
      "▁ło": 3828,
      "tkę": 3829,
      "stych": 3830,
      "▁pozby": 3831,
      "▁Poza": 3832,
      "▁of": 3833,
      "pięk": 3834,
      "▁zakoń": 3835,
      "▁krea": 3836,
      "▁listopada": 3837,
      "▁sieci": 3838,
      "▁kolejny": 3839,
      "▁mieli": 3840,
      "tere": 3841,
      ".\nWy": 3842,
      "▁niko": 3843,
      "▁mili": 3844,
      "▁prawidł": 3845,
      "les": 3846,
      "▁pienią": 3847,
      "▁sprzęt": 3848,
      "▁kamie": 3849,
      "▁wpływ": 3850,
      "owanego": 3851,
      "▁błę": 3852,
      "▁dodatkowo": 3853,
      "▁większości": 3854,
      "onu": 3855,
      "▁produktu": 3856,
      "kana": 3857,
      "▁kuchen": 3858,
      "AR": 3859,
      "▁książka": 3860,
      "mai": 3861,
      "▁bal": 3862,
      "▁cuk": 3863,
      "▁pokaza": 3864,
      "▁serwi": 3865,
      "▁chi": 3866,
      "▁znów": 3867,
      "▁Gra": 3868,
      "▁września": 3869,
      "mu,": 3870,
      "▁lekarza": 3871,
      "owały": 3872,
      "▁funkcjon": 3873,
      "dę,": 3874,
      "▁(o": 3875,
      "▁Przez": 3876,
      "▁duży": 3877,
      "▁dobrego": 3878,
      "▁bohater": 3879,
      "30": 3880,
      "rki": 3881,
      "dzamy": 3882,
      "▁uśmie": 3883,
      "▁szan": 3884,
      "▁Lo": 3885,
      "▁utwo": 3886,
      "ściej": 3887,
      "▁Że": 3888,
      "▁cier": 3889,
      "▁pokoju": 3890,
      "kami,": 3891,
      "▁parametry": 3892,
      "▁mów": 3893,
      "▁mart": 3894,
      "▁informacji": 3895,
      "kami.": 3896,
      "▁okresie": 3897,
      "▁pozwalają": 3898,
      "▁Zak": 3899,
      "▁Im": 3900,
      "▁stycznia": 3901,
      "danie": 3902,
      "▁maksymal": 3903,
      "▁zwierzę": 3904,
      "▁kobiet": 3905,
      "▁Ne": 3906,
      "▁(z": 3907,
      "dob": 3908,
      "▁ceny": 3909,
      "▁Zam": 3910,
      "menty": 3911,
      "CA": 3912,
      "▁koja": 3913,
      "▁właściwie": 3914,
      "lone": 3915,
      "fy": 3916,
      "▁iść": 3917,
      "▁osiąg": 3918,
      "▁poznać": 3919,
      "wną": 3920,
      "▁jutro": 3921,
      "▁problemy": 3922,
      "▁Cze": 3923,
      "fie": 3924,
      "▁posłu": 3925,
      "wały": 3926,
      "▁powro": 3927,
      "▁okres": 3928,
      "▁przypomina": 3929,
      "▁mięk": 3930,
      "▁syn": 3931,
      "▁strasznie": 3932,
      "▁pozwoli": 3933,
      "ckiej": 3934,
      "owę": 3935,
      "▁rankingu": 3936,
      "▁zostało": 3937,
      "▁He": 3938,
      "▁mama": 3939,
      "▁człowieka": 3940,
      "▁rozwoju": 3941,
      "reszcie": 3942,
      "▁Fi": 3943,
      "▁sprawi": 3944,
      "▁um": 3945,
      "▁sprawie": 3946,
      "tnio": 3947,
      "▁obok": 3948,
      "▁głowy": 3949,
      "▁lat.": 3950,
      "▁ge": 3951,
      "▁lat,": 3952,
      "szek": 3953,
      "▁ciekawe": 3954,
      "▁tań": 3955,
      "lega": 3956,
      "▁miały": 3957,
      "▁idealnie": 3958,
      "▁szam": 3959,
      "▁znajdują": 3960,
      "▁niektóre": 3961,
      "logia": 3962,
      "tłu": 3963,
      "▁stron": 3964,
      "▁rozwija": 3965,
      "▁łóż": 3966,
      "cje.": 3967,
      "▁grudnia": 3968,
      "tkiem": 3969,
      "cznych,": 3970,
      "▁zmiany": 3971,
      "▁wieku,": 3972,
      "su.": 3973,
      "▁występu": 3974,
      "▁Pre": 3975,
      "▁dale": 3976,
      "▁najważniejsze": 3977,
      "ad": 3978,
      ".\nTak": 3979,
      "?\nM": 3980,
      "\nwy": 3981,
      "lność": 3982,
      "no-": 3983,
      "▁zę": 3984,
      "▁gwia": 3985,
      "▁dużym": 3986,
      "▁samodziel": 3987,
      "▁itp.": 3988,
      "▁dowiesz": 3989,
      "▁odw": 3990,
      "▁bab": 3991,
      "▁mieszkań": 3992,
      "turą": 3993,
      "▁parę": 3994,
      "▁dobrym": 3995,
      "▁karty": 3996,
      "▁kraj": 3997,
      "▁poru": 3998,
      "tną": 3999,
      "▁znam": 4000,
      "pla": 4001,
      "▁najpierw": 4002,
      "no.": 4003,
      "▁firmy": 4004,
      "▁zapewnia": 4005,
      "▁zapyta": 4006,
      "▁chciałam": 4007,
      "▁Ho": 4008,
      "▁szczy": 4009,
      "▁źle": 4010,
      ".\nG": 4011,
      "▁użyciu": 4012,
      "▁żół": 4013,
      "▁eta": 4014,
      "daj": 4015,
      "ciele": 4016,
      "▁następnie": 4017,
      "▁większą": 4018,
      "▁Kar": 4019,
      "▁uczest": 4020,
      "sach": 4021,
      "▁mieście": 4022,
      "▁dzieje": 4023,
      "▁osoba": 4024,
      "▁twar": 4025,
      "▁ciasto": 4026,
      "▁XX": 4027,
      "▁praktycz": 4028,
      "ant": 4029,
      ".0": 4030,
      "cio": 4031,
      "▁twarz": 4032,
      "gh": 4033,
      "ówki": 4034,
      "▁podłą": 4035,
      "▁cyf": 4036,
      "▁ostatnich": 4037,
      "▁smartfonów": 4038,
      "▁zmę": 4039,
      "\nu": 4040,
      "▁kontra": 4041,
      "moc": 4042,
      "▁staje": 4043,
      "niejszym": 4044,
      "▁kierunku": 4045,
      "cję.": 4046,
      "rzuca": 4047,
      "cami": 4048,
      "wało": 4049,
      "imi": 4050,
      "nikiem": 4051,
      "▁wówczas": 4052,
      "▁porówn": 4053,
      "▁chciałabym": 4054,
      "kół": 4055,
      "g.": 4056,
      "ana,": 4057,
      "▁wyma": 4058,
      "▁wynika": 4059,
      "▁zegar": 4060,
      "▁zdarza": 4061,
      "▁miłość": 4062,
      "▁rzad": 4063,
      "▁pios": 4064,
      "▁198": 4065,
      "▁mnóstwo": 4066,
      "▁Znaj": 4067,
      "▁jakaś": 4068,
      "▁cent": 4069,
      "▁studi": 4070,
      "dzają": 4071,
      "kowym": 4072,
      "działa": 4073,
      "▁40": 4074,
      "domości": 4075,
      "▁przeczy": 4076,
      "▁wszystko,": 4077,
      "toli": 4078,
      "▁pamięci": 4079,
      "▁Trze": 4080,
      "▁całego": 4081,
      "▁wątku": 4082,
      "zdra": 4083,
      "▁zanim": 4084,
      "▁niedaw": 4085,
      "▁dobrą": 4086,
      "▁nagry": 4087,
      "dal": 4088,
      "▁nocy": 4089,
      "▁spodzie": 4090,
      "▁Ser": 4091,
      "ON": 4092,
      "▁wątek": 4093,
      "▁jo": 4094,
      "▁Sp": 4095,
      "aku": 4096,
      "▁Mat": 4097,
      "▁deko": 4098,
      "▁specjalne": 4099,
      "▁2012": 4100,
      "waniu": 4101,
      "gani": 4102,
      "wie,": 4103,
      "▁niby": 4104,
      "▁byłoby": 4105,
      "dny": 4106,
      "▁szczęśli": 4107,
      "▁Szukasz": 4108,
      "▁godzin": 4109,
      "▁ryzy": 4110,
      "▁lepszym": 4111,
      "?\nNie": 4112,
      "▁uwagi": 4113,
      "▁sprawa": 4114,
      "Na": 4115,
      "▁głębo": 4116,
      "▁pane": 4117,
      "▁wytrzyma": 4118,
      "▁tar": 4119,
      "▁Jan": 4120,
      "feren": 4121,
      "?\nW": 4122,
      "mm": 4123,
      "▁2015": 4124,
      "koła": 4125,
      "orą": 4126,
      "▁porówna": 4127,
      "pać": 4128,
      "▁faktycznie": 4129,
      "▁poro": 4130,
      "stki": 4131,
      "chem": 4132,
      "▁głowie": 4133,
      "▁zmniej": 4134,
      "śle": 4135,
      "towe": 4136,
      "▁Boże": 4137,
      "▁gatu": 4138,
      "▁zwraca": 4139,
      "▁cel": 4140,
      "▁wzię": 4141,
      "owo-": 4142,
      "lor": 4143,
      "▁dło": 4144,
      "tem.": 4145,
      "ton": 4146,
      "nę,": 4147,
      "▁ból": 4148,
      "hone": 4149,
      "mos": 4150,
      "TE": 4151,
      "▁dawno": 4152,
      "cznych.": 4153,
      "▁nieod": 4154,
      "▁najpopular": 4155,
      "▁udział": 4156,
      "gów": 4157,
      "▁przygo": 4158,
      "▁przedstawia": 4159,
      "żył": 4160,
      "▁Rob": 4161,
      "▁eduka": 4162,
      "▁rodzaje": 4163,
      "▁poma": 4164,
      "▁samochod": 4165,
      "eken": 4166,
      "▁tani": 4167,
      "!!!": 4168,
      "sław": 4169,
      "cesz": 4170,
      "▁Ry": 4171,
      "▁the": 4172,
      "▁nieza": 4173,
      "▁stało": 4174,
      ".\nCytat:\nNapisane": 4175,
      "▁praca": 4176,
      "▁Produk": 4177,
      "▁rolę": 4178,
      "łki": 4179,
      "ic": 4180,
      "▁znie": 4181,
      "▁wartości": 4182,
      "żę": 4183,
      "▁lipca": 4184,
      "▁opa": 4185,
      "▁wnęt": 4186,
      "▁wpływa": 4187,
      "▁Pamię": 4188,
      "lna": 4189,
      "▁chciała": 4190,
      "▁hu": 4191,
      "ódz": 4192,
      "dziesz": 4193,
      "jąć": 4194,
      "▁wro": 4195,
      "▁And": 4196,
      "▁warzy": 4197,
      "▁Py": 4198,
      "noszą": 4199,
      "▁Nic": 4200,
      "wienie": 4201,
      "▁zajmu": 4202,
      ".\nNo": 4203,
      "tele": 4204,
      "▁przedstawi": 4205,
      "▁krze": 4206,
      "▁zł.": 4207,
      "▁nieprzy": 4208,
      "▁prawa": 4209,
      "▁skon": 4210,
      "▁pomieszcze": 4211,
      "▁budże": 4212,
      "▁cm": 4213,
      "▁ana": 4214,
      "▁zbiera": 4215,
      "▁spoj": 4216,
      "kowych": 4217,
      "▁albu": 4218,
      "▁wiecz": 4219,
      "▁historia": 4220,
      "▁wiza": 4221,
      "▁monitor": 4222,
      "▁zaa": 4223,
      "▁nieo": 4224,
      "▁konstruk": 4225,
      "lu.": 4226,
      "cyjnych": 4227,
      "▁nar": 4228,
      "mini": 4229,
      "rady": 4230,
      "▁Dowiedz": 4231,
      "▁sięg": 4232,
      "▁określo": 4233,
      "▁tere": 4234,
      "▁uzyska": 4235,
      "▁gor": 4236,
      "▁jakiegoś": 4237,
      "▁popularnych": 4238,
      "▁dłużej": 4239,
      "▁jakąś": 4240,
      "▁odcie": 4241,
      "GO": 4242,
      "▁umiejęt": 4243,
      "▁zi": 4244,
      "wnątrz": 4245,
      "hala": 4246,
      "▁smo": 4247,
      "▁sierpnia": 4248,
      "▁Książ": 4249,
      "▁młod": 4250,
      "▁używa": 4251,
      "▁fin": 4252,
      "▁kwietnia": 4253,
      "stka": 4254,
      "▁bru": 4255,
      "\ndo": 4256,
      "gor": 4257,
      "▁Chyba": 4258,
      "▁zakupu": 4259,
      "▁stwierdzi": 4260,
      "▁uniw": 4261,
      "▁słuchawek": 4262,
      "▁wyłącznie": 4263,
      "▁liczy": 4264,
      "▁narze": 4265,
      "▁najbliż": 4266,
      "▁ostatnie": 4267,
      "▁gę": 4268,
      "▁Przygot": 4269,
      "▁y": 4270,
      "▁indywidu": 4271,
      "▁przekona": 4272,
      "▁kobieta": 4273,
      "▁cała": 4274,
      "stytu": 4275,
      "▁powoduje": 4276,
      "styczne": 4277,
      "kąd": 4278,
      "▁zmienić": 4279,
      "żony": 4280,
      "▁zwięk": 4281,
      "▁rodziny": 4282,
      "▁dlatego,": 4283,
      "sten": 4284,
      "rzeń": 4285,
      "▁1500": 4286,
      "lności": 4287,
      "▁odby": 4288,
      "▁ludzi,": 4289,
      "▁inteligent": 4290,
      "▁zazna": 4291,
      "ycha": 4292,
      "nością.": 4293,
      "▁ogląd": 4294,
      "▁Bie": 4295,
      "raża": 4296,
      "▁medy": 4297,
      "cjami": 4298,
      "▁wszystkiego": 4299,
      "▁2016": 4300,
      "▁pomoże": 4301,
      "▁pieniądze": 4302,
      "▁siebie,": 4303,
      "ban": 4304,
      "▁fla": 4305,
      "mienia": 4306,
      "▁dobrej": 4307,
      "▁polega": 4308,
      "▁organiza": 4309,
      "▁formie": 4310,
      "fu": 4311,
      "▁tygod": 4312,
      "▁narzę": 4313,
      "nale": 4314,
      "szem": 4315,
      "▁ozd": 4316,
      "su,": 4317,
      "▁rą": 4318,
      "lnej": 4319,
      "▁śmierci": 4320,
      "sy,": 4321,
      "▁wygo": 4322,
      "▁rela": 4323,
      "dzię": 4324,
      "▁skorzystać": 4325,
      "▁oku": 4326,
      "▁otwo": 4327,
      "bienia": 4328,
      "rzem": 4329,
      "dla": 4330,
      "tnym": 4331,
      "▁Sto": 4332,
      "▁połu": 4333,
      "▁mieszkania": 4334,
      "lnego": 4335,
      "byś": 4336,
      "tow": 4337,
      "▁60": 4338,
      "▁niektórych": 4339,
      "▁;)": 4340,
      "▁rodzice": 4341,
      "mu.": 4342,
      "▁sukce": 4343,
      "▁Mamy": 4344,
      "amie": 4345,
      "2.": 4346,
      "bor": 4347,
      "▁weeken": 4348,
      "▁pomys": 4349,
      "▁Obecnie": 4350,
      "▁wiedzą": 4351,
      "\nJe": 4352,
      "aru": 4353,
      "▁cza": 4354,
      "▁zewnętrz": 4355,
      "▁uszko": 4356,
      "szać": 4357,
      "owym,": 4358,
      "nicy": 4359,
      "▁dem": 4360,
      "cia,": 4361,
      "ama": 4362,
      "▁tanie": 4363,
      "▁czekola": 4364,
      "dej": 4365,
      "▁Ha": 4366,
      "▁współczes": 4367,
      "▁prowadzi": 4368,
      "▁The": 4369,
      "▁nie,": 4370,
      "kładu": 4371,
      "owa.": 4372,
      "łod": 4373,
      "▁sukie": 4374,
      "czeniem": 4375,
      "są": 4376,
      "▁doty": 4377,
      "▁wynosi": 4378,
      "▁łyż": 4379,
      "gła": 4380,
      "żem": 4381,
      "▁he": 4382,
      "▁niczym": 4383,
      "▁Opi": 4384,
      "y.": 4385,
      "nienie": 4386,
      "▁wybie": 4387,
      "▁składa": 4388,
      "ru.": 4389,
      "▁napi": 4390,
      "▁problemów": 4391,
      "▁rano": 4392,
      "▁powyżej": 4393,
      "▁zeby": 4394,
      "▁szczeg": 4395,
      "bro": 4396,
      "strz": 4397,
      "▁śle": 4398,
      "▁krótki": 4399,
      "▁Wiza": 4400,
      ".\nCh": 4401,
      "obraz": 4402,
      "▁grzy": 4403,
      "com": 4404,
      "▁łatw": 4405,
      "gre": 4406,
      "▁wyro": 4407,
      "▁podróży": 4408,
      "sh": 4409,
      "▁sięga": 4410,
      "▁ślu": 4411,
      "▁komunika": 4412,
      "owym.": 4413,
      "▁Wil": 4414,
      "▁dziecię": 4415,
      "cła": 4416,
      "▁odpowiedzia": 4417,
      "▁ciała": 4418,
      "dże": 4419,
      "daje": 4420,
      "▁zobaczyć": 4421,
      "▁tymi": 4422,
      "▁lepszą": 4423,
      "łem.": 4424,
      "▁swobo": 4425,
      "wie.": 4426,
      "dę.": 4427,
      "ona,": 4428,
      "▁Często": 4429,
      "nerg": 4430,
      "▁kolei": 4431,
      "▁poprzedni": 4432,
      "lnym": 4433,
      "torem": 4434,
      "▁domowych": 4435,
      "▁drogi": 4436,
      "▁wykonane": 4437,
      "dzież": 4438,
      "▁pewne": 4439,
      "trzeb": 4440,
      "szkę": 4441,
      "▁czymś": 4442,
      "▁indywidual": 4443,
      "lii": 4444,
      "▁projekt": 4445,
      "▁profesj": 4446,
      "ame": 4447,
      "oła": 4448,
      "▁tk": 4449,
      "▁głos": 4450,
      "rym": 4451,
      "▁pokry": 4452,
      "trzeć": 4453,
      "Za": 4454,
      "▁wią": 4455,
      "▁filmów": 4456,
      "▁Ru": 4457,
      "▁ostate": 4458,
      "▁styl": 4459,
      "▁napis": 4460,
      "▁zostanie": 4461,
      "▁łączą": 4462,
      "▁23": 4463,
      "gow": 4464,
      "sen": 4465,
      "▁\"S": 4466,
      "▁wspomnie": 4467,
      "fil": 4468,
      "▁fanta": 4469,
      "wans": 4470,
      "RA": 4471,
      "▁opera": 4472,
      "▁Su": 4473,
      "▁liście": 4474,
      "nera": 4475,
      "▁ocenia": 4476,
      "▁blog": 4477,
      "▁impre": 4478,
      "▁wyświetla": 4479,
      "ńskie": 4480,
      "▁element": 4481,
      "oną": 4482,
      "tnego": 4483,
      "▁Produkty": 4484,
      "201": 4485,
      "▁wyci": 4486,
      "▁On": 4487,
      "▁bezpoś": 4488,
      "jeżdża": 4489,
      "lon": 4490,
      "▁zakła": 4491,
      "▁substan": 4492,
      "py.": 4493,
      "▁szkole": 4494,
      "LE": 4495,
      "▁kupiłam": 4496,
      "▁ładnie": 4497,
      "▁dać": 4498,
      "▁abso": 4499,
      "▁itd.": 4500,
      "▁zuży": 4501,
      "▁konsu": 4502,
      "▁któremu": 4503,
      "▁naszą": 4504,
      "▁Polecam": 4505,
      "▁ofi": 4506,
      "▁Kości": 4507,
      "szy,": 4508,
      "story": 4509,
      "▁21": 4510,
      "▁hy": 4511,
      "▁nami": 4512,
      "▁+": 4513,
      "ZE": 4514,
      "ństw": 4515,
      "▁mon": 4516,
      "▁ud": 4517,
      "\nPo": 4518,
      "▁zacząć": 4519,
      "▁wycie": 4520,
      "sa.": 4521,
      "Hej": 4522,
      "▁pomocy": 4523,
      "onem": 4524,
      "▁dostać": 4525,
      "▁przegląd": 4526,
      "zygn": 4527,
      "it": 4528,
      "▁197": 4529,
      "▁Wybór": 4530,
      "unkt": 4531,
      "▁książek": 4532,
      "źnie": 4533,
      "▁v": 4534,
      "▁częściej": 4535,
      "▁zanieczy": 4536,
      "▁spełnia": 4537,
      "▁miasto": 4538,
      "akie": 4539,
      "▁sklepie": 4540,
      "▁prepara": 4541,
      "ee": 4542,
      "kla": 4543,
      "▁wokół": 4544,
      "▁opis": 4545,
      "te,": 4546,
      "▁naczy": 4547,
      "▁dostępnych": 4548,
      "▁robię": 4549,
      "▁myśle": 4550,
      "kie,": 4551,
      "▁dźwięk": 4552,
      "▁aro": 4553,
      "sza.": 4554,
      "▁znaczy": 4555,
      "▁znajomych": 4556,
      "▁sytuacja": 4557,
      "▁np": 4558,
      "tnej": 4559,
      "▁Bę": 4560,
      "kle": 4561,
      "▁połączenie": 4562,
      "▁zestawie": 4563,
      "▁TŻ": 4564,
      "▁pierwszego": 4565,
      "ff": 4566,
      "▁pojedy": 4567,
      "▁ust": 4568,
      "▁oświet": 4569,
      "▁trzech": 4570,
      "▁wobec": 4571,
      "▁lodów": 4572,
      "▁piekar": 4573,
      "czonych": 4574,
      "ńska": 4575,
      "może": 4576,
      "▁rzeczywiście": 4577,
      "owi,": 4578,
      "czeka": 4579,
      "▁każdą": 4580,
      "▁odpor": 4581,
      "▁zrobić,": 4582,
      "▁kolek": 4583,
      "▁oczyszczacz": 4584,
      "▁szkoły": 4585,
      "▁drugiego": 4586,
      "are": 4587,
      "▁pomogą": 4588,
      "▁dużej": 4589,
      "▁Następ": 4590,
      "▁momencie": 4591,
      "anu": 4592,
      "IA": 4593,
      "ll": 4594,
      "▁Sklep": 4595,
      "sze,": 4596,
      "▁wrażenie,": 4597,
      "▁Star": 4598,
      "▁alko": 4599,
      "\nsię": 4600,
      "▁siedzi": 4601,
      "▁Dobrze": 4602,
      "▁gości": 4603,
      "▁fryzu": 4604,
      "ową.": 4605,
      "chani": 4606,
      "▁magi": 4607,
      "▁zga": 4608,
      "róbu": 4609,
      "▁zor": 4610,
      "stety,": 4611,
      "nawi": 4612,
      "umer": 4613,
      "scie": 4614,
      "wanych": 4615,
      "▁mąż": 4616,
      "▁pomóc": 4617,
      "działu": 4618,
      "▁Mimo": 4619,
      "\n\"": 4620,
      "▁nagra": 4621,
      "turze": 4622,
      "▁sił": 4623,
      "▁mieszkaniu": 4624,
      "twór": 4625,
      "dna": 4626,
      "▁złoty": 4627,
      "żowe": 4628,
      "▁Si": 4629,
      "▁stosować": 4630,
      "▁niebie": 4631,
      "rop": 4632,
      "▁blisko": 4633,
      "▁wpad": 4634,
      "łowa": 4635,
      "▁pytanie,": 4636,
      ".\nDo": 4637,
      "▁hor": 4638,
      "bawi": 4639,
      "▁zali": 4640,
      "kun": 4641,
      "▁Wło": 4642,
      "blem": 4643,
      "leb": 4644,
      "▁próbu": 4645,
      "▁Zie": 4646,
      "▁wersji": 4647,
      "żeniem": 4648,
      "▁22": 4649,
      "wycię": 4650,
      "▁Pio": 4651,
      "pow": 4652,
      "▁opła": 4653,
      "▁psychi": 4654,
      "▁prywat": 4655,
      "▁zalety": 4656,
      "noc": 4657,
      "▁opowiada": 4658,
      "▁przeszka": 4659,
      "▁powinniśmy": 4660,
      "▁kosmetycz": 4661,
      "▁Dru": 4662,
      "owo,": 4663,
      "▁szpita": 4664,
      "lue": 4665,
      "▁wie,": 4666,
      "▁powiedział": 4667,
      "kować": 4668,
      "▁Polak": 4669,
      "▁witaminy": 4670,
      "dło": 4671,
      "pej": 4672,
      "▁ono": 4673,
      "▁dedy": 4674,
      "▁młody": 4675,
      "▁związane": 4676,
      "LICA": 4677,
      "▁gwaran": 4678,
      "skiego,": 4679,
      "▁fakt,": 4680,
      "▁całkowicie": 4681,
      ".\nPrze": 4682,
      "▁wygra": 4683,
      "tion": 4684,
      "▁zabi": 4685,
      "pak": 4686,
      "▁plo": 4687,
      "▁zbli": 4688,
      "▁rzą": 4689,
      "▁wykorzystu": 4690,
      "▁orze": 4691,
      "LICA>>": 4692,
      "▁media": 4693,
      "▁zachę": 4694,
      "łek": 4695,
      "▁kier": 4696,
      "ru,": 4697,
      "▁wyszu": 4698,
      "▁pikse": 4699,
      "▁wypa": 4700,
      "▁insta": 4701,
      "▁pasuje": 4702,
      "▁\"P": 4703,
      "▁zdecydować": 4704,
      "wz": 4705,
      "dła": 4706,
      "▁żadnego": 4707,
      "tań": 4708,
      "▁modelu": 4709,
      "▁zagro": 4710,
      "lki": 4711,
      "tąd": 4712,
      "▁tydzień": 4713,
      "▁stopni": 4714,
      "pol": 4715,
      "▁widzenia": 4716,
      "▁program": 4717,
      "▁uzu": 4718,
      "▁siłow": 4719,
      "▁odzy": 4720,
      "▁dziecka.": 4721,
      "▁własne": 4722,
      "▁Kolej": 4723,
      "krotnie": 4724,
      "▁unika": 4725,
      "▁posił": 4726,
      "▁test": 4727,
      "▁poniżej": 4728,
      "▁ofia": 4729,
      "owane,": 4730,
      "dziemy": 4731,
      "▁punkt": 4732,
      "▁sia": 4733,
      "czesne": 4734,
      "▁Czym": 4735,
      "▁ogrze": 4736,
      "▁poniedziałek,": 4737,
      "szar": 4738,
      "łożyć": 4739,
      "▁wiek": 4740,
      "▁wys": 4741,
      "▁przewi": 4742,
      "lka": 4743,
      "va": 4744,
      "▁jaj": 4745,
      "▁fryzje": 4746,
      "\nNo": 4747,
      "▁Stan": 4748,
      "▁funkcjonal": 4749,
      "▁przygotować": 4750,
      "pli": 4751,
      "▁toale": 4752,
      "▁porównaniu": 4753,
      "▁ucz": 4754,
      "▁Bóg": 4755,
      "▁sce": 4756,
      "cznej.": 4757,
      "▁pr": 4758,
      "staura": 4759,
      "▁pocie": 4760,
      "zor": 4761,
      "▁2017": 4762,
      "owanie,": 4763,
      "▁pomieszczenia": 4764,
      "▁nagle": 4765,
      "▁pierwszych": 4766,
      "▁niespo": 4767,
      "▁pięknie": 4768,
      "▁godziny": 4769,
      "▁Wiele": 4770,
      "▁wyglądać": 4771,
      "▁jakimś": 4772,
      "dziła": 4773,
      "▁chcem": 4774,
      "dzony": 4775,
      "▁wyborze": 4776,
      "ski.": 4777,
      "mak": 4778,
      "▁forma": 4779,
      "▁bada": 4780,
      "▁nazwi": 4781,
      "▁brakuje": 4782,
      "ościach": 4783,
      "rag": 4784,
      "▁zabu": 4785,
      "blio": 4786,
      "▁energ": 4787,
      "▁utrzyma": 4788,
      "▁bloga": 4789,
      "ziewczy": 4790,
      "▁Micha": 4791,
      "▁x": 4792,
      "▁rozwiązanie": 4793,
      "cone": 4794,
      "▁studen": 4795,
      "dzę,": 4796,
      "▁konkur": 4797,
      "enty": 4798,
      "▁2011": 4799,
      "▁ustawie": 4800,
      "▁pienię": 4801,
      "lać": 4802,
      "▁dodać": 4803,
      "▁okazuje": 4804,
      "nne": 4805,
      "dent": 4806,
      "▁LE": 4807,
      "ie,": 4808,
      "andy": 4809,
      "▁pł": 4810,
      "?\nP": 4811,
      "▁(a": 4812,
      "▁dzieci.": 4813,
      "łyśmy": 4814,
      "▁symbo": 4815,
      "▁zostaje": 4816,
      "torek,": 4817,
      "▁dostos": 4818,
      "▁fote": 4819,
      "ść.": 4820,
      "cznymi": 4821,
      "▁rozwie": 4822,
      "▁czuję": 4823,
      "▁niczego": 4824,
      "▁suple": 4825,
      "▁wspar": 4826,
      "▁cieszyć": 4827,
      "▁dziedzi": 4828,
      "czach": 4829,
      "▁Bla": 4830,
      "▁nasza": 4831,
      "▁cyk": 4832,
      "▁tysięcy": 4833,
      "ria": 4834,
      "▁czasu,": 4835,
      "▁Rze": 4836,
      "▁stał": 4837,
      "▁Chcesz": 4838,
      "▁miesięcy": 4839,
      "czny,": 4840,
      "nujemy": 4841,
      "▁przyz": 4842,
      "▁piosen": 4843,
      "▁śpie": 4844,
      "▁którymi": 4845,
      "mon": 4846,
      "▁Jej": 4847,
      "▁muzyki": 4848,
      "▁cer": 4849,
      "miar": 4850,
      "▁alkoho": 4851,
      "▁Wszystkie": 4852,
      "▁stru": 4853,
      "▁zabieg": 4854,
      "▁ogar": 4855,
      "jedno": 4856,
      "▁nawilża": 4857,
      "▁komputera": 4858,
      "▁Krak": 4859,
      "▁z\n": 4860,
      "▁dba": 4861,
      "zumia": 4862,
      "▁pamiętam": 4863,
      "▁dyspo": 4864,
      "resie": 4865,
      "▁dziesią": 4866,
      "▁sprawdzić": 4867,
      "▁sprzętu": 4868,
      "▁Bra": 4869,
      "wela": 4870,
      "owac": 4871,
      "tarz": 4872,
      "▁wtorek,": 4873,
      "▁Tran": 4874,
      "-3": 4875,
      "ardzo": 4876,
      "▁ciekawych": 4877,
      "▁zwyczaj": 4878,
      "▁Kró": 4879,
      "▁ner": 4880,
      "tyfika": 4881,
      "▁łu": 4882,
      "▁oszczę": 4883,
      "▁usły": 4884,
      "▁zwo": 4885,
      "▁prosto": 4886,
      "ranża": 4887,
      "▁słysza": 4888,
      "▁wchodzi": 4889,
      "▁Par": 4890,
      "▁aler": 4891,
      "▁wystarcza": 4892,
      "▁numer": 4893,
      "lane": 4894,
      "▁kilo": 4895,
      "stawy": 4896,
      "▁Os": 4897,
      "▁fran": 4898,
      "▁pat": 4899,
      "▁nosi": 4900,
      "▁dane": 4901,
      "▁duch": 4902,
      "jek": 4903,
      "▁ukoch": 4904,
      "waj": 4905,
      "rost": 4906,
      "▁własnych": 4907,
      "liśmy,": 4908,
      "▁jakiego": 4909,
      "▁piękne": 4910,
      "▁niewy": 4911,
      "▁egzami": 4912,
      "▁Poz": 4913,
      "▁higie": 4914,
      "▁na\n": 4915,
      "wił": 4916,
      "▁większe": 4917,
      "▁fas": 4918,
      "rzył": 4919,
      "▁telefonu": 4920,
      "terna": 4921,
      "▁doprowa": 4922,
      "nków": 4923,
      "▁dotyczące": 4924,
      "ersy": 4925,
      "▁193": 4926,
      "▁środowi": 4927,
      "pić": 4928,
      "chy,": 4929,
      ".\nCzy": 4930,
      "▁edy": 4931,
      "▁społeczności": 4932,
      "tacza": 4933,
      "▁Świa": 4934,
      "▁pracuje": 4935,
      "▁sprób": 4936,
      "cyjnie": 4937,
      "▁Niem": 4938,
      "▁aku": 4939,
      "wnie": 4940,
      "sorty": 4941,
      "nkę": 4942,
      "▁tygodniu": 4943,
      "▁post": 4944,
      "▁rzę": 4945,
      "▁odświe": 4946,
      "▁(na": 4947,
      "nęłam": 4948,
      "lia": 4949,
      "▁Szko": 4950,
      "czyła": 4951,
      "wać,": 4952,
      "▁następu": 4953,
      ".\nTe": 4954,
      "uper": 4955,
      "▁miało": 4956,
      "czki,": 4957,
      "▁cyfr": 4958,
      "▁energii": 4959,
      "\nDot.:": 4960,
      "▁Per": 4961,
      "▁Chcia": 4962,
      "mą": 4963,
      "any,": 4964,
      "▁polity": 4965,
      "▁ulubionych": 4966,
      "▁kogo": 4967,
      "18": 4968,
      "rem,": 4969,
      "▁niezależ": 4970,
      "▁Oto": 4971,
      "▁środa,": 4972,
      "smi": 4973,
      "▁zasadzie": 4974,
      "krót": 4975,
      "▁podobnie": 4976,
      "▁restaura": 4977,
      "▁ruch": 4978,
      "szość": 4979,
      "puszcza": 4980,
      "▁sami": 4981,
      "▁piątek,": 4982,
      "▁cieszy": 4983,
      "▁potwier": 4984,
      "wiać": 4985,
      "▁smartwat": 4986,
      "▁właściwości": 4987,
      "Je": 4988,
      "dwie": 4989,
      "▁ame": 4990,
      "smy": 4991,
      "▁koniecznie": 4992,
      "▁przenoś": 4993,
      "dzania": 4994,
      "▁mogłam": 4995,
      "▁spokojnie": 4996,
      "▁Pow": 4997,
      "▁czwartek,": 4998,
      "czenia,": 4999,
      "▁życia,": 5000,
      "▁oczywi": 5001,
      "mować": 5002,
      "▁św.": 5003,
      "mieni": 5004,
      "nięcie": 5005,
      "tków": 5006,
      "▁Wystarczy": 5007,
      "▁wspomnia": 5008,
      "▁słów": 5009,
      "szczą": 5010,
      "▁przeszkadza": 5011,
      "zny": 5012,
      "▁Wśród": 5013,
      "cona": 5014,
      "▁Świet": 5015,
      "tywa": 5016,
      "lina": 5017,
      "▁zabie": 5018,
      "▁małym": 5019,
      "ślę,": 5020,
      "▁ml": 5021,
      "▁brą": 5022,
      "▁zacze": 5023,
      "▁dostrze": 5024,
      "żyłam": 5025,
      "▁działanie": 5026,
      "▁wreszcie": 5027,
      "zdrawiam": 5028,
      "▁zle": 5029,
      "▁włą": 5030,
      "▁wykonać": 5031,
      "▁przech": 5032,
      "spe": 5033,
      "60": 5034,
      "▁przemy": 5035,
      "jew": 5036,
      "▁odleg": 5037,
      "▁nagro": 5038,
      "▁wydaw": 5039,
      "▁danym": 5040,
      "▁elementem": 5041,
      "ersal": 5042,
      "▁druga": 5043,
      "▁niewiele": 5044,
      "▁badania": 5045,
      "▁dosy": 5046,
      "lot": 5047,
      "szczu": 5048,
      "tui": 5049,
      "▁Krzy": 5050,
      "▁2018": 5051,
      "dnych": 5052,
      "▁czas,": 5053,
      "▁rozry": 5054,
      "jąco": 5055,
      "▁Więc": 5056,
      "▁Jedy": 5057,
      "chać": 5058,
      "CH": 5059,
      "ści,": 5060,
      "▁układ": 5061,
      "▁mogli": 5062,
      "▁cudow": 5063,
      "kaz": 5064,
      "▁patel": 5065,
      "▁rodziców": 5066,
      "▁specyfika": 5067,
      "▁wysokiej": 5068,
      "cze,": 5069,
      "lami": 5070,
      "ime": 5071,
      "son": 5072,
      "▁przeby": 5073,
      "▁reak": 5074,
      "land": 5075,
      "▁równo": 5076,
      "▁dział": 5077,
      "▁wypada": 5078,
      "▁Tele": 5079,
      "\nU": 5080,
      "▁używam": 5081,
      "▁Produ": 5082,
      "nki,": 5083,
      "▁powiedzieć,": 5084,
      "▁kot": 5085,
      "▁mro": 5086,
      "▁bas": 5087,
      "▁zawie": 5088,
      "▁ści": 5089,
      "▁parametr": 5090,
      "▁jednak,": 5091,
      "▁zastąpi": 5092,
      "▁marki": 5093,
      "▁książkę": 5094,
      "▁najlepszym": 5095,
      "▁chrze": 5096,
      "ralnie": 5097,
      "▁27": 5098,
      "▁gadże": 5099,
      "j.": 5100,
      "▁filmu": 5101,
      "▁mega": 5102,
      "wienia": 5103,
      "▁istnieje": 5104,
      "▁ramach": 5105,
      "▁szans": 5106,
      "▁robią": 5107,
      "▁uwie": 5108,
      "▁(n": 5109,
      "▁przychodzi": 5110,
      "jącymi": 5111,
      "▁współpra": 5112,
      "▁oby": 5113,
      "guje": 5114,
      "lada": 5115,
      "lta": 5116,
      "▁regi": 5117,
      "▁mały": 5118,
      "▁nasto": 5119,
      "głę": 5120,
      "▁such": 5121,
      "▁nie.": 5122,
      "▁us": 5123,
      "▁naro": 5124,
      "▁serca": 5125,
      "cz,": 5126,
      "▁bylo": 5127,
      "▁słone": 5128,
      "▁Autor": 5129,
      "dzeniu": 5130,
      "▁zabezpie": 5131,
      "▁niebezpie": 5132,
      "▁odrobi": 5133,
      "▁Boga": 5134,
      "▁propozycje": 5135,
      "▁kolory": 5136,
      "ści.": 5137,
      "▁kata": 5138,
      "ściu": 5139,
      "bienie": 5140,
      "▁archi": 5141,
      "niejsza": 5142,
      "▁śli": 5143,
      "▁wiesz": 5144,
      "▁bezpośredni": 5145,
      "liście": 5146,
      "▁kwestia": 5147,
      "▁Bia": 5148,
      "▁odpowiedź": 5149,
      "▁Tro": 5150,
      "▁kost": 5151,
      "▁użytkownika": 5152,
      "▁powietrza.": 5153,
      "▁Poznaj": 5154,
      "▁siłownię": 5155,
      "owość": 5156,
      "▁odbiera": 5157,
      ".\nWie": 5158,
      "lony": 5159,
      "▁wziąć": 5160,
      "▁wrzu": 5161,
      ".pl": 5162,
      "▁90": 5163,
      "zę": 5164,
      "▁skutecznie": 5165,
      "▁wsta": 5166,
      "▁history": 5167,
      "▁!": 5168,
      "▁powierzchni": 5169,
      "▁bezprzewodowe": 5170,
      "▁śre": 5171,
      "▁powszech": 5172,
      "▁Rek": 5173,
      "▁myślę,": 5174,
      "czasem": 5175,
      "pki": 5176,
      "▁wnętrza": 5177,
      "▁Ak": 5178,
      "▁odkurza": 5179,
      "▁Jeszcze": 5180,
      ".\nMoże": 5181,
      "win": 5182,
      "▁wyzna": 5183,
      "▁myślą": 5184,
      "▁zesz": 5185,
      "▁stwier": 5186,
      "nione": 5187,
      "▁tworzy": 5188,
      "▁zasłu": 5189,
      "▁iP": 5190,
      "▁pobli": 5191,
      "▁rozpoczę": 5192,
      "łami": 5193,
      "▁Chry": 5194,
      "▁sposobem": 5195,
      "▁zas": 5196,
      "▁zawi": 5197,
      "▁zła": 5198,
      "▁Jednym": 5199,
      "▁sprawy": 5200,
      "siada": 5201,
      "▁zostać": 5202,
      "▁pielęgnacji": 5203,
      "200": 5204,
      "▁plus": 5205,
      "▁kor": 5206,
      "▁spor": 5207,
      "▁zaga": 5208,
      "▁rzeczywistości": 5209,
      "▁dniu": 5210,
      "▁Zastanawiasz": 5211,
      "▁Ofer": 5212,
      "▁dostałam": 5213,
      "leni": 5214,
      "▁tysią": 5215,
      "24": 5216,
      "▁kiesze": 5217,
      "owar": 5218,
      "lizacja": 5219,
      "▁ponownie": 5220,
      "mówi": 5221,
      "nił": 5222,
      "gne": 5223,
      "obi": 5224,
      "jął": 5225,
      "▁syl": 5226,
      "dzanie": 5227,
      "▁zawod": 5228,
      "▁chcemy": 5229,
      "▁oferuje": 5230,
      "go.": 5231,
      "▁bierze": 5232,
      "▁ręce": 5233,
      "▁popro": 5234,
      "gdzie": 5235,
      "owuje": 5236,
      "▁space": 5237,
      "▁stoi": 5238,
      "żeniu": 5239,
      "ckich": 5240,
      "▁pierwsza": 5241,
      "▁bezpieczeństwa": 5242,
      "▁1,": 5243,
      "▁służ": 5244,
      "▁swego": 5245,
      "gatyw": 5246,
      "1.": 5247,
      "▁głośni": 5248,
      "▁zapewnić": 5249,
      "▁Trzeba": 5250,
      "▁TV": 5251,
      "czyli": 5252,
      "▁scho": 5253,
      "▁przyję": 5254,
      ".\nL": 5255,
      "ska.": 5256,
      "▁ogólnie": 5257,
      "▁Czar": 5258,
      "▁widziałam": 5259,
      "▁innej": 5260,
      "nek,": 5261,
      "szczegól": 5262,
      "▁niedziela,": 5263,
      "▁ameryka": 5264,
      "rucho": 5265,
      "ię.": 5266,
      "▁polskich": 5267,
      "łama": 5268,
      "▁jakimi": 5269,
      "▁rady": 5270,
      "skiego.": 5271,
      "▁dzwo": 5272,
      "▁kreatyw": 5273,
      "▁wrażenie": 5274,
      "▁dodatkowe": 5275,
      "▁fajnie": 5276,
      "▁stabi": 5277,
      "▁wspiera": 5278,
      "nę.": 5279,
      "ii.": 5280,
      "▁otrzy": 5281,
      "▁męża": 5282,
      "▁meble": 5283,
      "▁scen": 5284,
      "▁zgodnie": 5285,
      "▁więcej,": 5286,
      "ltra": 5287,
      "▁świetną": 5288,
      "▁tych,": 5289,
      "▁materiał": 5290,
      "cham": 5291,
      "jciec": 5292,
      "a,": 5293,
      "▁psa": 5294,
      "ganiz": 5295,
      "▁nauki": 5296,
      "▁zresztą": 5297,
      "▁różnego": 5298,
      "▁przesy": 5299,
      "▁okazało": 5300,
      "łach": 5301,
      "▁skór": 5302,
      "sz.": 5303,
      "▁tytuł": 5304,
      "▁zmu": 5305,
      "▁Podob": 5306,
      "Fo": 5307,
      "▁tera": 5308,
      "▁zamów": 5309,
      "▁Zw": 5310,
      "nieść": 5311,
      "▁Podpowiadamy,": 5312,
      "▁wady": 5313,
      "▁należą": 5314,
      "cia.": 5315,
      "▁zabawki": 5316,
      "▁byc": 5317,
      "▁pieniędzy": 5318,
      "▁koszu": 5319,
      "lip": 5320,
      "▁szale": 5321,
      "chód": 5322,
      "▁różnią": 5323,
      "▁różno": 5324,
      "dziłam": 5325,
      "▁Chociaż": 5326,
      "da.": 5327,
      "?\nD": 5328,
      "kiedy": 5329,
      "▁atmos": 5330,
      "▁skóra": 5331,
      "▁wodą": 5332,
      "dować": 5333,
      "▁ułatwia": 5334,
      "entu": 5335,
      "▁wsi": 5336,
      "▁Wro": 5337,
      "▁troche": 5338,
      "▁hała": 5339,
      "▁odpo": 5340,
      "▁absolu": 5341,
      "dami": 5342,
      "▁Hu": 5343,
      "▁Odpowie": 5344,
      "sie,": 5345,
      "camy": 5346,
      "▁zadbać": 5347,
      "wolu": 5348,
      "▁sezon": 5349,
      "cha,": 5350,
      "cznego.": 5351,
      "▁ofercie": 5352,
      "▁strze": 5353,
      "ci.": 5354,
      "▁całości": 5355,
      "▁codziennie": 5356,
      "▁Samsu": 5357,
      "żona": 5358,
      "▁wykorzysta": 5359,
      "▁ostro": 5360,
      "23": 5361,
      "OS": 5362,
      "róć": 5363,
      "stwie": 5364,
      "systen": 5365,
      "ńskich": 5366,
      "▁Wyso": 5367,
      "▁dora": 5368,
      "▁śnie": 5369,
      "▁samopo": 5370,
      "ril": 5371,
      "▁zajęcia": 5372,
      "▁ogo": 5373,
      "▁finans": 5374,
      "▁powierzch": 5375,
      "▁reprez": 5376,
      "▁wraż": 5377,
      "▁opony": 5378,
      "▁reklam": 5379,
      "▁wielki": 5380,
      "▁pojawiają": 5381,
      "▁elementów": 5382,
      "rzy,": 5383,
      "▁Moja": 5384,
      "TA": 5385,
      "dziesią": 5386,
      "▁drugim": 5387,
      "▁\"M": 5388,
      "żu,": 5389,
      "▁grub": 5390,
      "▁chłopak": 5391,
      "▁zrezygn": 5392,
      "▁Dy": 5393,
      "▁prę": 5394,
      "▁ref": 5395,
      "▁przedszko": 5396,
      "▁\"W": 5397,
      "▁zbior": 5398,
      "▁niezbędne": 5399,
      "▁ziemi": 5400,
      "▁sprawia,": 5401,
      "▁drewnia": 5402,
      "dzać": 5403,
      "▁rower": 5404,
      "▁Ge": 5405,
      "gram": 5406,
      "▁człon": 5407,
      "rząc": 5408,
      "▁zasię": 5409,
      "▁ogromną": 5410,
      "▁mig": 5411,
      "szy.": 5412,
      "puszcz": 5413,
      "▁spad": 5414,
      "▁\"T": 5415,
      "▁żar": 5416,
      "▁maszy": 5417,
      "rie": 5418,
      "▁cenę": 5419,
      "▁HD": 5420,
      "▁biur": 5421,
      "▁opty": 5422,
      "▁rozwa": 5423,
      "▁kątem": 5424,
      "▁iPhone": 5425,
      "▁porówny": 5426,
      "▁atak": 5427,
      "tę,": 5428,
      "▁żyć": 5429,
      "▁wojny": 5430,
      "zdro": 5431,
      "cznie,": 5432,
      "▁oprócz": 5433,
      "sty,": 5434,
      "▁28": 5435,
      "tycznych": 5436,
      "▁Oprócz": 5437,
      "▁miarę": 5438,
      "\nMo": 5439,
      "▁mąd": 5440,
      "▁polecanych": 5441,
      "▁Jedno": 5442,
      "▁droga": 5443,
      "▁Takie": 5444,
      "▁prysz": 5445,
      "▁pysz": 5446,
      "▁dorosł": 5447,
      "▁opar": 5448,
      "▁osoby,": 5449,
      "▁funkcji": 5450,
      "▁profesjonal": 5451,
      "mat": 5452,
      "twarza": 5453,
      ".\nMam": 5454,
      "▁26": 5455,
      "cjonar": 5456,
      "ld": 5457,
      "wła": 5458,
      "nem,": 5459,
      "tyczny": 5460,
      "▁dobrać": 5461,
      "ersyte": 5462,
      "▁linii": 5463,
      "▁roman": 5464,
      "łu,": 5465,
      "▁wewnętrz": 5466,
      "▁sprawdź": 5467,
      "▁udo": 5468,
      "▁uczni": 5469,
      "▁dow": 5470,
      "cyjne,": 5471,
      "▁Potem": 5472,
      "▁zabawy": 5473,
      "▁dobrych": 5474,
      "▁Pat": 5475,
      "dak": 5476,
      "czny.": 5477,
      "leń": 5478,
      "▁przeko": 5479,
      "▁początek": 5480,
      "▁wiedzy": 5481,
      "▁samopoczu": 5482,
      "▁sprzą": 5483,
      "▁temu,": 5484,
      ".\nDot.:": 5485,
      "▁telewizo": 5486,
      "▁zask": 5487,
      "▁Chrystu": 5488,
      "▁drogie": 5489,
      "▁dołą": 5490,
      "▁fun": 5491,
      "▁stać": 5492,
      "▁podraż": 5493,
      "▁filtr": 5494,
      "ZY": 5495,
      "▁pok": 5496,
      "▁ewen": 5497,
      "letni": 5498,
      "▁rozumiem": 5499,
      "▁rzeczy,": 5500,
      "ane,": 5501,
      "▁francu": 5502,
      "▁miałem": 5503,
      "▁zapomnia": 5504,
      "▁określi": 5505,
      "cja.": 5506,
      "▁Inter": 5507,
      "▁asorty": 5508,
      "sną": 5509,
      "EN": 5510,
      "▁śwież": 5511,
      "ste,": 5512,
      "▁Kra": 5513,
      "net": 5514,
      "▁zdra": 5515,
      "stej": 5516,
      "▁Więk": 5517,
      "owin": 5518,
      "▁wlas": 5519,
      "▁Reklama": 5520,
      "▁Dodatkowo": 5521,
      "▁aranża": 5522,
      "▁wykonanie": 5523,
      "▁Ich": 5524,
      "rów,": 5525,
      "▁zaczęłam": 5526,
      "w,": 5527,
      "esz": 5528,
      "g,": 5529,
      "▁potrzebne": 5530,
      "CO": 5531,
      "dan": 5532,
      "au": 5533,
      "▁wnios": 5534,
      "▁infor": 5535,
      "▁twojego": 5536,
      "ryfi": 5537,
      "▁środku": 5538,
      "▁nowej": 5539,
      "bliote": 5540,
      "000": 5541,
      "▁dr": 5542,
      "▁uz": 5543,
      "czko": 5544,
      "▁męskie": 5545,
      "łopo": 5546,
      "▁zdjęcie": 5547,
      "▁zapachy": 5548,
      "▁kosmetyki": 5549,
      "▁występ": 5550,
      "żne": 5551,
      "▁wszę": 5552,
      "lnia": 5553,
      "▁niezwyk": 5554,
      "▁rewela": 5555,
      "▁specjalnie": 5556,
      "▁opinii": 5557,
      "▁szklan": 5558,
      "▁zwycię": 5559,
      "kach,": 5560,
      "▁tekst": 5561,
      "▁cieszą": 5562,
      "▁mężczyzn": 5563,
      "▁zrobiłam": 5564,
      "▁kontakt": 5565,
      "▁Ame": 5566,
      "▁wyobraża": 5567,
      "▁aplikacji": 5568,
      "tarza": 5569,
      "▁obiad": 5570,
      "\ns": 5571,
      "▁stare": 5572,
      "ciła": 5573,
      "lną": 5574,
      "lona": 5575,
      "decyd": 5576,
      "▁wiedzieć": 5577,
      "tam,": 5578,
      "▁łączy": 5579,
      "lił": 5580,
      "▁poroz": 5581,
      "▁Twojego": 5582,
      "▁Wybiera": 5583,
      "▁otwiera": 5584,
      "▁prą": 5585,
      "▁szere": 5586,
      "▁korzy": 5587,
      "▁Tutaj": 5588,
      "▁Zobacz,": 5589,
      "▁małże": 5590,
      "▁cztery": 5591,
      "▁myślę": 5592,
      "▁żadnej": 5593,
      "▁zakresie": 5594,
      "owałem": 5595,
      "nowi": 5596,
      "▁choćby": 5597,
      "oth": 5598,
      "kowej": 5599,
      "stego": 5600,
      "▁poniższym": 5601,
      "mula": 5602,
      "▁Dzisiaj": 5603,
      "ft": 5604,
      "▁służy": 5605,
      "▁wierz": 5606,
      "▁mówiąc": 5607,
      "▁twój": 5608,
      "▁inni": 5609,
      "▁uniwersal": 5610,
      "▁sposobów": 5611,
      "▁skąd": 5612,
      "▁2.": 5613,
      "▁ciu": 5614,
      "jące,": 5615,
      "nek.": 5616,
      "▁Black": 5617,
      "siębior": 5618,
      "▁unik": 5619,
      "▁(np.": 5620,
      "▁przekon": 5621,
      "▁śla": 5622,
      "▁potę": 5623,
      "stre": 5624,
      "▁czytać": 5625,
      "▁wymienić": 5626,
      "nik,": 5627,
      "jekt": 5628,
      "czyłam": 5629,
      "▁Był": 5630,
      "▁przek": 5631,
      "▁2019": 5632,
      "▁wielkie": 5633,
      "▁miesiąc": 5634,
      "czką": 5635,
      "▁czasu.": 5636,
      "suje": 5637,
      "▁potrafią": 5638,
      "▁powietrze": 5639,
      "▁ole": 5640,
      "\nja": 5641,
      "▁spoży": 5642,
      "\nTo": 5643,
      "kł": 5644,
      "▁rozmowy": 5645,
      "▁wybrać.": 5646,
      "▁dźwięku": 5647,
      "ono": 5648,
      "▁Przygotowaliśmy": 5649,
      "▁prawdę": 5650,
      "▁powoli": 5651,
      "dują": 5652,
      "dowe": 5653,
      "▁monitora": 5654,
      "ję.": 5655,
      "▁rozmiar": 5656,
      "▁mi,": 5657,
      "typ": 5658,
      "▁Dzień": 5659,
      "konie": 5660,
      "▁stanowią": 5661,
      "▁nasi": 5662,
      "▁zaawans": 5663,
      "▁wymy": 5664,
      "▁zasi": 5665,
      "▁spodoba": 5666,
      "gania": 5667,
      "▁dosz": 5668,
      "▁trój": 5669,
      "▁oczu": 5670,
      "▁frag": 5671,
      "▁użytku": 5672,
      "boo": 5673,
      "ąb": 5674,
      "lec": 5675,
      "krai": 5676,
      "▁Ponad": 5677,
      "biór": 5678,
      "▁negatyw": 5679,
      "▁ćwiczenia": 5680,
      "▁dokona": 5681,
      "▁pikseli": 5682,
      "twarty": 5683,
      "▁serce": 5684,
      "▁masa": 5685,
      "▁braku": 5686,
      "▁rozgry": 5687,
      "▁patrzy": 5688,
      "▁wykorzysty": 5689,
      "▁1.": 5690,
      "▁zapewniają": 5691,
      "▁tylko,": 5692,
      "▁przesa": 5693,
      "▁ude": 5694,
      "▁potrzeba": 5695,
      "▁zaczął": 5696,
      "szal": 5697,
      "zon": 5698,
      "▁Jezu": 5699,
      "nęło": 5700,
      "skiem": 5701,
      "▁szukasz": 5702,
      "▁wysił": 5703,
      "▁narod": 5704,
      "▁używać": 5705,
      "chów": 5706,
      "▁Zosta": 5707,
      "▁80": 5708,
      "demu": 5709,
      "▁ochotę": 5710,
      "cznej,": 5711,
      "▁obud": 5712,
      "▁drugą": 5713,
      "jąc,": 5714,
      "zdu": 5715,
      "▁pos": 5716,
      "cony": 5717,
      "▁Ste": 5718,
      "▁zaka": 5719,
      "▁zacho": 5720,
      "czenie.": 5721,
      "▁dobro": 5722,
      "del": 5723,
      "▁Zawsze": 5724,
      "kazuje": 5725,
      "czytaj": 5726,
      "▁infek": 5727,
      "▁wyposażone": 5728,
      "▁pewnym": 5729,
      "prawie": 5730,
      "▁upa": 5731,
      "▁rozmai": 5732,
      "▁przemyś": 5733,
      "brew": 5734,
      "cza,": 5735,
      "▁wykoń": 5736,
      "▁cebu": 5737,
      "zyden": 5738,
      "▁Kto": 5739,
      "ctwa": 5740,
      "rea": 5741,
      "▁Najlep": 5742,
      "▁podkład": 5743,
      "▁jeź": 5744,
      "▁staro": 5745,
      "▁mozna": 5746,
      "\nprzy": 5747,
      "▁Samsung": 5748,
      "siad": 5749,
      "ruje": 5750,
      "▁odde": 5751,
      "rez": 5752,
      "▁adres": 5753,
      "▁zapła": 5754,
      "▁2020": 5755,
      "▁świ": 5756,
      "▁pana": 5757,
      "▁znalazłam": 5758,
      "▁Or": 5759,
      "▁Mój": 5760,
      "▁pop": 5761,
      "▁inwe": 5762,
      "ctwo": 5763,
      "czynku": 5764,
      "▁kame": 5765,
      "mien": 5766,
      "owie,": 5767,
      "▁wyciąg": 5768,
      "▁zje": 5769,
      "▁uzależ": 5770,
      "nar": 5771,
      ".\nJeśli": 5772,
      "▁potrzebuje": 5773,
      "▁wojs": 5774,
      "▁Najczęściej": 5775,
      "▁gład": 5776,
      "▁słab": 5777,
      "gaż": 5778,
      "▁\"K": 5779,
      "amy,": 5780,
      "▁nieprzyjem": 5781,
      "40": 5782,
      "▁..": 5783,
      "▁lubią": 5784,
      "▁cóż": 5785,
      "▁NA": 5786,
      "wać.": 5787,
      "▁znik": 5788,
      "▁mobi": 5789,
      "▁żaden": 5790,
      "dle": 5791,
      "▁alerg": 5792,
      "dziela": 5793,
      "▁Szy": 5794,
      "▁akcesoria": 5795,
      "▁znanych": 5796,
      "▁wlo": 5797,
      "▁efektyw": 5798,
      "ko.": 5799,
      "▁nas,": 5800,
      "▁poszczegól": 5801,
      "▁ście": 5802,
      "▁bohaterów": 5803,
      "\np": 5804,
      "▁makijaż": 5805,
      "▁Czasem": 5806,
      "tki,": 5807,
      "stawiamy": 5808,
      "owywania": 5809,
      "▁tr": 5810,
      "działam": 5811,
      "ołnie": 5812,
      "dopodobnie": 5813,
      "wien": 5814,
      "▁spacer": 5815,
      "▁telefonu.": 5816,
      "▁usłu": 5817,
      "dzwo": 5818,
      "▁ziemnia": 5819,
      "KA": 5820,
      "▁własnego": 5821,
      "mienie": 5822,
      "▁Następnie": 5823,
      "tach,": 5824,
      "▁:P": 5825,
      "szeniu": 5826,
      "▁prace": 5827,
      "▁aktualnie": 5828,
      "▁Gre": 5829,
      "▁pracowni": 5830,
      "▁Blue": 5831,
      "nów": 5832,
      "gene": 5833,
      "▁łazien": 5834,
      "▁itp": 5835,
      "niza": 5836,
      "▁przeno": 5837,
      "▁aparatu": 5838,
      "4.": 5839,
      "rum,": 5840,
      "▁zebra": 5841,
      "sow": 5842,
      "▁mikro": 5843,
      "▁bywa": 5844,
      "▁postęp": 5845,
      "▁modli": 5846,
      "▁imię": 5847,
      "▁filo": 5848,
      "łe,": 5849,
      "▁treningu": 5850,
      "▁Ceneo": 5851,
      "szymi": 5852,
      "to,": 5853,
      "▁wida": 5854,
      "▁konty": 5855,
      "ciłam": 5856,
      "▁szukać": 5857,
      "▁maj": 5858,
      "▁prost": 5859,
      "▁wartość": 5860,
      "▁\"D": 5861,
      "ciela": 5862,
      "▁Wtedy": 5863,
      "sta,": 5864,
      "▁różnorod": 5865,
      "▁stały": 5866,
      "▁cierp": 5867,
      "▁musiała": 5868,
      "▁otacza": 5869,
      "▁małych": 5870,
      "grafi": 5871,
      "▁Niektóre": 5872,
      "▁było,": 5873,
      "▁daj": 5874,
      "▁cechy": 5875,
      "▁producenci": 5876,
      "▁mil": 5877,
      "▁sklepu": 5878,
      "▁El": 5879,
      "▁wczes": 5880,
      "▁mówić": 5881,
      "▁rozwiązania": 5882,
      "szone": 5883,
      "▁termi": 5884,
      "▁Tak,": 5885,
      "▁dosyć": 5886,
      "wicz": 5887,
      "sf": 5888,
      "15": 5889,
      "kan": 5890,
      "▁idealne": 5891,
      "▁śmia": 5892,
      "▁sobota,": 5893,
      "ariu": 5894,
      "▁nowa": 5895,
      "▁wiedzieć,": 5896,
      "▁zdanie": 5897,
      "▁zapewne": 5898,
      "smisja": 5899,
      "\nR": 5900,
      "▁łyże": 5901,
      "mac": 5902,
      "▁modele,": 5903,
      "▁dziękuję": 5904,
      "▁sposób.": 5905,
      "▁napraw": 5906,
      "▁Współ": 5907,
      "▁dniach": 5908,
      "▁obserw": 5909,
      "▁zaczyn": 5910,
      "IM": 5911,
      "▁Nowo": 5912,
      "▁kolejnych": 5913,
      "▁wspomina": 5914,
      "▁użytkowania": 5915,
      "▁pozo": 5916,
      "mentu": 5917,
      "▁kompute": 5918,
      "▁legen": 5919,
      "▁nową": 5920,
      "▁bó": 5921,
      "nerw": 5922,
      "▁pytania.": 5923,
      "▁doleg": 5924,
      "▁PR": 5925,
      "cją.": 5926,
      "▁bran": 5927,
      "▁koło": 5928,
      "ret": 5929,
      "▁(i": 5930,
      "▁kończy": 5931,
      "▁zgod": 5932,
      "▁wóz": 5933,
      "▁przyszłości": 5934,
      "▁Ang": 5935,
      "▁Kom": 5936,
      "zym": 5937,
      "nują": 5938,
      "▁prawdziwy": 5939,
      "▁rozpozna": 5940,
      "▁70": 5941,
      "znania": 5942,
      "rator": 5943,
      "rzyja": 5944,
      "▁przeciwko": 5945,
      "▁wysu": 5946,
      "▁bry": 5947,
      "▁bak": 5948,
      "▁uprawia": 5949,
      "▁spotkanie": 5950,
      "ana.": 5951,
      "▁ur": 5952,
      "▁rozwój": 5953,
      "▁energi": 5954,
      "lować": 5955,
      "zł": 5956,
      "rem.": 5957,
      "▁Oj": 5958,
      "▁szybciej": 5959,
      "więcej": 5960,
      "tywy": 5961,
      "▁reli": 5962,
      "gu,": 5963,
      "▁delikat": 5964,
      "▁facet": 5965,
      "▁piersi": 5966,
      "OR": 5967,
      "▁zo": 5968,
      "▁29": 5969,
      "▁Mon": 5970,
      "▁przeło": 5971,
      "▁polskim": 5972,
      "▁sypia": 5973,
      "▁znakomi": 5974,
      "▁zakład": 5975,
      "tychczas": 5976,
      "▁powiem": 5977,
      "▁wyrzu": 5978,
      "▁wygodne": 5979,
      "--------": 5980,
      "dego": 5981,
      "▁południ": 5982,
      "▁karie": 5983,
      "▁coś,": 5984,
      "▁pomyśla": 5985,
      "25": 5986,
      "▁kąpie": 5987,
      "...)": 5988,
      "▁wyjątkowo": 5989,
      "▁fabu": 5990,
      "▁efekty": 5991,
      "godnie": 5992,
      "▁wpis": 5993,
      ".\nDz": 5994,
      "▁stanu": 5995,
      "▁własną": 5996,
      "▁dok": 5997,
      "▁własnej": 5998,
      "skim,": 5999,
      "nor": 6000,
      "▁transpo": 6001,
      "▁nadaje": 6002,
      "▁miesię": 6003,
      "▁nr": 6004,
      "▁technologii": 6005,
      "▁kloc": 6006,
      "▁\"C": 6007,
      "▁AG": 6008,
      "▁czasach": 6009,
      "▁urządzenie,": 6010,
      "▁dziewczyna": 6011,
      "▁euro": 6012,
      "▁Dołącz": 6013,
      "\nG": 6014,
      "▁zawart": 6015,
      "▁mod": 6016,
      "nię,": 6017,
      "▁małego": 6018,
      "gi.": 6019,
      "czna,": 6020,
      "▁sposób,": 6021,
      "dem,": 6022,
      "▁możecie": 6023,
      "▁stacjonar": 6024,
      "▁nowym": 6025,
      "sznie": 6026,
      "▁Pla": 6027,
      "▁mys": 6028,
      "rzeniem": 6029,
      "▁pło": 6030,
      "▁hand": 6031,
      "▁Większość": 6032,
      "weryfi": 6033,
      "▁przesu": 6034,
      "▁zyska": 6035,
      "▁koncer": 6036,
      "pio": 6037,
      "▁wzo": 6038,
      "▁stó": 6039,
      "▁ubo": 6040,
      "▁Wrocła": 6041,
      "chu,": 6042,
      "▁195": 6043,
      "▁charakter": 6044,
      "▁reduk": 6045,
      "▁Har": 6046,
      "▁jesli": 6047,
      "▁przyci": 6048,
      "▁dorosłych": 6049,
      "▁codziennego": 6050,
      "▁rozpa": 6051,
      "czeni": 6052,
      "fię": 6053,
      "▁zer": 6054,
      "▁niedob": 6055,
      "▁Urzą": 6056,
      "▁Mak": 6057,
      "rka": 6058,
      "▁Pytania": 6059,
      "lowe": 6060,
      "niami": 6061,
      "-)": 6062,
      "ckim": 6063,
      "▁bło": 6064,
      "**": 6065,
      "▁kłopo": 6066,
      ".\nOd": 6067,
      "▁Transmisja": 6068,
      "pka": 6069,
      "▁musiał": 6070,
      "▁ciśnie": 6071,
      "▁cukier": 6072,
      "owanie.": 6073,
      "▁flagow": 6074,
      "▁Fil": 6075,
      "▁sklepach": 6076,
      "▁chu": 6077,
      "▁lekarz": 6078,
      "▁zagra": 6079,
      "▁ważny": 6080,
      "▁ilu": 6081,
      "▁język": 6082,
      "▁har": 6083,
      "▁osa": 6084,
      "óże": 6085,
      "dząc": 6086,
      "▁2010": 6087,
      "cyjna": 6088,
      "▁Powie": 6089,
      "▁samą": 6090,
      "▁przyro": 6091,
      "▁Mary": 6092,
      "alne": 6093,
      "▁też,": 6094,
      "▁spi": 6095,
      "▁zostawia": 6096,
      "▁preferen": 6097,
      "niż": 6098,
      "▁kondy": 6099,
      "▁toreb": 6100,
      "▁zbud": 6101,
      "▁radzi": 6102,
      "strzo": 6103,
      "▁ulubio": 6104,
      "słane": 6105,
      "▁specjali": 6106,
      "niony": 6107,
      "▁mani": 6108,
      "mentów": 6109,
      "▁wyna": 6110,
      "▁całość": 6111,
      "▁roli": 6112,
      "▁przys": 6113,
      "dzieli": 6114,
      "skich.": 6115,
      "▁uch": 6116,
      "▁funkcję": 6117,
      "▁Sprawdzamy": 6118,
      "▁urządzenia.": 6119,
      "▁Car": 6120,
      "oni": 6121,
      "\nWi": 6122,
      "▁chem": 6123,
      "▁rekomendowane": 6124,
      "▁najtań": 6125,
      "▁mała": 6126,
      "czych": 6127,
      "ord": 6128,
      "line": 6129,
      "wzglę": 6130,
      "▁lektury!": 6131,
      "▁konsek": 6132,
      "ości,": 6133,
      "▁zjawi": 6134,
      "▁150": 6135,
      "nu,": 6136,
      "alny": 6137,
      "▁man": 6138,
      "▁ekonomi": 6139,
      "▁zarzą": 6140,
      "▁zakupem": 6141,
      "byśmy": 6142,
      "▁błyska": 6143,
      "▁żywo": 6144,
      "▁kierow": 6145,
      "▁znaczą": 6146,
      "▁monta": 6147,
      "dał": 6148,
      "▁delikatnie": 6149,
      "łu.": 6150,
      "▁przyw": 6151,
      "▁kolczy": 6152,
      "▁dowiedzieć": 6153,
      "▁NIE": 6154,
      "pływ": 6155,
      "▁dekora": 6156,
      "rzone": 6157,
      "nictwo": 6158,
      "szczone": 6159,
      "▁ekspres": 6160,
      "▁pojęcia": 6161,
      "▁196": 6162,
      "▁oznacza,": 6163,
      "tali": 6164,
      "czymy": 6165,
      "krótce": 6166,
      "▁nieba": 6167,
      "twie": 6168,
      "▁ciężar": 6169,
      "skiej,": 6170,
      "▁Praw": 6171,
      "▁warszta": 6172,
      "▁tygodnie": 6173,
      "▁mechani": 6174,
      "▁mocy": 6175,
      ".\nWi": 6176,
      "▁nieodłą": 6177,
      "tychmiast": 6178,
      "▁napo": 6179,
      "▁sos": 6180,
      "▁zajmuje": 6181,
      "▁dotyczy": 6182,
      ".\nDla": 6183,
      "▁normalnie": 6184,
      "▁zastanawiam": 6185,
      "▁zamówie": 6186,
      "pat": 6187,
      "bierać": 6188,
      "▁załat": 6189,
      "▁szkod": 6190,
      "▁liczba": 6191,
      "▁spotkania": 6192,
      "▁cztere": 6193,
      "wanego": 6194,
      "dzenia.": 6195,
      "czają": 6196,
      "▁charakte": 6197,
      "▁obcią": 6198,
      "▁użytkowania.": 6199,
      "▁dziecia": 6200,
      "▁król": 6201,
      "▁płat": 6202,
      "długo": 6203,
      "▁ktore": 6204,
      "▁instruk": 6205,
      "▁wyróżnia": 6206,
      "▁poten": 6207,
      "▁urządzenia,": 6208,
      "▁jaz": 6209,
      "▁miejsce,": 6210,
      "▁porozmawia": 6211,
      "▁pocz": 6212,
      "bla": 6213,
      "▁specyfi": 6214,
      "▁śnia": 6215,
      "▁przestrzeni": 6216,
      "że,": 6217,
      "łąd": 6218,
      "▁liczby": 6219,
      "▁odżyw": 6220,
      "▁myśl": 6221,
      "▁zwro": 6222,
      "▁Super": 6223,
      "▁warst": 6224,
      "▁zastanowi": 6225,
      "▁własnym": 6226,
      "▁brze": 6227,
      "▁wypowie": 6228,
      "▁stre": 6229,
      "▁prowadzić": 6230,
      "▁skuteczne": 6231,
      "owane.": 6232,
      "▁siły": 6233,
      "prz": 6234,
      "▁punktu": 6235,
      "nika,": 6236,
      "\nje": 6237,
      "zajem": 6238,
      "tyczna": 6239,
      "▁katoli": 6240,
      "▁wielką": 6241,
      "wając": 6242,
      "▁laptop": 6243,
      "rys": 6244,
      "▁Og": 6245,
      "czenie,": 6246,
      "▁brąz": 6247,
      "▁Cieka": 6248,
      "▁Ła": 6249,
      "▁powodzeniem": 6250,
      "▁Ber": 6251,
      "kos": 6252,
      "▁bawi": 6253,
      "▁końców": 6254,
      "▁szczegół": 6255,
      "stość": 6256,
      "▁przytu": 6257,
      "▁zdzi": 6258,
      "ństwie": 6259,
      ".\nH": 6260,
      "▁stała": 6261,
      "ministra": 6262,
      "▁poży": 6263,
      "▁opcja": 6264,
      "▁czuj": 6265,
      "▁Pas": 6266,
      "skiej.": 6267,
      "▁tematy": 6268,
      "ram": 6269,
      "▁pozycji": 6270,
      "▁marzy": 6271,
      "▁skoń": 6272,
      "▁języka": 6273,
      "sta.": 6274,
      "▁oś": 6275,
      "▁zakupie": 6276,
      "▁pojecha": 6277,
      "▁miejsca,": 6278,
      "ósł": 6279,
      "dzi,": 6280,
      "▁kolorysty": 6281,
      "▁butel": 6282,
      "▁osobiście": 6283,
      "latka": 6284,
      "▁Musi": 6285,
      "▁men": 6286,
      "▁przer": 6287,
      "▁Fe": 6288,
      "dzona": 6289,
      "▁plasti": 6290,
      "▁zamy": 6291,
      "▁Nau": 6292,
      "logię": 6293,
      "▁Moje": 6294,
      "!!!!": 6295,
      "\nod": 6296,
      "▁upie": 6297,
      "▁wersja": 6298,
      "cznie.": 6299,
      "▁stąd": 6300,
      "▁woda": 6301,
      "▁premie": 6302,
      "▁Ap": 6303,
      "▁Taki": 6304,
      "▁2021": 6305,
      "'a": 6306,
      "▁Sie": 6307,
      "▁wiadomo,": 6308,
      "▁XV": 6309,
      "jemu": 6310,
      "owo.": 6311,
      "▁telefo": 6312,
      "▁serde": 6313,
      "▁pełną": 6314,
      "▁bezpieczeństwo": 6315,
      "▁odpowiedniej": 6316,
      "▁znaczenie": 6317,
      "▁producenta.": 6318,
      "▁oficjal": 6319,
      "▁Woj": 6320,
      "▁Cy": 6321,
      "ńskim": 6322,
      "twem": 6323,
      "▁wolno": 6324,
      "▁jest.": 6325,
      "▁węd": 6326,
      "▁uzda": 6327,
      "▁zatem,": 6328,
      "▁zwierzą": 6329,
      "▁mycia": 6330,
      "▁wdzię": 6331,
      "▁Możesz": 6332,
      "owywać": 6333,
      "nika.": 6334,
      "grzy": 6335,
      "▁podstawowe": 6336,
      "▁podpowiadamy": 6337,
      "▁drogę": 6338,
      "▁musiałam": 6339,
      "▁świata,": 6340,
      "nom": 6341,
      "▁napię": 6342,
      "▁krą": 6343,
      "▁ziem": 6344,
      "cyjną": 6345,
      "ER": 6346,
      "jewódz": 6347,
      "bów": 6348,
      "▁trą": 6349,
      "▁płu": 6350,
      "lne,": 6351,
      "mato": 6352,
      "▁nag": 6353,
      "▁Wszyscy": 6354,
      "▁prysznic": 6355,
      "diu": 6356,
      "▁uzdatnia": 6357,
      "▁większej": 6358,
      "puści": 6359,
      "▁pokro": 6360,
      "▁powoduje,": 6361,
      "80": 6362,
      "▁Jedną": 6363,
      "▁napisać": 6364,
      "▁żołnie": 6365,
      "▁czuć": 6366,
      ".\nPrzy": 6367,
      "▁Sko": 6368,
      "▁sprawę,": 6369,
      "▁wysokości": 6370,
      "▁przewodni": 6371,
      "▁wieczorem": 6372,
      "lory": 6373,
      "▁Gru": 6374,
      "maty": 6375,
      "liwych": 6376,
      "▁Opinie": 6377,
      "▁kosmetyków": 6378,
      "▁polski": 6379,
      "rzał": 6380,
      "▁wybu": 6381,
      "▁technologi": 6382,
      "▁dosł": 6383,
      "▁okazać": 6384,
      "skie.": 6385,
      "OD": 6386,
      "▁sylwet": 6387,
      "▁grup": 6388,
      "▁rozpoczą": 6389,
      "▁proces": 6390,
      "▁Dłu": 6391,
      "▁wyglądają": 6392,
      "▁rzadko": 6393,
      "▁sygna": 6394,
      "▁troszkę": 6395,
      "▁wnętrze": 6396,
      "liwa": 6397,
      "▁ocz": 6398,
      "▁jab": 6399,
      "▁zewnątrz": 6400,
      "▁oliw": 6401,
      "▁tekstu": 6402,
      "▁doświadczenia": 6403,
      "oz": 6404,
      "▁szczo": 6405,
      "▁moge": 6406,
      "▁wg": 6407,
      "nictwa": 6408,
      "▁pięć": 6409,
      "▁dziecka,": 6410,
      "▁korzystać": 6411,
      "▁pochodzi": 6412,
      "rzony": 6413,
      "cząc": 6414,
      "▁Stu": 6415,
      "▁ogło": 6416,
      ":)": 6417,
      "▁pisać": 6418,
      "▁artykule!": 6419,
      "▁służą": 6420,
      "▁rozsze": 6421,
      "▁blu": 6422,
      "▁starszych": 6423,
      "▁Kla": 6424,
      "▁wolę": 6425,
      "▁uwagę,": 6426,
      "nięte": 6427,
      "▁nikogo": 6428,
      "▁Masz": 6429,
      "Hz": 6430,
      "sem.": 6431,
      "▁poście": 6432,
      "▁nało": 6433,
      "▁parametrów": 6434,
      "dor": 6435,
      "▁wyle": 6436,
      "▁szaf": 6437,
      "▁Stra": 6438,
      "▁problem,": 6439,
      "kwi": 6440,
      "▁Wybierając": 6441,
      "▁wszystko.": 6442,
      "▁rozdzielczość": 6443,
      "▁socze": 6444,
      "▁up": 6445,
      "młod": 6446,
      "▁pocho": 6447,
      "▁bateria": 6448,
      "szony": 6449,
      "▁dym": 6450,
      "▁dużych": 6451,
      "▁zama": 6452,
      "▁podobno": 6453,
      "steś": 6454,
      "▁zorganiz": 6455,
      "▁laptopa": 6456,
      "▁Stro": 6457,
      "▁szczerze": 6458,
      "▁inna": 6459,
      "piłam": 6460,
      "▁podobne": 6461,
      "▁trudne": 6462,
      "▁powia": 6463,
      "towy": 6464,
      "▁cytry": 6465,
      "▁baj": 6466,
      "▁błyskawi": 6467,
      "▁wychodzą": 6468,
      "ksu": 6469,
      "aniu.": 6470,
      "▁Jako": 6471,
      "uu": 6472,
      "▁kolorze": 6473,
      "▁intry": 6474,
      "▁iden": 6475,
      "▁najgor": 6476,
      "tooth": 6477,
      "▁przo": 6478,
      "▁brzmi": 6479,
      ".\nMa": 6480,
      "▁lotni": 6481,
      "▁dotar": 6482,
      "nieważ": 6483,
      "ośród": 6484,
      "▁poziomu": 6485,
      "▁XI": 6486,
      "▁tle": 6487,
      "▁2022": 6488,
      "es": 6489,
      "▁ut": 6490,
      "▁Gu": 6491,
      "▁zakupy": 6492,
      "▁IP": 6493,
      "prawy": 6494,
      "▁szo": 6495,
      "▁panie": 6496,
      "▁este": 6497,
      "domość": 6498,
      "▁stają": 6499,
      "▁uważam,": 6500,
      "▁centrum": 6501,
      "▁czytania": 6502,
      "▁klucz": 6503,
      "cznym,": 6504,
      "▁Mło": 6505,
      "▁dodatku": 6506,
      "▁zmian": 6507,
      "▁obrazu.": 6508,
      "tuję": 6509,
      "czyć,": 6510,
      "▁styliza": 6511,
      "cą,": 6512,
      "cyjnej": 6513,
      ".\nŻ": 6514,
      "▁choroby": 6515,
      "pety": 6516,
      "dzielczość": 6517,
      "▁Dro": 6518,
      "mują": 6519,
      "narod": 6520,
      "▁siłę": 6521,
      "▁dodatek": 6522,
      "▁Kul": 6523,
      "▁szkoda": 6524,
      "▁zł,": 6525,
      "12": 6526,
      "▁produktów.": 6527,
      "▁farb": 6528,
      "▁najlepsza": 6529,
      "biu": 6530,
      "mowe": 6531,
      "▁Q": 6532,
      ".\nMy": 6533,
      "▁logi": 6534,
      "tkach": 6535,
      "▁alterna": 6536,
      "▁Naprawdę": 6537,
      "cko": 6538,
      "▁wyszuki": 6539,
      "ży,": 6540,
      "▁kawy": 6541,
      "pry": 6542,
      "▁inhala": 6543,
      "▁AGD": 6544,
      "lany": 6545,
      "e,": 6546,
      "▁póki": 6547,
      "▁wysła": 6548,
      "▁kawa": 6549,
      "▁autora": 6550,
      "set": 6551,
      "ja,": 6552,
      "▁inspira": 6553,
      "\nZa": 6554,
      "westować": 6555,
      "▁Poli": 6556,
      "sper": 6557,
      "▁drogą": 6558,
      "▁Pana": 6559,
      "▁lakie": 6560,
      "lację": 6561,
      "▁spowodowa": 6562,
      "▁naby": 6563,
      "▁Rozdzielczość": 6564,
      "▁biżu": 6565,
      "▁ozdob": 6566,
      "▁szczęścia": 6567,
      "▁treści": 6568,
      "anii": 6569,
      "▁zasy": 6570,
      "▁perspek": 6571,
      "py,": 6572,
      "▁stworzyć": 6573,
      "▁decyduje": 6574,
      "▁zaopa": 6575,
      "▁najważniejszych": 6576,
      "pres": 6577,
      "▁utra": 6578,
      "zas": 6579,
      "▁danego": 6580,
      "sum": 6581,
      "▁wielkości": 6582,
      "▁częstot": 6583,
      "▁nienawi": 6584,
      "owani": 6585,
      "▁Odpowiedzi": 6586,
      "▁Sama": 6587,
      "pełnienie": 6588,
      "▁prosty": 6589,
      "day": 6590,
      "▁przenoszenia": 6591,
      "▁polskie": 6592,
      "▁Ki": 6593,
      "▁relak": 6594,
      "bić": 6595,
      "▁pozostaje": 6596,
      "prawa": 6597,
      "▁pozbyć": 6598,
      "▁elementy": 6599,
      "czy.": 6600,
      "▁lekar": 6601,
      "▁sezonie": 6602,
      "▁zdjęciu": 6603,
      "▁swe": 6604,
      "her": 6605,
      "▁kojarzy": 6606,
      "cznego,": 6607,
      "▁pokazu": 6608,
      "▁Ide": 6609,
      "zan": 6610,
      "▁przyby": 6611,
      "▁konsysten": 6612,
      "▁okazja": 6613,
      "▁organizm": 6614,
      "mplik": 6615,
      "▁stopniu": 6616,
      "▁jakiejś": 6617,
      "gowi": 6618,
      "▁III": 6619,
      "▁port": 6620,
      "tę.": 6621,
      "!\nC": 6622,
      "▁(wy": 6623,
      "▁spania": 6624,
      "▁poszuku": 6625,
      "▁przykry": 6626,
      "▁nakład": 6627,
      "▁nazwa": 6628,
      "▁ostatnim": 6629,
      "alnie": 6630,
      "▁poł": 6631,
      "cyjnym": 6632,
      "▁stawia": 6633,
      "weł": 6634,
      "EM": 6635,
      "ia,": 6636,
      "▁Twój": 6637,
      "▁poprawnie": 6638,
      "▁km": 6639,
      "▁połowie": 6640,
      "▁Głów": 6641,
      "cza.": 6642,
      "▁tam,": 6643,
      "▁obli": 6644,
      "▁uroczy": 6645,
      "▁has": 6646,
      "▁sekun": 6647,
      "▁Mas": 6648,
      "wiad": 6649,
      "▁powtó": 6650,
      "▁uczestni": 6651,
      "boga": 6652,
      "▁kompozy": 6653,
      "▁wsty": 6654,
      "▁spotyk": 6655,
      "▁Ultra": 6656,
      "▁zdą": 6657,
      "▁przew": 6658,
      "▁oglądać": 6659,
      "▁wyczu": 6660,
      "▁ró": 6661,
      "▁najcieka": 6662,
      "▁obserwa": 6663,
      "▁Kil": 6664,
      "niejszą": 6665,
      "ya": 6666,
      "▁społecze": 6667,
      "sy.": 6668,
      "▁pewnego": 6669,
      "rzona": 6670,
      "▁najwy": 6671,
      "▁pil": 6672,
      "▁gustu": 6673,
      "▁ręka": 6674,
      "▁rąk": 6675,
      "▁snu": 6676,
      "▁oszu": 6677,
      "ńcz": 6678,
      "▁Niestety,": 6679,
      "▁pozbawi": 6680,
      "▁rząd": 6681,
      "▁naturalny": 6682,
      "▁samych": 6683,
      "leży": 6684,
      "\nJak": 6685,
      "▁użytkownik": 6686,
      "▁pochodzą": 6687,
      "▁odpowiadamy": 6688,
      "[1": 6689,
      "▁przeszłości": 6690,
      "▁swoimi": 6691,
      "wne": 6692,
      "▁kru": 6693,
      "▁terenie": 6694,
      "szę,": 6695,
      "dale": 6696,
      "▁któraś": 6697,
      "▁twier": 6698,
      "▁:/": 6699,
      "▁zrobił": 6700,
      "Wi": 6701,
      "?\nA": 6702,
      "▁pomimo": 6703,
      "▁żo": 6704,
      "▁duża": 6705,
      "owań": 6706,
      "▁natychmiast": 6707,
      "▁urzę": 6708,
      "▁budow": 6709,
      "r,": 6710,
      "▁książce": 6711,
      "▁tuż": 6712,
      "kłady": 6713,
      "▁akcesori": 6714,
      "tko": 6715,
      "Bo": 6716,
      "▁USA": 6717,
      "staną": 6718,
      "▁total": 6719,
      "ome": 6720,
      "lt": 6721,
      "brzy": 6722,
      "▁układu": 6723,
      "▁doko": 6724,
      "▁oczekiwania": 6725,
      "cie?": 6726,
      "▁kg": 6727,
      "▁się\n": 6728,
      "▁wyborem!": 6729,
      "▁kwo": 6730,
      "▁lewej": 6731,
      "▁każdemu": 6732,
      "bin": 6733,
      "▁aktor": 6734,
      "\nAle": 6735,
      "▁kompletnie": 6736,
      "\nWy": 6737,
      "liwy": 6738,
      "▁temperatury": 6739,
      "▁Chi": 6740,
      "▁charakterysty": 6741,
      "▁firm": 6742,
      "▁der": 6743,
      "tóż": 6744,
      "▁Oferty": 6745,
      "▁zapomnie": 6746,
      "▁stoli": 6747,
      "ównie": 6748,
      "▁rękę": 6749,
      "▁Joh": 6750,
      "tek.": 6751,
      "▁druży": 6752,
      "czną.": 6753,
      "▁pokój": 6754,
      "▁,,": 6755,
      "▁liczbę": 6756,
      "weryfikowane": 6757,
      "▁odmia": 6758,
      "sma": 6759,
      "KI": 6760,
      "▁Zda": 6761,
      "gu.": 6762,
      "▁zaczęła": 6763,
      "▁pierwszą": 6764,
      "▁ogrzewanie": 6765,
      "▁chleb": 6766,
      "▁zespół": 6767,
      "▁Uniw": 6768,
      "kor": 6769,
      "▁wypadku": 6770,
      "CZ": 6771,
      "▁rozpoczyna": 6772,
      "▁ham": 6773,
      "▁pragnie": 6774,
      "▁smaku": 6775,
      "nkowo": 6776,
      "▁wodę": 6777,
      "▁komentarz": 6778,
      "OTE": 6779,
      "▁świetny": 6780,
      "gach": 6781,
      "▁weekend": 6782,
      "▁wierzy": 6783,
      "▁moment": 6784,
      "▁uję": 6785,
      "cą.": 6786,
      "łyby": 6787,
      "▁podkreśla": 6788,
      "▁najpopularniejszych": 6789,
      "niec": 6790,
      "sława": 6791,
      "▁wyżej": 6792,
      "▁objawy": 6793,
      "▁praktyczne": 6794,
      "obby": 6795,
      "?\nO": 6796,
      "▁nosić": 6797,
      "lizować": 6798,
      "▁potrzebujesz": 6799,
      "▁pociąg": 6800,
      "king": 6801,
      "▁odnale": 6802,
      "▁słuch": 6803,
      "▁Wal": 6804,
      "▁Gdzie": 6805,
      "nik.": 6806,
      "▁wyniku": 6807,
      "▁włosów.": 6808,
      "▁przecię": 6809,
      "gowe": 6810,
      "stawa": 6811,
      "stawić": 6812,
      "▁figu": 6813,
      "HD": 6814,
      "▁budynku": 6815,
      "▁godzinie": 6816,
      "▁jakies": 6817,
      "▁klocków": 6818,
      "laka": 6819,
      "▁bezpośrednio": 6820,
      "▁gorzej": 6821,
      "dzić.": 6822,
      "▁dyskusji": 6823,
      "▁dobrze.": 6824,
      "▁czekam": 6825,
      "▁Nor": 6826,
      "▁atmosfe": 6827,
      "▁kontynu": 6828,
      "nos": 6829,
      "▁świąte": 6830,
      "▁Bry": 6831,
      "▁ów": 6832,
      "▁należa": 6833,
      "\nL": 6834,
      "owi.": 6835,
      "QU": 6836,
      "ma,": 6837,
      "legro": 6838,
      "▁zdaje": 6839,
      "▁odebra": 6840,
      "▁spokój": 6841,
      "▁prowadzą": 6842,
      "▁Ostatnio": 6843,
      "▁Ile": 6844,
      "jne": 6845,
      "▁światło": 6846,
      "▁architek": 6847,
      "▁polskiej": 6848,
      "plo": 6849,
      "▁zdrowo": 6850,
      "▁jazdy": 6851,
      "▁słow": 6852,
      "ore": 6853,
      "▁sprzedaży": 6854,
      "lana": 6855,
      "kątna": 6856,
      "▁ciało": 6857,
      "▁mase": 6858,
      "▁smartfonie": 6859,
      "▁słowo": 6860,
      "▁Zna": 6861,
      "▁dostępu": 6862,
      "▁zrozumia": 6863,
      "ur.": 6864,
      "low": 6865,
      "Forum": 6866,
      "▁Albo": 6867,
      "czna.": 6868,
      "▁Karo": 6869,
      "▁zalet": 6870,
      "skich,": 6871,
      "cin": 6872,
      "▁pokazuje": 6873,
      "▁aktywności": 6874,
      "▁podzi": 6875,
      "▁nadzieję": 6876,
      "st,": 6877,
      "▁komuś": 6878,
      "▁składników": 6879,
      "rat": 6880,
      "czce": 6881,
      "▁odpowiedzieć": 6882,
      "tniego": 6883,
      "▁ekspe": 6884,
      "▁filmy": 6885,
      "▁Pły": 6886,
      "▁decyzji": 6887,
      "3,": 6888,
      "▁Di": 6889,
      "▁szlak": 6890,
      "▁For": 6891,
      "▁lę": 6892,
      "▁podar": 6893,
      "▁Vi": 6894,
      "▁dotychczas": 6895,
      "▁Istnie": 6896,
      "▁oczyszczacza": 6897,
      "ościami": 6898,
      "▁wyobraź": 6899,
      "chodzić": 6900,
      "pan": 6901,
      "▁spotyka": 6902,
      "▁czo": 6903,
      "▁motyw": 6904,
      "stania": 6905,
      "▁zgło": 6906,
      "żonych": 6907,
      "▁niektórzy": 6908,
      "99": 6909,
      "▁żyje": 6910,
      "▁najmłod": 6911,
      "▁ojciec": 6912,
      "▁wkład": 6913,
      "▁obiektyw": 6914,
      "▁czterech": 6915,
      "szed": 6916,
      "amy.": 6917,
      "lety": 6918,
      "▁Sze": 6919,
      "▁Pols": 6920,
      "▁rodzina": 6921,
      "▁czytam": 6922,
      "▁miesiące": 6923,
      "▁Tam": 6924,
      "▁okrop": 6925,
      "cyjnego": 6926,
      "▁kota": 6927,
      "▁zarzu": 6928,
      "ymi": 6929,
      "▁związek": 6930,
      "▁cenie.": 6931,
      "▁własny": 6932,
      "▁Myślę,": 6933,
      "▁cukru": 6934,
      "▁móz": 6935,
      "strza": 6936,
      "dki": 6937,
      "▁niepotrzeb": 6938,
      "▁nadmier": 6939,
      "▁doskonały": 6940,
      "▁Komi": 6941,
      "▁win": 6942,
      "rus": 6943,
      "▁Fri": 6944,
      "▁zadowolona": 6945,
      "▁bibliote": 6946,
      "▁wybrać,": 6947,
      "▁Rodzi": 6948,
      "▁hałasu": 6949,
      "on,": 6950,
      "▁funkcje": 6951,
      "tami.": 6952,
      "▁Polska": 6953,
      "▁tabli": 6954,
      "▁dzień,": 6955,
      "▁oddech": 6956,
      "▁tur": 6957,
      "luje": 6958,
      "▁życie.": 6959,
      "▁systemu": 6960,
      "patal": 6961,
      "▁mialam": 6962,
      "nymi,": 6963,
      "▁gier": 6964,
      "▁zapas": 6965,
      ".\nBy": 6966,
      "▁wez": 6967,
      "▁krymina": 6968,
      "tłuma": 6969,
      "▁zazdro": 6970,
      "▁chro": 6971,
      "▁obdar": 6972,
      "▁sprawę": 6973,
      "\nDo": 6974,
      "▁lepszy": 6975,
      "uf": 6976,
      "ologi": 6977,
      "▁(jak": 6978,
      "▁wielkim": 6979,
      "NA": 6980,
      "▁apte": 6981,
      "gru": 6982,
      "▁izo": 6983,
      "▁Kur": 6984,
      "▁najpięk": 6985,
      "▁rozryw": 6986,
      "▁warunkach": 6987,
      "▁biega": 6988,
      "dną": 6989,
      "dwo": 6990,
      "▁podaw": 6991,
      "▁kimś": 6992,
      "▁inną": 6993,
      "lacja": 6994,
      "▁gaze": 6995,
      "▁stres": 6996,
      "▁czos": 6997,
      "▁pamiętać": 6998,
      "▁gam": 6999,
      "▁państwa": 7000,
      "III": 7001,
      "dzonych": 7002,
      "▁studiach": 7003,
      "▁wakacje": 7004,
      "▁sreb": 7005,
      "▁minut.": 7006,
      "▁trening": 7007,
      "▁seksu": 7008,
      "ak,": 7009,
      "▁alergi": 7010,
      "▁mnie.": 7011,
      "▁turysty": 7012,
      "▁zacznie": 7013,
      "▁Kiedyś": 7014,
      "3.": 7015,
      "czki.": 7016,
      "▁Pamiętaj": 7017,
      "▁Tapatal": 7018,
      "cina": 7019,
      "waniem": 7020,
      "▁opisa": 7021,
      "▁twoim": 7022,
      "▁mieliśmy": 7023,
      "▁czasów": 7024,
      "▁zasięgu": 7025,
      "▁lud": 7026,
      "▁Bluetooth": 7027,
      "▁reszta": 7028,
      "▁cali.": 7029,
      "tać": 7030,
      "▁miłośni": 7031,
      "▁rami": 7032,
      "▁przyzwycza": 7033,
      "▁uwielbiam": 7034,
      "▁uśmiech": 7035,
      "▁sur": 7036,
      "tt": 7037,
      "▁średnio": 7038,
      "\nto": 7039,
      "▁osu": 7040,
      "▁ciekawa": 7041,
      "S.": 7042,
      "dziesiąt": 7043,
      "tkami": 7044,
      "▁sklepów": 7045,
      "▁Począ": 7046,
      "nęły": 7047,
      "▁Przekątna": 7048,
      "▁wydajność": 7049,
      "▁nud": 7050,
      "▁Twoja": 7051,
      "▁fantasty": 7052,
      "▁rezy": 7053,
      "▁dostępna": 7054,
      "▁wszędzie": 7055,
      "▁uczelni": 7056,
      "cają": 7057,
      "▁dziewczyn": 7058,
      "▁biorą": 7059,
      "którzy": 7060,
      "chu.": 7061,
      "▁dzieckiem": 7062,
      "▁obrazu": 7063,
      "pie,": 7064,
      "▁Gdyby": 7065,
      "loga": 7066,
      "▁ulicy": 7067,
      "▁Jaka": 7068,
      "▁woli": 7069,
      "▁poprawia": 7070,
      "dzenie,": 7071,
      "kło": 7072,
      "▁uj": 7073,
      "nięty": 7074,
      "▁opisy": 7075,
      "rzyło": 7076,
      "▁fajne": 7077,
      "▁fu": 7078,
      "▁przypa": 7079,
      "▁Coraz": 7080,
      "▁Przeczytaj": 7081,
      "▁rosyj": 7082,
      "liwie": 7083,
      "▁odgry": 7084,
      "▁akcji": 7085,
      "▁Decy": 7086,
      "▁Uży": 7087,
      "▁prag": 7088,
      "kanaście": 7089,
      "▁(1": 7090,
      "▁niedawno": 7091,
      "▁nie\n": 7092,
      "▁wykorzystać": 7093,
      "▁zaledwie": 7094,
      "▁powinnam": 7095,
      "▁Bel": 7096,
      "▁Tego": 7097,
      "▁hum": 7098,
      "▁urlo": 7099,
      "QUOTE": 7100,
      "▁powieść": 7101,
      "spoko": 7102,
      "▁Nigdy": 7103,
      "kania": 7104,
      "niósł": 7105,
      "▁aka": 7106,
      "▁Kobie": 7107,
      "działy": 7108,
      "▁śpi": 7109,
      "▁prezentują": 7110,
      "▁światła": 7111,
      "▁polskiego": 7112,
      "▁podzielić": 7113,
      "▁regularnie": 7114,
      "▁wybierać": 7115,
      "▁Zu": 7116,
      "▁Pięk": 7117,
      "prost": 7118,
      "storia": 7119,
      "▁dany": 7120,
      "turą,": 7121,
      "▁pełne": 7122,
      "▁Który": 7123,
      "▁strona": 7124,
      "▁brać": 7125,
      "▁porządku": 7126,
      "labym": 7127,
      "▁wzbu": 7128,
      "▁chrześci": 7129,
      "gam": 7130,
      "test": 7131,
      "stek": 7132,
      "▁przechodzi": 7133,
      "▁Dzia": 7134,
      "rzałam": 7135,
      "▁nauczyć": 7136,
      "▁forum,": 7137,
      "▁dzieć": 7138,
      "▁spróbować": 7139,
      "▁dyrek": 7140,
      "▁wola": 7141,
      "▁nies": 7142,
      "▁widok": 7143,
      "▁wieczór": 7144,
      "tujemy": 7145,
      "▁wiadomości": 7146,
      "ree": 7147,
      "▁samolo": 7148,
      "▁produkcji": 7149,
      "óze": 7150,
      "▁pił": 7151,
      "gó": 7152,
      "▁(do": 7153,
      "▁wyobraz": 7154,
      "xy": 7155,
      "jaśnia": 7156,
      "jach": 7157,
      "▁do\n": 7158,
      "łuje": 7159,
      "zem": 7160,
      "▁wiary": 7161,
      "▁trafia": 7162,
      "▁hybry": 7163,
      "▁grania,": 7164,
      "▁Adam": 7165,
      "▁2-3": 7166,
      "gami": 7167,
      "tema": 7168,
      "▁okolicy": 7169,
      "▁krok": 7170,
      "▁Pozna": 7171,
      "dero": 7172,
      "▁tacy": 7173,
      "▁Ponadto": 7174,
      "mer": 7175,
      "▁zatrzyma": 7176,
      "▁prakty": 7177,
      "NE": 7178,
      "mierz": 7179,
      "lle": 7180,
      "▁matka": 7181,
      "▁nawie": 7182,
      "▁kultury": 7183,
      "▁częścią": 7184,
      "towane": 7185,
      "▁wyszło": 7186,
      "▁100%": 7187,
      "▁wymagają": 7188,
      "ższe": 7189,
      "szyb": 7190,
      "▁Tru": 7191,
      "rzeniu": 7192,
      "chodzę": 7193,
      "▁większych": 7194,
      "▁Wysokość": 7195,
      "óźniej": 7196,
      "anymi": 7197,
      "▁wprost": 7198,
      "▁składniki": 7199,
      "kracza": 7200,
      "▁LEGO": 7201,
      "▁dni,": 7202,
      "▁imprez": 7203,
      "▁wtedy,": 7204,
      "niesi": 7205,
      "▁zm": 7206,
      "▁staram": 7207,
      "pienie": 7208,
      "ości.": 7209,
      "▁zba": 7210,
      "uję": 7211,
      "▁suche": 7212,
      "anach": 7213,
      "▁odwa": 7214,
      "owie.": 7215,
      "▁zasady": 7216,
      "▁wygląd,": 7217,
      "▁maka": 7218,
      "▁klocki": 7219,
      "▁Cia": 7220,
      "▁dochodzi": 7221,
      "▁stresu": 7222,
      "▁Jas": 7223,
      "▁temperatura": 7224,
      "▁rodziców,": 7225,
      "▁naturalne": 7226,
      "▁skórze": 7227,
      "oży": 7228,
      "strzega": 7229,
      "nikami": 7230,
      "▁utrzym": 7231,
      "lum": 7232,
      "owski": 7233,
      "skie,": 7234,
      "NI": 7235,
      ".\nE": 7236,
      "▁czytałam": 7237,
      "tylko": 7238,
      "▁(bo": 7239,
      "▁podejście": 7240,
      "▁teat": 7241,
      "▁deszcz": 7242,
      "▁minera": 7243,
      "▁liczyć": 7244,
      "▁krzyw": 7245,
      "▁Księ": 7246,
      "▁łatwością": 7247,
      "tyczną": 7248,
      "▁mieszkanie": 7249,
      "owując": 7250,
      "jaw": 7251,
      "imna": 7252,
      "▁Gene": 7253,
      "▁Oczy": 7254,
      "owiec": 7255,
      "nii.": 7256,
      "▁żwi": 7257,
      "▁aktual": 7258,
      "\nE": 7259,
      "▁diagno": 7260,
      "odzi": 7261,
      "▁pacj": 7262,
      "▁młodych": 7263,
      "nięciu": 7264,
      "▁vi": 7265,
      "enta": 7266,
      "▁podstawowych": 7267,
      "lam,": 7268,
      "nica": 7269,
      "ńcu": 7270,
      "dzenia,": 7271,
      "sami": 7272,
      "▁największych": 7273,
      "70": 7274,
      "▁Sh": 7275,
      "tami,": 7276,
      "▁pewien": 7277,
      "▁absolutnie": 7278,
      "▁Najlepiej": 7279,
      "▁administra": 7280,
      "dru": 7281,
      "torzy": 7282,
      "▁ceny.": 7283,
      "▁trzeci": 7284,
      "▁akcep": 7285,
      "▁denerw": 7286,
      "▁wszelkich": 7287,
      "▁Wiem,": 7288,
      "▁niezbyt": 7289,
      "▁Uniwersyte": 7290,
      "\nTe": 7291,
      "▁Pierwszy": 7292,
      "▁stosunkowo": 7293,
      "▁powtarza": 7294,
      "▁Interne": 7295,
      "▁zbliża": 7296,
      "▁Duż": 7297,
      "▁głowę": 7298,
      "▁saty": 7299,
      "▁miej": 7300,
      "▁prawdopodobnie": 7301,
      "szto": 7302,
      "▁żebym": 7303,
      "▁twierdzi": 7304,
      "wer": 7305,
      "▁(cho": 7306,
      "▁wzmac": 7307,
      "?\nS": 7308,
      "▁daleko": 7309,
      "▁partner": 7310,
      "▁spotkać": 7311,
      "▁określić": 7312,
      "▁spek": 7313,
      "▁pomara": 7314,
      "▁aparat": 7315,
      "ju.": 7316,
      "liki": 7317,
      "▁ludź": 7318,
      "▁małej": 7319,
      "▁nowoczesne": 7320,
      "▁wieku.": 7321,
      "mieniu": 7322,
      "▁pracują": 7323,
      "▁historię": 7324,
      "om,": 7325,
      "▁nieprze": 7326,
      "▁śmierć": 7327,
      "▁tyle,": 7328,
      "▁okaże": 7329,
      "nionych": 7330,
      "sku,": 7331,
      "gij": 7332,
      "▁wykonania": 7333,
      "str": 7334,
      "lania": 7335,
      "▁rand": 7336,
      "▁mody": 7337,
      "▁groma": 7338,
      "szymy": 7339,
      "działem": 7340,
      "mie,": 7341,
      "▁firma": 7342,
      "▁Wia": 7343,
      "▁pracować": 7344,
      "any.": 7345,
      "dniki": 7346,
      "▁butów": 7347,
      "▁postanowiłam": 7348,
      "▁milion": 7349,
      "▁zabiera": 7350,
      "K.": 7351,
      "bach": 7352,
      "▁powięk": 7353,
      "▁(ur.": 7354,
      "jęcie": 7355,
      "▁wody.": 7356,
      "90": 7357,
      "▁zamówi": 7358,
      "▁and": 7359,
      "▁dzień.": 7360,
      "▁you": 7361,
      "▁telewizji": 7362,
      "▁życi": 7363,
      "▁nausz": 7364,
      "▁2009": 7365,
      "\nCo": 7366,
      "▁letni": 7367,
      "▁byłem": 7368,
      "▁wspólnego": 7369,
      "trwa": 7370,
      "\nko": 7371,
      ".\nJest": 7372,
      "aniu,": 7373,
      "▁gmi": 7374,
      "▁postać": 7375,
      "▁trzymać": 7376,
      "wek": 7377,
      "▁Tra": 7378,
      "▁skomplik": 7379,
      "▁zaro": 7380,
      "zy,": 7381,
      "rudno": 7382,
      "▁dostarcza": 7383,
      "rów.": 7384,
      "▁nia": 7385,
      "▁dzisiejszym": 7386,
      "▁musie": 7387,
      "▁żel": 7388,
      ".\nF": 7389,
      "tanie": 7390,
      "czną,": 7391,
      "▁zwracać": 7392,
      "▁musze": 7393,
      "▁pupi": 7394,
      "orę": 7395,
      "▁północ": 7396,
      "▁warunki": 7397,
      "form": 7398,
      "▁ilością": 7399,
      "▁skóry.": 7400,
      "▁ktos": 7401,
      "US": 7402,
      "▁prosi": 7403,
      "óra": 7404,
      "▁Przede": 7405,
      "▁chwil": 7406,
      "▁Mag": 7407,
      "▁konsekwen": 7408,
      "▁uło": 7409,
      "p,": 7410,
      "▁Tobie": 7411,
      "▁stosunek": 7412,
      "▁kształt": 7413,
      "▁kciu": 7414,
      "liny": 7415,
      "▁lista": 7416,
      "▁artysty": 7417,
      "czekać": 7418,
      "cyk": 7419,
      "▁\"B": 7420,
      "ght": 7421,
      "▁jeść": 7422,
      "cę,": 7423,
      "▁Kat": 7424,
      "▁plotk": 7425,
      "▁bede": 7426,
      "▁lice": 7427,
      "▁odpowiednią": 7428,
      "▁Funk": 7429,
      "▁działać": 7430,
      "▁ciasta": 7431,
      ".\nMu": 7432,
      "▁brzy": 7433,
      "▁zmęczenie": 7434,
      "▁Trochę": 7435,
      "gla": 7436,
      "▁Mnie": 7437,
      "koniecznie": 7438,
      "▁współprac": 7439,
      "▁programu": 7440,
      "▁czło": 7441,
      "fik": 7442,
      "▁interes": 7443,
      "▁1/": 7444,
      "▁okład": 7445,
      "groma": 7446,
      "QUOTE]": 7447,
      "▁ochrony": 7448,
      "▁samodzielnie": 7449,
      "lizację": 7450,
      "29": 7451,
      "sie.": 7452,
      "▁marek": 7453,
      "26": 7454,
      "▁kredy": 7455,
      "▁Przecież": 7456,
      "▁duzo": 7457,
      "▁wskazów": 7458,
      "▁Być": 7459,
      "▁kontrah": 7460,
      "▁zwal": 7461,
      "?\nJa": 7462,
      "▁gwiazd": 7463,
      "▁świecie.": 7464,
      "▁kosztuje": 7465,
      "▁oglądania": 7466,
      "▁nur": 7467,
      "▁sytuacjach": 7468,
      "dka": 7469,
      "▁roślin": 7470,
      "▁en": 7471,
      "▁ol": 7472,
      "▁modeli.": 7473,
      "/QUOTE]": 7474,
      "▁wyjść": 7475,
      "▁mogło": 7476,
      "▁siecią": 7477,
      "▁radę": 7478,
      "▁wykształ": 7479,
      "prawi": 7480,
      "▁łóże": 7481,
      "▁rowe": 7482,
      "▁gardero": 7483,
      "tyj": 7484,
      "▁grupa": 7485,
      "▁naukę": 7486,
      "LA": 7487,
      "▁Żeby": 7488,
      "Ja": 7489,
      "romo": 7490,
      "▁chcieli": 7491,
      "▁okie": 7492,
      "tycznej": 7493,
      "▁zagrani": 7494,
      "▁mężczyzna": 7495,
      "▁zastosowanie": 7496,
      "ph": 7497,
      "▁domowe": 7498,
      "▁serwisu": 7499,
      "▁zaprez": 7500,
      "▁3.": 7501,
      "▁RAM": 7502,
      "▁paznokcie": 7503,
      "▁wojewódz": 7504,
      "▁naw": 7505,
      "twier": 7506,
      "[1=": 7507,
      "▁leży": 7508,
      "czka,": 7509,
      "▁szansę": 7510,
      "▁życie,": 7511,
      "rtu": 7512,
      "!)": 7513,
      "▁Inte": 7514,
      "▁znaczy,": 7515,
      "▁wan": 7516,
      "chodni": 7517,
      "▁niz": 7518,
      "▁uprze": 7519,
      "▁publika": 7520,
      "▁osób.": 7521,
      "▁Dziewczy": 7522,
      "▁fina": 7523,
      ".\nTy": 7524,
      "▁Cent": 7525,
      "▁koście": 7526,
      "▁średniej": 7527,
      "▁szukam": 7528,
      "▁standard": 7529,
      "▁kilkanaście": 7530,
      "▁zapozna": 7531,
      "▁święta": 7532,
      "▁1000": 7533,
      "▁swej": 7534,
      "▁producenta": 7535,
      "▁byl": 7536,
      "▁sensu": 7537,
      "▁młodzie": 7538,
      "▁nerw": 7539,
      "▁dostaw": 7540,
      "▁występuje": 7541,
      "▁pokazy": 7542,
      "▁Józe": 7543,
      "tujące": 7544,
      "▁właściciel": 7545,
      "lache": 7546,
      "▁Wym": 7547,
      "▁owoc": 7548,
      "▁formy": 7549,
      "▁reflek": 7550,
      "▁opinie,": 7551,
      "▁umiera": 7552,
      "▁papier": 7553,
      "▁3-": 7554,
      "rasta": 7555,
      "▁zmysł": 7556,
      "▁mówił": 7557,
      "rz,": 7558,
      "▁wyjecha": 7559,
      "▁ludzi.": 7560,
      "▁materiału": 7561,
      "skach": 7562,
      "▁pachnie": 7563,
      "▁teor": 7564,
      "▁pełna": 7565,
      "tuj": 7566,
      "▁Twoim": 7567,
      "▁wor": 7568,
      "▁nastąpi": 7569,
      "▁orien": 7570,
      "▁Posiada": 7571,
      "▁Oczywiście,": 7572,
      "▁spać": 7573,
      "ard": 7574,
      "▁intui": 7575,
      "▁zadzwo": 7576,
      "ników,": 7577,
      "metr": 7578,
      "▁większa": 7579,
      "▁gabi": 7580,
      "szystko": 7581,
      "▁włosów,": 7582,
      "▁popularne": 7583,
      "▁Kos": 7584,
      "pas": 7585,
      "▁najnowsze": 7586,
      "▁szybkie": 7587,
      "ali": 7588,
      "zia": 7589,
      "▁doce": 7590,
      "▁zaczynają": 7591,
      "tki.": 7592,
      "wią,": 7593,
      "▁łatwe": 7594,
      "▁Narod": 7595,
      "▁prawdziwe": 7596,
      "▁Lon": 7597,
      "▁mówię": 7598,
      "▁termin": 7599,
      "\nH": 7600,
      "▁państw": 7601,
      "▁zup": 7602,
      "▁Nowy": 7603,
      "▁odz": 7604,
      "▁ryb": 7605,
      "▁paznokci": 7606,
      "▁domy": 7607,
      "▁zare": 7608,
      "szył": 7609,
      "owany,": 7610,
      "▁album": 7611,
      "▁znaczenia": 7612,
      "żyła": 7613,
      "▁fajny": 7614,
      "▁zainwestować": 7615,
      "dago": 7616,
      "▁ukaza": 7617,
      "▁inwesty": 7618,
      "ctwem": 7619,
      "ina": 7620,
      "▁trybie": 7621,
      "zeum": 7622,
      "<<ULICA>>": 7623,
      "▁urodziny": 7624,
      "▁niemowlaka": 7625,
      "▁Sprawdzi": 7626,
      "▁pojedyn": 7627,
      "▁procesor": 7628,
      "▁najwięcej": 7629,
      "lanych": 7630,
      "NIE": 7631,
      "▁formu": 7632,
      "dłuż": 7633,
      "lim": 7634,
      "▁pokar": 7635,
      "pisać": 7636,
      "▁wzor": 7637,
      "28": 7638,
      "▁Spe": 7639,
      "▁materiałów": 7640,
      "▁koloru": 7641,
      "▁nogi": 7642,
      "▁wina": 7643,
      "zyn": 7644,
      "▁materac": 7645,
      "▁wnętrz": 7646,
      "iast": 7647,
      "▁wybi": 7648,
      "szona": 7649,
      "▁Zd": 7650,
      "ance": 7651,
      "psu": 7652,
      "▁ważna": 7653,
      "▁sposobu": 7654,
      "by.": 7655,
      "▁itd": 7656,
      "▁morder": 7657,
      "▁bieżą": 7658,
      "tą,": 7659,
      "▁znalazły": 7660,
      "łaśnie": 7661,
      "▁Jana": 7662,
      "▁wlasnie": 7663,
      "wit": 7664,
      "▁Sza": 7665,
      "▁stosunku": 7666,
      "▁staną": 7667,
      "▁dobie": 7668,
      "prawić": 7669,
      "▁rach": 7670,
      "rodzi": 7671,
      "▁przyjemność": 7672,
      "dzespo": 7673,
      "▁trądzi": 7674,
      "▁makijażu": 7675,
      "▁opcji": 7676,
      "▁wilgot": 7677,
      "▁zbro": 7678,
      "▁wyraźnie": 7679,
      "▁powstała": 7680,
      "▁mając": 7681,
      "▁audio": 7682,
      "▁energe": 7683,
      "▁dolegliwości": 7684,
      ".\nPro": 7685,
      "▁matry": 7686,
      "▁produkt?": 7687,
      "▁SIM": 7688,
      "▁niepoko": 7689,
      "różnia": 7690,
      "nkiem": 7691,
      "▁Wz": 7692,
      "▁rodzajów": 7693,
      "▁pies": 7694,
      "▁siostra": 7695,
      "nen": 7696,
      "▁emocjonal": 7697,
      "▁wyrazi": 7698,
      "▁otwarty": 7699,
      "▁list": 7700,
      "dzą,": 7701,
      "▁Właśnie": 7702,
      "▁robiłam": 7703,
      "▁miesiącu": 7704,
      "▁).": 7705,
      "▁pozostawia": 7706,
      "▁kontek": 7707,
      "▁wyniki": 7708,
      "▁eksplo": 7709,
      "▁klik": 7710,
      "▁tren": 7711,
      "klej": 7712,
      "▁kłam": 7713,
      "▁tzn": 7714,
      "▁łączność": 7715,
      "▁przeczytać": 7716,
      "▁precy": 7717,
      "cać": 7718,
      "▁wyzwa": 7719,
      "▁dedykowane": 7720,
      "▁dzisiejszych": 7721,
      "tach.": 7722,
      "jów": 7723,
      "▁kierunek": 7724,
      "▁zrobiła": 7725,
      "▁poe": 7726,
      "▁koszty": 7727,
      "▁salonie": 7728,
      "zmu": 7729,
      "lanie": 7730,
      "▁meta": 7731,
      "▁twórcz": 7732,
      "▁posiadanie": 7733,
      "ńską": 7734,
      "▁uważam": 7735,
      "▁zachować": 7736,
      "▁Łu": 7737,
      "▁nastro": 7738,
      "kowego": 7739,
      "dzimy": 7740,
      "▁wyb": 7741,
      "szpa": 7742,
      "lenda": 7743,
      "▁liczbie": 7744,
      "▁spore": 7745,
      "▁stosowania": 7746,
      "▁Ukrai": 7747,
      "16": 7748,
      "▁więzie": 7749,
      "▁rozczar": 7750,
      "▁autorka": 7751,
      "nicja": 7752,
      "To": 7753,
      "nastu": 7754,
      "szak": 7755,
      "owana,": 7756,
      "▁idą": 7757,
      "▁chemi": 7758,
      "▁Hen": 7759,
      "▁emi": 7760,
      "▁zio": 7761,
      "▁Para": 7762,
      "▁zakończy": 7763,
      "▁najtańsze": 7764,
      "▁szar": 7765,
      "\nk": 7766,
      "▁główne": 7767,
      "anka": 7768,
      "▁zaplan": 7769,
      "▁kapi": 7770,
      "▁papiero": 7771,
      "▁świata.": 7772,
      "▁gl": 7773,
      "▁następujące": 7774,
      "▁poga": 7775,
      "szczonych": 7776,
      "▁jakos": 7777,
      "▁czasy": 7778,
      "łbym": 7779,
      "▁czekać": 7780,
      "▁wyraź": 7781,
      "▁aspek": 7782,
      "▁Jaką": 7783,
      "pen": 7784,
      "▁złą": 7785,
      "14": 7786,
      "▁baterii": 7787,
      "▁zrobienia": 7788,
      "▁Win": 7789,
      "▁er": 7790,
      "▁efekcie": 7791,
      "▁Kor": 7792,
      "▁pojawiły": 7793,
      "▁\"A": 7794,
      "kładać": 7795,
      "▁uczucia": 7796,
      "▁drzewa": 7797,
      "▁Niech": 7798,
      "▁noś": 7799,
      "▁postawi": 7800,
      "▁kwestii": 7801,
      "▁dziwi": 7802,
      "▁wrócić": 7803,
      "▁San": 7804,
      "▁centy": 7805,
      "▁poprawi": 7806,
      "▁złego": 7807,
      "czonej": 7808,
      "▁wykład": 7809,
      "▁oprac": 7810,
      "▁mai": 7811,
      "▁czyt": 7812,
      "▁znana": 7813,
      "▁walki": 7814,
      "jnie": 7815,
      "▁nazywa": 7816,
      "szają": 7817,
      "\nMam": 7818,
      "▁bliżej": 7819,
      "▁ekspery": 7820,
      "▁sali": 7821,
      "▁Nowoczesne": 7822,
      "terii": 7823,
      "▁Jezus": 7824,
      "▁niewielkie": 7825,
      "jny": 7826,
      "łby": 7827,
      "▁podzespo": 7828,
      "▁zrobię": 7829,
      "▁związanych": 7830,
      "▁obsługu": 7831,
      "▁dają": 7832,
      "żar": 7833,
      "rach.": 7834,
      "▁książki,": 7835,
      "żenia,": 7836,
      "▁Tymczasem": 7837,
      "onach": 7838,
      "▁cech": 7839,
      "dnym": 7840,
      "▁świado": 7841,
      "dba": 7842,
      "▁niedługo": 7843,
      "▁zawierają": 7844,
      "▁rozmaitych": 7845,
      "▁Najpopular": 7846,
      "▁wch": 7847,
      "▁Ani": 7848,
      "▁Każda": 7849,
      "waża": 7850,
      "dnego": 7851,
      "▁Według": 7852,
      "▁niespodzia": 7853,
      "▁Friday": 7854,
      "▁warzyw": 7855,
      "▁obywa": 7856,
      "27": 7857,
      "▁zasad": 7858,
      "▁koszt": 7859,
      "▁połączenia": 7860,
      "▁modeli,": 7861,
      "▁znać": 7862,
      "▁wyglada": 7863,
      "▁twojej": 7864,
      "▁POCO": 7865,
      "▁kła": 7866,
      "▁jak:": 7867,
      "zz": 7868,
      "▁rozs": 7869,
      "▁ciaste": 7870,
      "obraż": 7871,
      "▁dawna": 7872,
      "▁Smartfon": 7873,
      "dzisz": 7874,
      "▁pomyśle": 7875,
      "▁Szyb": 7876,
      "▁krew": 7877,
      "▁boi": 7878,
      "dają": 7879,
      "wiga": 7880,
      "▁miejscach": 7881,
      "rowanie": 7882,
      "▁koro": 7883,
      "ys": 7884,
      "▁dowód": 7885,
      "▁maga": 7886,
      "▁materaca": 7887,
      "▁gre": 7888,
      "▁pisałam": 7889,
      "▁humo": 7890,
      "▁czaso": 7891,
      "▁kle": 7892,
      "cielem": 7893,
      "▁salonu": 7894,
      "▁spośród": 7895,
      "▁człowieka,": 7896,
      "▁Warszawie": 7897,
      "▁wizer": 7898,
      "owicz": 7899,
      "ie.": 7900,
      "▁Her": 7901,
      "▁1,5": 7902,
      "▁wzboga": 7903,
      "▁(D": 7904,
      "▁długim": 7905,
      "iera": 7906,
      "▁boję": 7907,
      "▁bieg": 7908,
      "dem.": 7909,
      "▁chroni": 7910,
      "▁Książka": 7911,
      "▁metal": 7912,
      "problem": 7913,
      "▁pasoży": 7914,
      "\n\n": 7915,
      "▁posiad": 7916,
      "dniego": 7917,
      "▁wymienia": 7918,
      "rzyła": 7919,
      "▁Kas": 7920,
      "▁damskie": 7921,
      "▁pozytywnie": 7922,
      "▁dynami": 7923,
      "żni": 7924,
      "▁nieodłącznym": 7925,
      "▁sprawą": 7926,
      "sfak": 7927,
      "▁drzew": 7928,
      "\njak": 7929,
      "▁Społe": 7930,
      "▁niemowlę": 7931,
      "▁samochodu": 7932,
      "▁ogrod": 7933,
      "▁wydarzenia": 7934,
      "▁przyznać,": 7935,
      "mimo": 7936,
      "▁2008": 7937,
      "▁dni.": 7938,
      "▁Pewnie": 7939,
      "▁artykuł": 7940,
      "▁powiedz": 7941,
      "rach,": 7942,
      "▁pary": 7943,
      "liwym": 7944,
      "▁Ri": 7945,
      "▁byłby": 7946,
      "▁mógłby": 7947,
      "czać": 7948,
      "▁byle": 7949,
      "mierza": 7950,
      "▁wpisu": 7951,
      "fii": 7952,
      "▁nebu": 7953,
      "▁Pierwsza": 7954,
      "▁uzyskać": 7955,
      "▁prote": 7956,
      "tką": 7957,
      "▁mistrzo": 7958,
      "▁Pora": 7959,
      "rzam": 7960,
      "tykie": 7961,
      "▁sprzyja": 7962,
      "▁tenden": 7963,
      "ciwie": 7964,
      "▁gdybym": 7965,
      "▁zastąpić": 7966,
      "▁edycji": 7967,
      "▁Ol": 7968,
      "▁Amery": 7969,
      "▁opan": 7970,
      "▁przybli": 7971,
      "▁zwróci": 7972,
      "te.": 7973,
      "▁wybor": 7974,
      "▁baz": 7975,
      "▁mebli": 7976,
      "▁dziwne": 7977,
      "▁kaza": 7978,
      "▁szampon": 7979,
      "ema": 7980,
      "▁poszukiwania": 7981,
      "▁alternatyw": 7982,
      "▁co,": 7983,
      "wielbiam": 7984,
      "▁agen": 7985,
      "▁mysz": 7986,
      "▁Stani": 7987,
      "▁broni": 7988,
      "▁literatury": 7989,
      "▁prezyden": 7990,
      "▁szef": 7991,
      "▁wyborem?": 7992,
      "▁(tak": 7993,
      "warki": 7994,
      "▁Moni": 7995,
      "13": 7996,
      "lnie)": 7997,
      "▁rodzinie": 7998,
      "▁hobby": 7999,
      "▁sztuki": 8000,
      "▁zaczynam": 8001,
      "▁chodzić": 8002,
      "mum": 8003,
      "sko-": 8004,
      "▁zapachów": 8005,
      "towych": 8006,
      "▁Łat": 8007,
      "▁dosłownie": 8008,
      "▁przeka": 8009,
      "▁poniższego": 8010,
      "▁umiejętności": 8011,
      "sze.": 8012,
      "▁gigan": 8013,
      "▁tęsk": 8014,
      "▁upad": 8015,
      "▁szkoły.": 8016,
      "▁posie": 8017,
      "▁Europej": 8018,
      "?\nJe": 8019,
      "▁akumula": 8020,
      "▁natury": 8021,
      "▁ma,": 8022,
      "poko": 8023,
      "▁Przedstawiamy": 8024,
      "▁będąc": 8025,
      "▁Gro": 8026,
      "łymi": 8027,
      "▁żadne": 8028,
      "▁filozo": 8029,
      "▁los": 8030,
      "▁przejść": 8031,
      "cisz": 8032,
      "▁wiąże": 8033,
      "▁zatru": 8034,
      "▁gorąco": 8035,
      "▁ostatecznie": 8036,
      "ine": 8037,
      "▁termo": 8038,
      "▁bohatera": 8039,
      "kowo": 8040,
      "toni": 8041,
      "▁kół": 8042,
      "▁słody": 8043,
      "▁poczucie": 8044,
      "ba,": 8045,
      "▁regene": 8046,
      "▁mokre": 8047,
      "▁radość": 8048,
      "▁naci": 8049,
      "▁ludzie,": 8050,
      "▁cal": 8051,
      "▁recep": 8052,
      "▁jakbym": 8053,
      "▁hote": 8054,
      "ownicy": 8055,
      "▁posy": 8056,
      "▁małą": 8057,
      "kamy": 8058,
      "▁hormo": 8059,
      "MI": 8060,
      "▁boli": 8061,
      "▁gnia": 8062,
      "car": 8063,
      "gosłu": 8064,
      "▁proś": 8065,
      "▁wszech": 8066,
      "▁gum": 8067,
      "▁Ogólnie": 8068,
      "▁bardziej,": 8069,
      "▁Lek": 8070,
      "▁waha": 8071,
      "▁35": 8072,
      "trafi": 8073,
      "▁okrę": 8074,
      "▁utrzymać": 8075,
      "▁Naro": 8076,
      "▁(19": 8077,
      "tuł": 8078,
      "▁kiep": 8079,
      "ksy": 8080,
      "▁uwo": 8081,
      "▁akadem": 8082,
      "?\nZ": 8083,
      "uj": 8084,
      "▁znaku": 8085,
      "▁zachowania": 8086,
      "▁konkuren": 8087,
      "▁ścież": 8088,
      "▁wio": 8089,
      "▁zakupiony": 8090,
      "▁mieszkańców": 8091,
      "▁mówi,": 8092,
      "mont": 8093,
      "▁szeroki": 8094,
      "nny": 8095,
      "▁kandy": 8096,
      "AK": 8097,
      "▁jakis": 8098,
      "▁feromo": 8099,
      "▁doros": 8100,
      "▁ubrania": 8101,
      "▁paru": 8102,
      "▁Piotr": 8103,
      "▁niebo": 8104,
      "▁Por": 8105,
      "try,": 8106,
      "▁urucho": 8107,
      "▁kocham": 8108,
      "\njest": 8109,
      "▁nigdzie": 8110,
      "▁nadmia": 8111,
      "▁piszą": 8112,
      "kową": 8113,
      "tura(": 8114,
      "▁perfumy,": 8115,
      "▁wesz": 8116,
      "rę,": 8117,
      "▁spodnie": 8118,
      "▁Sty": 8119,
      "▁ryzyko": 8120,
      "▁miejscowości": 8121,
      "▁czekają": 8122,
      "robić": 8123,
      "P,": 8124,
      "▁poznasz": 8125,
      "▁więcej.": 8126,
      "▁Mówi": 8127,
      "tura(lnie)": 8128,
      "▁wysoko": 8129,
      "▁dziesię": 8130,
      "▁spie": 8131,
      "▁spróbu": 8132,
      "▁kolejna": 8133,
      "▁szybki": 8134,
      "▁wydajność,": 8135,
      "sku.": 8136,
      "▁dobrane": 8137,
      "▁cien": 8138,
      "▁wiecej": 8139,
      "▁przygotowania": 8140,
      "▁wystąpi": 8141,
      "▁Zresztą": 8142,
      "▁cokolwiek": 8143,
      "▁znajdziecie": 8144,
      "▁przedsiębior": 8145,
      "▁atrakcyjnych": 8146,
      "▁codzienne": 8147,
      "▁interesują": 8148,
      "▁zaprojekt": 8149,
      "uch": 8150,
      "linar": 8151,
      "▁krótko": 8152,
      "▁słoi": 8153,
      "▁zato": 8154,
      "▁zapraszam": 8155,
      "▁flak": 8156,
      "cal": 8157,
      "▁Ponieważ": 8158,
      "ziewczyny": 8159,
      "▁dodatkowych": 8160,
      "▁nic,": 8161,
      "▁Gar": 8162,
      "▁dotk": 8163,
      "▁<<ULICA>>": 8164,
      "▁mniejsze": 8165,
      "gres": 8166,
      "SZ": 8167,
      "▁Które": 8168,
      "▁zostawi": 8169,
      "ujesz": 8170,
      "wam,": 8171,
      "▁podrę": 8172,
      "▁Rober": 8173,
      "▁świadomości": 8174,
      "▁roze": 8175,
      "▁Ważne": 8176,
      "▁spory": 8177,
      "cha.": 8178,
      "▁rzeczy.": 8179,
      "▁powrotem": 8180,
      "▁Miałam": 8181,
      "▁Czasami": 8182,
      "▁wiecie": 8183,
      "▁środek": 8184,
      "▁Czer": 8185,
      "zdr": 8186,
      "▁Oczyszcza": 8187,
      "pa,": 8188,
      "▁wojen": 8189,
      "▁spędza": 8190,
      "▁leżą": 8191,
      "▁idę": 8192,
      "▁żona": 8193,
      "▁\"O": 8194,
      "▁wpi": 8195,
      "▁kolejną": 8196,
      "▁fotograf": 8197,
      "▁Czu": 8198,
      "angaż": 8199,
      "▁mary": 8200,
      "▁ojca": 8201,
      "▁ustawi": 8202,
      "''": 8203,
      "▁pośredni": 8204,
      "jący,": 8205,
      "lików": 8206,
      "▁porta": 8207,
      "▁mięso": 8208,
      "▁ciepła": 8209,
      "▁chłopaka": 8210,
      "▁zadanie": 8211,
      "▁słuchać": 8212,
      "▁naprawde": 8213,
      "czku": 8214,
      "cznik": 8215,
      "▁niekiedy": 8216,
      "▁zgi": 8217,
      "pła": 8218,
      "▁31": 8219,
      "▁jakości,": 8220,
      ".\nJestem": 8221,
      "▁et": 8222,
      "▁ok,": 8223,
      "▁metrów": 8224,
      "vo": 8225,
      "▁Con": 8226,
      "▁ofertę": 8227,
      "▁formę": 8228,
      "h.": 8229,
      "▁czystości": 8230,
      "▁widzisz": 8231,
      "nal": 8232,
      "▁prania": 8233,
      "▁przystos": 8234,
      "▁pobu": 8235,
      "▁władzy": 8236,
      "czą,": 8237,
      "alam": 8238,
      "▁Dopiero": 8239,
      "pem": 8240,
      "cyna": 8241,
      "ego": 8242,
      "▁mogłabym": 8243,
      "▁piek": 8244,
      "▁konser": 8245,
      "liwej": 8246,
      "▁Zdecyd": 8247,
      "▁pała": 8248,
      "▁listy": 8249,
      "▁wodo": 8250,
      "▁bom": 8251,
      ".\nKo": 8252,
      "RE": 8253,
      "▁szczególną": 8254,
      "C.": 8255,
      "▁podwój": 8256,
      "▁marke": 8257,
      "ujemy": 8258,
      "▁zakres": 8259,
      "▁podpowie": 8260,
      "▁studiów": 8261,
      "czyć.": 8262,
      "▁pras": 8263,
      "?\nTo": 8264,
      "▁Ża": 8265,
      "▁interesuje": 8266,
      "cem,": 8267,
      "skać": 8268,
      "▁skrę": 8269,
      "▁dodajemy": 8270,
      "▁Cer": 8271,
      "▁większy": 8272,
      "bek": 8273,
      "▁kotów": 8274,
      "cjom": 8275,
      "▁kasz": 8276,
      "▁jedne": 8277,
      "dłam": 8278,
      "▁kręgosłu": 8279,
      "▁powiedziała": 8280,
      "▁Muszę": 8281,
      "szalne.": 8282,
      "sem,": 8283,
      "tarzy": 8284,
      "▁sprzed": 8285,
      "▁(za": 8286,
      "▁użyte": 8287,
      "nikach": 8288,
      "▁pale": 8289,
      "jazd": 8290,
      "szel": 8291,
      "▁wilgo": 8292,
      "▁móc": 8293,
      "▁uzysk": 8294,
      "▁wyposażeniem": 8295,
      "▁odwo": 8296,
      "dujemy": 8297,
      "▁karmi": 8298,
      "szem,": 8299,
      "▁eli": 8300,
      "▁problem.": 8301,
      "▁ochron": 8302,
      "▁otoczenia": 8303,
      "fumy": 8304,
      "▁dziennie": 8305,
      "▁kupić?": 8306,
      "▁fio": 8307,
      "▁wysp": 8308,
      "ery": 8309,
      "▁zespołu": 8310,
      "▁wró": 8311,
      "rują": 8312,
      "▁dysko": 8313,
      "cją,": 8314,
      "▁dał": 8315,
      "▁wzajem": 8316,
      "▁struk": 8317,
      "▁korek": 8318,
      "rąg": 8319,
      "▁odbior": 8320,
      "▁biznes": 8321,
      "▁myślałam,": 8322,
      "de,": 8323,
      "▁studiu": 8324,
      "AT": 8325,
      "▁Wę": 8326,
      "anna": 8327,
      "dziale": 8328,
      "▁układa": 8329,
      "11": 8330,
      "▁charakteryzują": 8331,
      "▁znaleź": 8332,
      "▁sytuacji,": 8333,
      "żym": 8334,
      "żoną": 8335,
      "▁Polaków": 8336,
      "▁nauczyciel": 8337,
      "▁di": 8338,
      "świado": 8339,
      "▁Twojej": 8340,
      "▁obra": 8341,
      "▁rosną": 8342,
      "▁muzyki.": 8343,
      "▁Trzy": 8344,
      "▁dlu": 8345,
      "▁diety": 8346,
      "▁utrzymy": 8347,
      "-19": 8348,
      "▁Ranki": 8349,
      "▁zago": 8350,
      "▁złe": 8351,
      "▁zag": 8352,
      "▁wyjazd": 8353,
      "▁Wielu": 8354,
      "........": 8355,
      "ryj": 8356,
      "racja": 8357,
      "▁odej": 8358,
      "▁fotel": 8359,
      "▁wypowiedzi": 8360,
      "▁filmie": 8361,
      "▁przycze": 8362,
      "▁minimal": 8363,
      "▁pewna": 8364,
      "▁ciekawy": 8365,
      "bij": 8366,
      "stwem": 8367,
      "▁płyty": 8368,
      "▁fał": 8369,
      "▁znany": 8370,
      "▁kuchni.": 8371,
      "▁dbać": 8372,
      "▁nadają": 8373,
      "▁liczne": 8374,
      "▁lato": 8375,
      "▁bardzo,": 8376,
      "▁Th": 8377,
      "akra": 8378,
      "▁Kolor": 8379,
      "▁trans": 8380,
      "▁gimna": 8381,
      "▁piękny": 8382,
      "▁Korzysta": 8383,
      "wio": 8384,
      "▁łyżki": 8385,
      "▁chwa": 8386,
      "▁przyjecha": 8387,
      "▁największą": 8388,
      "wość": 8389,
      "▁tys.": 8390,
      "▁żadnym": 8391,
      "▁real": 8392,
      "▁ogród": 8393,
      "ychać": 8394,
      "amią": 8395,
      "▁przekro": 8396,
      "▁znalazła": 8397,
      "!\nM": 8398,
      "obowią": 8399,
      "▁Ona": 8400,
      "▁najlepszego": 8401,
      "▁aparaty": 8402,
      "▁włosy,": 8403,
      "▁przyszłość": 8404,
      "▁przemysł": 8405,
      "▁dziecku": 8406,
      "▁powstał": 8407,
      "D.": 8408,
      "bierz": 8409,
      "▁powiedział,": 8410,
      "▁th": 8411,
      "cze.": 8412,
      "▁naraz": 8413,
      "▁prom": 8414,
      ",7": 8415,
      "▁dokon": 8416,
      "łać": 8417,
      "▁180": 8418,
      "grzewa": 8419,
      "▁wyróżniają": 8420,
      "▁dół": 8421,
      "▁suger": 8422,
      "▁mąki": 8423,
      "▁kierować": 8424,
      "▁ostatniej": 8425,
      "▁dostar": 8426,
      "▁piękna": 8427,
      "sman": 8428,
      "\n(": 8429,
      "▁sensie": 8430,
      "okie": 8431,
      "arka": 8432,
      "cznym.": 8433,
      "ane.": 8434,
      "▁Sku": 8435,
      "▁bliski": 8436,
      "PI": 8437,
      "▁podkreś": 8438,
      "▁podpowiadamy,": 8439,
      "▁pomysłów": 8440,
      "▁artykule.": 8441,
      "owana.": 8442,
      "5.": 8443,
      "▁umiem": 8444,
      "▁ewentualnie": 8445,
      "▁kolorów": 8446,
      "▁kurcz": 8447,
      "▁Chodzi": 8448,
      "▁db": 8449,
      "▁Ranking": 8450,
      "▁niezależnie": 8451,
      "▁porusza": 8452,
      "▁zabrać": 8453,
      "▁zakłada": 8454,
      "▁posty": 8455,
      "▁ekspertów": 8456,
      "▁dziwnego,": 8457,
      "nisty": 8458,
      "▁impreza": 8459,
      "▁stałe": 8460,
      "▁zapamię": 8461,
      "▁łagod": 8462,
      "▁ekologi": 8463,
      "▁Smartwat": 8464,
      "ościach,": 8465,
      "▁zestawienie": 8466,
      "więki": 8467,
      "▁porównanie": 8468,
      "▁uczucie": 8469,
      "▁pamiętać,": 8470,
      "▁tobą": 8471,
      "rzałem": 8472,
      "▁pytanie:": 8473,
      "▁konf": 8474,
      "▁twoich": 8475,
      "▁Tur": 8476,
      "▁przegląda": 8477,
      "rza,": 8478,
      "▁długości": 8479,
      "▁nieź": 8480,
      "▁charakterystyczne": 8481,
      "▁przyjdzie": 8482,
      "▁sypialni": 8483,
      "▁Lud": 8484,
      "\")": 8485,
      "NY": 8486,
      "▁głowy.": 8487,
      "▁iry": 8488,
      "ham": 8489,
      "▁starych": 8490,
      "▁Mikoła": 8491,
      "▁Było": 8492,
      "▁środków": 8493,
      "▁poleca": 8494,
      "▁pojawiła": 8495,
      "▁Szczególnie": 8496,
      "▁znajdą": 8497,
      "▁wyprób": 8498,
      "▁klub": 8499,
      "▁Mę": 8500,
      "dując": 8501,
      "▁półki": 8502,
      "▁dysk": 8503,
      "▁uka": 8504,
      "▁najlepszej": 8505,
      "tus": 8506,
      "▁centyme": 8507,
      "▁metody": 8508,
      "▁miaste": 8509,
      "▁wyjaśni": 8510,
      "▁samochód": 8511,
      "szku": 8512,
      "▁autobu": 8513,
      ".\"": 8514,
      "▁obuwia": 8515,
      "▁bezpieczny": 8516,
      "▁Kilka": 8517,
      ".\nPod": 8518,
      "▁baterią": 8519,
      ".\nMi": 8520,
      "▁podpowiedzi": 8521,
      "owska": 8522,
      "dry": 8523,
      "▁syna": 8524,
      "▁odbywa": 8525,
      "▁samemu": 8526,
      "▁wyprowa": 8527,
      "▁Niez": 8528,
      "▁garść": 8529,
      "▁charakteryzuje": 8530,
      "▁co?": 8531,
      "pij": 8532,
      "▁zdje": 8533,
      "▁wzmacnia": 8534,
      "▁przeglą": 8535,
      "mii": 8536,
      "▁człowieka.": 8537,
      "\nHej": 8538,
      "▁jezio": 8539,
      "▁piw": 8540,
      "▁chociażby": 8541,
      "▁chmu": 8542,
      "▁podda": 8543,
      "▁rusz": 8544,
      "▁Gda": 8545,
      "▁Mał": 8546,
      "▁widzę,": 8547,
      "▁partne": 8548,
      "pie.": 8549,
      "nania": 8550,
      "▁szereg": 8551,
      "▁grzej": 8552,
      "▁lada": 8553,
      "▁prostych": 8554,
      "▁srebr": 8555,
      "posa": 8556,
      "zy.": 8557,
      "▁zapobiega": 8558,
      "▁Czyli": 8559,
      "▁cery": 8560,
      "▁kurz": 8561,
      "godzi": 8562,
      "▁Ludzie": 8563,
      "2,": 8564,
      "▁okru": 8565,
      "▁Polsce.": 8566,
      "▁odżywia": 8567,
      "ponujemy": 8568,
      "▁postawić": 8569,
      "▁patr": 8570,
      "▁Otóż": 8571,
      "cymi": 8572,
      "▁mniejsza": 8573,
      "▁Pozdrawiam": 8574,
      "▁ruchu": 8575,
      "dium": 8576,
      "▁wynik": 8577,
      "e.": 8578,
      "jące.": 8579,
      "▁popa": 8580,
      "▁bisku": 8581,
      "trak": 8582,
      "▁nebuliza": 8583,
      "strak": 8584,
      "▁skupia": 8585,
      "▁osie": 8586,
      "▁wyco": 8587,
      "▁sól": 8588,
      "▁poradzić": 8589,
      "▁zby": 8590,
      "▁promocji": 8591,
      "▁wyba": 8592,
      "▁(je": 8593,
      "▁300": 8594,
      "▁odnaj": 8595,
      "wiązy": 8596,
      "szty": 8597,
      "▁prezentuje": 8598,
      "▁\"nie": 8599,
      "ull": 8600,
      "▁redak": 8601,
      "▁zawodni": 8602,
      "▁Pozosta": 8603,
      "▁widoczne": 8604,
      "▁psychologi": 8605,
      "▁kupić.": 8606,
      "▁(od": 8607,
      "▁Inhala": 8608,
      "gli": 8609,
      "▁zapachu": 8610,
      "▁lepsza": 8611,
      "▁nieszczę": 8612,
      "▁kontrol": 8613,
      "▁telewizor": 8614,
      "łyście": 8615,
      "▁Ow": 8616,
      "▁2000": 8617,
      "▁plane": 8618,
      "▁sekre": 8619,
      "\nF": 8620,
      "każ": 8621,
      "mujemy": 8622,
      "▁świeżo": 8623,
      "jac": 8624,
      "▁Wydaje": 8625,
      "▁Kie": 8626,
      "▁Ślą": 8627,
      "▁ptak": 8628,
      "▁znakiem": 8629,
      "▁Mini": 8630,
      "▁barw": 8631,
      "▁osusza": 8632,
      "ślę": 8633,
      "▁kupować": 8634,
      "▁Nikt": 8635,
      "▁matema": 8636,
      "▁obni": 8637,
      "▁usłysza": 8638,
      "▁pojawił": 8639,
      "▁przyjm": 8640,
      "rę.": 8641,
      "▁sprawdzone": 8642,
      "▁potrzeb.": 8643,
      "▁Zas": 8644,
      "lonych": 8645,
      "dowo": 8646,
      "▁różnica": 8647,
      "▁Gala": 8648,
      "▁wysokość": 8649,
      "▁tak.": 8650,
      "▁serdecznie": 8651,
      "▁siedzą": 8652,
      "▁docenia": 8653,
      "▁złotych.": 8654,
      "▁Podstaw": 8655,
      "▁dokumen": 8656,
      "▁widać,": 8657,
      "▁opowieść": 8658,
      "▁Man": 8659,
      "towany": 8660,
      "▁zawar": 8661,
      "ód,": 8662,
      "▁nim,": 8663,
      "▁wyjścia": 8664,
      "pel": 8665,
      "aliz": 8666,
      "▁problemem": 8667,
      "▁Świat": 8668,
      "▁zaprezent": 8669,
      "▁produktu.": 8670,
      "zacji": 8671,
      "▁obsługi": 8672,
      "▁wsparcie": 8673,
      "▁posiadania": 8674,
      "nać": 8675,
      "▁prezenty": 8676,
      "▁Człowie": 8677,
      "▁Af": 8678,
      "▁wzru": 8679,
      "bur": 8680,
      "▁dotyka": 8681,
      "▁potrafię": 8682,
      "▁budzi": 8683,
      "▁pokazać": 8684,
      "▁190": 8685,
      "▁Toma": 8686,
      "▁przeze": 8687,
      "▁czyszczenie": 8688,
      "▁opóź": 8689,
      "▁większym": 8690,
      "▁normalne": 8691,
      "ziem": 8692,
      "▁inspiracji": 8693,
      "▁córka": 8694,
      "▁rozważyć": 8695,
      "nąć,": 8696,
      "▁XIX": 8697,
      "▁najszyb": 8698,
      "▁przeglądania": 8699,
      "czoną": 8700,
      "▁niezn": 8701,
      "szer": 8702,
      "czek.": 8703,
      "▁recenzji": 8704,
      "▁is": 8705,
      "▁magne": 8706,
      "ży.": 8707,
      "▁bezproblem": 8708,
      "cu,": 8709,
      "7.": 8710,
      "dą,": 8711,
      "▁wielka": 8712,
      "▁Równie": 8713,
      "▁epi": 8714,
      "▁dwój": 8715,
      "▁wstęp": 8716,
      "▁ktora": 8717,
      ",8": 8718,
      "▁podejrze": 8719,
      "▁dą": 8720,
      "▁Plan": 8721,
      "▁Opis": 8722,
      "hh": 8723,
      "wac": 8724,
      "▁Rzym": 8725,
      "▁kawałek": 8726,
      "▁dzieli": 8727,
      "▁Komu": 8728,
      "ryte": 8729,
      "▁zwyczajnie": 8730,
      "▁wygła": 8731,
      "szczania": 8732,
      "▁tabletki": 8733,
      "▁wątpienia": 8734,
      "nością,": 8735,
      "▁skró": 8736,
      "▁takimi": 8737,
      "▁oddziel": 8738,
      "▁Mor": 8739,
      "▁oddział": 8740,
      "▁mio": 8741,
      "▁serial": 8742,
      "▁dźwięki": 8743,
      "▁cmenta": 8744,
      "▁filtra": 8745,
      "▁mężczyz": 8746,
      "dycha": 8747,
      "▁sem": 8748,
      "tacja": 8749,
      "▁czwo": 8750,
      "▁spektak": 8751,
      "▁sympa": 8752,
      "▁przystęp": 8753,
      "ściem": 8754,
      "▁Asper": 8755,
      "▁zakupionych": 8756,
      "▁wyprze": 8757,
      "▁czynienia": 8758,
      "▁opowieści": 8759,
      "▁niedawna": 8760,
      "▁DO": 8761,
      "▁zarazem": 8762,
      "▁miec": 8763,
      "▁dedyk": 8764,
      "▁żału": 8765,
      "▁użytkownikom": 8766,
      "▁gwał": 8767,
      "owanymi": 8768,
      "▁tygodnia": 8769,
      "los": 8770,
      "▁ważne,": 8771,
      "▁przeczyt": 8772,
      "▁desi": 8773,
      "▁poran": 8774,
      "▁\"G": 8775,
      "▁staran": 8776,
      "łości,": 8777,
      "▁Porów": 8778,
      "▁gamę": 8779,
      "żąd": 8780,
      "rr": 8781,
      "▁zaangaż": 8782,
      "ża,": 8783,
      "▁ma.": 8784,
      "▁Nad": 8785,
      "kształ": 8786,
      "łości.": 8787,
      "▁używana": 8788,
      "6.": 8789,
      "▁teren": 8790,
      "▁najmłodszych": 8791,
      "▁wydawać": 8792,
      "wiar": 8793,
      "▁Asperge": 8794,
      "▁kościoła": 8795,
      "▁jesteście": 8796,
      "▁będziecie": 8797,
      "▁PiS": 8798,
      "nośnie": 8799,
      ".\nCho": 8800,
      "dze,": 8801,
      "▁napisane": 8802,
      "ga.": 8803,
      "▁rej": 8804,
      "czam": 8805,
      "▁uwzglę": 8806,
      "▁oferta": 8807,
      "▁monito": 8808,
      "▁ślubu": 8809,
      "tować,": 8810,
      "▁owsi": 8811,
      "▁przedłu": 8812,
      "▁cio": 8813,
      "▁wkrótce": 8814,
      "▁Wsp": 8815,
      "▁przepisy": 8816,
      "▁zarabia": 8817,
      "▁wydoby": 8818,
      "▁świetnym": 8819,
      "▁leki": 8820,
      "niona": 8821,
      "▁kola": 8822,
      "▁łam": 8823,
      "sier": 8824,
      "▁miesiąca": 8825,
      "▁łatwy": 8826,
      "▁poradnik": 8827,
      "niżej": 8828,
      "▁plam": 8829,
      "▁brud": 8830,
      "łaby": 8831,
      "▁istnieją": 8832,
      "TY": 8833,
      "▁wul": 8834,
      "tycznego": 8835,
      "▁uczyć": 8836,
      "▁*": 8837,
      "▁instru": 8838,
      "bardzo": 8839,
      "▁nietyp": 8840,
      "▁straci": 8841,
      "warce": 8842,
      "ling": 8843,
      "▁myśli,": 8844,
      "▁odro": 8845,
      "miesz": 8846,
      "▁Poja": 8847,
      "▁źródło": 8848,
      "▁szkół": 8849,
      "▁okular": 8850,
      "▁białe": 8851,
      "▁byla": 8852,
      "▁danej": 8853,
      "▁serialu": 8854,
      "▁rezer": 8855,
      "▁Kry": 8856,
      "▁siost": 8857,
      "▁pasują": 8858,
      "▁pachną": 8859,
      "▁wybierze": 8860,
      "▁Też": 8861,
      "▁,że": 8862,
      "▁bezpłat": 8863,
      "publi": 8864,
      "▁kasy": 8865,
      "▁Ogrom": 8866,
      "▁zamierza": 8867,
      "gą,": 8868,
      "stron": 8869,
      "▁Tar": 8870,
      "żeń": 8871,
      "▁zajm": 8872,
      "▁imi": 8873,
      "▁odchu": 8874,
      "▁dziecko,": 8875,
      "▁słabo": 8876,
      "▁pomysłem": 8877,
      "▁potencjal": 8878,
      "▁autorstwa": 8879,
      "▁XXI": 8880,
      "niem,": 8881,
      "▁wierzę": 8882,
      "▁obchodzi": 8883,
      "towanie": 8884,
      "lizu": 8885,
      "▁ke": 8886,
      "dzili": 8887,
      "▁mija": 8888,
      ":\n-": 8889,
      "▁powróci": 8890,
      "▁zaskoczyć": 8891,
      "▁jedyny": 8892,
      "▁p.": 8893,
      "▁miesza": 8894,
      "zwo": 8895,
      "wałem": 8896,
      "\nmo": 8897,
      "wski": 8898,
      "▁SP": 8899,
      "▁żyw": 8900,
      "!\nW": 8901,
      "▁Trady": 8902,
      "▁szkoła": 8903,
      "▁agre": 8904,
      "▁pomysłu": 8905,
      "▁ram": 8906,
      "spoli": 8907,
      "▁domi": 8908,
      "tyczne,": 8909,
      "▁towarzyszy": 8910,
      "▁Perfumy": 8911,
      "▁wiosen": 8912,
      "▁popo": 8913,
      "śnie,": 8914,
      "▁równowa": 8915,
      "▁zgroma": 8916,
      "▁wiemy": 8917,
      "▁Jeden": 8918,
      "produk": 8919,
      "▁wydarze": 8920,
      "▁korzystania": 8921,
      "ż,": 8922,
      "▁ogromne": 8923,
      "rzego": 8924,
      "\ntak": 8925,
      "ciach": 8926,
      "▁podobny": 8927,
      "▁opubli": 8928,
      "▁zrezygnować": 8929,
      "▁zawartość": 8930,
      "▁\"z": 8931,
      "\nCh": 8932,
      "▁przygodę": 8933,
      "▁uniknąć": 8934,
      "cik": 8935,
      "▁GT": 8936,
      "▁spry": 8937,
      "▁opakowanie": 8938,
      "▁nume": 8939,
      "zją": 8940,
      "▁zwia": 8941,
      "AD": 8942,
      "chyba": 8943,
      "▁omi": 8944,
      "mem": 8945,
      "▁jesien": 8946,
      "▁rzuca": 8947,
      "▁niedro": 8948,
      "cert": 8949,
      "▁warunkach.": 8950,
      "▁korzystaniu": 8951,
      "ześć": 8952,
      "▁drożd": 8953,
      "kujemy": 8954,
      "deo": 8955,
      "▁cyklu": 8956,
      "▁zwierz": 8957,
      "▁serio": 8958,
      "▁Zakup": 8959,
      "ju,": 8960,
      "▁możliw": 8961,
      "▁celem": 8962,
      "▁dostanie": 8963,
      "▁patelni": 8964,
      "▁inicja": 8965,
      "strzyma": 8966,
      "▁gotowa": 8967,
      "pek": 8968,
      "▁głowy,": 8969,
      "▁kapsu": 8970,
      "▁rachun": 8971,
      "▁tworzą": 8972,
      "tch": 8973,
      "jsc": 8974,
      "▁smartwatch": 8975,
      "zania": 8976,
      "▁sę": 8977,
      "▁Zapach": 8978,
      "▁koszy": 8979,
      "▁Pary": 8980,
      "dap": 8981,
      "▁internetowych,": 8982,
      "▁oczach": 8983,
      "czonym": 8984,
      "ako": 8985,
      "▁skorzysta": 8986,
      "!\nP": 8987,
      "-0": 8988,
      "▁pomysły": 8989,
      "▁godzinę": 8990,
      "▁uwagę.": 8991,
      "▁wyboru.": 8992,
      "▁zmiana": 8993,
      "▁osiągnąć": 8994,
      "▁znalazł": 8995,
      "odpor": 8996,
      "tkie": 8997,
      "▁chwile": 8998,
      "▁Moim": 8999,
      "▁psów": 9000,
      "▁),": 9001,
      "▁jedzenie": 9002,
      "~~": 9003,
      "▁odległość": 9004,
      "▁Zwłaszcza": 9005,
      "▁Fak": 9006,
      "▁Pierwsze": 9007,
      "▁Także": 9008,
      "▁jedyna": 9009,
      "▁czytając": 9010,
      "▁chrześcija": 9011,
      "8.": 9012,
      "▁pakie": 9013,
      "▁allegro": 9014,
      "▁dojrza": 9015,
      "▁zade": 9016,
      "▁etykie": 9017,
      "pełnić": 9018,
      "▁siłowni": 9019,
      "▁mieści": 9020,
      "▁satysfak": 9021,
      "▁Zdr": 9022,
      "▁Sprawdziliśmy,": 9023,
      "▁ucho": 9024,
      "▁wod": 9025,
      "▁kandyda": 9026,
      "▁tale": 9027,
      "kur": 9028,
      "▁pełno": 9029,
      "ńców": 9030,
      "▁boles": 9031,
      "▁użytkowników.": 9032,
      "odia": 9033,
      "▁środka": 9034,
      "▁kurs": 9035,
      "z,": 9036,
      "iach": 9037,
      "▁tara": 9038,
      "▁pamią": 9039,
      "sę": 9040,
      "▁wywia": 9041,
      "-M": 9042,
      "▁mult": 9043,
      "▁przeraża": 9044,
      "▁świąty": 9045,
      "\nCzy": 9046,
      "▁ul": 9047,
      "CJ": 9048,
      "niła": 9049,
      "▁konieczności": 9050,
      "▁płytki": 9051,
      "rzyć,": 9052,
      "▁fal": 9053,
      "▁znane": 9054,
      "▁pojemności": 9055,
      "▁zakam": 9056,
      "▁języku": 9057,
      "▁trage": 9058,
      "czek,": 9059,
      "▁zielonym": 9060,
      "▁zachowanie": 9061,
      "▁udostęp": 9062,
      "▁Należy": 9063,
      "▁dopóki": 9064,
      "mie.": 9065,
      "dagogi": 9066,
      "niejszy.": 9067,
      "▁zbo": 9068,
      "▁sądzi": 9069,
      "▁Sch": 9070,
      "prawdzie": 9071,
      "nder": 9072,
      "czków": 9073,
      "▁sprowa": 9074,
      "▁Najpierw": 9075,
      "ml": 9076,
      "▁egzem": 9077,
      "▁automa": 9078,
      "▁wieczor": 9079,
      "▁reży": 9080,
      "▁ciepło": 9081,
      "tce": 9082,
      "▁e-": 9083,
      "▁teraz,": 9084,
      "shi": 9085,
      "▁ela": 9086,
      "rodek": 9087,
      "▁założyć": 9088,
      "▁chce,": 9089,
      "▁koncent": 9090,
      "▁przyczyny": 9091,
      "▁czytelni": 9092,
      "▁postępu": 9093,
      "▁optymal": 9094,
      "tnie,": 9095,
      "▁kara": 9096,
      "ństwem": 9097,
      "▁Podobnie": 9098,
      "mysł": 9099,
      "nu.": 9100,
      "▁fakt": 9101,
      "▁miast": 9102,
      "▁wyjdzie": 9103,
      "różnic": 9104,
      "▁Znajdziesz": 9105,
      "▁zwróć": 9106,
      "czkolwiek": 9107,
      "czer": 9108,
      "▁konstrukcji": 9109,
      "aż": 9110,
      "▁czas.": 9111,
      "stal": 9112,
      "dii": 9113,
      "▁talen": 9114,
      "▁akusty": 9115,
      "lizuje": 9116,
      "▁odpoczy": 9117,
      "▁Jul": 9118,
      "zko": 9119,
      "▁(k": 9120,
      "▁dermato": 9121,
      "▁Wczoraj": 9122,
      "▁kalenda": 9123,
      "▁Forum": 9124,
      "pełniają": 9125,
      "▁obfi": 9126,
      "▁zapropon": 9127,
      "pień": 9128,
      "▁Proszę": 9129,
      "▁źró": 9130,
      "▁różnicę": 9131,
      "▁cicho": 9132,
      "KO": 9133,
      "▁ulega": 9134,
      "▁mail": 9135,
      "▁Klo": 9136,
      "▁pada": 9137,
      "▁chwy": 9138,
      "rywa": 9139,
      "zależnie": 9140,
      "▁skrom": 9141,
      "▁polecenia": 9142,
      "▁argu": 9143,
      "▁niekoniecznie": 9144,
      "▁5000": 9145,
      "gubi": 9146,
      "▁teksty": 9147,
      "owują": 9148,
      "▁pojazd": 9149,
      "▁rzekł": 9150,
      "▁zepsu": 9151,
      "▁mężczyzny": 9152,
      "rować": 9153,
      "▁odrzu": 9154,
      "▁działają": 9155,
      "▁w.": 9156,
      "▁ci,": 9157,
      "?\nK": 9158,
      "\nby": 9159,
      "▁Gór": 9160,
      "▁niee": 9161,
      "▁badań": 9162,
      "▁wyraża": 9163,
      "▁prezentu": 9164,
      "▁pozostałych": 9165,
      "nąć.": 9166,
      "ven": 9167,
      "ństwa,": 9168,
      "▁zamiar": 9169,
      "▁rekl": 9170,
      "▁pomagają": 9171,
      "▁myślałam": 9172,
      "▁Możemy": 9173,
      "▁interesujące": 9174,
      "▁kobiety,": 9175,
      "▁uczą": 9176,
      "▁pozwolić": 9177,
      "onaliz": 9178,
      "ed": 9179,
      "▁Porady": 9180,
      "wor": 9181,
      "kładzie": 9182,
      "▁oceniają": 9183,
      "▁Gó": 9184,
      "▁sprzętów": 9185,
      "▁baterii,": 9186,
      "▁poże": 9187,
      "▁składzie": 9188,
      "▁kolejnym": 9189,
      "▁zajmują": 9190,
      "▁wysoką": 9191,
      "???": 9192,
      "17": 9193,
      "▁jecha": 9194,
      "f.": 9195,
      "▁Wio": 9196,
      "▁moj": 9197,
      "▁sprzedaw": 9198,
      "woje": 9199,
      ".....": 9200,
      "▁ogromny": 9201,
      "▁nazwę": 9202,
      "▁posa": 9203,
      "▁pieczenia": 9204,
      "▁zbę": 9205,
      "▁poprawnym": 9206,
      "▁stary": 9207,
      "▁ludziom": 9208,
      "IL": 9209,
      "czę,": 9210,
      "▁korzystanie": 9211,
      "▁IV": 9212,
      "▁obsługa": 9213,
      "▁biegu": 9214,
      "▁piwo": 9215,
      "▁wypie": 9216,
      "▁wyczy": 9217,
      "▁Była": 9218,
      "▁wymyśli": 9219,
      "▁większego": 9220,
      "▁zamieszka": 9221,
      "▁preferencji": 9222,
      "▁pręd": 9223,
      "▁Właści": 9224,
      "▁bur": 9225,
      "▁wyka": 9226,
      "went": 9227,
      "▁zastan": 9228,
      ".\nNaj": 9229,
      "▁poszczególnych": 9230,
      "▁\"na": 9231,
      "▁Najbardziej": 9232,
      "▁takie,": 9233,
      "nościach": 9234,
      "▁uchwy": 9235,
      "▁Taka": 9236,
      "dek,": 9237,
      "▁telewizyj": 9238,
      "łał": 9239,
      "▁cz.": 9240,
      "▁głośniki": 9241,
      "▁międzynarod": 9242,
      "dów,": 9243,
      "▁próbuje": 9244,
      "świę": 9245,
      "▁nawierz": 9246,
      "▁Pół": 9247,
      "▁labo": 9248,
      "▁wesele": 9249,
      "▁(pro": 9250,
      "▁Samo": 9251,
      "▁piszę": 9252,
      "dował": 9253,
      "▁posiadać": 9254,
      "steśmy": 9255,
      "owany.": 9256,
      "▁Sło": 9257,
      "!\nD": 9258,
      "ięcej": 9259,
      "▁produktów,": 9260,
      "▁kilkadziesiąt": 9261,
      "▁brat": 9262,
      "▁Niektórzy": 9263,
      "▁Popular": 9264,
      "No": 9265,
      "▁Ter": 9266,
      "▁czworo": 9267,
      "▁Zło": 9268,
      "h,": 9269,
      "właści": 9270,
[...]
