{
  "version": "1.0",
  "truncation": null,
  "padding": null,
  "added_tokens": [
    {
      "id": 0,
      "content": "<PAD>",
      "single_word": false,
      "lstrip": false,
      "rstrip": false,
      "normalized": false,
      "special": true
    },
    {
      "id": 1,
      "content": "<UNK>",
      "single_word": false,
      "lstrip": false,
      "rstrip": false,
      "normalized": false,
      "special": true
    },
    {
      "id": 2,
      "content": "<BOS>",
      "single_word": false,
      "lstrip": false,
      "rstrip": false,
      "normalized": false,
      "special": true
    },
    {
      "id": 3,
      "content": "<EOS>",
      "single_word": false,
      "lstrip": false,
      "rstrip": false,
      "normalized": false,
      "special": true
    }
  ],
  "normalizer": {
    "type": "NFKC"
  },
  "pre_tokenizer": {
    "type": "Metaspace",
    "replacement": "▁",
    "prepend_scheme": "always",
    "split": true
  },
  "post_processor": {
    "type": "TemplateProcessing",
    "single": [
      {
        "SpecialToken": {
          "id": "<BOS>",
          "type_id": 0
        }
      },
      {
        "Sequence": {
          "id": "A",
          "type_id": 0
        }
      }
    ],
    "pair": [
      {
        "SpecialToken": {
          "id": "<BOS>",
          "type_id": 0
        }
      },
      {
        "Sequence": {
          "id": "A",
          "type_id": 0
        }
      },
      {
        "SpecialToken": {
          "id": "<BOS>",
          "type_id": 1
        }
      },
      {
        "Sequence": {
          "id": "B",
          "type_id": 1
        }
      }
    ],
    "special_tokens": {
      "<BOS>": {
        "id": "<BOS>",
        "ids": [
          1
        ],
        "tokens": [
          "<BOS>"
        ]
      }
    }
  },
  "decoder": {
    "type": "Sequence",
    "decoders": [
      {
        "type": "Metaspace",
        "replacement": "▁",
        "prepend_scheme": "always",
        "split": true
      },
      {
        "type": "ByteFallback"
      }
    ]
  },
  "model": {
    "type": "BPE",
    "dropout": 0.1,
    "unk_token": "<UNK>",
    "continuing_subword_prefix": null,
    "end_of_word_suffix": null,
    "fuse_unk": false,
    "byte_fallback": false,
    "ignore_merges": false,
    "vocab": {
      "<PAD>": 0,
      "<UNK>": 1,
      "<BOS>": 2,
      "<EOS>": 3,
      "\t": 4,
      "\n": 5,
      "\u000b": 6,
      "\f": 7,
      "\r": 8,
      " ": 9,
      "!": 10,
      "\"": 11,
      "#": 12,
      "$": 13,
      "%": 14,
      "&": 15,
      "'": 16,
      "(": 17,
      ")": 18,
      "*": 19,
      "+": 20,
      ",": 21,
      "-": 22,
      ".": 23,
      "/": 24,
      "0": 25,
      "1": 26,
      "2": 27,
      "3": 28,
      "4": 29,
      "5": 30,
      "6": 31,
      "7": 32,
      "8": 33,
      "9": 34,
      ":": 35,
      ";": 36,
      "<": 37,
      "=": 38,
      ">": 39,
      "?": 40,
      "@": 41,
      "A": 42,
      "B": 43,
      "C": 44,
      "D": 45,
      "E": 46,
      "F": 47,
      "G": 48,
      "H": 49,
      "I": 50,
      "J": 51,
      "K": 52,
      "L": 53,
      "M": 54,
      "N": 55,
      "O": 56,
      "P": 57,
      "Q": 58,
      "R": 59,
      "S": 60,
      "T": 61,
      "U": 62,
      "V": 63,
      "W": 64,
      "X": 65,
      "Y": 66,
      "Z": 67,
      "[": 68,
      "\\": 69,
      "]": 70,
      "^": 71,
      "_": 72,
      "`": 73,
      "a": 74,
      "b": 75,
      "c": 76,
      "d": 77,
      "e": 78,
      "f": 79,
      "g": 80,
      "h": 81,
      "i": 82,
      "j": 83,
      "k": 84,
      "l": 85,
      "m": 86,
      "n": 87,
      "o": 88,
      "p": 89,
      "q": 90,
      "r": 91,
      "s": 92,
      "t": 93,
      "u": 94,
      "v": 95,
      "w": 96,
      "x": 97,
      "y": 98,
      "z": 99,
      "{": 100,
      "|": 101,
      "}": 102,
      "~": 103,
      "": 104,
      "": 105,
      "¡": 106,
      "£": 107,
      "¤": 108,
      "¦": 109,
      "§": 110,
      "©": 111,
      "«": 112,
      "¬": 113,
      "­": 114,
      "®": 115,
      "°": 116,
      "±": 117,
      "·": 118,
      "»": 119,
      "¿": 120,
      "À": 121,
      "Á": 122,
      "Â": 123,
      "Ä": 124,
      "Å": 125,
      "Æ": 126,
      "Ç": 127,
      "È": 128,
      "É": 129,
      "Ê": 130,
      "Ë": 131,
      "Í": 132,
      "Ï": 133,
      "Ñ": 134,
      "Ó": 135,
      "Ô": 136,
      "Ö": 137,
      "×": 138,
      "Ú": 139,
      "Ü": 140,
      "ß": 141,
      "à": 142,
      "á": 143,
      "â": 144,
      "ã": 145,
      "ä": 146,
      "å": 147,
      "æ": 148,
      "ç": 149,
      "è": 150,
      "é": 151,
      "ê": 152,
      "ë": 153,
      "ì": 154,
      "í": 155,
      "î": 156,
      "ï": 157,
      "ð": 158,
      "ñ": 159,
      "ò": 160,
      "ó": 161,
      "ô": 162,
      "õ": 163,
      "ö": 164,
      "ù": 165,
      "ú": 166,
      "û": 167,
      "ü": 168,
      "ý": 169,
      "ÿ": 170,
      "Ā": 171,
      "ā": 172,
      "ă": 173,
      "Ą": 174,
      "ą": 175,
      "Ć": 176,
      "ć": 177,
      "ĉ": 178,
      "ċ": 179,
      "Č": 180,
      "č": 181,
      "đ": 182,
      "Ē": 183,
      "ē": 184,
      "ĕ": 185,
      "ė": 186,
      "Ę": 187,
      "ę": 188,
      "ě": 189,
      "Ĝ": 190,
      "ğ": 191,
      "ĥ": 192,
      "ħ": 193,
      "Ī": 194,
      "ī": 195,
      "Ĭ": 196,
      "ĭ": 197,
      "Į": 198,
      "į": 199,
      "ı": 200,
      "ķ": 201,
      "ĸ": 202,
      "ļ": 203,
      "ľ": 204,
      "Ł": 205,
      "ł": 206,
      "Ń": 207,
      "ń": 208,
      "ņ": 209,
      "ň": 210,
      "ō": 211,
      "Ő": 212,
      "ő": 213,
      "œ": 214,
      "ŕ": 215,
      "Ř": 216,
      "ř": 217,
      "Ś": 218,
      "ś": 219,
      "Ŝ": 220,
      "ş": 221,
      "Š": 222,
      "š": 223,
      "ţ": 224,
      "ť": 225,
      "ŧ": 226,
      "ū": 227,
      "ŭ": 228,
      "ů": 229,
      "ű": 230,
      "ų": 231,
      "Ź": 232,
      "ź": 233,
      "Ż": 234,
      "ż": 235,
      "Ž": 236,
      "ž": 237,
      "ư": 238,
      "ǁ": 239,
      "ǃ": 240,
      "ǝ": 241,
      "ǵ": 242,
      "ș": 243,
      "ȩ": 244,
      "ȷ": 245,
      "ɐ": 246,
      "ɔ": 247,
      "ə": 248,
      "ɛ": 249,
      "ɜ": 250,
      "ɩ": 251,
      "ɯ": 252,
      "ɹ": 253,
      "ɾ": 254,
      "ʹ": 255,
      "ʻ": 256,
      "ː": 257,
      "˗": 258,
      "̀": 259,
      "́": 260,
      "̃": 261,
      "̄": 262,
      "̅": 263,
      "̆": 264,
      "̇": 265,
      "̓": 266,
      "̗": 267,
      "̞": 268,
      "̧": 269,
      "͡": 270,
      "Ά": 271,
      "Έ": 272,
      "Ή": 273,
      "Ί": 274,
      "Ό": 275,
      "ΐ": 276,
      "Α": 277,
      "Β": 278,
      "Γ": 279,
      "Δ": 280,
      "Ε": 281,
      "Η": 282,
      "Θ": 283,
      "Ι": 284,
      "Κ": 285,
      "Λ": 286,
      "Μ": 287,
      "Ν": 288,
      "Ξ": 289,
      "Ο": 290,
      "Π": 291,
      "Ρ": 292,
      "Σ": 293,
      "Τ": 294,
      "Υ": 295,
      "Φ": 296,
      "Χ": 297,
      "Ψ": 298,
      "Ω": 299,
      "ά": 300,
      "έ": 301,
      "ή": 302,
      "ί": 303,
      "α": 304,
      "β": 305,
      "γ": 306,
      "δ": 307,
      "ε": 308,
      "ζ": 309,
      "η": 310,
      "θ": 311,
      "ι": 312,
      "κ": 313,
      "λ": 314,
      "μ": 315,
      "ν": 316,
      "ξ": 317,
      "ο": 318,
      "π": 319,
      "ρ": 320,
      "ς": 321,
      "σ": 322,
      "τ": 323,
      "υ": 324,
      "φ": 325,
      "χ": 326,
      "ψ": 327,
      "ω": 328,
      "ϊ": 329,
      "ό": 330,
      "ύ": 331,
      "ώ": 332,
      "Ϝ": 333,
      "Ё": 334,
      "І": 335,
      "А": 336,
      "Б": 337,
      "В": 338,
      "Г": 339,
      "Д": 340,
      "Е": 341,
      "Ж": 342,
      "З": 343,
      "И": 344,
      "Й": 345,
      "К": 346,
      "Л": 347,
      "М": 348,
      "Н": 349,
      "О": 350,
      "П": 351,
      "Р": 352,
      "С": 353,
      "Т": 354,
      "У": 355,
      "Ф": 356,
      "Х": 357,
      "Ц": 358,
      "Ч": 359,
      "Ш": 360,
      "Щ": 361,
      "Ъ": 362,
      "Ь": 363,
      "Э": 364,
      "Ю": 365,
      "Я": 366,
      "а": 367,
      "б": 368,
      "в": 369,
      "г": 370,
      "д": 371,
      "е": 372,
      "ж": 373,
      "з": 374,
      "и": 375,
      "й": 376,
      "к": 377,
      "л": 378,
      "м": 379,
      "н": 380,
      "о": 381,
      "п": 382,
      "р": 383,
      "с": 384,
      "т": 385,
      "у": 386,
      "ф": 387,
      "х": 388,
      "ц": 389,
      "ч": 390,
      "ш": 391,
      "щ": 392,
      "ъ": 393,
      "ы": 394,
      "ь": 395,
      "э": 396,
      "ю": 397,
      "я": 398,
      "ѐ": 399,
      "ё": 400,
      "ђ": 401,
      "є": 402,
      "і": 403,
      "ї": 404,
      "Ѣ": 405,
      "ѣ": 406,
      "ѥ": 407,
      "ѫ": 408,
      "ҍ": 409,
      "ҝ": 410,
      "ӡ": 411,
      "ӧ": 412,
      "ּ": 413,
      "א": 414,
      "ב": 415,
      "ג": 416,
      "ד": 417,
      "ה": 418,
      "ו": 419,
      "ז": 420,
      "ח": 421,
      "ט": 422,
      "י": 423,
      "ך": 424,
      "כ": 425,
      "ל": 426,
      "ם": 427,
      "מ": 428,
      "ן": 429,
      "נ": 430,
      "ס": 431,
      "ע": 432,
      "פ": 433,
      "צ": 434,
      "ק": 435,
      "ר": 436,
      "ש": 437,
      "ת": 438,
      "׳": 439,
      "״": 440,
      "؛": 441,
      "ں": 442,
      "।": 443,
      "ૹ": 444,
      "ஐ": 445,
      "௳": 446,
      "௸": 447,
      "ᑐ": 448,
      "ḍ": 449,
      "ḥ": 450,
      "ḷ": 451,
      "ḹ": 452,
      "ṁ": 453,
      "ṅ": 454,
      "ṇ": 455,
      "ṕ": 456,
      "Ṛ": 457,
      "ṛ": 458,
      "ṝ": 459,
      "Ṡ": 460,
      "ṣ": 461,
      "Ṭ": 462,
      "ṭ": 463,
      "ẃ": 464,
      "ẏ": 465,
      "ẓ": 466,
      "ạ": 467,
      "Ẹ": 468,
      "ọ": 469,
      "ỏ": 470,
      "ἀ": 471,
      "ἁ": 472,
      "ἂ": 473,
      "ἄ": 474,
      "ἅ": 475,
      "Ἀ": 476,
      "ἐ": 477,
      "ἑ": 478,
      "ἒ": 479,
      "ἔ": 480,
      "ἕ": 481,
      "Ἐ": 482,
      "Ἓ": 483,
      "Ἔ": 484,
      "ἠ": 485,
      "ἡ": 486,
      "ἢ": 487,
      "ἤ": 488,
      "ἥ": 489,
      "ἦ": 490,
      "ἧ": 491,
      "Ἤ": 492,
      "ἰ": 493,
      "ἱ": 494,
      "ἲ": 495,
      "ἴ": 496,
      "ἵ": 497,
      "ἶ": 498,
      "ἷ": 499,
      "Ἰ": 500,
      "ὀ": 501,
      "ὁ": 502,
      "ὃ": 503,
      "ὄ": 504,
      "ὅ": 505,
      "Ὁ": 506,
      "ὐ": 507,
      "ὑ": 508,
      "ὔ": 509,
      "ὕ": 510,
      "ὖ": 511,
      "ὗ": 512,
      "ὠ": 513,
      "ὡ": 514,
      "ὥ": 515,
      "ὦ": 516,
      "ὧ": 517,
      "ὰ": 518,
      "ὲ": 519,
      "ὴ": 520,
      "ὶ": 521,
      "ὸ": 522,
      "ὺ": 523,
      "ὼ": 524,
      "ᾆ": 525,
      "ᾓ": 526,
      "ᾖ": 527,
      "ᾠ": 528,
      "ᾦ": 529,
      "ᾱ": 530,
      "ᾳ": 531,
      "ᾶ": 532,
      "ῃ": 533,
      "ῄ": 534,
      "ῆ": 535,
      "ῇ": 536,
      "ῐ": 537,
      "ῑ": 538,
      "ῖ": 539,
      "ῡ": 540,
      "ῦ": 541,
      "ῳ": 542,
      "ῶ": 543,
      "ῷ": 544,
      "​": 545,
      "‐": 546,
      "‒": 547,
      "–": 548,
      "—": 549,
      "―": 550,
      "‘": 551,
      "’": 552,
      "‚": 553,
      "“": 554,
      "”": 555,
      "„": 556,
      "‟": 557,
      "†": 558,
      "•": 559,
      " ": 560,
      "‰": 561,
      "′": 562,
      "‹": 563,
      "›": 564,
      "‿": 565,
      "⁂": 566,
      "⁄": 567,
      "⁞": 568,
      "⁪": 569,
      "€": 570,
      "℟": 571,
      "℣": 572,
      "℧": 573,
      "ↀ": 574,
      "↑": 575,
      "→": 576,
      "∂": 577,
      "−": 578,
      "∗": 579,
      "√": 580,
      "∛": 581,
      "∞": 582,
      "∣": 583,
      "∪": 584,
      "∴": 585,
      "∽": 586,
      "≈": 587,
      "≡": 588,
      "⊙": 589,
      "⋅": 590,
      "⋔": 591,
      "⋮": 592,
      "⌂": 593,
      "⌒": 594,
      "⌴": 595,
      "⎪": 596,
      "⎫": 597,
      "⎬": 598,
      "⎭": 599,
      "⎰": 600,
      "⎱": 601,
      "⏑": 602,
      "⏓": 603,
      "⏘": 604,
      "␣": 605,
      "⑂": 606,
      "─": 607,
      "│": 608,
      "═": 609,
      "╱": 610,
      "╲": 611,
      "╷": 612,
      "▁": 613,
      "■": 614,
      "□": 615,
      "▢": 616,
      "▫": 617,
      "▭": 618,
      "▰": 619,
      "▲": 620,
      "△": 621,
      "►": 622,
      "▼": 623,
      "▽": 624,
      "◆": 625,
      "◈": 626,
      "◡": 627,
      "◤": 628,
      "◻": 629,
      "★": 630,
      "☆": 631,
      "☉": 632,
      "☐": 633,
      "☙": 634,
      "☼": 635,
      "☿": 636,
      "♀": 637,
      "♄": 638,
      "♦": 639,
      "♭": 640,
      "♮": 641,
      "♯": 642,
      "⚜": 643,
      "⚫": 644,
      "✕": 645,
      "✟": 646,
      "✠": 647,
      "✡": 648,
      "✰": 649,
      "✳": 650,
      "✴": 651,
      "✶": 652,
      "✸": 653,
      "✺": 654,
      "✻": 655,
      "✽": 656,
      "❀": 657,
      "❃": 658,
      "❉": 659,
      "❋": 660,
      "❧": 661,
      "❭": 662,
      "⟙": 663,
      "⨀": 664,
      "⨉": 665,
      "⬛": 666,
      "ⵊ": 667,
      "ⵎ": 668,
      "⸗": 669,
      "〰": 670,
      "卍": 671,
      "ꕯ": 672,
      "︎": 673,
      "﻿": 674,
      "𝅘": 675,
      "𝅥": 676,
      "𝅮": 677,
      "𝆒": 678,
      "𝆓": 679,
      "𝈱": 680,
      "🞶": 681,
      "🞼": 682,
      "ie": 683,
      "▁p": 684,
      "▁s": 685,
      "▁w": 686,
      "▁n": 687,
      "▁z": 688,
      "rz": 689,
      "cz": 690,
      "ch": 691,
      "▁t": 692,
      "▁d": 693,
      "▁m": 694,
      "ał": 695,
      "sz": 696,
      "▁o": 697,
      "ię": 698,
      "▁j": 699,
      "▁i": 700,
      "ow": 701,
      "an": 702,
      "▁k": 703,
      "st": 704,
      "dz": 705,
      "▁na": 706,
      "ra": 707,
      "▁po": 708,
      "go": 709,
      "▁b": 710,
      "ro": 711,
      "rze": 712,
      "▁nie": 713,
      "em": 714,
      "ci": 715,
      "nie": 716,
      "▁się": 717,
      "ni": 718,
      "li": 719,
      "ak": 720,
      ".\n": 721,
      "▁—": 722,
      "le": 723,
      "▁za": 724,
      "▁do": 725,
      "rzy": 726,
      "ła": 727,
      "▁je": 728,
      "ar": 729,
      "ło": 730,
      "na": 731,
      "że": 732,
      "wi": 733,
      "▁u": 734,
      "ny": 735,
      "ne": 736,
      "am": 737,
      "ko": 738,
      "▁g": 739,
      "▁a": 740,
      "▁c": 741,
      "ka": 742,
      "▁wy": 743,
      "ki": 744,
      "ąc": 745,
      "czy": 746,
      "dy": 747,
      "▁prze": 748,
      "dzi": 749,
      "ów": 750,
      "ry": 751,
      "aj": 752,
      "by": 753,
      "cie": 754,
      "at": 755,
      "wo": 756,
      "ego": 757,
      "▁st": 758,
      "szy": 759,
      "no": 760,
      "dzie": 761,
      "▁P": 762,
      "ści": 763,
      "ej": 764,
      "wa": 765,
      "▁od": 766,
      "▁by": 767,
      "▁jak": 768,
      "▁że": 769,
      "..": 770,
      "▁to": 771,
      "kie": 772,
      "▁przy": 773,
      "la": 774,
      "mi": 775,
      "po": 776,
      "tó": 777,
      "a,": 778,
      "▁ch": 779,
      "▁ro": 780,
      "ad": 781,
      "▁mi": 782,
      "▁cz": 783,
      "▁mo": 784,
      "▁W": 785,
      "▁któ": 786,
      "ani": 787,
      "ną": 788,
      "re": 789,
      "ły": 790,
      "wie": 791,
      "▁sz": 792,
      "bie": 793,
      "▁ko": 794,
      "ała": 795,
      "▁ni": 796,
      "ży": 797,
      "ru": 798,
      "si": 799,
      "▁N": 800,
      "cze": 801,
      "▁ś": 802,
      "▁ty": 803,
      "owie": 804,
      "mie": 805,
      "ku": 806,
      "ró": 807,
      "ty": 808,
      "er": 809,
      "▁wie": 810,
      "en": 811,
      "▁A": 812,
      "ać": 813,
      "lu": 814,
      "▁go": 815,
      "▁M": 816,
      "▁S": 817,
      "łu": 818,
      "▁tak": 819,
      "ść": 820,
      "▁dz": 821,
      "▁T": 822,
      "to": 823,
      "ce": 824,
      "je": 825,
      "my": 826,
      "cy": 827,
      "raz": 828,
      "▁B": 829,
      "sze": 830,
      "as": 831,
      "▁roz": 832,
      "▁pod": 833,
      "▁C": 834,
      "wy": 835,
      "▁co": 836,
      "▁J": 837,
      "▁ob": 838,
      "owi": 839,
      "bi": 840,
      ",\n": 841,
      "▁wi": 842,
      "▁Z": 843,
      "▁jest": 844,
      "te": 845,
      "nia": 846,
      "ały": 847,
      "▁K": 848,
      "▁mu": 849,
      "da": 850,
      "anie": 851,
      "ami": 852,
      "ta": 853,
      "pi": 854,
      "▁O": 855,
      "ało": 856,
      "▁D": 857,
      "rę": 858,
      "al": 859,
      "ając": 860,
      "pie": 861,
      "u,": 862,
      "ob": 863,
      "owa": 864,
      "nych": 865,
      "zy": 866,
      "uż": 867,
      "ja": 868,
      "▁jed": 869,
      "▁pan": 870,
      "ą,": 871,
      "...": 872,
      "▁lu": 873,
      "▁te": 874,
      "gi": 875,
      "m,": 876,
      "▁sp": 877,
      "ąd": 878,
      "▁Nie": 879,
      "ez": 880,
      "nę": 881,
      "nego": 882,
      "▁dzie": 883,
      "▁mó": 884,
      "▁spo": 885,
      "mu": 886,
      "szyst": 887,
      "\n\n": 888,
      "ach": 889,
      "lo": 890,
      "▁Po": 891,
      "▁pra": 892,
      "▁bo": 893,
      "▁ci": 894,
      "▁le": 895,
      "niej": 896,
      "ski": 897,
      "tu": 898,
      "do": 899,
      "▁wo": 900,
      "bo": 901,
      "cho": 902,
      "▁który": 903,
      "▁ży": 904,
      "▁rze": 905,
      "▁jego": 906,
      "▁ale": 907,
      "▁już": 908,
      "we": 909,
      "em,": 910,
      "mo": 911,
      "▁gdy": 912,
      "ma": 913,
      "lko": 914,
      "jąc": 915,
      "any": 916,
      "sta": 917,
      "▁f": 918,
      "nej": 919,
      "ę,": 920,
      "▁czy": 921,
      "▁ż": 922,
      "ca": 923,
      "wał": 924,
      "éj": 925,
      "▁mie": 926,
      "▁ka": 927,
      "▁wszyst": 928,
      "skie": 929,
      "▁sam": 930,
      "▁pie": 931,
      "▁mnie": 932,
      "▁R": 933,
      "▁G": 934,
      "▁I": 935,
      "▁ze": 936,
      "ją": 937,
      "▁jej": 938,
      "▁dla": 939,
      "ek": 940,
      "▁był": 941,
      "ba": 942,
      "szcze": 943,
      "nym": 944,
      "or": 945,
      "czę": 946,
      "▁tylko": 947,
      "owy": 948,
      "▁naj": 949,
      "▁tego": 950,
      "▁przez": 951,
      "ch,": 952,
      "▁wię": 953,
      "▁h": 954,
      "obie": 955,
      "▁było": 956,
      "▁wz": 957,
      "?\n": 958,
      "ności": 959,
      "▁przed": 960,
      "łem": 961,
      "▁„": 962,
      "śli": 963,
      "ów,": 964,
      "▁zna": 965,
      "ałem": 966,
      "▁cie": 967,
      "▁L": 968,
      "▁pow": 969,
      "▁któr": 970,
      "▁sk": 971,
      "os": 972,
      "▁pot": 973,
      "eł": 974,
      "▁zap": 975,
      "ję": 976,
      "▁in": 977,
      "ście": 978,
      "▁bę": 979,
      "ć,": 980,
      "!\n": 981,
      "wszy": 982,
      "czo": 983,
      "▁ra": 984,
      "il": 985,
      "usz": 986,
      "▁ma": 987,
      "nem": 988,
      "dzo": 989,
      "▁my": 990,
      "sto": 991,
      "nie,": 992,
      "▁gł": 993,
      "▁sobie": 994,
      "kiem": 995,
      "▁pro": 996,
      "▁dzi": 997,
      "sk": 998,
      "▁swo": 999,
      "▁nad": 1000,
      "ew": 1001,
      "▁jeszcze": 1002,
      "▁sie": 1003,
      "nął": 1004,
      "▁bez": 1005,
      "sy": 1006,
      "ania": 1007,
      "du": 1008,
      "▁da": 1009,
      "▁ku": 1010,
      "ary": 1011,
      "▁sw": 1012,
      "▁poz": 1013,
      "▁r": 1014,
      "ga": 1015,
      ".\n\n": 1016,
      "ny,": 1017,
      "▁tu": 1018,
      "ół": 1019,
      "kę": 1020,
      "dział": 1021,
      "▁więc": 1022,
      "▁li": 1023,
      "▁bar": 1024,
      "▁ja": 1025,
      "▁rę": 1026,
      "sty": 1027,
      "▁Na": 1028,
      "ają": 1029,
      "ąg": 1030,
      ":\n": 1031,
      "kł": 1032,
      "▁się,": 1033,
      "▁powie": 1034,
      "▁ich": 1035,
      "▁dob": 1036,
      "▁ten": 1037,
      "ska": 1038,
      "...\n": 1039,
      "▁raz": 1040,
      "▁mówi": 1041,
      "cia": 1042,
      "lę": 1043,
      "▁chwi": 1044,
      "de": 1045,
      "▁czas": 1046,
      "▁świ": 1047,
      "▁no": 1048,
      "gł": 1049,
      "▁op": 1050,
      "▁aby": 1051,
      "on": 1052,
      "▁[": 1053,
      "▁H": 1054,
      "rzu": 1055,
      "▁og": 1056,
      "▁cho": 1057,
      "▁we": 1058,
      "nak": 1059,
      "▁wła": 1060,
      "ali": 1061,
      "ój": 1062,
      "wię": 1063,
      "nik": 1064,
      "się": 1065,
      "ano": 1066,
      "▁może": 1067,
      "ost": 1068,
      "▁\n": 1069,
      "im": 1070,
      "▁pi": 1071,
      "▁wiel": 1072,
      "▁ją": 1073,
      "▁Je": 1074,
      "dze": 1075,
      "śl": 1076,
      "ował": 1077,
      "ką": 1078,
      "zu": 1079,
      "▁mog": 1080,
      "▁odp": 1081,
      "śmy": 1082,
      "owo": 1083,
      "ki,": 1084,
      "na,": 1085,
      "sie": 1086,
      "▁tem": 1087,
      "▁kie": 1088,
      "ność": 1089,
      "▁Bo": 1090,
      "lat": 1091,
      "ana": 1092,
      "▁pa": 1093,
      "▁są": 1094,
      "czą": 1095,
      "▁du": 1096,
      "łowie": 1097,
      "cu": 1098,
      "▁pier": 1099,
      "tem": 1100,
      "dł": 1101,
      "spo": 1102,
      "▁będzie": 1103,
      "▁si": 1104,
      "gie": 1105,
      "▁Ale": 1106,
      "▁bi": 1107,
      "▁ła": 1108,
      "bu": 1109,
      "▁tam": 1110,
      "czu": 1111,
      "nię": 1112,
      "ór": 1113,
      "▁tej": 1114,
      "▁dro": 1115,
      "▁była": 1116,
      "▁kró": 1117,
      "wet": 1118,
      "ane": 1119,
      "ał,": 1120,
      "▁które": 1121,
      "▁zie": 1122,
      "fi": 1123,
      "sa": 1124,
      "el": 1125,
      "su": 1126,
      "so": 1127,
      "▁zd": 1128,
      "ony": 1129,
      "dzy": 1130,
      "ł,": 1131,
      "ka,": 1132,
      "kła": 1133,
      "▁1": 1134,
      "ęp": 1135,
      "ji": 1136,
      "pra": 1137,
      "▁pani": 1138,
      "▁ok": 1139,
      "▁ser": 1140,
      "▁sto": 1141,
      "sza": 1142,
      "▁on": 1143,
      "▁zn": 1144,
      "yt": 1145,
      "▁F": 1146,
      "▁ani": 1147,
      "▁pię": 1148,
      "ować": 1149,
      "róż": 1150,
      "pad": 1151,
      "niu": 1152,
      "▁cał": 1153,
      "▁słu": 1154,
      "▁bardzo": 1155,
      "▁nim": 1156,
      "▁Ch": 1157,
      "▁nawet": 1158,
      "▁człowie": 1159,
      "gu": 1160,
      "ąż": 1161,
      "▁To": 1162,
      "▁dru": 1163,
      "▁sł": 1164,
      "▁gło": 1165,
      "▁śmie": 1166,
      "▁cię": 1167,
      "zi": 1168,
      "sł": 1169,
      "▁gdzie": 1170,
      "ńst": 1171,
      "dni": 1172,
      "dę": 1173,
      "stęp": 1174,
      "ych": 1175,
      "koj": 1176,
      "▁Za": 1177,
      "▁jednak": 1178,
      "ecz": 1179,
      "▁sze": 1180,
      "▁jakie": 1181,
      "▁tym": 1182,
      "▁niez": 1183,
      "▁ta": 1184,
      "▁być": 1185,
      "▁mło": 1186,
      "co": 1187,
      "rzym": 1188,
      "ne,": 1189,
      "li,": 1190,
      "ur": 1191,
      "▁U": 1192,
      "▁ł": 1193,
      "sko": 1194,
      "▁nic": 1195,
      "ich": 1196,
      "▁zaw": 1197,
      "▁świat": 1198,
      "ast": 1199,
      "▁wszystko": 1200,
      "et": 1201,
      "▁miał": 1202,
      "kich": 1203,
      "resz": 1204,
      "▁oczy": 1205,
      "▁nas": 1206,
      "ym": 1207,
      "ran": 1208,
      "▁rzekł": 1209,
      "czas": 1210,
      "ków": 1211,
      "▁każ": 1212,
      "▁ost": 1213,
      "▁bra": 1214,
      "▁stra": 1215,
      "▁dłu": 1216,
      "róci": 1217,
      "niem": 1218,
      "▁praw": 1219,
      "bli": 1220,
      "▁ru": 1221,
      "▁pu": 1222,
      "chodzi": 1223,
      "peł": 1224,
      "szedł": 1225,
      "aje": 1226,
      "ona": 1227,
      "mię": 1228,
      "▁stro": 1229,
      "óż": 1230,
      "śnie": 1231,
      "rza": 1232,
      "ód": 1233,
      "ku,": 1234,
      "▁niego": 1235,
      "▁zło": 1236,
      "▁kiedy": 1237,
      "▁ot": 1238,
      "▁spra": 1239,
      "▁bu": 1240,
      "▁E": 1241,
      "rowa": 1242,
      "gdy": 1243,
      "ąt": 1244,
      "▁oj": 1245,
      "sp": 1246,
      "wać": 1247,
      "br": 1248,
      "eś": 1249,
      "▁lub": 1250,
      "▁siebie": 1251,
      "chy": 1252,
      "ot": 1253,
      "▁teraz": 1254,
      "▁mę": 1255,
      "▁Jak": 1256,
      "▁mię": 1257,
      "rzę": 1258,
      "cznie": 1259,
      "zna": 1260,
      "▁lecz": 1261,
      "▁sy": 1262,
      "waż": 1263,
      "nu": 1264,
      "▁też": 1265,
      "▁bie": 1266,
      "dząc": 1267,
      "skiego": 1268,
      "tow": 1269,
      "ród": 1270,
      "▁jako": 1271,
      "▁pew": 1272,
      "dow": 1273,
      "▁świe": 1274,
      "▁de": 1275,
      "▁trze": 1276,
      "stawi": 1277,
      "▁star": 1278,
      "k,": 1279,
      "▁(": 1280,
      "▁Czy": 1281,
      "▁miej": 1282,
      "war": 1283,
      "▁sta": 1284,
      "▁gro": 1285,
      "j,": 1286,
      "▁wa": 1287,
      "nia,": 1288,
      "emi": 1289,
      "om": 1290,
      "dź": 1291,
      "▁twa": 1292,
      "▁tych": 1293,
      "pa": 1294,
      "bym": 1295,
      "▁moż": 1296,
      "ą.": 1297,
      "▁Prze": 1298,
      "ami,": 1299,
      "▁Tak": 1300,
      "▁kil": 1301,
      "cha": 1302,
      "▁lat": 1303,
      "▁tę": 1304,
      "▁dale": 1305,
      "ła,": 1306,
      "▁stan": 1307,
      "▁chci": 1308,
      "▁By": 1309,
      "▁musi": 1310,
      "▁zw": 1311,
      "▁re": 1312,
      "cie,": 1313,
      "emu": 1314,
      "słu": 1315,
      "▁mat": 1316,
      "szcz": 1317,
      "▁zaś": 1318,
      "▁zro": 1319,
      "▁miejs": 1320,
      "szą": 1321,
      "owiad": 1322,
      "▁wszystkie": 1323,
      "liśmy": 1324,
      "kaz": 1325,
      "rzą": 1326,
      "wała": 1327,
      "dził": 1328,
      "gl": 1329,
      "kow": 1330,
      "kt": 1331,
      "▁zak": 1332,
      "▁niej": 1333,
      "one": 1334,
      "▁która": 1335,
      "▁mógł": 1336,
      "zie": 1337,
      "łości": 1338,
      "śmie": 1339,
      "▁e": 1340,
      "▁myśl": 1341,
      "un": 1342,
      "▁sło": 1343,
      "▁iż": 1344,
      "aty": 1345,
      "siad": 1346,
      "ąz": 1347,
      "ut": 1348,
      "▁Co": 1349,
      "dą": 1350,
      "▁two": 1351,
      "▁kobie": 1352,
      "szę": 1353,
      "▁ry": 1354,
      "▁Mo": 1355,
      "▁pat": 1356,
      "czył": 1357,
      "▁Wi": 1358,
      "▁odpowie": 1359,
      "▁szczę": 1360,
      "szego": 1361,
      "▁pięk": 1362,
      "ć.": 1363,
      "ec": 1364,
      "ém": 1365,
      "▁Do": 1366,
      "▁mam": 1367,
      "▁ludzi": 1368,
      "▁kra": 1369,
      "sła": 1370,
      "stą": 1371,
      "e,": 1372,
      "rac": 1373,
      "rod": 1374,
      "nęła": 1375,
      "tą": 1376,
      "▁nich": 1377,
      "ól": 1378,
      "▁su": 1379,
      "prze": 1380,
      "▁Wy": 1381,
      "▁St": 1382,
      "▁ba": 1383,
      "▁zawsze": 1384,
      "▁Przy": 1385,
      "łą": 1386,
      "▁zost": 1387,
      "▁szy": 1388,
      "i,": 1389,
      "▁im": 1390,
      "▁krzy": 1391,
      "▁zwy": 1392,
      "▁czu": 1393,
      "▁Cz": 1394,
      "strze": 1395,
      "▁chło": 1396,
      "▁zu": 1397,
      "ni,": 1398,
      "tych": 1399,
      "▁Ja": 1400,
      "▁kto": 1401,
      "▁tru": 1402,
      "▁ziemi": 1403,
      "▁śmier": 1404,
      "szych": 1405,
      "▁jakby": 1406,
      "le,": 1407,
      "▁tro": 1408,
      "▁Gdy": 1409,
      "żeli": 1410,
      "ną,": 1411,
      "▁—\n": 1412,
      "pu": 1413,
      "ciw": 1414,
      "dli": 1415,
      "▁aż": 1416,
      "▁którego": 1417,
      "▁znaj": 1418,
      "sz,": 1419,
      "oł": 1420,
      "▁sko": 1421,
      "ce,": 1422,
      "▁spos": 1423,
      "rzał": 1424,
      "▁Pan": 1425,
      "▁których": 1426,
      "scy": 1427,
      "▁czę": 1428,
      "tk": 1429,
      "▁koch": 1430,
      "▁zam": 1431,
      "▁al": 1432,
      "ciąg": 1433,
      "um": 1434,
      "▁wp": 1435,
      "▁głow": 1436,
      "▁podob": 1437,
      "▁nam": 1438,
      "wych": 1439,
      "▁lo": 1440,
      "ono": 1441,
      "▁chwili": 1442,
      "▁Mi": 1443,
      "▁żad": 1444,
      "dzić": 1445,
      "kry": 1446,
      "ty,": 1447,
      "cę": 1448,
      "jem": 1449,
      "▁to,": 1450,
      "szej": 1451,
      ".\n\n\n": 1452,
      "▁rów": 1453,
      "cił": 1454,
      "ego,": 1455,
      "ów.": 1456,
      "▁jaki": 1457,
      "▁takie": 1458,
      "▁księ": 1459,
      "dy,": 1460,
      "▁coś": 1461,
      "rą": 1462,
      "▁przyja": 1463,
      "▁ostat": 1464,
      "▁zawo": 1465,
      "▁zda": 1466,
      "▁dw": 1467,
      "mieni": 1468,
      "▁szcze": 1469,
      "▁nigdy": 1470,
      "▁Ka": 1471,
      "od": 1472,
      "▁Sz": 1473,
      "sku": 1474,
      "two": 1475,
      "▁Wie": 1476,
      "chu": 1477,
      "ński": 1478,
      "▁sob": 1479,
      "▁niż": 1480,
      "lan": 1481,
      "▁rzeczy": 1482,
      "gę": 1483,
      "▁dom": 1484,
      "▁głos": 1485,
      "▁ści": 1486,
      "▁war": 1487,
      "ale": 1488,
      "dziej": 1489,
      "▁mój": 1490,
      "dnie": 1491,
      "żył": 1492,
      "Nie": 1493,
      "ent": 1494,
      ";\n": 1495,
      "owarzy": 1496,
      "▁potrze": 1497,
      "stan": 1498,
      "mar": 1499,
      "▁daw": 1500,
      "▁Ż": 1501,
      "▁tra": 1502,
      "ca,": 1503,
      "▁dobrze": 1504,
      "kiego": 1505,
      "ób": 1506,
      "owu": 1507,
      "▁ksi": 1508,
      "▁ce": 1509,
      "▁były": 1510,
      "▁ciąg": 1511,
      "ciu": 1512,
      "ża": 1513,
      "▁la": 1514,
      "wa,": 1515,
      "▁Ro": 1516,
      "nąć": 1517,
      "▁włas": 1518,
      "cię": 1519,
      "tnie": 1520,
      "▁woj": 1521,
      "ać,": 1522,
      "▁godzi": 1523,
      "in": 1524,
      "▁sły": 1525,
      "cą": 1526,
      "ej,": 1527,
      "▁rzu": 1528,
      "rzwi": 1529,
      "cy,": 1530,
      "▁choć": 1531,
      "czyć": 1532,
      "za": 1533,
      "owe": 1534,
      "ajem": 1535,
      "stu": 1536,
      "leg": 1537,
      "szczę": 1538,
      "▁czar": 1539,
      "rów": 1540,
      "▁obo": 1541,
      "dem": 1542,
      "▁której": 1543,
      "▁cały": 1544,
      "tał": 1545,
      "▁kar": 1546,
      "▁kro": 1547,
      "kach": 1548,
      "▁os": 1549,
      "wem": 1550,
      "łam": 1551,
      "▁można": 1552,
      "▁domu": 1553,
      "▁Ko": 1554,
      "▁swego": 1555,
      "wało": 1556,
      "▁myśli": 1557,
      "▁żeby": 1558,
      "▁ona": 1559,
      "▁gdyby": 1560,
      "▁powo": 1561,
      "aniu": 1562,
      "▁niepo": 1563,
      "łość": 1564,
      "▁mil": 1565,
      "ści,": 1566,
      "▁[1": 1567,
      "▁Od": 1568,
      "▁zupeł": 1569,
      "az": 1570,
      "rabi": 1571,
      "nał": 1572,
      "▁róż": 1573,
      "▁drzwi": 1574,
      "ud": 1575,
      "▁gó": 1576,
      "anie,": 1577,
      "gląd": 1578,
      "sły": 1579,
      "cząc": 1580,
      "stwo": 1581,
      "szyscy": 1582,
      "tę": 1583,
      "nie.": 1584,
      "▁pana": 1585,
      "cza": 1586,
      "lach": 1587,
      "▁ar": 1588,
      "jm": 1589,
      "y,": 1590,
      "praw": 1591,
      "myśl": 1592,
      "▁nale": 1593,
      "laz": 1594,
      "kim": 1595,
      "▁oko": 1596,
      "nych,": 1597,
      "ste": 1598,
      "▁wsp": 1599,
      "ach,": 1600,
      "▁peł": 1601,
      "▁niech": 1602,
      "▁nią": 1603,
      "▁koń": 1604,
      "rzył": 1605,
      "nią": 1606,
      "▁dzieci": 1607,
      "amię": 1608,
      "▁par": 1609,
      "▁towarzy": 1610,
      "▁wsze": 1611,
      "▁nag": 1612,
      "pis": 1613,
      "▁zdo": 1614,
      "óg": 1615,
      "▁świę": 1616,
      "nemi": 1617,
      "pom": 1618,
      "▁głę": 1619,
      "▁powi": 1620,
      "▁życie": 1621,
      "▁Ma": 1622,
      "▁miesz": 1623,
      "▁An": 1624,
      "▁król": 1625,
      "dał": 1626,
      "▁jeden": 1627,
      "nił": 1628,
      "czne": 1629,
      "▁uśmie": 1630,
      "wą": 1631,
      "ówi": 1632,
      "stąpi": 1633,
      "▁potem": 1634,
      "śród": 1635,
      "▁wol": 1636,
      "anych": 1637,
      "▁cze": 1638,
      "▁zawoł": 1639,
      "▁nap": 1640,
      "tor": 1641,
      "wiad": 1642,
      "▁zat": 1643,
      "▁dy": 1644,
      "nić": 1645,
      "jej": 1646,
      "ra,": 1647,
      "sił": 1648,
      "▁wszystkich": 1649,
      "▁pierw": 1650,
      "wały": 1651,
      "wier": 1652,
      "▁przeciw": 1653,
      "dzieć": 1654,
      "▁Ś": 1655,
      "▁pół": 1656,
      "▁albo": 1657,
      "t,": 1658,
      "▁mał": 1659,
      "cji": 1660,
      "▁kon": 1661,
      "tek": 1662,
      "wym": 1663,
      "rom": 1664,
      "miał": 1665,
      "▁pła": 1666,
      "skiej": 1667,
      "▁moje": 1668,
      "▁wyp": 1669,
      "▁którzy": 1670,
      "pli": 1671,
      "▁więcej": 1672,
      "▁którą": 1673,
      "ta,": 1674,
      "▁rodzi": 1675,
      "▁widzi": 1676,
      "ń,": 1677,
      "czął": 1678,
      "▁znowu": 1679,
      "▁Ni": 1680,
      "▁kilka": 1681,
      "▁także": 1682,
      "owych": 1683,
      "▁naz": 1684,
      "▁przysz": 1685,
      "▁zach": 1686,
      "▁nau": 1687,
      "ścią": 1688,
      "gą": 1689,
      "kę,": 1690,
      "łę": 1691,
      "óź": 1692,
      "▁spoj": 1693,
      "▁mar": 1694,
      "▁Mar": 1695,
      "▁chciał": 1696,
      "kami": 1697,
      "dać": 1698,
      "▁trzy": 1699,
      "▁zg": 1700,
      "raż": 1701,
      "▁Te": 1702,
      "▁kr": 1703,
      "▁smu": 1704,
      "▁chłop": 1705,
      "ki.": 1706,
      "▁którym": 1707,
      "▁człowiek": 1708,
      "bra": 1709,
      "▁każdy": 1710,
      "▁uczy": 1711,
      "▁zrobi": 1712,
      "śni": 1713,
      "▁wst": 1714,
      "▁uczu": 1715,
      "reszcie": 1716,
      "miast": 1717,
      "kiej": 1718,
      "czaj": 1719,
      "▁fi": 1720,
      "▁dwo": 1721,
      "c,": 1722,
      "▁2": 1723,
      "ące": 1724,
      "wali": 1725,
      "▁zaraz": 1726,
      "▁szu": 1727,
      "rze,": 1728,
      "▁pol": 1729,
      "▁życia": 1730,
      "czem": 1731,
      "▁spokoj": 1732,
      "ko,": 1733,
      "ara": 1734,
      "▁dziew": 1735,
      "dzą": 1736,
      "▁dwa": 1737,
      "ry,": 1738,
      "ców": 1739,
      "szu": 1740,
      "▁czego": 1741,
      "▁ciem": 1742,
      "śle": 1743,
      "ść,": 1744,
      "m.": 1745,
      "ny.": 1746,
      "▁sobą": 1747,
      "chem": 1748,
      "dzie,": 1749,
      "▁drze": 1750,
      "aną": 1751,
      "amy": 1752,
      "o,": 1753,
      "ło,": 1754,
      "byt": 1755,
      "no,": 1756,
      "▁uro": 1757,
      "▁chce": 1758,
      "▁gru": 1759,
      "wając": 1760,
      "ytał": 1761,
      "▁męż": 1762,
      "oba": 1763,
      "tel": 1764,
      "ral": 1765,
      "n,": 1766,
      "▁cięż": 1767,
      "es": 1768,
      "cież": 1769,
      "owiem": 1770,
      "▁między": 1771,
      "▁Pi": 1772,
      "▁dziś": 1773,
      "▁wido": 1774,
      "row": 1775,
      "▁robi": 1776,
      "▁wszyscy": 1777,
      "szym": 1778,
      "▁ust": 1779,
      "▁bla": 1780,
      "▁panie": 1781,
      "▁ło": 1782,
      "▁prawie": 1783,
      "▁ciebie": 1784,
      "nika": 1785,
      "rząd": 1786,
      "mi,": 1787,
      "▁wiecz": 1788,
      "ciel": 1789,
      "wę": 1790,
      "amie": 1791,
      "▁książ": 1792,
      "▁zb": 1793,
      "tów": 1794,
      "▁słowa": 1795,
      "ły,": 1796,
      "▁bro": 1797,
      "▁jestem": 1798,
      "▁sła": 1799,
      "▁pokoj": 1800,
      "wiąz": 1801,
      "▁pop": 1802,
      "omo": 1803,
      "▁isto": 1804,
      "arł": 1805,
      "u.": 1806,
      "▁tw": 1807,
      "▁drugi": 1808,
      "▁ludz": 1809,
      "kol": 1810,
      "▁dr": 1811,
      "chę": 1812,
      "▁strasz": 1813,
      "cem": 1814,
      "ął": 1815,
      "ństwo": 1816,
      "▁tr": 1817,
      "▁l": 1818,
      "ścia": 1819,
      "▁wyd": 1820,
      "▁trzeba": 1821,
      "je,": 1822,
      "chał": 1823,
      "py": 1824,
      "▁niem": 1825,
      "rew": 1826,
      "▁ję": 1827,
      "▁jas": 1828,
      "licz": 1829,
      "▁pomo": 1830,
      "▁sposób": 1831,
      "▁wszel": 1832,
      "▁ucie": 1833,
      "▁wło": 1834,
      "]\n": 1835,
      "▁dusz": 1836,
      "▁ofi": 1837,
      "łe": 1838,
      "raże": 1839,
      "zd": 1840,
      "▁właśnie": 1841,
      "am,": 1842,
      "and": 1843,
      "szał": 1844,
      "▁wal": 1845,
      "piero": 1846,
      "▁Jest": 1847,
      "knął": 1848,
      "▁cier": 1849,
      "żąc": 1850,
      "▁jedy": 1851,
      "▁umie": 1852,
      "▁zwie": 1853,
      "▁drugie": 1854,
      "tąd": 1855,
      "▁wzg": 1856,
      "kład": 1857,
      "▁pierwszy": 1858,
      "dzę": 1859,
      "▁pog": 1860,
      "s,": 1861,
      "▁Ty": 1862,
      "bieg": 1863,
      "niec": 1864,
      "▁słoń": 1865,
      "II": 1866,
      "a,\n": 1867,
      "▁miała": 1868,
      "nios": 1869,
      "ron": 1870,
      "ład": 1871,
      "▁Pa": 1872,
      "\n\n\n": 1873,
      "skich": 1874,
      "aniem": 1875,
      "stwa": 1876,
      "▁gdyż": 1877,
      "▁przyby": 1878,
      "dza": 1879,
      "wol": 1880,
      "▁dost": 1881,
      "▁twarz": 1882,
      "▁dnia": 1883,
      "żyć": 1884,
      "▁dziw": 1885,
      "kiem,": 1886,
      "▁jedno": 1887,
      "rani": 1888,
      "rał": 1889,
      "▁jaką": 1890,
      "▁mają": 1891,
      "▁zag": 1892,
      "▁poś": 1893,
      "▁ut": 1894,
      "god": 1895,
      "▁ocz": 1896,
      "▁swoje": 1897,
      "wy,": 1898,
      "nosi": 1899,
      "▁tłu": 1900,
      "nością": 1901,
      "▁zupełnie": 1902,
      "▁me": 1903,
      "czej": 1904,
      "▁oto": 1905,
      "dzię": 1906,
      "▁stary": 1907,
      "cale": 1908,
      "▁swej": 1909,
      "▁wyraz": 1910,
      "▁was": 1911,
      "▁cu": 1912,
      "czego": 1913,
      "ności,": 1914,
      "tedy": 1915,
      "▁mówił": 1916,
      "▁ręce": 1917,
      "kać": 1918,
      "▁coraz": 1919,
      "oną": 1920,
      "rócił": 1921,
      "owej": 1922,
      "trz": 1923,
      "▁długo": 1924,
      "przy": 1925,
      "ter": 1926,
      "▁wiele": 1927,
      "wił": 1928,
      "ze": 1929,
      "▁Bóg": 1930,
      "▁przesz": 1931,
      "▁lek": 1932,
      "▁dalej": 1933,
      "▁kwi": 1934,
      "▁nieszczę": 1935,
      "▁prag": 1936,
      "Na": 1937,
      "▁wyso": 1938,
      "▁jéj": 1939,
      "▁czasu": 1940,
      "ując": 1941,
      "mawi": 1942,
      "ol": 1943,
      "▁śpie": 1944,
      "▁jeżeli": 1945,
      "▁pamię": 1946,
      "▁rozm": 1947,
      "chow": 1948,
      "nic": 1949,
      "▁rzecz": 1950,
      "▁śmierci": 1951,
      "pe": 1952,
      "kolwie": 1953,
      "▁tak,": 1954,
      "▁razem": 1955,
      "świad": 1956,
      "nek": 1957,
      "szczy": 1958,
      "la,": 1959,
      "▁bli": 1960,
      "▁Pod": 1961,
      "bę": 1962,
      "res": 1963,
      "▁Le": 1964,
      "▁jeśli": 1965,
      "any,": 1966,
      "kro": 1967,
      "taj": 1968,
      "ka.": 1969,
      "raź": 1970,
      "▁Pol": 1971,
      "nia.": 1972,
      "▁kraj": 1973,
      "▁równie": 1974,
      "na.": 1975,
      "▁dziec": 1976,
      "pat": 1977,
      "ania,": 1978,
      "gi,": 1979,
      "▁póź": 1980,
      "▁zbli": 1981,
      "a.": 1982,
      "▁uj": 1983,
      "żej": 1984,
      "▁głu": 1985,
      "▁stos": 1986,
      "kon": 1987,
      "cić": 1988,
      "chać": 1989,
      "▁kom": 1990,
      "▁zo": 1991,
      "▁twarzy": 1992,
      "Jak": 1993,
      "nicy": 1994,
      "▁dzień": 1995,
      "▁wypad": 1996,
      "▁czer": 1997,
      "▁wśród": 1998,
      "▁Li": 1999,
      "▁tego,": 2000,
      "▁rozu": 2001,
      "▁noc": 2002,
      "uszcz": 2003,
      "owi,": 2004,
      "▁serce": 2005,
      "▁dni": 2006,
      "▁zawołał": 2007,
      "rót": 2008,
      "▁całą": 2009,
      "▁uli": 2010,
      "▁trud": 2011,
      "▁ludzie": 2012,
      "▁moc": 2013,
      "kolwiek": 2014,
      "▁nikt": 2015,
      "▁taki": 2016,
      "nego,": 2017,
      "▁tyle": 2018,
      "▁zale": 2019,
      "▁miłości": 2020,
      "▁następ": 2021,
      "szła": 2022,
      "▁wcale": 2023,
      "▁ź": 2024,
      "▁smut": 2025,
      "▁ile": 2026,
      "ńczy": 2027,
      "▁grze": 2028,
      "nio": 2029,
      "działa": 2030,
      "▁czem": 2031,
      "▁szlach": 2032,
      "▁gor": 2033,
      "owała": 2034,
      "cia,": 2035,
      "czny": 2036,
      "▁pozost": 2037,
      "ństwa": 2038,
      "ósł": 2039,
      "▁rado": 2040,
      "ięc": 2041,
      "▁zad": 2042,
      "▁duszy": 2043,
      "dwie": 2044,
      "▁zoba": 2045,
      "!...": 2046,
      "ała,": 2047,
      "ków,": 2048,
      "néj": 2049,
      "ul": 2050,
      "raj": 2051,
      "ku.": 2052,
      "▁powa": 2053,
      "▁pło": 2054,
      "▁obraz": 2055,
      "▁tajem": 2056,
      "▁uważ": 2057,
      "se": 2058,
      "▁wzro": 2059,
      "▁przyj": 2060,
      "sząc": 2061,
      "▁natu": 2062,
      "▁samo": 2063,
      "▁szep": 2064,
      "ab": 2065,
      ",\nA": 2066,
      ",\nI": 2067,
      "ądź": 2068,
      "da,": 2069,
      "ek,": 2070,
      "▁odda": 2071,
      "cyi": 2072,
      "ri": 2073,
      "▁for": 2074,
      "▁moja": 2075,
      "nie.\n": 2076,
      "em.": 2077,
      "▁ow": 2078,
      "▁skrzy": 2079,
      "▁wspo": 2080,
      "▁obu": 2081,
      "ski,": 2082,
      "▁jakiś": 2083,
      "mę": 2084,
      "wal": 2085,
      "▁sil": 2086,
      "szak": 2087,
      "▁V": 2088,
      "anego": 2089,
      "żo": 2090,
      "▁byli": 2091,
      "tej": 2092,
      "\nI": 2093,
      "rzeć": 2094,
      "▁wyt": 2095,
      "▁Niech": 2096,
      "▁kamie": 2097,
      "łó": 2098,
      "▁rękę": 2099,
      "lew": 2100,
      "▁szyb": 2101,
      "▁poło": 2102,
      "▁potę": 2103,
      "▁Al": 2104,
      "▁brze": 2105,
      "▁Lu": 2106,
      "▁up": 2107,
      "“,": 2108,
      "rafi": 2109,
      "▁sztu": 2110,
      "ówczas": 2111,
      "▁nieb": 2112,
      "stra": 2113,
      "ier": 2114,
      "nać": 2115,
      "▁zaczę": 2116,
      "kle": 2117,
      "▁zim": 2118,
      "my,": 2119,
      "▁trochę": 2120,
      "rzód": 2121,
      "▁swe": 2122,
      "▁Jed": 2123,
      "▁gnie": 2124,
      "▁pis": 2125,
      "li.": 2126,
      "▁dopiero": 2127,
      "▁więk": 2128,
      "lił": 2129,
      "▁gospo": 2130,
      ",\nW": 2131,
      "▁znów": 2132,
      "kał": 2133,
      "ciec": 2134,
      "owego": 2135,
      "▁zgo": 2136,
      "dzenia": 2137,
      "▁cór": 2138,
      "▁mogła": 2139,
      "▁głowę": 2140,
      "▁dziewczy": 2141,
      "ada": 2142,
      "ało,": 2143,
      "▁kości": 2144,
      "▁or": 2145,
      "szo": 2146,
      "▁wzi": 2147,
      "▁piersi": 2148,
      "▁chwil": 2149,
      "▁swoją": 2150,
      "▁posiad": 2151,
      "ką,": 2152,
      "▁bied": 2153,
      "▁pok": 2154,
      "ed": 2155,
      "man": 2156,
      "▁pły": 2157,
      "▁strze": 2158,
      "▁swych": 2159,
      "▁poch": 2160,
      "▁Fran": 2161,
      "▁swoich": 2162,
      "▁poko": 2163,
      "ery": 2164,
      "▁szczeg": 2165,
      "▁stał": 2166,
      "1]": 2167,
      "▁nagle": 2168,
      "▁powiedział": 2169,
      "iedy": 2170,
      "któ": 2171,
      "▁szczęśli": 2172,
      "▁pyt": 2173,
      "tego": 2174,
      "▁uśmiech": 2175,
      "niał": 2176,
      "▁sku": 2177,
      "▁mnie,": 2178,
      "ową": 2179,
      "cznych": 2180,
      "ber": 2181,
      "ską": 2182,
      "ający": 2183,
      "dob": 2184,
      "▁mia": 2185,
      "▁będę": 2186,
      "nę,": 2187,
      "▁Lecz": 2188,
      "▁swój": 2189,
      "nej,": 2190,
      "▁bowiem": 2191,
      "wie,": 2192,
      "mówi": 2193,
      "▁głębo": 2194,
      "▁widział": 2195,
      "▁kilku": 2196,
      "▁hi": 2197,
      "▁[2": 2198,
      "▁pal": 2199,
      "▁wę": 2200,
      "ciaż": 2201,
      "▁kaz": 2202,
      "▁robo": 2203,
      "us": 2204,
      "▁kole": 2205,
      "cj": 2206,
      "▁syn": 2207,
      "▁oba": 2208,
      "\nW": 2209,
      "miesz": 2210,
      "▁znalaz": 2211,
      "▁Jan": 2212,
      "▁pró": 2213,
      "tan": 2214,
      "▁pos": 2215,
      "▁panu": 2216,
      "anym": 2217,
      "ształ": 2218,
      "▁rozp": 2219,
      "cał": 2220,
      "▁szko": 2221,
      "ały,": 2222,
      "▁r.": 2223,
      "▁zbyt": 2224,
      "▁rzekła": 2225,
      "ezpie": 2226,
      "w.": 2227,
      "▁swą": 2228,
      "szył": 2229,
      "▁chwilę": 2230,
      "▁mogę": 2231,
      "niejsze": 2232,
      "biera": 2233,
      "nieważ": 2234,
      "▁nasz": 2235,
      "nym,": 2236,
      "▁wam": 2237,
      "▁zapew": 2238,
      "trze": 2239,
      "▁inte": 2240,
      "nąc": 2241,
      "▁por": 2242,
      "wia": 2243,
      "▁gar": 2244,
      "▁poli": 2245,
      "▁niby": 2246,
      "kra": 2247,
      "▁cóż": 2248,
      "▁weso": 2249,
      "niósł": 2250,
      "roż": 2251,
      "nienia": 2252,
      "rząc": 2253,
      "zn": 2254,
      "▁zas": 2255,
      "czenie": 2256,
      "▁bły": 2257,
      "▁nieu": 2258,
      "▁obec": 2259,
      "dziła": 2260,
      "▁18": 2261,
      "wości": 2262,
      "▁kla": 2263,
      "▁ude": 2264,
      "adomo": 2265,
      "▁należy": 2266,
      "tarz": 2267,
      "▁list": 2268,
      "▁Boże": 2269,
      "niejszy": 2270,
      "▁często": 2271,
      "▁ak": 2272,
      "lep": 2273,
      "jął": 2274,
      "▁wreszcie": 2275,
      "óch": 2276,
      "▁zabi": 2277,
      "▁obie": 2278,
      "rowi": 2279,
      "żeby": 2280,
      "▁jednego": 2281,
      "▁prę": 2282,
      "uści": 2283,
      "▁począ": 2284,
      "chodząc": 2285,
      "▁3": 2286,
      "▁wier": 2287,
      "▁środ": 2288,
      "▁Ł": 2289,
      "czasem": 2290,
      "▁Roz": 2291,
      "▁znak": 2292,
      "▁wzglę": 2293,
      "naj": 2294,
      "zo": 2295,
      "rzyć": 2296,
      "▁konie": 2297,
      "tom": 2298,
      "ch.": 2299,
      "▁każd": 2300,
      ",\nP": 2301,
      "▁żoł": 2302,
      "▁przecież": 2303,
      "▁opowiad": 2304,
      "ami.": 2305,
      "pomi": 2306,
      "▁uwa": 2307,
      "▁prawdzi": 2308,
      "▁dwie": 2309,
      "▁powst": 2310,
      "▁trzym": 2311,
      "tym": 2312,
      "▁cy": 2313,
      "piej": 2314,
      "ene": 2315,
      "nt": 2316,
      "kając": 2317,
      "anej": 2318,
      "▁Pro": 2319,
      "▁serca": 2320,
      "▁innych": 2321,
      "▁Dla": 2322,
      "▁czo": 2323,
      "▁odpowiedział": 2324,
      "▁strony": 2325,
      "▁zami": 2326,
      "▁Był": 2327,
      "cąc": 2328,
      "▁mieć": 2329,
      "▁rozpo": 2330,
      "▁»": 2331,
      "▁kry": 2332,
      "by,": 2333,
      "▁wyk": 2334,
      "rost": 2335,
      "▁sposob": 2336,
      "▁dowie": 2337,
      "▁wielkie": 2338,
      "▁lud": 2339,
      "▁wtedy": 2340,
      "▁całe": 2341,
      "▁dał": 2342,
      ",\nC": 2343,
      "▁skar": 2344,
      "mio": 2345,
      "▁zaczął": 2346,
      "nienie": 2347,
      "▁wiedział": 2348,
      "\nP": 2349,
      "▁opie": 2350,
      "kąd": 2351,
      "▁sama": 2352,
      "▁uży": 2353,
      "ki.\n": 2354,
      "ność,": 2355,
      "▁zapom": 2356,
      "▁właści": 2357,
      "ające": 2358,
      "▁zrozu": 2359,
      "ciem": 2360,
      "bą": 2361,
      "owym": 2362,
      "▁pę": 2363,
      "▁X": 2364,
      "▁nadzie": 2365,
      "rop": 2366,
      "cer": 2367,
      "raw": 2368,
      "▁tem,": 2369,
      "▁niedo": 2370,
      "ał.": 2371,
      "najm": 2372,
      "owy,": 2373,
      "▁Wo": 2374,
      "go,": 2375,
      "czną": 2376,
      "ła.": 2377,
      "więk": 2378,
      "▁otwo": 2379,
      "żd": 2380,
      "▁mniej": 2381,
      "rem": 2382,
      "▁dwóch": 2383,
      "▁pad": 2384,
      "▁krwi": 2385,
      "now": 2386,
      "resztą": 2387,
      "▁posta": 2388,
      "▁nocy": 2389,
      "▁razy": 2390,
      "▁słow": 2391,
      "▁prowa": 2392,
      "▁zau": 2393,
      "men": 2394,
      "▁Więc": 2395,
      "ięk": 2396,
      "szem": 2397,
      "▁potrzeb": 2398,
      "ników": 2399,
      "▁ucz": 2400,
      "▁Tu": 2401,
      "▁roku": 2402,
      "▁ki": 2403,
      "▁miłość": 2404,
      "▁dość": 2405,
      "ata": 2406,
      "▁Mary": 2407,
      "▁Naj": 2408,
      "▁dło": 2409,
      "▁ud": 2410,
      "▁moj": 2411,
      "czenia": 2412,
      "skiem": 2413,
      "uje": 2414,
      "tak": 2415,
      "cki": 2416,
      "▁Wszyst": 2417,
      "▁mego": 2418,
      "▁jesteś": 2419,
      "tychmiast": 2420,
      "▁hrabi": 2421,
      "▁stanowi": 2422,
      "stanowi": 2423,
      "▁natychmiast": 2424,
      "żał": 2425,
      "dłu": 2426,
      "▁niema": 2427,
      "▁hu": 2428,
      "r.": 2429,
      "siąc": 2430,
      "łych": 2431,
      "▁ist": 2432,
      "alo": 2433,
      "!\n\n": 2434,
      "▁Dzie": 2435,
      "▁Bi": 2436,
      "śla": 2437,
      "▁sobie,": 2438,
      "dzaj": 2439,
      "tni": 2440,
      "▁chy": 2441,
      "dąc": 2442,
      "▁miast": 2443,
      "▁świecie": 2444,
      "▁człowieka": 2445,
      "▁Sy": 2446,
      "▁krew": 2447,
      "▁Mu": 2448,
      "łow": 2449,
      "▁oby": 2450,
      "ście,": 2451,
      "▁nazy": 2452,
      "▁nieprzy": 2453,
      "▁ukry": 2454,
      "mier": 2455,
      "ńskiego": 2456,
      "▁Bar": 2457,
      "twa": 2458,
      "▁wyda": 2459,
      "▁siost": 2460,
      "▁zapytał": 2461,
      "▁pre": 2462,
      "ga,": 2463,
      "▁Ba": 2464,
      "▁ode": 2465,
      "gra": 2466,
      "der": 2467,
      "wić": 2468,
      "nęły": 2469,
      "▁sprze": 2470,
      "▁później": 2471,
      "▁przep": 2472,
      "▁nieco": 2473,
      "wat": 2474,
      "wiedli": 2475,
      "▁chociaż": 2476,
      "owali": 2477,
      "IE": 2478,
      "▁drogi": 2479,
      "▁Cho": 2480,
      "▁In": 2481,
      "▁masz": 2482,
      "“.": 2483,
      "jący": 2484,
      "▁ziemię": 2485,
      "▁młody": 2486,
      "▁bło": 2487,
      "▁prac": 2488,
      "▁szero": 2489,
      "ś,": 2490,
      "łak": 2491,
      "▁otwar": 2492,
      "▁zamk": 2493,
      "▁duch": 2494,
      "▁sen": 2495,
      "▁War": 2496,
      "▁również": 2497,
      "▁odez": 2498,
      "obec": 2499,
      "▁krót": 2500,
      "▁wspom": 2501,
      "lb": 2502,
      "owie,": 2503,
      "▁pój": 2504,
      "ciąż": 2505,
      "▁zaję": 2506,
      "▁kat": 2507,
      "rzo": 2508,
      "▁pom": 2509,
      "▁tutaj": 2510,
      "ne.": 2511,
      "sia": 2512,
      "lu,": 2513,
      "▁dop": 2514,
      "▁odparł": 2515,
      "▁zmar": 2516,
      "mysł": 2517,
      "▁poru": 2518,
      "▁prawo": 2519,
      "▁wraże": 2520,
      "▁papie": 2521,
      "kazy": 2522,
      "▁swoj": 2523,
      "▁Cóż": 2524,
      "▁mną": 2525,
      "Że": 2526,
      "▁śmi": 2527,
      "wan": 2528,
      "▁gwał": 2529,
      "dzień": 2530,
      "zię": 2531,
      "▁bog": 2532,
      "▁Kiedy": 2533,
      "▁ów": 2534,
      "▁ogrom": 2535,
      "▁biał": 2536,
      "▁czerwo": 2537,
      "▁bardziej": 2538,
      "skim": 2539,
      "▁nasze": 2540,
      "▁Może": 2541,
      "▁nę": 2542,
      "czyna": 2543,
      "▁będą": 2544,
      "▁dobro": 2545,
      "▁zmieni": 2546,
      "▁fran": 2547,
      ",\nZ": 2548,
      "▁wdzię": 2549,
      "czał": 2550,
      "gło": 2551,
      "),": 2552,
      "▁głów": 2553,
      "▁czasie": 2554,
      "▁doko": 2555,
      "▁wro": 2556,
      "▁Ju": 2557,
      "między": 2558,
      "▁żołnie": 2559,
      "▁niko": 2560,
      "czony": 2561,
      "rek": 2562,
      "świe": 2563,
      "▁świad": 2564,
      "ciła": 2565,
      "owiąz": 2566,
      "au": 2567,
      "eli": 2568,
      "▁Sta": 2569,
      "▁musiał": 2570,
      "00": 2571,
      "▁pas": 2572,
      "▁usta": 2573,
      "ędzi": 2574,
      "▁dal": 2575,
      "nku": 2576,
      "▁pokoju": 2577,
      "▁jakim": 2578,
      "s.": 2579,
      "▁sza": 2580,
      "▁razie": 2581,
      "▁oni": 2582,
      "▁dwu": 2583,
      "▁niebezpie": 2584,
      "▁bole": 2585,
      "▁powin": 2586,
      "tery": 2587,
      "▁wska": 2588,
      "▁Teraz": 2589,
      "ten": 2590,
      "dzieli": 2591,
      "dzieć,": 2592,
      "cyj": 2593,
      "▁cieka": 2594,
      "\nZ": 2595,
      "▁gwi": 2596,
      "Bo": 2597,
      "▁stało": 2598,
      "rzenia": 2599,
      "Gdy": 2600,
      "▁spostrze": 2601,
      "krót": 2602,
      "▁młod": 2603,
      "▁ażeby": 2604,
      "wość": 2605,
      "▁gra": 2606,
      "▁Ten": 2607,
      "▁rą": 2608,
      "mag": 2609,
      "najmniej": 2610,
      "▁niebie": 2611,
      "▁ostatni": 2612,
      "▁dobr": 2613,
      "▁wyj": 2614,
      "ć.\n": 2615,
      "▁jaka": 2616,
      "▁wielki": 2617,
      "▁chę": 2618,
      "▁On": 2619,
      "kazu": 2620,
      "wego": 2621,
      "wyczaj": 2622,
      "▁niewi": 2623,
      "▁języ": 2624,
      "▁Pani": 2625,
      "▁spotk": 2626,
      "▁Dzi": 2627,
      "ńskie": 2628,
      "▁an": 2629,
      "▁ojciec": 2630,
      "miona": 2631,
      "▁stop": 2632,
      "szy,": 2633,
      "r,": 2634,
      "lej": 2635,
      "atu": 2636,
      "czyła": 2637,
      "▁mojej": 2638,
      "▁dlat": 2639,
      "▁mieszk": 2640,
      "▁mówiąc": 2641,
      "cja": 2642,
      "▁wąt": 2643,
      "łego": 2644,
      "żu": 2645,
      "▁Ra": 2646,
      "▁Kto": 2647,
      "▁i,": 2648,
      "bar": 2649,
      "▁gę": 2650,
      "▁kapi": 2651,
      "▁pozwo": 2652,
      "▁swoim": 2653,
      "▁jakiego": 2654,
      "óz": 2655,
      "▁dź": 2656,
      "▁jednej": 2657,
      "lą": 2658,
      "sią": 2659,
      "▁dobry": 2660,
      "gli": 2661,
      "▁Jeżeli": 2662,
      "ci,": 2663,
      "éj,": 2664,
      "owania": 2665,
      "▁niebo": 2666,
      "▁osob": 2667,
      "jawi": 2668,
      "ających": 2669,
      "▁niespo": 2670,
      "▁My": 2671,
      "▁wyro": 2672,
      "▁obok": 2673,
      ",\nT": 2674,
      "tóż": 2675,
      "▁rozko": 2676,
      "▁głoś": 2677,
      "źni": 2678,
      "▁pole": 2679,
      "▁zwycię": 2680,
      "niu,": 2681,
      "▁temu": 2682,
      "czyz": 2683,
      "▁wiat": 2684,
      "▁mało": 2685,
      "stać": 2686,
      "cu,": 2687,
      "cznej": 2688,
      "wają": 2689,
      "▁tajemni": 2690,
      "esz": 2691,
      "▁poprze": 2692,
      "ny.\n": 2693,
      "▁znale": 2694,
      "ciół": 2695,
      "▁Ci": 2696,
      "wicz": 2697,
      "kło": 2698,
      "▁przer": 2699,
      "▁wszystko,": 2700,
      "byś": 2701,
      "net": 2702,
      "▁tą": 2703,
      "▁spad": 2704,
      "kowi": 2705,
      "▁rozpa": 2706,
      "ów.\n": 2707,
      "rzyła": 2708,
      "nęło": 2709,
      "▁Dob": 2710,
      "▁rodzaj": 2711,
      "▁rozumie": 2712,
      "cach": 2713,
      "▁wzru": 2714,
      "▁śnie": 2715,
      "czone": 2716,
      "ręt": 2717,
      "bił": 2718,
      "▁jakieś": 2719,
      "▁krze": 2720,
      "czy,": 2721,
      "▁wyciąg": 2722,
      "▁został": 2723,
      "▁jut": 2724,
      "▁wówczas": 2725,
      "▁mimo": 2726,
      "▁iz": 2727,
      "wu": 2728,
      "▁mor": 2729,
      "gna": 2730,
      "▁śla": 2731,
      "▁się.": 2732,
      "rzenie": 2733,
      "▁czasem": 2734,
      "▁przygo": 2735,
      "▁mów": 2736,
      "ty.": 2737,
      "▁dar": 2738,
      "nemu": 2739,
      "▁zaj": 2740,
      "▁moją": 2741,
      "krótce": 2742,
      "▁au": 2743,
      "▁miejsce": 2744,
      "▁dod": 2745,
      "mien": 2746,
      "▁posłu": 2747,
      "▁wiadomo": 2748,
      "▁znajdu": 2749,
      "▁parę": 2750,
      "ka.\n": 2751,
      "▁Już": 2752,
      "ana,": 2753,
      "▁błę": 2754,
      "▁ojca": 2755,
      "▁Kró": 2756,
      "▁przedstawi": 2757,
      "owanie": 2758,
      "rach": 2759,
      "mienia": 2760,
      "▁kwiat": 2761,
      "▁wios": 2762,
      "▁wróci": 2763,
      "▁przej": 2764,
      "gar": 2765,
      "rzała": 2766,
      "kli": 2767,
      "giem": 2768,
      "▁Boga": 2769,
      "▁drodze": 2770,
      "na.\n": 2771,
      "▁jest,": 2772,
      "zm": 2773,
      "▁stanie": 2774,
      "▁pomiędzy": 2775,
      "▁Oj": 2776,
      "▁dosko": 2777,
      "▁tobie": 2778,
      "▁ws": 2779,
      "rami": 2780,
      "ni.": 2781,
      "wio": 2782,
      "▁swojej": 2783,
      "rza,": 2784,
      "żą": 2785,
      "▁głowy": 2786,
      "ju": 2787,
      "jo": 2788,
      "▁mieli": 2789,
      "Lecz": 2790,
      ",\nK": 2791,
      "▁żar": 2792,
      "▁siebie,": 2793,
      "ję,": 2794,
      "▁zdoby": 2795,
      ".\n.\n": 2796,
      "▁żo": 2797,
      "▁dać": 2798,
      "rz,": 2799,
      "lem": 2800,
      "....": 2801,
      "rzekł": 2802,
      "daw": 2803,
      "▁Ob": 2804,
      "star": 2805,
      "tku": 2806,
      "ru,": 2807,
      "leb": 2808,
      "▁nami": 2809,
      "▁jad": 2810,
      "▁p.": 2811,
      "▁głosem": 2812,
      "wej": 2813,
      "▁żywo": 2814,
      "let": 2815,
      "dzenie": 2816,
      "▁powiad": 2817,
      "▁książę": 2818,
      "▁Tak,": 2819,
      "▁zaba": 2820,
      "▁obowiąz": 2821,
      "cią": 2822,
      "!“": 2823,
      "▁przyp": 2824,
      "▁wyob": 2825,
      "▁4": 2826,
      "dła": 2827,
      ").": 2828,
      "nem,": 2829,
      "▁modli": 2830,
      "ałam": 2831,
      "▁umar": 2832,
      "▁królew": 2833,
      "▁Wa": 2834,
      "▁ho": 2835,
      "▁maj": 2836,
      "▁zdra": 2837,
      "▁słowo": 2838,
      "2]": 2839,
      "▁mówić": 2840,
      "▁zawie": 2841,
      "▁domu,": 2842,
      "▁pocz": 2843,
      "▁gości": 2844,
      "chi": 2845,
      "▁poważ": 2846,
      "▁chodzi": 2847,
      "ać.": 2848,
      "▁wpad": 2849,
      "czyn": 2850,
      "▁ofiar": 2851,
      "żyła": 2852,
      "pełni": 2853,
      "?...": 2854,
      "▁szybko": 2855,
      "▁wielką": 2856,
      "ff": 2857,
      "▁powtó": 2858,
      "▁zdaje": 2859,
      "▁rzeczywi": 2860,
      "óki": 2861,
      "▁Spo": 2862,
      "▁drogę": 2863,
      "▁niemi": 2864,
      "kar": 2865,
      "▁wiem": 2866,
      "▁go,": 2867,
      "▁pe": 2868,
      "czek": 2869,
      "▁arty": 2870,
      "ała.": 2871,
      "▁oso": 2872,
      "ji,": 2873,
      "▁zatrzym": 2874,
      "▁czyni": 2875,
      "▁wraz": 2876,
      "▁one": 2877,
      "▁postęp": 2878,
      "▁pomyśl": 2879,
      "czki": 2880,
      "▁Mat": 2881,
      "▁Sam": 2882,
      "▁god": 2883,
      "dar": 2884,
      "▁zapyt": 2885,
      "▁spraw": 2886,
      "▁ciągle": 2887,
      "▁No": 2888,
      "▁naszych": 2889,
      "▁przyjacie": 2890,
      "▁ran": 2891,
      "▁łatwo": 2892,
      "twie": 2893,
      "gła": 2894,
      "działem": 2895,
      "▁Ży": 2896,
      "łym": 2897,
      "▁upo": 2898,
      "ska,": 2899,
      "▁inne": 2900,
      "▁tedy": 2901,
      "Je": 2902,
      "cznego": 2903,
      "▁Piot": 2904,
      "cznym": 2905,
      "▁Jez": 2906,
      "cier": 2907,
      "waj": 2908,
      "▁wciąż": 2909,
      "▁so": 2910,
      "▁pała": 2911,
      "▁uspo": 2912,
      "▁Tym": 2913,
      "tach": 2914,
      "▁każdym": 2915,
      "prawi": 2916,
      "▁duż": 2917,
      "▁koło": 2918,
      "▁las": 2919,
      "▁sch": 2920,
      "wyż": 2921,
      "▁gwiaz": 2922,
      "chaj": 2923,
      "▁łą": 2924,
      "▁obro": 2925,
      "▁zab": 2926,
      "▁najm": 2927,
      "▁poje": 2928,
      "▁odw": 2929,
      "▁dziedzi": 2930,
      "▁wpły": 2931,
      "▁śmierć": 2932,
      "▁ludzi,": 2933,
      "dów": 2934,
      "▁obej": 2935,
      "▁służ": 2936,
      "▁głową": 2937,
      "▁takim": 2938,
      "rob": 2939,
      "▁stosun": 2940,
      "▁zostawi": 2941,
      "▁wielu": 2942,
      "▁olb": 2943,
      "▁odd": 2944,
      "▁dotąd": 2945,
      "▁grani": 2946,
      "▁mały": 2947,
      "rzy,": 2948,
      "▁całej": 2949,
      "gn": 2950,
      "▁szczęście": 2951,
      "sław": 2952,
      "▁usły": 2953,
      "ho": 2954,
      "ę.": 2955,
      "▁życiu": 2956,
      "omi": 2957,
      "▁idzie": 2958,
      "▁py": 2959,
      "▁ina": 2960,
      "▁pozo": 2961,
      "ści.": 2962,
      "kazał": 2963,
      "▁dowo": 2964,
      "▁staro": 2965,
      "▁naro": 2966,
      "den": 2967,
      "▁taką": 2968,
      "▁milcze": 2969,
      "▁wej": 2970,
      "nętrz": 2971,
      "tne": 2972,
      "▁szczegól": 2973,
      "▁głębi": 2974,
      "▁św.": 2975,
      "▁naprzód": 2976,
      "▁jedną": 2977,
      "nawi": 2978,
      "▁Du": 2979,
      "▁wygląd": 2980,
      "len": 2981,
      "ge": 2982,
      "▁daleko": 2983,
      "▁upad": 2984,
      "▁téj": 2985,
      "▁dow": 2986,
      "▁Oto": 2987,
      "▁Pary": 2988,
      "▁zi": 2989,
      "sięcy": 2990,
      "▁uko": 2991,
      "▁poe": 2992,
      "▁moich": 2993,
      "▁połu": 2994,
      "ano,": 2995,
      "fe": 2996,
      "▁mieszka": 2997,
      "▁łu": 2998,
      "▁podczas": 2999,
      "▁nazwi": 3000,
      "orem": 3001,
      "▁drob": 3002,
      "ane,": 3003,
      "▁Ar": 3004,
      "▁króla": 3005,
      "▁zni": 3006,
      "▁stara": 3007,
      "tar": 3008,
      "▁samego": 3009,
      "▁pienią": 3010,
      "▁jednym": 3011,
      "▁dum": 3012,
      "▁kogo": 3013,
      "▁góry": 3014,
      "▁lepiej": 3015,
      "▁jedna": 3016,
      "▁przekon": 3017,
      "boż": 3018,
      "sza,": 3019,
      "▁ramiona": 3020,
      "▁znie": 3021,
      "rozu": 3022,
      "▁bru": 3023,
      "▁Sa": 3024,
      "roz": 3025,
      "▁jakiej": 3026,
      "rzymy": 3027,
      "szczo": 3028,
      "wania": 3029,
      "3]": 3030,
      "▁opuści": 3031,
      "ako": 3032,
      "ner": 3033,
      "▁łóż": 3034,
      "▁ponieważ": 3035,
      "▁stwo": 3036,
      "▁chara": 3037,
      "▁bądź": 3038,
      "▁oczach": 3039,
      "▁He": 3040,
      "▁Ta": 3041,
      "▁skoro": 3042,
      "▁komi": 3043,
      "nale": 3044,
      "szcza": 3045,
      "tą,": 3046,
      "▁przyjem": 3047,
      "▁nimi": 3048,
      "czka": 3049,
      "▁zamy": 3050,
      "skiego,": 3051,
      "lar": 3052,
      "▁Warsza": 3053,
      "▁pięć": 3054,
      "dy.": 3055,
      "szli": 3056,
      "▁przyczy": 3057,
      "▁słusz": 3058,
      "▁wil": 3059,
      "▁długie": 3060,
      "▁sur": 3061,
      "\nS": 3062,
      "k.": 3063,
      "tora": 3064,
      "▁odpowiad": 3065,
      "▁lep": 3066,
      "▁kap": 3067,
      "▁lite": 3068,
      "wał,": 3069,
      "▁miło": 3070,
      "▁trwo": 3071,
      "▁zako": 3072,
      "▁gór": 3073,
      "▁przeko": 3074,
      "▁znik": 3075,
      "gnie": 3076,
      "jeżd": 3077,
      "kój": 3078,
      "▁pocie": 3079,
      "▁było,": 3080,
      "▁speł": 3081,
      "nka": 3082,
      "brał": 3083,
      "siaj": 3084,
      "▁wyszedł": 3085,
      "dę,": 3086,
      "!...\n": 3087,
      "ować,": 3088,
      "▁słów": 3089,
      "▁dzwo": 3090,
      "▁naszego": 3091,
      "nach": 3092,
      "roni": 3093,
      "▁se": 3094,
      "▁gorąc": 3095,
      "dle": 3096,
      "▁niewie": 3097,
      "▁mas": 3098,
      "▁zbu": 3099,
      "ło.": 3100,
      "ust": 3101,
      "rób": 3102,
      "ną.": 3103,
      "▁zdzi": 3104,
      "ców,": 3105,
      "▁um": 3106,
      "anow": 3107,
      "is": 3108,
      "▁zbro": 3109,
      "▁świata": 3110,
      "jące": 3111,
      "▁wzię": 3112,
      "chodził": 3113,
      "▁zmi": 3114,
      "▁ga": 3115,
      "jąć": 3116,
      "▁swobo": 3117,
      "▁kosz": 3118,
      "dzi,": 3119,
      ".\nP": 3120,
      "for": 3121,
      "▁cała": 3122,
      "▁porząd": 3123,
      "▁cza": 3124,
      "▁ozna": 3125,
      "▁swym": 3126,
      "an,": 3127,
      "nne": 3128,
      "▁ogni": 3129,
      "▁pracy": 3130,
      "▁długi": 3131,
      "▁podróż": 3132,
      "▁napis": 3133,
      "▁siły": 3134,
      "▁jedynie": 3135,
      "nów": 3136,
      "▁los": 3137,
      "▁ręką": 3138,
      "▁doj": 3139,
      "▁chmu": 3140,
      "▁ocze": 3141,
      ",\nS": 3142,
      "▁suk": 3143,
      "▁pil": 3144,
      "▁przyjaciół": 3145,
      "ań": 3146,
      "▁rozwi": 3147,
      "▁try": 3148,
      "jących": 3149,
      "ram": 3150,
      ".\nW": 3151,
      "▁wobec": 3152,
      "cześnie": 3153,
      "▁wierz": 3154,
      "▁chrze": 3155,
      "▁cicho": 3156,
      "▁sąd": 3157,
      "ster": 3158,
      "[1]": 3159,
      "▁uprze": 3160,
      "▁widać": 3161,
      "▁Że": 3162,
      "▁nieraz": 3163,
      "▁ksią": 3164,
      "▁wyż": 3165,
      "▁poczę": 3166,
      "▁stru": 3167,
      "▁znalazł": 3168,
      "▁czyt": 3169,
      "▁Trze": 3170,
      "ąda": 3171,
      "▁postanowi": 3172,
      "hat": 3173,
      "▁tylko,": 3174,
      "▁wiem,": 3175,
      "▁matka": 3176,
      "nk": 3177,
      "ału": 3178,
      "w,": 3179,
      "▁stu": 3180,
      "ności.": 3181,
      "zwo": 3182,
      "aki": 3183,
      "▁Wła": 3184,
      "▁najwięk": 3185,
      "giel": 3186,
      "▁spodzie": 3187,
      "▁dziesię": 3188,
      "wanie": 3189,
      "źli": 3190,
      "▁nieba": 3191,
      "▁związ": 3192,
      "snął": 3193,
      "▁cierpie": 3194,
      "▁zawi": 3195,
      "▁dosy": 3196,
      "stał": 3197,
      "▁przypad": 3198,
      "▁zobaczy": 3199,
      "▁[3": 3200,
      "▁5": 3201,
      "▁uczyni": 3202,
      "czes": 3203,
      "▁śle": 3204,
      "▁obi": 3205,
      "▁prosi": 3206,
      "dziel": 3207,
      "ta.": 3208,
      "dzę,": 3209,
      "tem,": 3210,
      "▁poży": 3211,
      "czer": 3212,
      "nien": 3213,
      "▁Była": 3214,
      "▁zmu": 3215,
      "tki": 3216,
      "▁korzy": 3217,
      "bio": 3218,
      "▁pomi": 3219,
      "▁wspani": 3220,
      "▁Nie,": 3221,
      "kaj": 3222,
      "▁najp": 3223,
      "ńcu": 3224,
      "▁powodu": 3225,
      "stro": 3226,
      "▁am": 3227,
      "▁gwałtow": 3228,
      "▁cich": 3229,
      "tka": 3230,
      "▁Ku": 3231,
      "▁chcę": 3232,
      "▁wsi": 3233,
      "▁Przez": 3234,
      "▁sre": 3235,
      "▁stronę": 3236,
      "▁Si": 3237,
      "▁resz": 3238,
      "▁wziął": 3239,
      "▁żąd": 3240,
      "biegł": 3241,
      "▁urzę": 3242,
      "▁pienię": 3243,
      "▁podnie": 3244,
      "▁t.": 3245,
      "▁kawał": 3246,
      "▁pociąg": 3247,
      "▁ktoś": 3248,
      "“.\n": 3249,
      "▁świet": 3250,
      "Do": 3251,
      "▁takiego": 3252,
      "▁Rzy": 3253,
      "rzej": 3254,
      "▁zielo": 3255,
      "muje": 3256,
      "bij": 3257,
      "siadł": 3258,
      "▁chyba": 3259,
      "▁współ": 3260,
      "▁ubo": 3261,
      "▁Gdyby": 3262,
      "▁olbrzy": 3263,
      "gle": 3264,
      "▁miejscu": 3265,
      "▁poświę": 3266,
      "▁będziesz": 3267,
      "▁przyję": 3268,
      "▁słuch": 3269,
      "▁twój": 3270,
      "▁szczy": 3271,
      "▁zresztą": 3272,
      "▁takich": 3273,
      "ca.": 3274,
      "▁mamy": 3275,
      "▁mając": 3276,
      "lek": 3277,
      "liwe": 3278,
      "▁biały": 3279,
      "puści": 3280,
      "liwie": 3281,
      "▁miasta": 3282,
      "▁wybu": 3283,
      "▁uroczy": 3284,
      "akie": 3285,
      "jęt": 3286,
      "▁Powie": 3287,
      "▁rozum": 3288,
      "▁twoje": 3289,
      "dował": 3290,
      "▁ogro": 3291,
      "kom": 3292,
      "▁Fi": 3293,
      "erw": 3294,
      "▁Przed": 3295,
      "▁kieru": 3296,
      "▁odwie": 3297,
      "▁około": 3298,
      "kwi": 3299,
      "▁Są": 3300,
      "i.": 3301,
      "▁uwie": 3302,
      "▁«": 3303,
      "▁chwy": 3304,
      "▁Chry": 3305,
      "pomina": 3306,
      "ńczo": 3307,
      "▁gał": 3308,
      "niéj": 3309,
      "▁Panie": 3310,
      "▁sercu": 3311,
      "sy,": 3312,
      "kę.": 3313,
      "▁części": 3314,
      "▁Mówi": 3315,
      "▁zauwa": 3316,
      "rzas": 3317,
      "▁czek": 3318,
      "▁podej": 3319,
      "moż": 3320,
      "tości": 3321,
      "d,": 3322,
      "niejszych": 3323,
      "dno": 3324,
      "gę,": 3325,
      "sa,": 3326,
      "▁zapewne": 3327,
      "▁dok": 3328,
      "▁wyrzu": 3329,
      "▁zasłu": 3330,
      "cami": 3331,
      "▁waż": 3332,
      "5]": 3333,
      "▁łzy": 3334,
      "▁zdu": 3335,
      "nar": 3336,
      "ędzie": 3337,
      "mienie": 3338,
      "▁ruch": 3339,
      "4]": 3340,
      "▁tęsk": 3341,
      "▁począł": 3342,
      "▁poza": 3343,
      "▁lę": 3344,
      "tylko": 3345,
      "kan": 3346,
      "oła": 3347,
      "story": 3348,
      "ckie": 3349,
      "▁pla": 3350,
      "siąt": 3351,
      "nęli": 3352,
      "▁proszę": 3353,
      "▁kobiety": 3354,
      "▁iść": 3355,
      "cie.": 3356,
      "▁We": 3357,
      "łał": 3358,
      "▁końcu": 3359,
      "▁księż": 3360,
      "▁imię": 3361,
      "ckiego": 3362,
      "▁mogą": 3363,
      "▁wrac": 3364,
      "stąpił": 3365,
      "▁dodał": 3366,
      "▁pręd": 3367,
      "▁cel": 3368,
      "sze,": 3369,
      "▁górę": 3370,
      "żenie": 3371,
      "▁Słu": 3372,
      "stem": 3373,
      "▁zdawało": 3374,
      "▁mąd": 3375,
      "▁raczej": 3376,
      "▁potrafi": 3377,
      "mierz": 3378,
      "▁poszedł": 3379,
      "▁Kra": 3380,
      "ży,": 3381,
      "pan": 3382,
      "▁Pat": 3383,
      "▁wspól": 3384,
      "lnie": 3385,
      "▁naszej": 3386,
      "dzia": 3387,
      "▁wody": 3388,
      "▁nieprzyja": 3389,
      "▁pieniądze": 3390,
      "▁ubr": 3391,
      "ciał": 3392,
      "▁ska": 3393,
      "▁jeste": 3394,
      "pił": 3395,
      "że,": 3396,
      "nięte": 3397,
      "▁ad": 3398,
      "▁chor": 3399,
      "▁innego": 3400,
      "▁zdr": 3401,
      "dłem": 3402,
      "▁odby": 3403,
      "▁człowieka,": 3404,
      "▁Zo": 3405,
      "szyć": 3406,
      "▁dzię": 3407,
      "▁nieo": 3408,
      "▁mogli": 3409,
      "▁publi": 3410,
      "▁wszak": 3411,
      "nki": 3412,
      "▁wszę": 3413,
      "▁czyn": 3414,
      "niach": 3415,
      "nij": 3416,
      "▁Gdzie": 3417,
      "▁potęż": 3418,
      "▁oczu": 3419,
      "▁oraz": 3420,
      "▁Ze": 3421,
      "▁chwili,": 3422,
      "ący": 3423,
      "▁odwa": 3424,
      "▁należ": 3425,
      "▁tém": 3426,
      "be": 3427,
      "▁kan": 3428,
      "▁Jeśli": 3429,
      "▁kształ": 3430,
      "▁dzisiaj": 3431,
      "▁pozna": 3432,
      "zg": 3433,
      "t.": 3434,
      "szech": 3435,
      "czna": 3436,
      "▁więzie": 3437,
      "rócz": 3438,
      "▁wieczo": 3439,
      "szek": 3440,
      "▁muzy": 3441,
      "▁wyraź": 3442,
      "▁wszedł": 3443,
      "jech": 3444,
      "▁widok": 3445,
      "▁Jo": 3446,
      "▁powiedzieć": 3447,
      "▁chcąc": 3448,
      "▁bła": 3449,
      "▁opowie": 3450,
      "▁moim": 3451,
      "▁wywo": 3452,
      "▁ide": 3453,
      "spoli": 3454,
      "▁No,": 3455,
      "▁wzią": 3456,
      "ra.": 3457,
      "▁zwykle": 3458,
      "▁mal": 3459,
      "7]": 3460,
      "kami,": 3461,
      "rzem": 3462,
      "▁powro": 3463,
      "tu,": 3464,
      "kiem.": 3465,
      "▁Ru": 3466,
      "▁ple": 3467,
      "▁nieszczęśli": 3468,
      "▁ręka": 3469,
      "▁mąż": 3470,
      "▁Było": 3471,
      "▁mi,": 3472,
      "▁próż": 3473,
      "▁chciała": 3474,
      "▁drugiej": 3475,
      "mai": 3476,
      "czoraj": 3477,
      "▁część": 3478,
      "▁nienawi": 3479,
      "▁ban": 3480,
      "▁odezwał": 3481,
      "ce.": 3482,
      "▁najlep": 3483,
      "cję": 3484,
      "fa": 3485,
      "▁widząc": 3486,
      "jemy": 3487,
      "sem": 3488,
      "stwie": 3489,
      "arę": 3490,
      "▁półno": 3491,
      "▁prawa": 3492,
      "▁choćby": 3493,
      "▁panna": 3494,
      "wszy,": 3495,
      "▁kochan": 3496,
      "▁byłem": 3497,
      "raca": 3498,
      "ją,": 3499,
      "▁Mie": 3500,
      "ląd": 3501,
      "▁„P": 3502,
      "▁francu": 3503,
      "▁umi": 3504,
      "ściu": 3505,
      "ajut": 3506,
      "▁15": 3507,
      "cze,": 3508,
      "▁żadnego": 3509,
      "▁Wszystko": 3510,
      "ach.": 3511,
      "me": 3512,
      "▁nogi": 3513,
      "nymi": 3514,
      "▁obja": 3515,
      "▁Mam": 3516,
      "\nT": 3517,
      "▁Da": 3518,
      "▁jutro": 3519,
      "ić": 3520,
      "▁stat": 3521,
      "▁okoli": 3522,
      "▁Czyż": 3523,
      "▁Eu": 3524,
      "By": 3525,
      "ował,": 3526,
      "stej": 3527,
      "▁stała": 3528,
      "▁oczyma": 3529,
      "▁wkrótce": 3530,
      "▁wsty": 3531,
      "▁zwyczaj": 3532,
      "▁otrzym": 3533,
      "9]": 3534,
      "▁jakąś": 3535,
      "▁nowe": 3536,
      "▁dziecię": 3537,
      "▁nadz": 3538,
      "▁rozmawi": 3539,
      "▁przestrze": 3540,
      "▁dziecko": 3541,
      ",\nJak": 3542,
      "6]": 3543,
      "▁okru": 3544,
      "▁patrząc": 3545,
      "▁zwi": 3546,
      "▁szedł": 3547,
      "▁wą": 3548,
      "▁serde": 3549,
      "▁niebezpiecze": 3550,
      "▁pochy": 3551,
      "▁mru": 3552,
      "di": 3553,
      "▁Re": 3554,
      "ti": 3555,
      "▁kazał": 3556,
      "▁tymczasem": 3557,
      "▁kolo": 3558,
      "▁groź": 3559,
      "▁tar": 3560,
      "▁przyjaciel": 3561,
      "mując": 3562,
      "▁zdol": 3563,
      "▁potrzeba": 3564,
      "▁dobrze,": 3565,
      "ającego": 3566,
      "wano": 3567,
      "rych": 3568,
      "▁namię": 3569,
      "pew": 3570,
      "▁wielkiego": 3571,
      "▁samej": 3572,
      "▁Lud": 3573,
      "stch": 3574,
      "▁przyszedł": 3575,
      "▁szlachet": 3576,
      "▁trzech": 3577,
      "tować": 3578,
      "rzmi": 3579,
      "▁bieg": 3580,
      "▁wym": 3581,
      "▁Jego": 3582,
      "▁scho": 3583,
      "▁Be": 3584,
      "▁pokry": 3585,
      "li.\n": 3586,
      "lić": 3587,
      "▁zgi": 3588,
      "wałem": 3589,
      "bić": 3590,
      "▁wew": 3591,
      "tna": 3592,
      "ryz": 3593,
      "▁Go": 3594,
      "razu": 3595,
      "▁dobre": 3596,
      "▁poję": 3597,
      "▁pl": 3598,
      "▁rząd": 3599,
      "ku.\n": 3600,
      "rzad": 3601,
      "▁dosyć": 3602,
      "pier": 3603,
      "▁woła": 3604,
      "▁dotk": 3605,
      "▁ziemi,": 3606,
      "▁wydo": 3607,
      "ręcz": 3608,
      "8]": 3609,
      "szony": 3610,
      "▁wyb": 3611,
      "▁mówiła": 3612,
      "▁poże": 3613,
      "▁owo": 3614,
      "bor": 3615,
      "ha": 3616,
      "▁kobieta": 3617,
      "wór": 3618,
      "▁Potem": 3619,
      ",\nNie": 3620,
      "to,": 3621,
      "▁Nic": 3622,
      "▁obli": 3623,
      "▁księży": 3624,
      "źć": 3625,
      "▁oz": 3626,
      "▁Bie": 3627,
      "▁miałem": 3628,
      "dach": 3629,
      ",\nŻe": 3630,
      "ewszyst": 3631,
      "▁samot": 3632,
      "ił": 3633,
      "▁szere": 3634,
      "▁mogło": 3635,
      "▁okaz": 3636,
      "bier": 3637,
      "▁przecie": 3638,
      "▁licz": 3639,
      "sów": 3640,
      "▁Sie": 3641,
      "▁samym": 3642,
      "▁sprawiedli": 3643,
      "▁Wiel": 3644,
      "▁krę": 3645,
      "▁spytał": 3646,
      "▁rozkaz": 3647,
      "▁poż": 3648,
      "▁Hen": 3649,
      "▁Tam": 3650,
      "▁rzucił": 3651,
      "Czy": 3652,
      "▁nowo": 3653,
      "gani": 3654,
      "“\n": 3655,
      "▁miejsca": 3656,
      "gan": 3657,
      "▁życia,": 3658,
      "mak": 3659,
      "▁czyli": 3660,
      "▁mro": 3661,
      "dzej": 3662,
      "▁niego,": 3663,
      "nych.": 3664,
      "jechał": 3665,
      "▁pomoc": 3666,
      "ren": 3667,
      "gen": 3668,
      "▁Cie": 3669,
      ",\nO": 3670,
      "▁history": 3671,
      "p.": 3672,
      "▁okrop": 3673,
      "▁nos": 3674,
      "▁wprost": 3675,
      "▁Karo": 3676,
      "▁wyja": 3677,
      "▁sal": 3678,
      "▁żało": 3679,
      "▁nietylko": 3680,
      "▁panią": 3681,
      "Co": 3682,
      "▁przynajmniej": 3683,
      "▁głowie": 3684,
      "ania.": 3685,
      "ks": 3686,
      "▁dam": 3687,
      "▁zech": 3688,
      "▁per": 3689,
      "▁niewy": 3690,
      "▁umy": 3691,
      "▁Tylko": 3692,
      "▁inaczej": 3693,
      "▁té": 3694,
      "no.": 3695,
      "▁szar": 3696,
      "▁Zd": 3697,
      "dzał": 3698,
      "▁cno": 3699,
      "▁ciep": 3700,
      "▁minu": 3701,
      "▁ptak": 3702,
      "niejszego": 3703,
      "▁przypom": 3704,
      "kach,": 3705,
      "▁pogo": 3706,
      "▁zadowo": 3707,
      "▁celu": 3708,
      "anim": 3709,
      "▁daje": 3710,
      "lony": 3711,
      "▁ostatnie": 3712,
      "stat": 3713,
      "▁żelaz": 3714,
      "anta": 3715,
      "▁myśle": 3716,
      "▁Au": 3717,
      "qu": 3718,
      "gu,": 3719,
      "▁wieku": 3720,
      "▁odzy": 3721,
      "ając,": 3722,
      "▁taka": 3723,
      "▁lubi": 3724,
      "▁kup": 3725,
      "cen": 3726,
      "ęb": 3727,
      "▁się.\n": 3728,
      "wiał": 3729,
      "▁słod": 3730,
      "▁Chrystu": 3731,
      "▁zało": 3732,
      "▁zaledwie": 3733,
      "▁znaczy": 3734,
      "▁nat": 3735,
      "▁gniew": 3736,
      "jusz": 3737,
      "gosła": 3738,
      "▁tysięcy": 3739,
      "n.": 3740,
      "▁Jó": 3741,
      "▁gdzieś": 3742,
      "▁Mich": 3743,
      "▁stoli": 3744,
      "prawdzie": 3745,
      "AN": 3746,
      "▁sił": 3747,
      "▁jego,": 3748,
      "▁przywi": 3749,
      "▁niemal": 3750,
      "▁ką": 3751,
      "▁oł": 3752,
      "niesie": 3753,
      "▁niezmier": 3754,
      "▁dużo": 3755,
      "▁żadnej": 3756,
      "▁muszę": 3757,
      "ary,": 3758,
      "▁oczy,": 3759,
      "ń.": 3760,
      "strz": 3761,
      "▁Wil": 3762,
      "rze.": 3763,
      "a.\n": 3764,
      "▁rad": 3765,
      "▁zachwy": 3766,
      "▁ża": 3767,
      "▁młodzie": 3768,
      "▁wez": 3769,
      "▁nadzwyczaj": 3770,
      "▁choro": 3771,
      "▁zem": 3772,
      "▁żół": 3773,
      "rzyk": 3774,
      "▁[4": 3775,
      "▁niegdy": 3776,
      "▁sprawy": 3777,
      "▁chcesz": 3778,
      "▁kop": 3779,
      "nami": 3780,
      "owany": 3781,
      "anie.": 3782,
      "▁polity": 3783,
      "▁zjawi": 3784,
      "▁6": 3785,
      "tacz": 3786,
      "tów,": 3787,
      "▁może,": 3788,
      "▁dlatego": 3789,
      "je.": 3790,
      "▁miasto": 3791,
      "▁rzuc": 3792,
      "tr": 3793,
      "owych,": 3794,
      "dne": 3795,
      "▁klę": 3796,
      "▁jakich": 3797,
      "▁krzyż": 3798,
      "▁odpowiedzi": 3799,
      "▁łz": 3800,
      "sło": 3801,
      "▁klu": 3802,
      "rab": 3803,
      "▁fał": 3804,
      "▁spojrze": 3805,
      "▁interes": 3806,
      "▁siedział": 3807,
      "0]": 3808,
      "▁win": 3809,
      "▁lam": 3810,
      "▁niew": 3811,
      "▁słońce": 3812,
      "jan": 3813,
      "▁Musi": 3814,
      "tam": 3815,
      "ków.": 3816,
      "▁nauczy": 3817,
      "▁żal": 3818,
      "bawi": 3819,
      "ała.\n": 3820,
      "jesz": 3821,
      "skich,": 3822,
      "▁tych,": 3823,
      "mor": 3824,
      "▁krwa": 3825,
      "▁przeby": 3826,
      "ły.": 3827,
      "cji,": 3828,
      "▁byłoby": 3829,
      "▁\n\n": 3830,
      "▁reli": 3831,
      "▁niektó": 3832,
      "▁wyko": 3833,
      "rowadzi": 3834,
      "▁westch": 3835,
      "gami": 3836,
      "▁har": 3837,
      "▁doświad": 3838,
      "anu": 3839,
      "▁Tymczasem": 3840,
      "▁chwila": 3841,
      "legł": 3842,
      "cz,": 3843,
      "brać": 3844,
      ".\nA": 3845,
      "▁zwróci": 3846,
      "▁jeszcze,": 3847,
      "▁podniósł": 3848,
      "▁stó": 3849,
      "▁okry": 3850,
      "stor": 3851,
      "czność": 3852,
      "tość": 3853,
      "▁rzad": 3854,
      "▁spojrzał": 3855,
      "nąłem": 3856,
      "nosząc": 3857,
      "▁powróci": 3858,
      "▁patrzy": 3859,
      "▁pieniędzy": 3860,
      "mieniu": 3861,
      "ali,": 3862,
      "▁pan,": 3863,
      "sty,": 3864,
      "lin": 3865,
      "▁towarzysz": 3866,
      "▁widzieć": 3867,
      "▁zamiast": 3868,
      "kie,": 3869,
      "▁drzewa": 3870,
      "▁zanie": 3871,
      "▁zwrac": 3872,
      "czności": 3873,
      "rając": 3874,
      "▁ciało": 3875,
      "▁dziel": 3876,
      "▁odkry": 3877,
      "▁wysoko": 3878,
      "gląda": 3879,
      "▁Trzeba": 3880,
      "▁zatem": 3881,
      "Ni": 3882,
      "▁Ber": 3883,
      "par": 3884,
      "▁wolno": 3885,
      "nad": 3886,
      "chodzą": 3887,
      "▁klasz": 3888,
      "▁tam,": 3889,
      "▁względem": 3890,
      "sarz": 3891,
      "▁gospoda": 3892,
      "▁zer": 3893,
      "▁najwyż": 3894,
      "em.\n": 3895,
      "▁tysiąc": 3896,
      "▁skó": 3897,
      "pio": 3898,
      "▁zaczęła": 3899,
      "gad": 3900,
      "▁Bu": 3901,
      "▁daj": 3902,
      "wsze": 3903,
      "▁cztery": 3904,
      "niej,": 3905,
      "\n—": 3906,
      "tra": 3907,
      "▁Rz": 3908,
      "▁niezn": 3909,
      "ającą": 3910,
      "\nO": 3911,
      "▁zm": 3912,
      "ódz": 3913,
      "▁posł": 3914,
      "▁skład": 3915,
      "nięty": 3916,
      "▁przezna": 3917,
      "▁zwła": 3918,
      "ch!": 3919,
      "▁sro": 3920,
      "ato": 3921,
      "▁wieczór": 3922,
      "▁kraju": 3923,
      "ss": 3924,
      "▁Król": 3925,
      "mień": 3926,
      "cio": 3927,
      "▁zwierzę": 3928,
      "▁stanę": 3929,
      "▁ulicy": 3930,
      "cya": 3931,
      "pić": 3932,
      "▁oświad": 3933,
      "▁szk": 3934,
      "czkę": 3935,
      "▁zast": 3936,
      "▁Am": 3937,
      "▁ogar": 3938,
      "podob": 3939,
      "▁ogie": 3940,
      "nąwszy": 3941,
      "▁ocho": 3942,
      "▁Kon": 3943,
      "▁czeka": 3944,
      "▁ci,": 3945,
      "▁niéj": 3946,
      "▁uśmiechem": 3947,
      "▁widocznie": 3948,
      "ajutrz": 3949,
      "wale": 3950,
      "te,": 3951,
      "▁cud": 3952,
      "▁żyć": 3953,
      "▁będąc": 3954,
      "▁puł": 3955,
      "ck": 3956,
      "nia.\n": 3957,
      "mieniem": 3958,
      "▁wskaz": 3959,
      "wać,": 3960,
      "▁skło": 3961,
      "▁Sko": 3962,
      "▁zapła": 3963,
      "dny": 3964,
      "▁wyzna": 3965,
      "▁żem": 3966,
      "▁Niem": 3967,
      "▁prosto": 3968,
      "rać": 3969,
      "▁hono": 3970,
      "▁poczu": 3971,
      "rzec": 3972,
      "▁warun": 3973,
      "▁męża": 3974,
      "wer": 3975,
      "▁odrzekł": 3976,
      "▁obiad": 3977,
      "▁starego": 3978,
      "▁pokój": 3979,
      "▁dlaczego": 3980,
      "▁wszelkie": 3981,
      "▁ducha": 3982,
      "▁myślał": 3983,
      "▁domy": 3984,
      "▁woli": 3985,
      "powie": 3986,
      "▁zacho": 3987,
      "niosła": 3988,
      "owę": 3989,
      "▁przychodzi": 3990,
      "▁syna": 3991,
      "▁słysz": 3992,
      "rowadził": 3993,
      "cznie,": 3994,
      "▁stanął": 3995,
      "gó": 3996,
      "▁sami": 3997,
      "▁gu": 3998,
      "▁wie,": 3999,
      "▁grom": 4000,
      "▁powiet": 4001,
      "▁nu": 4002,
      "▁cof": 4003,
      "aka": 4004,
      "lał": 4005,
      "▁pani,": 4006,
      "▁młodo": 4007,
      "▁nim,": 4008,
      "▁leż": 4009,
      "ba,": 4010,
      "▁podzi": 4011,
      "▁uda": 4012,
      "miot": 4013,
      "▁usz": 4014,
      "▁stoi": 4015,
      "▁wielkim": 4016,
      "▁nikogo": 4017,
      "▁nie,": 4018,
      "IA": 4019,
      "▁Zda": 4020,
      "▁wczoraj": 4021,
      "▁małże": 4022,
      "ię,": 4023,
      "rój": 4024,
      "stych": 4025,
      "zio": 4026,
      "▁chrześci": 4027,
      "gach": 4028,
      "▁śpi": 4029,
      "▁oświe": 4030,
      "dzony": 4031,
      "▁tobą": 4032,
      "ących": 4033,
      "▁rodzaju": 4034,
      "▁wid": 4035,
      "▁Henry": 4036,
      "▁płak": 4037,
      "jeżdż": 4038,
      "▁Jestem": 4039,
      "▁zew": 4040,
      "▁17": 4041,
      "▁namięt": 4042,
      "owa,": 4043,
      "▁bohat": 4044,
      "▁stóp": 4045,
      "ryw": 4046,
      "dr": 4047,
      "tać": 4048,
      "rzch": 4049,
      "▁matki": 4050,
      "moc": 4051,
      "▁skończy": 4052,
      "th": 4053,
      "▁śmiał": 4054,
      "piec": 4055,
      "▁\nW": 4056,
      "▁człowiek,": 4057,
      "sić": 4058,
      "dzien": 4059,
      "roma": 4060,
      "▁naw": 4061,
      "▁prawda": 4062,
      "ą.\n": 4063,
      "ł.": 4064,
      "▁śni": 4065,
      "▁niewol": 4066,
      "▁fo": 4067,
      "▁mocno": 4068,
      "▁gad": 4069,
      "redni": 4070,
      "▁mej": 4071,
      "▁rąk": 4072,
      "▁ostroż": 4073,
      "stwa,": 4074,
      "▁całego": 4075,
      "kły": 4076,
      "▁16": 4077,
      "liła": 4078,
      "cyi,": 4079,
      "▁niegdyś": 4080,
      "rzyma": 4081,
      "▁kiesze": 4082,
      "▁powtarz": 4083,
      "▁got": 4084,
      "▁przyzna": 4085,
      "cierpli": 4086,
      "▁Pra": 4087,
      "gów": 4088,
      "▁któremu": 4089,
      "wiat": 4090,
      "liwy": 4091,
      "omy": 4092,
      "?\n\n": 4093,
      "▁wście": 4094,
      "▁pomy": 4095,
      "łani": 4096,
      "▁mężczy": 4097,
      "stym": 4098,
      "▁jednak,": 4099,
      "▁ziem": 4100,
      "czar": 4101,
      "▁wyją": 4102,
      "▁kło": 4103,
      "▁kape": 4104,
      "piesz": 4105,
      "▁boga": 4106,
      "▁komu": 4107,
      ".\nT": 4108,
      "▁oczeki": 4109,
      "▁So": 4110,
      "▁ogól": 4111,
      "▁sa": 4112,
      "▁godziny": 4113,
      "dług": 4114,
      "▁ge": 4115,
      "▁drzew": 4116,
      "▁pewnego": 4117,
      "▁tłum": 4118,
      "oz": 4119,
      "skar": 4120,
      "dal": 4121,
      "rzymać": 4122,
      "▁dział": 4123,
      "▁okolicz": 4124,
      "ja,": 4125,
      "wien": 4126,
      "▁urzą": 4127,
      "▁początku": 4128,
      "▁gene": 4129,
      "▁twar": 4130,
      "▁skrom": 4131,
      "▁wszędzie": 4132,
      "▁Pier": 4133,
      "▁19": 4134,
      "...\n\n": 4135,
      "siej": 4136,
      "▁wielkiej": 4137,
      "cę,": 4138,
      "▁błęki": 4139,
      "▁koście": 4140,
      "▁szczęścia": 4141,
      "▁podw": 4142,
      "▁niezwy": 4143,
      "▁twier": 4144,
      "▁którem": 4145,
      "mat": 4146,
      "▁Każ": 4147,
      "zdro": 4148,
      "▁duszę": 4149,
      "żenia": 4150,
      "rwi": 4151,
      ".\n\n↑": 4152,
      "▁Nad": 4153,
      "bro": 4154,
      "▁her": 4155,
      "▁fun": 4156,
      "kty": 4157,
      "nó": 4158,
      "▁gi": 4159,
      "▁Praw": 4160,
      "Ch": 4161,
      "III": 4162,
      "▁ślu": 4163,
      "▁niemie": 4164,
      "▁fa": 4165,
      "aru": 4166,
      "▁broni": 4167,
      "▁ogląd": 4168,
      "▁słysze": 4169,
      "▁obojęt": 4170,
      "▁trudno": 4171,
      "łecz": 4172,
      "ratu": 4173,
      "▁ręku": 4174,
      "cenia": 4175,
      "▁mogłem": 4176,
      "▁żona": 4177,
      "▁puści": 4178,
      "abry": 4179,
      "▁Mon": 4180,
      "niesi": 4181,
      "le.": 4182,
      "▁cierpi": 4183,
      "▁natural": 4184,
      "▁służąc": 4185,
      "▁bry": 4186,
      "▁znajdzie": 4187,
      "▁pomimo": 4188,
      "▁dostrze": 4189,
      "tami": 4190,
      "skup": 4191,
      "▁czuł": 4192,
      "▁ostatecz": 4193,
      "stali": 4194,
      "sunął": 4195,
      "▁stąd": 4196,
      "arem": 4197,
      "▁zy": 4198,
      "▁wzrok": 4199,
      "▁O,": 4200,
      "▁postać": 4201,
      "▁narod": 4202,
      "ników,": 4203,
      "▁Bogu": 4204,
      "▁według": 4205,
      "▁zagad": 4206,
      "▁słyszał": 4207,
      "koło": 4208,
      "cieli": 4209,
      "▁jakże": 4210,
      "▁jakaś": 4211,
      "bel": 4212,
      "sce": 4213,
      "▁ciągu": 4214,
      "sier": 4215,
      "▁tuż": 4216,
      "▁skąd": 4217,
      "▁moral": 4218,
      "che": 4219,
      "▁postawi": 4220,
      "mie,": 4221,
      "▁zgu": 4222,
      "kre": 4223,
      "ry.": 4224,
      "▁\nI": 4225,
      "▁osobi": 4226,
      "\nM": 4227,
      "▁łaska": 4228,
      "mal": 4229,
      "ment": 4230,
      "▁miało": 4231,
      "▁zawołała": 4232,
      "gą,": 4233,
      "tny": 4234,
      "▁kur": 4235,
      "niejszą": 4236,
      "▁całym": 4237,
      "▁Wszyscy": 4238,
      "▁fak": 4239,
      "▁żaden": 4240,
      "cy.": 4241,
      "▁miały": 4242,
      "owały": 4243,
      "daj": 4244,
      "▁świą": 4245,
      "▁pragnie": 4246,
      "ńskich": 4247,
      "▁same": 4248,
      "owski": 4249,
      "▁Ależ": 4250,
      "wam": 4251,
      "▁bó": 4252,
      "▁zajm": 4253,
      "▁źród": 4254,
      "▁dźwię": 4255,
      "▁potrzebu": 4256,
      "▁łagod": 4257,
      ",\nM": 4258,
      "▁kapelu": 4259,
      "▁sce": 4260,
      "▁kuch": 4261,
      "cony": 4262,
      "▁dziewi": 4263,
      "▁doli": 4264,
      "▁zbliż": 4265,
      "gni": 4266,
      "▁zwol": 4267,
      "tę,": 4268,
      "▁posz": 4269,
      "ństwa,": 4270,
      "▁stanow": 4271,
      "▁wscho": 4272,
      "▁szale": 4273,
      "ném": 4274,
      "▁zarzu": 4275,
      "▁okrę": 4276,
      "▁byłby": 4277,
      "▁pokoju,": 4278,
      "▁Jeszcze": 4279,
      ",\nCo": 4280,
      "▁ryce": 4281,
      "▁popro": 4282,
      "tal": 4283,
      "▁koniec": 4284,
      "rucho": 4285,
      "emy": 4286,
      "bardziej": 4287,
      "temi": 4288,
      "▁Otóż": 4289,
      "▁takiej": 4290,
      "ść.": 4291,
      "▁teraz,": 4292,
      "ślo": 4293,
      ".\nS": 4294,
      "▁Hi": 4295,
      "▁wszystki": 4296,
      "gnął": 4297,
      "▁chleb": 4298,
      "▁oka": 4299,
      "dyn": 4300,
      "dziesiąt": 4301,
      "▁lata": 4302,
      "chy,": 4303,
      "▁De": 4304,
      "▁opi": 4305,
      "▁rozmai": 4306,
      "▁Ry": 4307,
      "niejsza": 4308,
      "▁zapad": 4309,
      "kiedy": 4310,
      "▁siad": 4311,
      "▁sędzi": 4312,
      "oru": 4313,
      "▁siedzi": 4314,
      "▁jakoś": 4315,
      "du,": 4316,
      "▁miesiąc": 4317,
      "▁śmiertel": 4318,
      "rząs": 4319,
      "▁Wtedy": 4320,
      "lozo": 4321,
      "▁Ani": 4322,
      "śmi": 4323,
      "▁sym": 4324,
      "▁myśli,": 4325,
      "▁prędko": 4326,
      "▁niczem": 4327,
      "Za": 4328,
      "▁występ": 4329,
      "▁pierwsze": 4330,
      "▁El": 4331,
      "ńskiej": 4332,
      "▁podró": 4333,
      "kroć": 4334,
      "la.": 4335,
      "▁ledwie": 4336,
      "g,": 4337,
      "Cz": 4338,
      "▁proś": 4339,
      "nik,": 4340,
      "rząt": 4341,
      "▁zrozumie": 4342,
      "▁grz": 4343,
      "▁inny": 4344,
      "▁para": 4345,
      "▁zrobić": 4346,
      "▁źle": 4347,
      "▁Sp": 4348,
      "aty,": 4349,
      "\n—\n—": 4350,
      "rowadzić": 4351,
      "▁Mój": 4352,
      "tu.": 4353,
      "▁7": 4354,
      "liz": 4355,
      "▁jakiegoś": 4356,
      "ąb": 4357,
      "▁kol": 4358,
      "twy": 4359,
      "▁dusza": 4360,
      "stw": 4361,
      "▁wychodzi": 4362,
      "jącego": 4363,
      "▁pieś": 4364,
      "AR": 4365,
      "▁zazdro": 4366,
      "▁powoli": 4367,
      "sz?": 4368,
      "▁zapro": 4369,
      "szka": 4370,
      "skie,": 4371,
      "wany": 4372,
      "▁pozn": 4373,
      "▁sprawa": 4374,
      "▁pierwszej": 4375,
      "por": 4376,
      "▁And": 4377,
      "▁[5": 4378,
      "▁kiedyś": 4379,
      "c.": 4380,
      "▁widzę": 4381,
      "▁ły": 4382,
      "▁Jezu": 4383,
      "▁leka": 4384,
      "▁sty": 4385,
      "▁brak": 4386,
      "▁srebr": 4387,
      "▁Zna": 4388,
      "▁pocho": 4389,
      "▁strzel": 4390,
      "▁Pow": 4391,
      "▁doz": 4392,
      "▁ja,": 4393,
      "łej": 4394,
      "lika": 4395,
      "ałe": 4396,
      "▁spogląd": 4397,
      "▁istnie": 4398,
      "▁młodzień": 4399,
      "wienie": 4400,
      "▁koro": 4401,
      "skiej,": 4402,
      "▁spyt": 4403,
      "▁mą": 4404,
      "▁Czu": 4405,
      "ni.\n": 4406,
      "▁wystar": 4407,
      "dzie.": 4408,
      "rym": 4409,
      "usza": 4410,
      "ła.\n": 4411,
      "dzili": 4412,
      "▁całkiem": 4413,
      "▁wierzy": 4414,
      "▁powinien": 4415,
      "ają,": 4416,
      "▁krzyk": 4417,
      "▁Krzy": 4418,
      "ał.\n": 4419,
      "siące": 4420,
      "▁ono": 4421,
      "kien": 4422,
      "▁pust": 4423,
      "kłem": 4424,
      "▁będziemy": 4425,
      "gry": 4426,
      "▁dzieje": 4427,
      "▁mojego": 4428,
      "czywi": 4429,
      "▁prócz": 4430,
      "▁różne": 4431,
      "śnie,": 4432,
      "NA": 4433,
      "ało.": 4434,
      "▁rano": 4435,
      "ńców": 4436,
      "▁Dy": 4437,
      "▁La": 4438,
      "▁poto": 4439,
      "cej": 4440,
      "jcie": 4441,
      "▁dzien": 4442,
      "▁przywiąz": 4443,
      "tkiem": 4444,
      "dą,": 4445,
      "Gdzie": 4446,
      "syp": 4447,
      "stwem": 4448,
      "sie,": 4449,
      "chu,": 4450,
      "▁dach": 4451,
      "▁sposobem": 4452,
      "▁kre": 4453,
      "▁Ros": 4454,
      "▁ten,": 4455,
      "czne,": 4456,
      "nikiem": 4457,
      "▁Świę": 4458,
      "czel": 4459,
      "Po": 4460,
      "▁nareszcie": 4461,
      "▁zato": 4462,
      "ami.\n": 4463,
      "l,": 4464,
      "lon": 4465,
      "▁wiatr": 4466,
      "▁robić": 4467,
      "▁brat": 4468,
      "▁Se": 4469,
      "▁różnych": 4470,
      "▁Mło": 4471,
      "▁spę": 4472,
      "▁uz": 4473,
      "anowi": 4474,
      "?...\n": 4475,
      "▁10": 4476,
      "ek.": 4477,
      "▁zakon": 4478,
      "▁snu": 4479,
      "▁każdej": 4480,
      "▁kła": 4481,
      "sięg": 4482,
      "▁panie,": 4483,
      "▁zwłaszcza": 4484,
      "cone": 4485,
      "tyk": 4486,
      "staw": 4487,
      "▁usłu": 4488,
      "▁kwa": 4489,
      "▁nań": 4490,
      "▁stron": 4491,
      "▁sprawi": 4492,
      "▁przewo": 4493,
      "▁zmę": 4494,
      "▁uści": 4495,
      "▁sąsie": 4496,
      "▁pali": 4497,
      "ana.": 4498,
      "▁Ste": 4499,
      "▁wielkich": 4500,
      "▁obywat": 4501,
      "ant": 4502,
      "▁pogar": 4503,
      "▁Wło": 4504,
      "▁bawi": 4505,
      "▁gorą": 4506,
      "▁zaczyna": 4507,
      "▁spokojnie": 4508,
      "▁grob": 4509,
      "▁ścian": 4510,
      "żony": 4511,
      "▁wydoby": 4512,
      "▁uło": 4513,
      "uszczo": 4514,
      "umf": 4515,
      "▁ha": 4516,
      "▁drugiego": 4517,
      "▁charak": 4518,
      "dził,": 4519,
      "▁spi": 4520,
      "▁Czas": 4521,
      "▁zde": 4522,
      "sąd": 4523,
      "▁zapo": 4524,
      "▁spoczy": 4525,
      "▁jesteśmy": 4526,
      "▁pocał": 4527,
      "rąg": 4528,
      "prawiedli": 4529,
      "▁konia": 4530,
      "▁tre": 4531,
      "owane": 4532,
      "▁każdego": 4533,
      "lenie": 4534,
      "czeniu": 4535,
      "dzać": 4536,
      "▁osób": 4537,
      "▁gospodar": 4538,
      "▁Ona": 4539,
      "▁wszystkiego": 4540,
      "▁możesz": 4541,
      "anem": 4542,
      "▁Me": 4543,
      "arła": 4544,
      "pro": 4545,
      "▁okre": 4546,
      "▁och": 4547,
      "▁przeba": 4548,
      "▁samą": 4549,
      "nieść": 4550,
      "▁powszech": 4551,
      "▁wód": 4552,
      "jad": 4553,
      "lać": 4554,
      "▁pias": 4555,
      ".\nK": 4556,
      "▁pora": 4557,
      "▁teat": 4558,
      "szedłem": 4559,
      "▁wzajem": 4560,
      "▁wybuch": 4561,
      "▁wszech": 4562,
      "żna": 4563,
      "▁oku": 4564,
      "▁téż": 4565,
      "▁Cy": 4566,
      "▁wys": 4567,
      "bła": 4568,
      "▁Op": 4569,
      "▁powiedzieć,": 4570,
      "▁Anto": 4571,
      "▁włos": 4572,
      "▁przeto": 4573,
      "▁dzisiej": 4574,
      "▁Ludwi": 4575,
      "▁napo": 4576,
      "owe,": 4577,
      "bliż": 4578,
      "▁droga": 4579,
      "▁wyr": 4580,
      "▁słońca": 4581,
      "cem,": 4582,
      "leń": 4583,
      "▁Józe": 4584,
      "du.": 4585,
      "▁zarazem": 4586,
      "łów": 4587,
      "▁8": 4588,
      "▁zanim": 4589,
      "▁przeciwko": 4590,
      "ma,": 4591,
      "▁Dlaczego": 4592,
      "stego": 4593,
      "▁zbo": 4594,
      "nym.": 4595,
      "▁sek": 4596,
      "▁połą": 4597,
      "▁intere": 4598,
      "▁księcia": 4599,
      "▁trafi": 4600,
      "stoj": 4601,
      "▁sobą,": 4602,
      "łowa": 4603,
      "ały.": 4604,
      "u.\n": 4605,
      "rot": 4606,
      "mach": 4607,
      "aniu,": 4608,
      "▁filozo": 4609,
      "▁Proszę": 4610,
      "▁swojego": 4611,
      "▁bogat": 4612,
      "▁wszystkiem": 4613,
      "▁siedząc": 4614,
      "żone": 4615,
      "▁Naz": 4616,
      "▁idąc": 4617,
      "szenia": 4618,
      "▁pełne": 4619,
      "▁wprawdzie": 4620,
      "▁Pew": 4621,
      "▁zwrócił": 4622,
      "▁Sły": 4623,
      "▁poku": 4624,
      "▁mężczyz": 4625,
      "▁narze": 4626,
      ",\nD": 4627,
      "▁przest": 4628,
      "▁ból": 4629,
      "▁ratu": 4630,
      "▁nas,": 4631,
      "▁żyje": 4632,
      "ille": 4633,
      "dzić,": 4634,
      "▁dokoła": 4635,
      "▁oży": 4636,
      "dna": 4637,
      "▁została": 4638,
      "▁inni": 4639,
      "nąć,": 4640,
      "tw": 4641,
      "▁stały": 4642,
      "▁przygotow": 4643,
      "▁plan": 4644,
      "▁przyjdzie": 4645,
      "▁zamiesz": 4646,
      "▁skła": 4647,
      "▁pochwy": 4648,
      "▁zrobił": 4649,
      "▁Jakże": 4650,
      "▁grun": 4651,
      "▁ponad": 4652,
      "▁któréj": 4653,
      "▁tch": 4654,
      "rat": 4655,
      "▁jeź": 4656,
      "▁umiał": 4657,
      "▁Ponieważ": 4658,
      "wienia": 4659,
      "dam": 4660,
      "▁skle": 4661,
      "▁włosy": 4662,
      "▁Sto": 4663,
      "▁miejsc": 4664,
      "źnie": 4665,
      "liw": 4666,
      "▁kocha": 4667,
      ".\n.\n.\n.\n": 4668,
      "▁utwo": 4669,
      "▁niewin": 4670,
      "▁v": 4671,
      "▁następnie": 4672,
      "▁Pie": 4673,
      "▁panem": 4674,
      "▁bliz": 4675,
      "▁Ho": 4676,
      "▁kłam": 4677,
      "▁sąsiad": 4678,
      "ton": 4679,
      "▁ręki": 4680,
      "lam": 4681,
      "▁upły": 4682,
      "gdzie": 4683,
      "▁12": 4684,
      ",\n\n": 4685,
      "▁obsz": 4686,
      "nątrz": 4687,
      "gro": 4688,
      "świę": 4689,
      "▁dawno": 4690,
      "ająca": 4691,
      "any.": 4692,
      "łek": 4693,
      "▁histor": 4694,
      "wiony": 4695,
      "▁żony": 4696,
      "RA": 4697,
      ".\nO": 4698,
      "▁nędz": 4699,
      "▁błogosła": 4700,
      "▁kapitan": 4701,
      "▁cen": 4702,
      "▁staje": 4703,
      "▁nowy": 4704,
      "▁obcy": 4705,
      "▁wysp": 4706,
      "▁ksiądz": 4707,
      "▁opo": 4708,
      "▁umysł": 4709,
      "niała": 4710,
      "▁czło": 4711,
      "▁słowa,": 4712,
      "\nNa": 4713,
      "▁wzbu": 4714,
      "▁spostrzegł": 4715,
      "▁zby": 4716,
      "owi.": 4717,
      "▁końca": 4718,
      "▁wyna": 4719,
      "▁czter": 4720,
      "nika,": 4721,
      "ństw": 4722,
      "▁uwagę": 4723,
      "dol": 4724,
      "▁błag": 4725,
      "▁pokaz": 4726,
      "\nK": 4727,
      "▁panny": 4728,
      "rzeń": 4729,
      "aków": 4730,
      "ką.": 4731,
      "▁wewnętrz": 4732,
      "nosił": 4733,
      "▁Kar": 4734,
      "▁krzyknął": 4735,
      "ać.\n": 4736,
      "▁byle": 4737,
      "▁nawet,": 4738,
      "byśmy": 4739,
      "▁„W": 4740,
      "ty.\n": 4741,
      "▁powietrze": 4742,
      "▁przytem": 4743,
      "▁drugą": 4744,
      "▁okiem": 4745,
      "▁wychow": 4746,
      "▁działa": 4747,
      "To": 4748,
      "▁krzyw": 4749,
      "▁naprze": 4750,
      "robi": 4751,
      "nal": 4752,
      "wy.": 4753,
      "▁naraz": 4754,
      "▁nies": 4755,
      "▁rzę": 4756,
      "▁ujrzał": 4757,
      "ewszystkiem": 4758,
      "leci": 4759,
      "▁bezpie": 4760,
      "Niech": 4761,
      "▁Di": 4762,
      "▁wrócił": 4763,
      "DZ": 4764,
      "lenia": 4765,
      "kier": 4766,
      "▁światło": 4767,
      "▁wnet": 4768,
      "got": 4769,
      "▁Cze": 4770,
      "▁insty": 4771,
      "stąpić": 4772,
      "▁Two": 4773,
      "dopodob": 4774,
      "▁ty,": 4775,
      "▁milcząc": 4776,
      "ctwo": 4777,
      "▁abym": 4778,
      "bur": 4779,
      "▁kul": 4780,
      "kowie": 4781,
      "▁pta": 4782,
      "klę": 4783,
      "▁wiedział,": 4784,
      "▁rzeczy,": 4785,
      "▁rozkosz": 4786,
      "ścią,": 4787,
      "▁dlatego,": 4788,
      "cili": 4789,
      "szę,": 4790,
      "▁otacz": 4791,
      "nością,": 4792,
      "▁wzrokiem": 4793,
      "▁Kości": 4794,
      "eb": 4795,
      "asz": 4796,
      "dzono": 4797,
      "dzą,": 4798,
      "szło": 4799,
      "dzieścia": 4800,
      "▁Or": 4801,
      "▁pośród": 4802,
      ").\n": 4803,
      "▁jej,": 4804,
      "nął,": 4805,
      "▁twego": 4806,
      "oli": 4807,
      "éć": 4808,
      "rzały": 4809,
      "▁panowie": 4810,
      "▁dobra": 4811,
      "▁poczem": 4812,
      "\nD": 4813,
      "▁gdybym": 4814,
      "▁oce": 4815,
      "▁czoło": 4816,
      "▁nieprze": 4817,
      "rza.": 4818,
      "▁woł": 4819,
      "▁skarb": 4820,
      "▁stołu": 4821,
      "twi": 4822,
      "cka": 4823,
      "▁szukać": 4824,
      "▁króle": 4825,
      "▁ludź": 4826,
      "▁us": 4827,
      "ard": 4828,
      "▁okna": 4829,
      "▁lekko": 4830,
      "▁gałę": 4831,
      "▁tygo": 4832,
      "▁drżąc": 4833,
      "niła": 4834,
      "▁ciała": 4835,
      "▁wszystkim": 4836,
      "m.\n": 4837,
      "▁Paryż": 4838,
      "▁Bardzo": 4839,
      "▁dzieci,": 4840,
      "▁utra": 4841,
      "▁stry": 4842,
      "gi.": 4843,
      "▁dzięki": 4844,
      "ld": 4845,
      ".\n\nW": 4846,
      "▁dziesięć": 4847,
      "nd": 4848,
      "któr": 4849,
      "syj": 4850,
      "Ja": 4851,
      "deł": 4852,
      "▁wyg": 4853,
      "era": 4854,
      "skał": 4855,
      "▁istotnie": 4856,
      "łem,": 4857,
      "▁uczynić": 4858,
      "▁widziałem": 4859,
      "dziemy": 4860,
      "ret": 4861,
      "▁wich": 4862,
      "▁sześć": 4863,
      "rzony": 4864,
      "ciu,": 4865,
      "▁zamie": 4866,
      "nieniem": 4867,
      "czyły": 4868,
      "▁obchodzi": 4869,
      "\n\n\n\n": 4870,
      "niami": 4871,
      "▁społecz": 4872,
      "▁niecierpli": 4873,
      "▁zba": 4874,
      "▁mogły": 4875,
      "▁wszakże": 4876,
      "nica": 4877,
      "szyła": 4878,
      "▁kru": 4879,
      "▁wieczor": 4880,
      "▁angiel": 4881,
      "▁Ha": 4882,
      "tyka": 4883,
      "▁musiała": 4884,
      "rzyły": 4885,
      "▁jeno": 4886,
      "▁Rze": 4887,
      "tychczas": 4888,
      "▁hand": 4889,
      "▁zła": 4890,
      "▁nic,": 4891,
      "▁stronie": 4892,
      "▁bezw": 4893,
      "▁cudow": 4894,
      "stwo,": 4895,
      "▁więcéj": 4896,
      "żę": 4897,
      "▁pierwszego": 4898,
      "▁niespokoj": 4899,
      "▁nasza": 4900,
      "▁drogą": 4901,
      "▁ukoch": 4902,
      "▁Wszak": 4903,
      "▁Ce": 4904,
      "▁nóg": 4905,
      "▁szat": 4906,
      "wości,": 4907,
      "nicz": 4908,
      "▁sprawę": 4909,
      "czyli": 4910,
      "▁przyszłość": 4911,
      "▁ją,": 4912,
      "lot": 4913,
      "nę.": 4914,
      "▁pomocy": 4915,
      "prawdę": 4916,
      "ół,": 4917,
      "▁przerwał": 4918,
      "▁stać": 4919,
      "cow": 4920,
      "dych": 4921,
      "dzone": 4922,
      "▁ogień": 4923,
      "szenie": 4924,
      "▁tytu": 4925,
      "ńska": 4926,
      "▁wielko": 4927,
      "ającym": 4928,
      "sta,": 4929,
      "▁rok": 4930,
      "▁pozy": 4931,
      "▁najbardziej": 4932,
      "▁wiary": 4933,
      "nice": 4934,
      "▁uczci": 4935,
      "bie,": 4936,
      "▁więc,": 4937,
      "▁błyszcz": 4938,
      "ńczył": 4939,
      "▁Ach,": 4940,
      "▁podobne": 4941,
      "ską,": 4942,
      "▁[6": 4943,
      "▁przestra": 4944,
      "▁\nA": 4945,
      "▁nowego": 4946,
      "▁odpowiedziała": 4947,
      "mil": 4948,
      "ski.": 4949,
      "skę": 4950,
      "ność.": 4951,
      "niejszym": 4952,
      "▁sali": 4953,
      "▁Nigdy": 4954,
      "▁głęboko": 4955,
      "▁postaci": 4956,
      "sil": 4957,
      "les": 4958,
      "▁siebie.": 4959,
      "rywał": 4960,
      "tuje": 4961,
      "▁tęskno": 4962,
      "logi": 4963,
      "▁rzekł:\n": 4964,
      "▁delika": 4965,
      "ającej": 4966,
      ",\nGdy": 4967,
      "▁całem": 4968,
      "▁wd": 4969,
      "ak,": 4970,
      "▁chle": 4971,
      "▁wypra": 4972,
      "▁ener": 4973,
      "▁usił": 4974,
      "▁brzegu": 4975,
      "▁dziad": 4976,
      "▁gotów": 4977,
      "▁Jako": 4978,
      "▁Dzię": 4979,
      "▁czap": 4980,
      "▁siła": 4981,
      "▁łez": 4982,
      "▁bohater": 4983,
      "ńca": 4984,
      "▁mini": 4985,
      "▁przeraż": 4986,
      "▁Nikt": 4987,
      "▁zebr": 4988,
      "▁mieście": 4989,
      "dale": 4990,
      "▁zje": 4991,
      "▁–": 4992,
      "▁nierucho": 4993,
      "tyw": 4994,
      "▁wiesz": 4995,
      "▁morze": 4996,
      "▁przedmio": 4997,
      "▁głośno": 4998,
      "▁twoja": 4999,
      "▁zasa": 5000,
      "▁Jeden": 5001,
      "żyli": 5002,
      "▁uf": 5003,
      "▁leży": 5004,
      "ta.\n": 5005,
      "▁moi": 5006,
      "jach": 5007,
      "▁nieza": 5008,
      "▁żadnych": 5009,
      "dować": 5010,
      "rzyło": 5011,
      "▁przypat": 5012,
      "koła": 5013,
      "nego.": 5014,
      "rabie": 5015,
      "ną.\n": 5016,
      "▁więcej,": 5017,
      "▁Nagle": 5018,
      "aliśmy": 5019,
      "cin": 5020,
      "▁zwo": 5021,
      "▁szepnął": 5022,
      "▁zja": 5023,
      "cie.\n": 5024,
      "▁zuch": 5025,
      "równ": 5026,
      "▁zasło": 5027,
      "▁pozostawi": 5028,
      "▁niebi": 5029,
      "▁prof": 5030,
      "wością": 5031,
      "▁oczywi": 5032,
      "▁mnó": 5033,
      "▁Zresztą": 5034,
      "niu.": 5035,
      "▁wró": 5036,
      "ałem,": 5037,
      "▁Lo": 5038,
      "▁poznał": 5039,
      "▁gaz": 5040,
      "▁wieczorem": 5041,
      "▁szpi": 5042,
      "▁Her": 5043,
      "▁przypuszcz": 5044,
      "▁znajduje": 5045,
      "noś": 5046,
      "tali": 5047,
      "tek,": 5048,
      "ciej": 5049,
      "siąż": 5050,
      "▁mogąc": 5051,
      "iem": 5052,
      "niejsz": 5053,
      "▁ponu": 5054,
      "jąc,": 5055,
      "▁czasu,": 5056,
      "ZE": 5057,
      "▁skry": 5058,
      "▁głowa": 5059,
      "▁pach": 5060,
      "siąg": 5061,
      "▁miłosier": 5062,
      "▁dwor": 5063,
      "pał": 5064,
      "▁ukaz": 5065,
      "rała": 5066,
      "▁spokój": 5067,
      "hi": 5068,
      "▁twe": 5069,
      "▁któremi": 5070,
      "▁czyż": 5071,
      "▁niepodob": 5072,
      "▁wielka": 5073,
      "▁odzie": 5074,
      "▁codzien": 5075,
      "czonych": 5076,
      "▁pogrze": 5077,
      "niejszej": 5078,
      "▁bad": 5079,
      "lone": 5080,
      "▁rozmowy": 5081,
      "▁Ser": 5082,
      "▁usu": 5083,
      "▁koni": 5084,
      "▁kwe": 5085,
      "▁ludu": 5086,
      "▁własnej": 5087,
      "▁przedmiot": 5088,
      "▁kor": 5089,
      "cznem": 5090,
      "ST": 5091,
      "▁Su": 5092,
      "▁przew": 5093,
      "▁przewi": 5094,
      "słych": 5095,
      "▁znaleźć": 5096,
      "▁małe": 5097,
      "mer": 5098,
      "▁uczucia": 5099,
      "▁Czar": 5100,
      "▁zbi": 5101,
      "▁Jul": 5102,
      "▁pana,": 5103,
      "▁Zy": 5104,
      "▁ek": 5105,
      "sko,": 5106,
      "▁religi": 5107,
      "jewo": 5108,
      "y.": 5109,
      "▁fanta": 5110,
      "▁niej,": 5111,
      "▁pewnie": 5112,
      "dziestu": 5113,
      "▁jakiejś": 5114,
      "▁Jednak": 5115,
      ",\nNa": 5116,
      "▁świąty": 5117,
      "▁posa": 5118,
      "▁oprócz": 5119,
      "▁patrz": 5120,
      "uj": 5121,
      "da.": 5122,
      "▁uprzej": 5123,
      "▁pusz": 5124,
      "min": 5125,
      "▁czwar": 5126,
      "dziło": 5127,
      "mian": 5128,
      "▁pusty": 5129,
      "jal": 5130,
      "▁nich,": 5131,
      "▁dwadzieścia": 5132,
      "łóma": 5133,
      "▁rzą": 5134,
      "▁głupi": 5135,
      "▁bal": 5136,
      "▁porzu": 5137,
      "▁dalej,": 5138,
      "▁rozpacz": 5139,
      "▁wiedząc": 5140,
      "▁naszym": 5141,
      "▁odczu": 5142,
      "▁9": 5143,
      "▁obję": 5144,
      "sku,": 5145,
      "▁wątpli": 5146,
      "bowiem": 5147,
      "▁przeciąg": 5148,
      "ji.": 5149,
      "▁myśl,": 5150,
      "▁ró": 5151,
      "▁znakomi": 5152,
      "\n↑": 5153,
      "▁dopóki": 5154,
      "▁żeś": 5155,
      "▁niczego": 5156,
      "rę,": 5157,
      "▁głup": 5158,
      "▁herb": 5159,
      "▁swojem": 5160,
      "▁doku": 5161,
      "▁cierpli": 5162,
      "ją.": 5163,
      "▁Szy": 5164,
      "OW": 5165,
      "tur": 5166,
      "▁pry": 5167,
      "▁uspoko": 5168,
      "▁uczynił": 5169,
      "▁ojczyz": 5170,
      "▁Myśl": 5171,
      "▁złego": 5172,
      "▁szal": 5173,
      "▁kim": 5174,
      "▁oznaj": 5175,
      "▁czasów": 5176,
      "▁Miał": 5177,
      "▁pou": 5178,
      "▁Piotr": 5179,
      "▁dnie": 5180,
      "io": 5181,
      "▁obawi": 5182,
      "▁dziewczę": 5183,
      "▁dostat": 5184,
      "▁pewien": 5185,
      "fie": 5186,
      "▁gwar": 5187,
      "on,": 5188,
      "▁wojsk": 5189,
      "▁poszu": 5190,
      ",\nKtó": 5191,
      "▁zadu": 5192,
      "▁Wreszcie": 5193,
      "▁ć": 5194,
      "▁gła": 5195,
      "aję": 5196,
      "▁wese": 5197,
      "▁przyjm": 5198,
      "▁odej": 5199,
      "▁pieśni": 5200,
      "▁Pe": 5201,
      "wna": 5202,
      "ser": 5203,
      "▁Tego": 5204,
      "▁znać": 5205,
      "łecze": 5206,
      "▁dra": 5207,
      "▁młodego": 5208,
      "▁życie,": 5209,
      "▁przeczu": 5210,
      "rabia": 5211,
      "rzawszy": 5212,
      "ści.\n": 5213,
      "kter": 5214,
      "▁swem": 5215,
      "▁\nP": 5216,
      "▁fizy": 5217,
      "lec": 5218,
      "cenie": 5219,
      "▁Pana": 5220,
      "▁ręce,": 5221,
      "▁domu.": 5222,
      "▁uci": 5223,
      "▁niekiedy": 5224,
      "▁Chło": 5225,
      "rad": 5226,
      "▁zwykł": 5227,
      "czny,": 5228,
      "owej,": 5229,
      "si,": 5230,
      "kę.\n": 5231,
      "▁O!": 5232,
      "▁psy": 5233,
      "▁chust": 5234,
      "▁dłuż": 5235,
      "▁cało": 5236,
      "▁mu,": 5237,
      "▁przypomina": 5238,
      "▁stawi": 5239,
      "▁14": 5240,
      "▁niesko": 5241,
      "ód,": 5242,
      "▁hała": 5243,
      "▁oficer": 5244,
      "▁on,": 5245,
      "▁nią,": 5246,
      "ż,": 5247,
      "ciela": 5248,
      "mi.": 5249,
      "▁czte": 5250,
      "▁Stani": 5251,
      "▁zdawał": 5252,
      "rok": 5253,
      "▁żyw": 5254,
      "▁śniad": 5255,
      ",\nBo": 5256,
      "▁odpowiedź": 5257,
      "\nNie": 5258,
      "tała": 5259,
      "emo": 5260,
      "nkt": 5261,
      "wor": 5262,
      "▁Następ": 5263,
      "▁przyz": 5264,
      "▁nazywa": 5265,
      "▁Widzi": 5266,
      "▁deszcz": 5267,
      "▁podło": 5268,
      "▁pioru": 5269,
      "▁wyłą": 5270,
      "▁epo": 5271,
      "ckich": 5272,
      "▁ramię": 5273,
      "▁opar": 5274,
      "różno": 5275,
      "▁Nawet": 5276,
      "▁znał": 5277,
      "▁prawdę": 5278,
      "dziły": 5279,
      "▁odpo": 5280,
      "Już": 5281,
      "pienia": 5282,
      "▁zamku": 5283,
      "▁Mor": 5284,
      "per": 5285,
      "▁kasz": 5286,
      "▁istocie": 5287,
      "▁13": 5288,
      "▁zamknię": 5289,
      "▁Poz": 5290,
      "▁powiedz": 5291,
      "▁wycie": 5292,
      "ścia,": 5293,
      "dy.\n": 5294,
      "biegła": 5295,
      "anie.\n": 5296,
      "▁ludzko": 5297,
      "▁organi": 5298,
      "▁Angli": 5299,
      "▁odrazu": 5300,
      "▁kolan": 5301,
      "nek,": 5302,
      "kuję": 5303,
      "▁gorz": 5304,
      "▁piękne": 5305,
      "▁XV": 5306,
      "▁posu": 5307,
      "▁spie": 5308,
      "▁miastecz": 5309,
      "▁zamiar": 5310,
      "ński,": 5311,
      "▁obło": 5312,
      "▁ludzie,": 5313,
      ",\nB": 5314,
      "▁święty": 5315,
      "▁wedle": 5316,
      "▁chętnie": 5317,
      "▁sypi": 5318,
      "sen": 5319,
      "▁poboż": 5320,
      "ura": 5321,
      "ług": 5322,
      "▁fal": 5323,
      "▁doskonale": 5324,
      "▁ciebie,": 5325,
      "▁podzie": 5326,
      "▁przyszło": 5327,
      "▁mili": 5328,
      "▁razu": 5329,
      "▁przyszłości": 5330,
      "dnia": 5331,
      "SK": 5332,
      "▁przyw": 5333,
      "▁macie": 5334,
      "▁możemy": 5335,
      "▁zgroma": 5336,
      "▁hrabia": 5337,
      "sz.": 5338,
      "▁pośpie": 5339,
      "▁wpat": 5340,
      "▁szuka": 5341,
      "▁dja": 5342,
      "▁polu": 5343,
      "tował": 5344,
      "owicz": 5345,
      "▁ojca,": 5346,
      "▁cię,": 5347,
      "▁przechodzi": 5348,
      "▁braci": 5349,
      "▁przeszko": 5350,
      "pol": 5351,
      "▁prób": 5352,
      "▁błyska": 5353,
      "jak": 5354,
      "▁pamięci": 5355,
      "▁będzie,": 5356,
      "▁Bez": 5357,
      "czyć,": 5358,
      "warz": 5359,
      "▁wah": 5360,
      "▁białe": 5361,
      "kowa": 5362,
      "▁zac": 5363,
      "▁ub": 5364,
      "▁ros": 5365,
      "▁poczci": 5366,
      "▁mnie.": 5367,
      "▁rozleg": 5368,
      "czni": 5369,
      "set": 5370,
      "ściej": 5371,
      "▁staną": 5372,
      "▁przyszła": 5373,
      "▁gotow": 5374,
      "▁dobrego": 5375,
      "żon": 5376,
      "▁udał": 5377,
      "▁prawda,": 5378,
      "▁Augu": 5379,
      "▁póki": 5380,
      "!\n\n\n": 5381,
      "▁brzy": 5382,
      "żyłem": 5383,
      "▁dotychczas": 5384,
      "▁kroków": 5385,
      "▁kościoła": 5386,
      "chadz": 5387,
      "▁przepa": 5388,
      "▁nosi": 5389,
      "▁godzin": 5390,
      "ro,": 5391,
      "▁wiedzieć": 5392,
      "ru.": 5393,
      "▁zbrodni": 5394,
      "▁drugim": 5395,
      "owałem": 5396,
      "▁wziąć": 5397,
      "cyę": 5398,
      "▁zbrod": 5399,
      "cha,": 5400,
      "▁„M": 5401,
      "▁gorącz": 5402,
      "▁nieje": 5403,
      "▁kory": 5404,
      "▁Będzie": 5405,
      "▁charakter": 5406,
      "czył,": 5407,
      "dną": 5408,
      "▁poznać": 5409,
      "▁temi": 5410,
      "pię": 5411,
      "▁kłopo": 5412,
      "▁Iz": 5413,
      "▁Człowie": 5414,
      "▁wspomnie": 5415,
      "▁ciężko": 5416,
      "▁skrzydła": 5417,
      "▁zostać": 5418,
      "▁ręko": 5419,
      "▁przemówi": 5420,
      "▁Bra": 5421,
      "▁Flo": 5422,
      "mon": 5423,
      "▁ilo": 5424,
      "▁at": 5425,
      "dło": 5426,
      "czyło": 5427,
      "▁ludzkie": 5428,
      "▁tu,": 5429,
      "▁ustawi": 5430,
      "▁kieli": 5431,
      "▁śpiew": 5432,
      "▁włó": 5433,
      "▁uwol": 5434,
      "▁zauf": 5435,
      "stanowie": 5436,
      "▁owe": 5437,
      "emnie": 5438,
      "ździe": 5439,
      "lom": 5440,
      "▁zatrzymał": 5441,
      "▁czemu": 5442,
      "pow": 5443,
      "▁Fili": 5444,
      "▁wykrzy": 5445,
      "▁rusz": 5446,
      "mą": 5447,
      "▁trzeci": 5448,
      "▁jesie": 5449,
      "dzenia,": 5450,
      "▁[7": 5451,
      "▁piękna": 5452,
      "▁wymag": 5453,
      "▁południ": 5454,
      "▁wydaje": 5455,
      "ém,": 5456,
      "▁słychać": 5457,
      "▁hrabie": 5458,
      "stość": 5459,
      "▁podróży": 5460,
      "▁sied": 5461,
      "▁mle": 5462,
      "▁weź": 5463,
      "▁bur": 5464,
      "▁Pu": 5465,
      "▁port": 5466,
      "▁dą": 5467,
      "by.": 5468,
      "chwy": 5469,
      "▁krz": 5470,
      "▁potém": 5471,
      "▁już,": 5472,
      "ścić": 5473,
      "▁udział": 5474,
      "tat": 5475,
      "▁wt": 5476,
      "▁społecze": 5477,
      "▁znam": 5478,
      "▁zmy": 5479,
      "▁oś": 5480,
      "▁szeroko": 5481,
      "niony": 5482,
      "▁mówię": 5483,
      "tnych": 5484,
      "▁cha": 5485,
      "▁krop": 5486,
      "nur": 5487,
      "tną": 5488,
      "▁naprzeciw": 5489,
      "▁wchodzi": 5490,
      "▁ściąg": 5491,
      "stości": 5492,
      "▁zapomni": 5493,
      "▁mięk": 5494,
      "▁nieszczęście": 5495,
      "▁ciot": 5496,
      "▁własne": 5497,
      "▁przytom": 5498,
      "▁proce": 5499,
      "▁jakimś": 5500,
      "▁wasze": 5501,
      "fer": 5502,
      "▁ziemia": 5503,
      "▁pory": 5504,
      "▁niechę": 5505,
      "▁Mał": 5506,
      "ństwem": 5507,
      "▁rzeź": 5508,
      "rzuc": 5509,
      "▁głowę,": 5510,
      "RO": 5511,
      "czona": 5512,
      "▁dłoń": 5513,
      "rzod": 5514,
      "▁oszu": 5515,
      "▁zechce": 5516,
      "▁obfi": 5517,
      "pisy": 5518,
      "▁dłużej": 5519,
      "▁klaszto": 5520,
      "▁„S": 5521,
      "▁słone": 5522,
      "▁Stary": 5523,
      "▁kapł": 5524,
      "▁nadziej": 5525,
      "▁rzeczywiście": 5526,
      "ńce": 5527,
      "nię,": 5528,
      "▁rozst": 5529,
      "▁zapra": 5530,
      "▁twór": 5531,
      "▁Skoro": 5532,
      "▁koł": 5533,
      "jów": 5534,
      "▁nied": 5535,
      "▁wielce": 5536,
      "▁czegoś": 5537,
      "▁złe": 5538,
      "▁leżąc": 5539,
      "▁wasz": 5540,
      "▁stud": 5541,
      "▁Ojciec": 5542,
      "▁serca,": 5543,
      "▁pewnością": 5544,
      "dzeniu": 5545,
      "▁naprawdę": 5546,
      "▁słabo": 5547,
      "▁pełen": 5548,
      "owało": 5549,
      "▁wybor": 5550,
      "▁opis": 5551,
      "lina": 5552,
      "ństwie": 5553,
      "dźwie": 5554,
      "▁11": 5555,
      "▁powiedziała": 5556,
      "▁pałacu": 5557,
      "ng": 5558,
      "rech": 5559,
      "▁czarne": 5560,
      "▁dała": 5561,
      "▁opad": 5562,
      "▁be": 5563,
      "żem": 5564,
      "▁Ki": 5565,
      "▁wydał": 5566,
      "he": 5567,
      "▁niewo": 5568,
      "owni": 5569,
      "▁niespodzi": 5570,
      "▁śmiało": 5571,
      "▁olbrzymi": 5572,
      "▁drzwi,": 5573,
      "▁pami": 5574,
      "ciwszy": 5575,
      "▁naszą": 5576,
      "▁Kor": 5577,
      "▁fabry": 5578,
      "▁rodzin": 5579,
      "▁brata": 5580,
      "▁zaprze": 5581,
      "góle": 5582,
      "mowo": 5583,
      "▁Zdaje": 5584,
      "▁pierwszym": 5585,
      "▁punk": 5586,
      "▁zostanie": 5587,
      "▁posiada": 5588,
      "▁„O": 5589,
      "▁sław": 5590,
      "rzałem": 5591,
      "▁zasad": 5592,
      "cje": 5593,
      "wa.": 5594,
      "▁przeczy": 5595,
      "▁rękę,": 5596,
      "▁państwa": 5597,
      "lum": 5598,
      "▁wyrze": 5599,
      "▁podd": 5600,
      "▁sam,": 5601,
      "▁właściwie": 5602,
      "▁pomocą": 5603,
      "▁Kazi": 5604,
      "▁przyci": 5605,
      "▁wizy": 5606,
      "Ty": 5607,
      "[1": 5608,
      "▁doby": 5609,
      "▁wzgó": 5610,
      "▁dokąd": 5611,
      "nem.": 5612,
      "▁uczucie": 5613,
      "▁tor": 5614,
      ".\n\nP": 5615,
      "▁przykład": 5616,
      "▁Ot": 5617,
      "▁siłą": 5618,
      "▁niedaw": 5619,
      "▁Gu": 5620,
      "▁uleg": 5621,
      "▁odleg": 5622,
      "ślę": 5623,
      "▁wodę": 5624,
      "głę": 5625,
      "▁niemu": 5626,
      "▁Rob": 5627,
      "▁zbliżył": 5628,
      "mina": 5629,
      "niusz": 5630,
      "ałych": 5631,
      "▁ogród": 5632,
      "▁wojen": 5633,
      "nom": 5634,
      "▁nieustan": 5635,
      "▁szlachci": 5636,
      "▁śmiesz": 5637,
      "▁niezmiernie": 5638,
      "▁koły": 5639,
      "▁kilk": 5640,
      "▁Ne": 5641,
      "czeń": 5642,
      "▁drew": 5643,
      "wolu": 5644,
      "maga": 5645,
      "gał": 5646,
      "▁mater": 5647,
      "cą,": 5648,
      "▁Star": 5649,
      "ers": 5650,
      "▁staran": 5651,
      "dwo": 5652,
      "del": 5653,
      "▁Pawe": 5654,
      "▁zaro": 5655,
      "▁Zam": 5656,
      "▁stojąc": 5657,
      "▁obecnie": 5658,
      "▁nowych": 5659,
      "re,": 5660,
      "▁dawniej": 5661,
      "▁dziwnie": 5662,
      "▁węd": 5663,
      "szem,": 5664,
      "▁wieki": 5665,
      "kała": 5666,
      "▁czci": 5667,
      "góż": 5668,
      "▁napad": 5669,
      "▁przyro": 5670,
      "▁mógłby": 5671,
      "ste,": 5672,
      "▁przeraże": 5673,
      "ajcie": 5674,
      "▁nadto": 5675,
      "ania.\n": 5676,
      "▁jednem": 5677,
      "▁prowi": 5678,
      "▁post": 5679,
      "ństwo,": 5680,
      "nięcia": 5681,
      "łom": 5682,
      "▁Jezus": 5683,
      "▁przedsię": 5684,
      "▁zaszczy": 5685,
      "▁Zdawało": 5686,
      "▁nios": 5687,
      "▁wysił": 5688,
      "▁eg": 5689,
      "▁cios": 5690,
      "▁twarzy,": 5691,
      "▁ogo": 5692,
      "▁przybył": 5693,
      "▁now": 5694,
      "rowadz": 5695,
      "▁pewne": 5696,
      "ciły": 5697,
      "▁smak": 5698,
      "▁Wszystkie": 5699,
      "▁śród": 5700,
      "zy,": 5701,
      "tof": 5702,
      "kowo": 5703,
      "▁cer": 5704,
      "▁przyt": 5705,
      "▁Dłu": 5706,
      "zmu": 5707,
      "▁zaci": 5708,
      "▁wysł": 5709,
      "▁oszczę": 5710,
      "▁jemu": 5711,
      "▁zdrowi": 5712,
      "my.": 5713,
      "▁Boże,": 5714,
      "▁pracu": 5715,
      "▁ciemności": 5716,
      "▁odde": 5717,
      "▁literatu": 5718,
      "stety": 5719,
      "▁oskar": 5720,
      "▁[8": 5721,
      "▁baj": 5722,
      "▁kolej": 5723,
      "asy": 5724,
      "łach": 5725,
      "ciłem": 5726,
      "entu": 5727,
      "ować.": 5728,
      "żywszy": 5729,
      "nej.": 5730,
      "▁Nar": 5731,
      "▁przykro": 5732,
      "▁każda": 5733,
      "▁kobiet": 5734,
      "▁progu": 5735,
      "ńcy": 5736,
      "▁stole": 5737,
      "▁grozi": 5738,
      "▁wszelkich": 5739,
      "▁Zyg": 5740,
      "▁pió": 5741,
      "▁tryumf": 5742,
      "▁wio": 5743,
      "com": 5744,
      "stru": 5745,
      "ę.\n": 5746,
      "dzieści": 5747,
      "▁poł": 5748,
      "śmier": 5749,
      "▁prakty": 5750,
      "szczu": 5751,
      "gat": 5752,
      "▁pułkow": 5753,
      "▁natch": 5754,
      "ct": 5755,
      "om,": 5756,
      "ógł": 5757,
      "eś,": 5758,
      "knie": 5759,
      "▁książe": 5760,
      "▁uzna": 5761,
      "▁nastąpi": 5762,
      "▁mojem": 5763,
      "▁drogi,": 5764,
      "▁każde": 5765,
      "▁pozwoli": 5766,
      "rys": 5767,
      "mów": 5768,
      "myślnie": 5769,
      "ia": 5770,
      "▁jezio": 5771,
      "▁obszer": 5772,
      "▁natury": 5773,
      "▁innym": 5774,
      "▁zał": 5775,
      "▁Mos": 5776,
      "▁autor": 5777,
      "▁Spoj": 5778,
      "▁żą": 5779,
      "▁salon": 5780,
      "▁Każdy": 5781,
      "▁znajdow": 5782,
      "▁Ga": 5783,
      "▁radości": 5784,
      "▁zga": 5785,
      "▁blask": 5786,
      "▁łańcu": 5787,
      "dniej": 5788,
      "gły": 5789,
      "we,": 5790,
      ".\n\n\n\n\n": 5791,
      "▁zegar": 5792,
      "▁był,": 5793,
      "▁Przecież": 5794,
      "▁Franci": 5795,
      "▁niebios": 5796,
      "▁pozwal": 5797,
      "▁Ed": 5798,
      "ra.\n": 5799,
      "▁wystawi": 5800,
      "▁chwilę,": 5801,
      "▁dźwi": 5802,
      "▁co?": 5803,
      "hy": 5804,
      "▁otworzył": 5805,
      "skać": 5806,
      "▁ski": 5807,
      "cznych,": 5808,
      "▁chu": 5809,
      "▁świata,": 5810,
      "▁zwolna": 5811,
      "▁przekona": 5812,
      "▁kobiety,": 5813,
      "▁człowiekiem": 5814,
      "▁owego": 5815,
      "▁musie": 5816,
      "ctwa": 5817,
      "▁Dlat": 5818,
      "▁nowi": 5819,
      "▁ostatnich": 5820,
      "▁mach": 5821,
      "bierał": 5822,
      "▁chłopak": 5823,
      "ńskim": 5824,
      "▁nikomu": 5825,
      "kazuje": 5826,
      "end": 5827,
      "▁owych": 5828,
      "▁nagro": 5829,
      "▁owa": 5830,
      "▁pobli": 5831,
      "▁ślicz": 5832,
      "▁żył": 5833,
      "▁wyobraź": 5834,
      "▁ustęp": 5835,
      "▁mogi": 5836,
      "niem.": 5837,
      "▁Zap": 5838,
      "▁Księ": 5839,
      "▁świętego": 5840,
      "e.": 5841,
      "▁kochany": 5842,
      "▁zaś,": 5843,
      "▁godzinę": 5844,
      "▁spły": 5845,
      "▁młodzi": 5846,
      "▁rady": 5847,
      "▁szacu": 5848,
      "▁duchow": 5849,
      "▁położe": 5850,
      "▁najle": 5851,
      "▁Stef": 5852,
      "▁pójdzie": 5853,
      "▁godzinie": 5854,
      "ans": 5855,
      "▁Sal": 5856,
      "dźmy": 5857,
      "▁twoich": 5858,
      "▁któż": 5859,
      "▁sier": 5860,
      "Tak": 5861,
      "dziłem": 5862,
      "▁wściek": 5863,
      "tnie,": 5864,
      "▁pewną": 5865,
      "dzy,": 5866,
      "▁skaz": 5867,
      "▁przedewszystkiem": 5868,
      "▁że,": 5869,
      "▁prędzej": 5870,
      "▁słowem": 5871,
      "▁Rad": 5872,
      "▁tym,": 5873,
      "liwości": 5874,
      "▁patrzał": 5875,
      "▁coby": 5876,
      "tem.": 5877,
      "▁nieznaj": 5878,
      "czym": 5879,
      "▁wyszła": 5880,
      "▁bab": 5881,
      "▁rozbi": 5882,
      "▁zrozumi": 5883,
      "▁cień": 5884,
      "▁szyder": 5885,
      "onych": 5886,
      "▁żywi": 5887,
      "▁kwie": 5888,
      "pierw": 5889,
      "ląt": 5890,
      "▁powrac": 5891,
      "▁katoli": 5892,
      "▁zawiera": 5893,
      "▁Książ": 5894,
      "▁ul": 5895,
      "▁twojej": 5896,
      ".\nI": 5897,
      "▁powod": 5898,
      "▁II": 5899,
      "▁mimowo": 5900,
      "równo": 5901,
      "▁światła": 5902,
      "▁oznajmi": 5903,
      "▁pozostał": 5904,
      ".\n\nA": 5905,
      "▁bywa": 5906,
      "▁słyszeć": 5907,
      "ałem.": 5908,
      "▁gabi": 5909,
      "▁Hu": 5910,
      "▁koniecznie": 5911,
      "CH": 5912,
      "▁nazwisko": 5913,
      "▁odgad": 5914,
      "▁Wol": 5915,
      "▁okrzy": 5916,
      "▁życia.": 5917,
      "▁robot": 5918,
      "▁ich,": 5919,
      "arów": 5920,
      "▁własną": 5921,
      "▁„K": 5922,
      "▁sprawie": 5923,
      "▁arcy": 5924,
      "▁fałszy": 5925,
      "▁Bądź": 5926,
      "▁leżał": 5927,
      "▁postanowił": 5928,
      "▁Chci": 5929,
      "o.": 5930,
      "ne.\n": 5931,
      "chów": 5932,
      "▁Tur": 5933,
      "▁Mimo": 5934,
      "▁trą": 5935,
      "▁poszła": 5936,
      "▁słuchał": 5937,
      "▁dostać": 5938,
      "wala": 5939,
      "▁nocy,": 5940,
      "str": 5941,
      "no-": 5942,
      "▁Dziś": 5943,
      "▁krwią": 5944,
      "▁siero": 5945,
      "▁zmie": 5946,
      "skim,": 5947,
      "ina": 5948,
      "▁złam": 5949,
      "dak": 5950,
      "Lu": 5951,
      "▁Boga,": 5952,
      "▁poprzedni": 5953,
      "▁mianowi": 5954,
      "▁chleba": 5955,
      "ącą": 5956,
      "▁Józef": 5957,
      "▁zauważył": 5958,
      "dów,": 5959,
      "▁ster": 5960,
      "▁morza": 5961,
      "kam": 5962,
      "▁spa": 5963,
      "▁twoją": 5964,
      "jał": 5965,
      "▁unik": 5966,
      "czych": 5967,
      "▁zabr": 5968,
      "▁zamieni": 5969,
      "▁żonę": 5970,
      "▁Dru": 5971,
      "▁baron": 5972,
      "rygi": 5973,
      "▁Raz": 5974,
      "słani": 5975,
      "▁równo": 5976,
      "▁Zygmu": 5977,
      "·\n": 5978,
      "d.": 5979,
      "sa.": 5980,
      "▁rzekł,": 5981,
      "czerp": 5982,
      "anych,": 5983,
      "▁trzymał": 5984,
      "cza,": 5985,
      "▁wrażenie": 5986,
      "i.\n": 5987,
      "▁powietrzu": 5988,
      "▁ludziom": 5989,
      "▁tłuma": 5990,
      "▁stare": 5991,
      "▁Zat": 5992,
      "▁swemi": 5993,
      "▁wypowie": 5994,
      "▁bior": 5995,
      "▁wpływ": 5996,
      "▁bierze": 5997,
      "▁dowci": 5998,
      "▁Kry": 5999,
      "▁miejscu,": 6000,
      "▁okien": 6001,
      "▁zdoła": 6002,
      "▁wiesz,": 6003,
      "▁napełni": 6004,
      "▁kierunku": 6005,
      "Roz": 6006,
      "▁północ": 6007,
      "▁sercem": 6008,
      "▁tysiące": 6009,
      "▁indy": 6010,
      "prasz": 6011,
      "mość": 6012,
      "▁charakte": 6013,
      "▁wojewo": 6014,
      "kształ": 6015,
      "rąż": 6016,
      "ują": 6017,
      "[2]": 6018,
      "▁przebieg": 6019,
      "▁Zach": 6020,
      "krę": 6021,
      "▁należało": 6022,
      "▁Jakie": 6023,
      "szczęśli": 6024,
      "tro": 6025,
      "▁niesłych": 6026,
      "▁Mę": 6027,
      "▁wnę": 6028,
      "▁błą": 6029,
      "ckiej": 6030,
      "▁wysłu": 6031,
      "▁San": 6032,
      "▁III": 6033,
      "▁powrócił": 6034,
      "\nA": 6035,
      "anaście": 6036,
      "▁cześć": 6037,
      "▁dobrodziej": 6038,
      "og": 6039,
      "czki,": 6040,
      "dłuż": 6041,
      "▁długo,": 6042,
      "▁szklan": 6043,
      "▁twej": 6044,
      "▁osła": 6045,
      "▁ule": 6046,
      "▁twarzą": 6047,
      "▁figu": 6048,
      "▁usiadł": 6049,
      "▁dowód": 6050,
      "▁Tat": 6051,
      "żyły": 6052,
      "▁Chciał": 6053,
      "▁[9": 6054,
      "tana": 6055,
      "▁Nat": 6056,
      "kół": 6057,
      "ódł": 6058,
      "▁owej": 6059,
      "▁trosk": 6060,
      "▁spełni": 6061,
      "bię": 6062,
      "wane": 6063,
      "▁kuzy": 6064,
      "aniem,": 6065,
      "nicy,": 6066,
      "▁„A": 6067,
      "▁uni": 6068,
      "▁pamiąt": 6069,
      "sami": 6070,
      "dnik": 6071,
      "wój": 6072,
      "▁fur": 6073,
      "pę": 6074,
      "fek": 6075,
      "▁zastęp": 6076,
      "▁Mag": 6077,
      "ców.": 6078,
      "▁Jana": 6079,
      "wła": 6080,
      "▁zabaw": 6081,
      "▁olbrzymie": 6082,
      "lami": 6083,
      "▁he": 6084,
      "▁podnosi": 6085,
      "▁oddać": 6086,
      "▁patrzył": 6087,
      "▁chwilą": 6088,
      "bla": 6089,
      "▁kwiaty": 6090,
      "▁Gi": 6091,
      "▁przyg": 6092,
      "▁znajdował": 6093,
      "▁Rozu": 6094,
      "▁minut": 6095,
      "ącego": 6096,
      "▁Juli": 6097,
      "▁dot": 6098,
      "kuje": 6099,
      "XX": 6100,
      "czy.": 6101,
      "▁drzewo": 6102,
      "▁zarówno": 6103,
      "dali": 6104,
      "▁czytel": 6105,
      "▁Gre": 6106,
      "▁straż": 6107,
      "śladow": 6108,
      "▁ura": 6109,
      "▁każdą": 6110,
      "resztą,": 6111,
      "▁sposób,": 6112,
      "ędy": 6113,
      "000": 6114,
      "▁osie": 6115,
      "▁znu": 6116,
      "dami": 6117,
      "▁tylu": 6118,
      "▁sos": 6119,
      "chyl": 6120,
      "▁far": 6121,
      "▁mary": 6122,
      "▁niepew": 6123,
      "rzone": 6124,
      "▁skrę": 6125,
      "anemi": 6126,
      "▁poj": 6127,
      "▁brzmi": 6128,
      "wól": 6129,
      "▁Boże!": 6130,
      ".\nM": 6131,
      "▁śli": 6132,
      "▁plu": 6133,
      "▁ład": 6134,
      "ono,": 6135,
      "▁zdrowie": 6136,
      "▁wpadł": 6137,
      "▁nazajutrz": 6138,
      "▁odmówi": 6139,
      "▁szczu": 6140,
      "▁Karol": 6141,
      "▁dozna": 6142,
      "▁oże": 6143,
      "▁pierwszych": 6144,
      "▁myślą": 6145,
      "▁oddał": 6146,
      "▁prowin": 6147,
      "▁Pamię": 6148,
      "▁przyst": 6149,
      "▁gospody": 6150,
      "szą,": 6151,
      "▁powtórzył": 6152,
      "▁ślub": 6153,
      "▁probo": 6154,
      "\nB": 6155,
      "▁nast": 6156,
      "▁dnia,": 6157,
      "▁wybr": 6158,
      "▁dziewczyna": 6159,
      "ności.\n": 6160,
      "▁\nZ": 6161,
      "▁fra": 6162,
      "IAŁ": 6163,
      "krzy": 6164,
      "▁\nS": 6165,
      "trzeb": 6166,
      "▁orze": 6167,
      "▁Dobrze": 6168,
      "▁źre": 6169,
      "▁d’": 6170,
      "▁dym": 6171,
      "▁wstręt": 6172,
      "▁usi": 6173,
      "pie,": 6174,
      "▁zaczą": 6175,
      "szki": 6176,
      "▁małżon": 6177,
      "żej,": 6178,
      "stwi": 6179,
      "▁chat": 6180,
      "śpie": 6181,
      "gor": 6182,
      "▁bym": 6183,
      "▁Aleks": 6184,
      "▁dawnych": 6185,
      "ślił": 6186,
      "▁wyraźnie": 6187,
      "▁mówił,": 6188,
      "▁przod": 6189,
      "▁naczel": 6190,
      "▁tale": 6191,
      "▁rośli": 6192,
      "czała": 6193,
      "▁odgło": 6194,
      "pospoli": 6195,
      "▁cesa": 6196,
      "▁pożąd": 6197,
      "▁mniem": 6198,
      "sar": 6199,
      "▁woda": 6200,
      "▁Sze": 6201,
      "▁sądzi": 6202,
      "▁drg": 6203,
      "▁tygodni": 6204,
      "▁wskazu": 6205,
      "łowi": 6206,
      "▁et": 6207,
      "szły": 6208,
      "▁jednakże": 6209,
      "▁słucha": 6210,
      "▁stanowczo": 6211,
      "▁chciałem": 6212,
      "▁Dopiero": 6213,
      "▁jednost": 6214,
      "▁pary": 6215,
      "▁zostało": 6216,
      "▁twoj": 6217,
      "▁okazy": 6218,
      "▁sekre": 6219,
      "ję.": 6220,
      "chnął": 6221,
      "▁bał": 6222,
      "łem.": 6223,
      "▁szła": 6224,
      "t-": 6225,
      "▁złu": 6226,
      "▁przeszedł": 6227,
      "chu.": 6228,
      "▁zę": 6229,
      "▁kościo": 6230,
      "▁Tro": 6231,
      "▁podsta": 6232,
      "▁najpięk": 6233,
      "·\n·\n": 6234,
      "▁ojczy": 6235,
      "ham": 6236,
      "▁zwyk": 6237,
      "sel": 6238,
      "tarza": 6239,
      "▁rękami": 6240,
      "▁zapomnie": 6241,
      "▁pen": 6242,
      "▁dostał": 6243,
      "▁gre": 6244,
      "▁mych": 6245,
      "▁ruszy": 6246,
      "▁dwaj": 6247,
      "▁odbi": 6248,
      "▁pij": 6249,
      "rali": 6250,
      "▁nóż": 6251,
      "▁najwię": 6252,
      "ąca": 6253,
      "▁tur": 6254,
      "▁powiada": 6255,
      "▁wych": 6256,
      "▁Mil": 6257,
      "▁zapach": 6258,
      "▁boles": 6259,
      "▁wypo": 6260,
      "▁umarł": 6261,
      "▁zęb": 6262,
      "▁poprostu": 6263,
      "▁Woj": 6264,
      "SZ": 6265,
      "▁lor": 6266,
      "▁wytr": 6267,
      "anin": 6268,
      "▁albowiem": 6269,
      "kal": 6270,
      "▁duszy,": 6271,
      "▁spuści": 6272,
      "▁walki": 6273,
      "▁poran": 6274,
      "▁zrozumiał": 6275,
      "nny": 6276,
      "▁zacie": 6277,
      "uszę": 6278,
      "szone": 6279,
      "▁wóz": 6280,
      "▁drewni": 6281,
      "▁przeszłości": 6282,
      "▁schwy": 6283,
      "▁roman": 6284,
      "▁przenik": 6285,
      "gieł": 6286,
      "▁obyczaj": 6287,
      "▁jednocześnie": 6288,
      "▁biskup": 6289,
      "▁20": 6290,
      "▁rzeczą": 6291,
      "▁wybi": 6292,
      "▁gromad": 6293,
      "▁Francu": 6294,
      "▁muszą": 6295,
      "kładnie": 6296,
      "▁dali": 6297,
      "▁ściany": 6298,
      "▁ustach": 6299,
      "tedy,": 6300,
      "▁naród": 6301,
      "▁przedtem": 6302,
      "wski": 6303,
      "▁jakiem": 6304,
      "▁powinna": 6305,
      "▁znacznie": 6306,
      "ury": 6307,
      "▁doty": 6308,
      "▁\nK": 6309,
      "anę": 6310,
      "ałym": 6311,
      "▁samych": 6312,
      "▁Wal": 6313,
      "▁liście": 6314,
      "▁maszy": 6315,
      "▁trup": 6316,
      "▁poły": 6317,
      "▁mod": 6318,
      "▁opuszcz": 6319,
      "▁Pet": 6320,
      "▁dobrą": 6321,
      "▁nako": 6322,
      "▁Jaki": 6323,
      "▁pewnym": 6324,
      "DZIAŁ": 6325,
      "nastu": 6326,
      "▁Mak": 6327,
      "▁padł": 6328,
      "▁straszli": 6329,
      "▁szczegół": 6330,
      "▁powy": 6331,
      "▁om": 6332,
      "▁abyś": 6333,
      "▁kawale": 6334,
      "▁wytwo": 6335,
      "▁ciężkie": 6336,
      "pia": 6337,
      "syła": 6338,
      "▁rach": 6339,
      "skiego.": 6340,
      "iła": 6341,
      "tli": 6342,
      "▁potwier": 6343,
      "▁ciągnął": 6344,
      "▁Ile": 6345,
      "▁chcieli": 6346,
      "sobie": 6347,
      "▁uwagi": 6348,
      "▁morder": 6349,
      "▁temu,": 6350,
      "▁wojny": 6351,
      "▁młoda": 6352,
      "▁otwie": 6353,
      "▁jam": 6354,
      "▁wład": 6355,
      "rego": 6356,
      "▁broń": 6357,
      "cie!": 6358,
      "▁zosta": 6359,
      "dź,": 6360,
      "▁lasu": 6361,
      "▁ryb": 6362,
      "▁miasta,": 6363,
      "▁czterech": 6364,
      "glądał": 6365,
      "▁znajomy": 6366,
      "▁poka": 6367,
      "czenia,": 6368,
      "▁utrzym": 6369,
      "▁rozd": 6370,
      "▁życz": 6371,
      "▁grzbie": 6372,
      "▁okręt": 6373,
      "▁rzadko": 6374,
      ",\nBy": 6375,
      "▁jedwa": 6376,
      "▁powiem": 6377,
      "▁miejsca,": 6378,
      "▁osa": 6379,
      "▁wyraż": 6380,
      "▁wesoło": 6381,
      "ory": 6382,
      "▁łód": 6383,
      "▁Jad": 6384,
      "▁prawi": 6385,
      "▁wstęp": 6386,
      "▁rana": 6387,
      "▁poety": 6388,
      "\ni": 6389,
      "▁zbiera": 6390,
      "ZDZIAŁ": 6391,
      "▁budow": 6392,
      "▁cywi": 6393,
      "▁Wkrótce": 6394,
      "▁gan": 6395,
      "▁podwó": 6396,
      "skoczył": 6397,
      "▁nik": 6398,
      "esor": 6399,
      "▁ukło": 6400,
      "nięcie": 6401,
      "▁podobny": 6402,
      "gla": 6403,
      "▁odz": 6404,
      "▁koszu": 6405,
      "▁zwło": 6406,
      "▁policz": 6407,
      "▁gnia": 6408,
      "▁opat": 6409,
      "▁rycer": 6410,
      "kanie": 6411,
      "▁∗": 6412,
      "ńskiego,": 6413,
      "▁wzrusze": 6414,
      "▁wogóle": 6415,
      "▁dawał": 6416,
      "cki,": 6417,
      "▁sej": 6418,
      "▁pytał": 6419,
      "▁żał": 6420,
      "▁strony,": 6421,
      "▁brzeg": 6422,
      "▁religij": 6423,
      "▁niepraw": 6424,
      "▁zabra": 6425,
      "▁postanowie": 6426,
      "zupeł": 6427,
      "pły": 6428,
      "▁ab": 6429,
      "▁wyw": 6430,
      "bert": 6431,
      "▁rozsąd": 6432,
      "▁bynajmniej": 6433,
      "ome": 6434,
      "▁rodziny": 6435,
      "tnej": 6436,
      "▁ste": 6437,
      "cją": 6438,
      "▁kocham": 6439,
      "▁sztuki": 6440,
      "▁wymy": 6441,
      "▁wiod": 6442,
      "cyą": 6443,
      "▁złośli": 6444,
      "▁mówiąc,": 6445,
      "▁Aleksand": 6446,
      "gdyby": 6447,
      "▁milczeniu": 6448,
      "▁Powiedz": 6449,
      "rus": 6450,
      "▁córki": 6451,
      "nii": 6452,
      "grze": 6453,
      "ową,": 6454,
      "▁nerw": 6455,
      "▁przys": 6456,
      "cji.": 6457,
      "▁następując": 6458,
      "▁chcą": 6459,
      "▁swoi": 6460,
      "owano": 6461,
      "▁pr": 6462,
      "▁szczegó": 6463,
      "▁tło": 6464,
      "▁miar": 6465,
      "▁korzyst": 6466,
      "fry": 6467,
      "▁dół": 6468,
      "▁dniu": 6469,
      "godnie": 6470,
      "gier": 6471,
      "▁np.": 6472,
      "▁wiedzieć,": 6473,
      "▁małą": 6474,
      "▁wzy": 6475,
      "▁Któż": 6476,
      "▁niedźwie": 6477,
      "▁wymówi": 6478,
      "ON": 6479,
      "▁płó": 6480,
      "▁uzn": 6481,
      "▁doskon": 6482,
      "▁zawa": 6483,
      "▁krok": 6484,
      "szko": 6485,
      "▁rękach": 6486,
      "▁strzał": 6487,
      "czono": 6488,
      "▁mądro": 6489,
      "eusz": 6490,
      "▁wle": 6491,
      "▁rozwo": 6492,
      "▁pios": 6493,
      "▁zwycięz": 6494,
      "▁wieś": 6495,
      "ie,": 6496,
      "nowi": 6497,
      "sława": 6498,
      "▁Dlatego": 6499,
      "lona": 6500,
      "▁Zaraz": 6501,
      "▁pospoli": 6502,
      "▁druga": 6503,
      "▁prawdopodob": 6504,
      "▁rych": 6505,
      "▁porusz": 6506,
      "kując": 6507,
      "▁obaj": 6508,
      "▁który,": 6509,
      "▁świecie,": 6510,
      "▁namy": 6511,
      "▁pola": 6512,
      "▁przyjął": 6513,
      "▁położył": 6514,
      "▁mnóstwo": 6515,
      "▁spojrzenie": 6516,
      "szy.": 6517,
      "▁Amery": 6518,
      "▁przyjaź": 6519,
      "▁przemawi": 6520,
      "dzona": 6521,
      "▁rozpoczę": 6522,
      "jon": 6523,
      "łe,": 6524,
      "▁pyta": 6525,
      "żył,": 6526,
      ".\n\nI": 6527,
      "▁Matka": 6528,
      "▁oboje": 6529,
      "-go": 6530,
      "▁pomyślał": 6531,
      "p,": 6532,
      "▁ucze": 6533,
      "sz?\n": 6534,
      "▁Bal": 6535,
      "▁staroży": 6536,
      "▁łzami": 6537,
      "▁trzyma": 6538,
      ":\n\n\n": 6539,
      "nione": 6540,
      "▁myśleć": 6541,
      "Wy": 6542,
      "▁pięciu": 6543,
      "▁pieszczo": 6544,
      "▁kwad": 6545,
      "ani,": 6546,
      "▁Zu": 6547,
      "▁proje": 6548,
      "▁okno": 6549,
      "▁szab": 6550,
      "▁nową": 6551,
      "▁ścież": 6552,
      "▁Panna": 6553,
      "rów,": 6554,
      "▁Tru": 6555,
      "▁pierwo": 6556,
      "śniej": 6557,
      "wie.": 6558,
      "ska.": 6559,
      "▁matki,": 6560,
      "▁towarzystwie": 6561,
      "▁Anie": 6562,
      "▁byłaby": 6563,
      "▁słuchać": 6564,
      "▁naby": 6565,
      "rze.\n": 6566,
      ":\n\n": 6567,
      "paty": 6568,
      "▁ruszył": 6569,
      "▁Zale": 6570,
      "▁płaszcz": 6571,
      "leni": 6572,
      "▁miarę": 6573,
      "▁zep": 6574,
      "cye": 6575,
      "▁pamięć": 6576,
      "▁Wale": 6577,
      "▁salo": 6578,
      "▁wiej": 6579,
      "▁złota": 6580,
      "▁jechać": 6581,
      "▁słab": 6582,
      "nu,": 6583,
      "▁doktór": 6584,
      "▁rzym": 6585,
      "▁\nO": 6586,
      "▁przywo": 6587,
      "▁ogło": 6588,
      "▁ziemię,": 6589,
      "▁pierś": 6590,
      "▁żoną": 6591,
      "son": 6592,
      "▁uśmiechnął": 6593,
      "▁wrze": 6594,
      "▁radość": 6595,
      "▁nasi": 6596,
      "▁Cez": 6597,
      "▁brać": 6598,
      "▁pobu": 6599,
      "▁najbliż": 6600,
      "▁zrę": 6601,
      "▁własnego": 6602,
      "▁płacz": 6603,
      "▁kieszeni": 6604,
      "telu": 6605,
      "▁piękny": 6606,
      "▁Stra": 6607,
      "dnie,": 6608,
      "dziej,": 6609,
      "kowe": 6610,
      "▁cokolwiek": 6611,
      "▁„D": 6612,
      "▁dram": 6613,
      "try": 6614,
      "tru": 6615,
      "▁Por": 6616,
      "▁niepokoj": 6617,
      "▁Teo": 6618,
      "nie!": 6619,
      "▁ław": 6620,
      "▁całkowi": 6621,
      "unek": 6622,
      "rędzej": 6623,
      "rzeniem": 6624,
      "spek": 6625,
      "▁trum": 6626,
      "tenczas": 6627,
      "▁zapal": 6628,
      "▁[11": 6629,
      "▁jakoby": 6630,
      "▁wody,": 6631,
      "▁dyrek": 6632,
      "▁odrze": 6633,
      "owy.": 6634,
      ".\n\nS": 6635,
      "▁wina": 6636,
      "▁spotka": 6637,
      "▁Można": 6638,
      "▁ju": 6639,
      "▁córka": 6640,
      "▁pieśń": 6641,
      "▁latar": 6642,
      "▁wzdłuż": 6643,
      "▁uczuć": 6644,
      "▁przyrze": 6645,
      "▁błyskawi": 6646,
      "▁patrzeć": 6647,
      "cel": 6648,
      "▁rozległ": 6649,
      "▁energi": 6650,
      "▁chmur": 6651,
      "ce.\n": 6652,
      "▁chrześcija": 6653,
      "▁narzę": 6654,
      "▁zawar": 6655,
      "ścił": 6656,
      "▁nara": 6657,
      "▁pracy,": 6658,
      "▁odparła": 6659,
      "▁przeszka": 6660,
      "ler": 6661,
      "▁poda": 6662,
      "▁matery": 6663,
      "▁dodat": 6664,
      "ér": 6665,
      "▁dokład": 6666,
      "▁Kobie": 6667,
      ".\n\nO": 6668,
      "▁godzina": 6669,
      "▁malu": 6670,
      "▁pewno": 6671,
      "▁środku": 6672,
      "py,": 6673,
      "ątpli": 6674,
      "tach,": 6675,
      "▁zao": 6676,
      "▁humo": 6677,
      "▁przeję": 6678,
      "▁zobaczyć": 6679,
      "hoć": 6680,
      "▁Szu": 6681,
      "▁regu": 6682,
      "▁wiecznie": 6683,
      "łąk": 6684,
      "▁Polski": 6685,
      "▁większą": 6686,
      "chą": 6687,
      "▁zez": 6688,
      "rzucił": 6689,
      "▁Włady": 6690,
      "▁ślady": 6691,
      "▁nader": 6692,
      "▁czemś": 6693,
      "win": 6694,
      "▁przechadz": 6695,
      "▁dwoma": 6696,
      "▁—\n\n": 6697,
      ".“": 6698,
      "▁A!": 6699,
      "▁powierzch": 6700,
      "▁przewodni": 6701,
      "▁śmiech": 6702,
      "▁udało": 6703,
      "▁przykła": 6704,
      "▁zakry": 6705,
      "▁ulu": 6706,
      "▁wyru": 6707,
      "▁było.": 6708,
      "▁Masz": 6709,
      "rwa": 6710,
      "▁dokładnie": 6711,
      "▁śmiejąc": 6712,
      "▁Koch": 6713,
      "▁przysię": 6714,
      "▁ostrze": 6715,
      "▁czekać": 6716,
      "śmiertel": 6717,
      "reszcie,": 6718,
      "▁Wówczas": 6719,
      "▁ziar": 6720,
      "?“": 6721,
      "▁Ostat": 6722,
      "niki": 6723,
      "▁mianowicie": 6724,
      "łos": 6725,
      "▁skru": 6726,
      "liwość": 6727,
      "▁cmen": 6728,
      "ciło": 6729,
      "▁sprzy": 6730,
      "▁zmysł": 6731,
      "pozy": 6732,
      "▁Grze": 6733,
      "pią": 6734,
      "kru": 6735,
      "▁Y": 6736,
      "▁Nazajutrz": 6737,
      "er,": 6738,
      "▁miejsce,": 6739,
      "▁głowy,": 6740,
      "▁Kil": 6741,
      "▁faj": 6742,
      "dniego": 6743,
      "ator": 6744,
      "▁Hele": 6745,
      "▁Zapew": 6746,
      "k.\n": 6747,
      "pt": 6748,
      "▁nadziei": 6749,
      "▁bój": 6750,
      "▁duży": 6751,
      "▁mocy": 6752,
      "▁het": 6753,
      "▁Ow": 6754,
      "▁taj": 6755,
      "KA": 6756,
      "▁có": 6757,
      "▁piękną": 6758,
      "▁potra": 6759,
      "patrz": 6760,
      "▁cisza": 6761,
      "▁buj": 6762,
      "▁każe": 6763,
      "▁łaski": 6764,
      "LE": 6765,
      "ve": 6766,
      "kazując": 6767,
      "▁odpra": 6768,
      "▁bud": 6769,
      "▁wznosi": 6770,
      "czoną": 6771,
      "▁stosow": 6772,
      "lne": 6773,
      "ńską": 6774,
      "zów": 6775,
      "ąc,": 6776,
      "▁opieku": 6777,
      "▁przyjaciela": 6778,
      "vi": 6779,
      "łąd": 6780,
      "▁komp": 6781,
      "▁znajomo": 6782,
      "▁zapomniał": 6783,
      "▁groma": 6784,
      "▁wtedy,": 6785,
      "▁drż": 6786,
      "▁poszuki": 6787,
      "▁świeżo": 6788,
      "wą,": 6789,
      "owi.\n": 6790,
      "ktor": 6791,
      "▁ubogi": 6792,
      "▁starał": 6793,
      "▁oświet": 6794,
      "czyłem": 6795,
      "nicę": 6796,
      "▁najd": 6797,
      "”,": 6798,
      "▁szele": 6799,
      "▁góry,": 6800,
      "▁stali": 6801,
      ";\nA": 6802,
      "▁rozmowę": 6803,
      "kich,": 6804,
      "ban": 6805,
      "rzymał": 6806,
      "▁wybrze": 6807,
      "pać": 6808,
      "▁Har": 6809,
      "▁siłę": 6810,
      ".\nD": 6811,
      "▁zacze": 6812,
      "▁Michał": 6813,
      "dziesię": 6814,
      ".\n\nK": 6815,
      "▁ludźmi": 6816,
      "gorz": 6817,
      "dom": 6818,
      "▁samem": 6819,
      "▁marmu": 6820,
      "▁gałęzi": 6821,
      "▁ztąd": 6822,
      "▁d.": 6823,
      "▁kosztow": 6824,
      "▁koła": 6825,
      "alił": 6826,
      "łuma": 6827,
      "▁ostatniej": 6828,
      "▁dowiedział": 6829,
      "u!": 6830,
      "stów": 6831,
      "▁doń": 6832,
      "▁miłości,": 6833,
      "▁puszcz": 6834,
      "▁nabo": 6835,
      "ciele": 6836,
      "▁zostały": 6837,
      "▁doktor": 6838,
      "▁Człowiek": 6839,
      "liż": 6840,
      "▁mruknął": 6841,
      "▁Sło": 6842,
      "▁mówią": 6843,
      "cia.": 6844,
      "▁[12": 6845,
      "aniec": 6846,
      "wał.": 6847,
      "▁Niema": 6848,
      "▁czynić": 6849,
      "ściem": 6850,
      "▁marszał": 6851,
      "▁Rzym": 6852,
      "▁można,": 6853,
      "rast": 6854,
      "▁Czer": 6855,
      "▁Wido": 6856,
      "ek.\n": 6857,
      "gnał": 6858,
      "aj,": 6859,
      "▁lekar": 6860,
      "▁swemu": 6861,
      "▁męcze": 6862,
      "nku,": 6863,
      "▁pamięt": 6864,
      "ca.\n": 6865,
      "pienie": 6866,
      "▁rosyj": 6867,
      "▁zaczęły": 6868,
      "▁głosy": 6869,
      "▁Bę": 6870,
      "liśmy,": 6871,
      "rując": 6872,
      "▁chi": 6873,
      "▁nieszczęs": 6874,
      "▁Kla": 6875,
      "▁staj": 6876,
      "▁Zn": 6877,
      "▁ośmie": 6878,
      "▁zwró": 6879,
      "▁język": 6880,
      "▁Takie": 6881,
      "▁blisko": 6882,
      "▁[10": 6883,
      "ziem": 6884,
      "▁sub": 6885,
      "zwoi": 6886,
      "▁utrzymy": 6887,
      "wość,": 6888,
      "▁pewnej": 6889,
      "▁wyje": 6890,
      "▁„Nie": 6891,
      "▁wyrazem": 6892,
      "▁oddział": 6893,
      "▁warto": 6894,
      "▁sena": 6895,
      "▁człon": 6896,
      "▁innej": 6897,
      "▁wołał": 6898,
      "▁usposobie": 6899,
      "▁niego.": 6900,
      "owaniu": 6901,
      "▁tań": 6902,
      "ęd": 6903,
      "▁lada": 6904,
      "▁dworze": 6905,
      "cznik": 6906,
      "czonego": 6907,
      "▁forte": 6908,
      "Mo": 6909,
      "LI": 6910,
      "zem": 6911,
      "▁rewolu": 6912,
      "▁życiem": 6913,
      "▁wolę": 6914,
      "▁Właśnie": 6915,
      "▁pragnął": 6916,
      "▁rzeki": 6917,
      "▁nauczyciel": 6918,
      "pot": 6919,
      "▁krokiem": 6920,
      "▁zatru": 6921,
      "▁Przyby": 6922,
      "▁jakgdyby": 6923,
      "▁hań": 6924,
      "▁odtąd": 6925,
      "▁starych": 6926,
      "cent": 6927,
      "▁złote": 6928,
      "▁wygląda": 6929,
      "▁słyszy": 6930,
      "▁poet": 6931,
      "▁niemoż": 6932,
      "▁powietrz": 6933,
      "▁dzieła": 6934,
      "▁pójść": 6935,
      "śnię": 6936,
      "▁ter": 6937,
      "laty": 6938,
      "▁rozkazy": 6939,
      "▁prawdy": 6940,
      "▁krótko": 6941,
      "▁śmiechem": 6942,
      "kować": 6943,
      "liście": 6944,
      "▁nie!": 6945,
      "▁ramionami": 6946,
      "▁okoliczności": 6947,
      "▁Paweł": 6948,
      "▁kochać": 6949,
      "▁żebym": 6950,
      "▁wyżej": 6951,
      "▁ciężar": 6952,
      "▁rozwiąz": 6953,
      "mij": 6954,
      "▁panów": 6955,
      "▁fol": 6956,
      "▁zapytała": 6957,
      "széj": 6958,
      "▁bardzo,": 6959,
      "▁wyjść": 6960,
      "▁zewnętrz": 6961,
      "▁przeważ": 6962,
      "▁wykon": 6963,
      "▁Dro": 6964,
      "czej,": 6965,
      "zwyczaj": 6966,
      "▁niewiel": 6967,
      "▁szereg": 6968,
      "niku": 6969,
      "▁szepnęła": 6970,
      "▁Oczy": 6971,
      ".\nZ": 6972,
      "▁Ludzie": 6973,
      "ował.": 6974,
      "▁sięg": 6975,
      "▁Jakób": 6976,
      "▁podobno": 6977,
      "▁kryty": 6978,
      "lazł": 6979,
      "▁Aż": 6980,
      "▁Syl": 6981,
      "▁proro": 6982,
      "▁żołnierz": 6983,
      "▁rzuciła": 6984,
      "skutek": 6985,
      "▁nato": 6986,
      "nęła,": 6987,
      "leka": 6988,
      "tua": 6989,
      "▁skro": 6990,
      "▁komna": 6991,
      "▁niechaj": 6992,
      "▁oczami": 6993,
      "▁Euro": 6994,
      "aną,": 6995,
      "▁załat": 6996,
      "▁Były": 6997,
      "▁ponie": 6998,
      "▁szka": 6999,
      "Ży": 7000,
      "▁dziecko,": 7001,
      "▁Chrystus": 7002,
      "▁rol": 7003,
      "▁Łu": 7004,
      "noszą": 7005,
      "▁przypomi": 7006,
      "mia": 7007,
      "▁posęp": 7008,
      "▁pochodzi": 7009,
      "▁przysłu": 7010,
      "▁współczu": 7011,
      "▁wieczora": 7012,
      "▁drę": 7013,
      "▁młodych": 7014,
      "inte": 7015,
      "▁skoń": 7016,
      "▁mart": 7017,
      ",\nPo": 7018,
      "nemi,": 7019,
      "▁ogrod": 7020,
      "▁wzgar": 7021,
      "▁dodała": 7022,
      "▁pogrzeb": 7023,
      "wen": 7024,
      "▁usłyszał": 7025,
      "hu": 7026,
      "▁dniach": 7027,
      ",\nLecz": 7028,
      "▁państwo": 7029,
      "▁chodził": 7030,
      "▁poci": 7031,
      "▁listy": 7032,
      "rez": 7033,
      "▁wiecze": 7034,
      "▁Zoba": 7035,
      "▁skał": 7036,
      "ról": 7037,
      "▁poczęła": 7038,
      "▁doktora": 7039,
      "▁brwi": 7040,
      "▁głąb": 7041,
      "maty": 7042,
      "log": 7043,
      "biony": 7044,
      "▁ukazał": 7045,
      "▁starusz": 7046,
      "▁latach": 7047,
      "▁zadr": 7048,
      "▁zważ": 7049,
      "▁wysu": 7050,
      "▁Dziew": 7051,
      "graf": 7052,
      "▁hrabiego": 7053,
      "stań": 7054,
      "▁nauki": 7055,
      "gól": 7056,
      "▁kraju,": 7057,
      "▁nakoniec": 7058,
      "jum": 7059,
      "▁cudzo": 7060,
      "▁ruchem": 7061,
      "▁Mnie": 7062,
      "wieniem": 7063,
      "▁złoto": 7064,
      "▁aniżeli": 7065,
      "▁stanu": 7066,
      "stwa.": 7067,
      "sam": 7068,
      "▁rozb": 7069,
      "wią": 7070,
      "wach": 7071,
      "▁białych": 7072,
      "▁księżyc": 7073,
      "▁rachu": 7074,
      "▁pięt": 7075,
      "▁pokor": 7076,
      "▁gdym": 7077,
      "▁wzięła": 7078,
      "▁kolei": 7079,
      "rzymu": 7080,
      "▁chory": 7081,
      "▁Adam": 7082,
      "▁Ben": 7083,
      "▁Słuchaj": 7084,
      "▁młode": 7085,
      "▁baro": 7086,
      "▁silnie": 7087,
      "wać.": 7088,
      "dźcie": 7089,
      "▁stół": 7090,
      "pon": 7091,
      "▁zaczęli": 7092,
      "▁podar": 7093,
      "wała,": 7094,
      "▁pogod": 7095,
      "▁zwracając": 7096,
      "święt": 7097,
      "szych,": 7098,
      "▁podał": 7099,
      "jaś": 7100,
      "▁powiedział,": 7101,
      "▁roboty": 7102,
      "▁lesie": 7103,
      "▁duchu": 7104,
      "▁serce,": 7105,
      "ony,": 7106,
      "▁Książę": 7107,
      "lak": 7108,
      "ane.": 7109,
      "▁nai": 7110,
      "▁twoim": 7111,
      "gent": 7112,
      "’a": 7113,
      "tu.\n": 7114,
      "▁je,": 7115,
      "▁Wz": 7116,
      "▁też,": 7117,
      "Le": 7118,
      "czące": 7119,
      "▁Chi": 7120,
      "▁dziwa": 7121,
      "dzając": 7122,
      "jącą": 7123,
      "▁czuje": 7124,
      "▁gwiazd": 7125,
      "▁zmiesz": 7126,
      "▁otch": 7127,
      "▁niewidzi": 7128,
      "▁Zie": 7129,
      "▁szam": 7130,
      "▁boku": 7131,
      "rzykład": 7132,
      "▁lewo": 7133,
      "▁dwór": 7134,
      "▁małego": 7135,
      "▁Hol": 7136,
      "ga.": 7137,
      "▁gmach": 7138,
      "▁uto": 7139,
      "CZ": 7140,
      "▁drogie": 7141,
      "kali": 7142,
      "aż": 7143,
      "▁posła": 7144,
      "▁Jej": 7145,
      "wiła": 7146,
      "▁ziemi.": 7147,
      "▁dostoj": 7148,
      "▁niepoko": 7149,
      "▁władzy": 7150,
      "▁Czę": 7151,
      "▁kawałek": 7152,
      "▁kaj": 7153,
      "▁leś": 7154,
      "▁piekie": 7155,
      "▁Czego": 7156,
      "▁chaty": 7157,
      "▁względu": 7158,
      "anki": 7159,
      "▁brzyd": 7160,
      "▁nieprzyjaciel": 7161,
      "▁obywatel": 7162,
      "▁ulicę": 7163,
      "▁mistrz": 7164,
      "▁uszy": 7165,
      "▁Pięk": 7166,
      "▁szum": 7167,
      "▁Zak": 7168,
      "▁Szczę": 7169,
      "▁górze": 7170,
      "▁wyle": 7171,
      "▁przyjść": 7172,
      "▁siedziała": 7173,
      "▁natomiast": 7174,
      "▁ciszy": 7175,
      "▁otrzymał": 7176,
      "▁stracił": 7177,
      "ach.\n": 7178,
      "▁miecz": 7179,
      "eszła": 7180,
      "nowa": 7181,
      "lg": 7182,
      "▁nicz": 7183,
      "nych.\n": 7184,
      "▁zły": 7185,
      "▁mowy": 7186,
      "▁szaf": 7187,
      "▁wybo": 7188,
      "▁cesarz": 7189,
      "▁wiadomości": 7190,
      "▁wodz": 7191,
      "kach.": 7192,
      "▁naprzykład": 7193,
      "▁inteli": 7194,
      "▁gabine": 7195,
      "▁zawsze,": 7196,
      "▁opuścił": 7197,
      "▁czas,": 7198,
      "▁oczywiście": 7199,
      "▁gład": 7200,
      "red": 7201,
      "▁zbieg": 7202,
      "anna": 7203,
      "▁Per": 7204,
      "niały": 7205,
      "onym": 7206,
      "▁widziała": 7207,
      "▁rozpaczy": 7208,
      "▁zręcz": 7209,
      "▁promieni": 7210,
      "▁Obo": 7211,
      "▁usłysz": 7212,
      "▁mły": 7213,
      ",\nR": 7214,
      "Nad": 7215,
      "cach,": 7216,
      "zglę": 7217,
      "▁dowcip": 7218,
      "pisu": 7219,
      "rach,": 7220,
      "▁artysty": 7221,
      "dat": 7222,
      "▁najlepiej": 7223,
      "kiewicz": 7224,
      "▁potom": 7225,
      "▁anioł": 7226,
      "am.": 7227,
      "atarzy": 7228,
      "czaje": 7229,
      "▁posłusz": 7230,
      "▁kochał": 7231,
      "▁zobaczył": 7232,
      "▁obda": 7233,
      "▁jał": 7234,
      "▁święto": 7235,
      "▁dziecka": 7236,
      "tnego": 7237,
      "▁chłopiec": 7238,
      "NI": 7239,
      "owem": 7240,
      "▁podniosła": 7241,
      "▁podzię": 7242,
      "▁wodą": 7243,
      "▁pisze": 7244,
      "▁tle": 7245,
      "▁szli": 7246,
      "▁gospodarz": 7247,
      "▁Jakto": 7248,
      "▁P.": 7249,
      "▁głosu": 7250,
      "▁wpływem": 7251,
      "rzez": 7252,
      "▁własnych": 7253,
      "czek,": 7254,
      "kami.": 7255,
      "nące": 7256,
      "▁lat,": 7257,
      "▁płynie": 7258,
      "▁wisi": 7259,
      "▁potrzeby": 7260,
      "▁popat": 7261,
      "gne": 7262,
      "łożył": 7263,
      "czały": 7264,
      "▁mała": 7265,
      "ego.": 7266,
      "▁czekał": 7267,
      "▁Chłop": 7268,
      "ckim": 7269,
      "pokoj": 7270,
      "▁dostar": 7271,
      "▁uwiel": 7272,
      "▁księdza": 7273,
      "▁nieskończo": 7274,
      "▁nigdzie": 7275,
      "▁czasy": 7276,
      "▁wszystkich,": 7277,
      "▁isk": 7278,
      "▁wypły": 7279,
      "▁tow": 7280,
      "lekt": 7281,
      "▁Andrzej": 7282,
      "▁sypial": 7283,
      "nosić": 7284,
      "▁szczerze": 7285,
      "▁stwier": 7286,
      "▁Ale,": 7287,
      "sz.\n": 7288,
      "▁Panie,": 7289,
      "wne": 7290,
      "▁panien": 7291,
      "▁odzna": 7292,
      "▁Ach!": 7293,
      "▁wyciągnął": 7294,
      "▁nieśmiertel": 7295,
      "....\n": 7296,
      "▁odezwała": 7297,
      "▁wrzas": 7298,
      "▁żadna": 7299,
      "▁kas": 7300,
      "▁męża,": 7301,
      "▁szukał": 7302,
      "▁ks.": 7303,
      "▁spytała": 7304,
      "▁zle": 7305,
      "▁potem,": 7306,
      "▁maleń": 7307,
      "▁Char": 7308,
      "▁porozu": 7309,
      "lie": 7310,
      "waniu": 7311,
      "cła": 7312,
      "rzy.": 7313,
      "twiej": 7314,
      "▁przeklę": 7315,
      "▁rolę": 7316,
      "▁dochodzi": 7317,
      "anka": 7318,
      "▁daléj": 7319,
      "▁przyjąć": 7320,
      "uch": 7321,
      "▁awan": 7322,
      "▁owi": 7323,
      "▁fe": 7324,
      "▁przeszło": 7325,
      "Jed": 7326,
      "Jeśli": 7327,
      "dzeniem": 7328,
      "▁Żad": 7329,
      "▁biedny": 7330,
      "▁zabrał": 7331,
      "zer": 7332,
      "kiem.\n": 7333,
      "rzyli": 7334,
      "▁rys": 7335,
      "▁„Z": 7336,
      "dę.": 7337,
      "kował": 7338,
      "skiemu": 7339,
      "▁prosił": 7340,
      "▁Polsce": 7341,
      "▁ostro": 7342,
      "▁zdawała": 7343,
      "▁odczy": 7344,
      "▁starej": 7345,
      "▁wtrą": 7346,
      "▁Towarzy": 7347,
      "▁pisa": 7348,
      "▁szczęśliwy": 7349,
      "▁złą": 7350,
      "▁spać": 7351,
      "▁filozof": 7352,
      "▁miesięcy": 7353,
      "ków.\n": 7354,
      "!“\n": 7355,
      "lała": 7356,
      "▁śmierci,": 7357,
      "▁Któ": 7358,
      "cona": 7359,
      "▁kot": 7360,
      "▁dzień,": 7361,
      "owym,": 7362,
      "▁przytu": 7363,
      "▁ukra": 7364,
      "▁Podczas": 7365,
      "żona": 7366,
      "▁bada": 7367,
      "czéj": 7368,
      "▁spostrzeg": 7369,
      "▁spotkał": 7370,
      "▁prowadzi": 7371,
      "▁cias": 7372,
      "▁pomag": 7373,
      "▁uła": 7374,
      "▁Muszę": 7375,
      "▁Daj": 7376,
      "▁kłó": 7377,
      "▁oca": 7378,
      "▁Mikoła": 7379,
      "pież": 7380,
      "\nPo": 7381,
      "▁Mów": 7382,
      "▁układ": 7383,
      "▁tydzień": 7384,
      "▁inną": 7385,
      "▁ojcu": 7386,
      "▁wyzy": 7387,
      "▁wojow": 7388,
      "▁sprzeda": 7389,
      "▁chorąg": 7390,
      "▁Ri": 7391,
      "▁klucz": 7392,
      "tecz": 7393,
      "▁Albo": 7394,
      "puszcze": 7395,
      "▁osoby": 7396,
      "▁otu": 7397,
      "▁[13": 7398,
      "▁Cię": 7399,
      "▁osiąg": 7400,
      "uszcza": 7401,
      "▁prote": 7402,
      "dzieli,": 7403,
      "▁Ksią": 7404,
      "▁musieli": 7405,
      "ama": 7406,
      "▁Oczywi": 7407,
      "▁gory": 7408,
      "▁com": 7409,
      "▁słowach": 7410,
      "▁Podob": 7411,
      "anów": 7412,
      "▁żebra": 7413,
      "mienia,": 7414,
      "▁Win": 7415,
      "dziesz": 7416,
      "▁pytanie": 7417,
      "▁stróż": 7418,
      "▁spojrzała": 7419,
      "▁dłoni": 7420,
      "▁pozby": 7421,
      "▁nog": 7422,
      "▁mówić,": 7423,
      "▁świadomo": 7424,
      "▁okrąg": 7425,
      "▁najwy": 7426,
      "▁Par": 7427,
      "▁robił": 7428,
      "▁ukła": 7429,
      "▁resztę": 7430,
      "▁powrotem": 7431,
      "▁Dale": 7432,
      "▁wojska": 7433,
      "▁ślad": 7434,
      "▁kół": 7435,
      "▁myślę": 7436,
      "przód": 7437,
      "▁zapis": 7438,
      "▁znow": 7439,
      "▁krzes": 7440,
      "▁czasach": 7441,
      "▁majątek": 7442,
      "bą,": 7443,
      "stawał": 7444,
      "▁XI": 7445,
      "▁odmawi": 7446,
      "▁niedale": 7447,
      "▁jestem,": 7448,
      "komo": 7449,
      "ącym": 7450,
      "▁dając": 7451,
      "lij": 7452,
      "▁winien": 7453,
      "▁zapas": 7454,
      "▁ary": 7455,
      "▁Car": 7456,
      "▁monar": 7457,
      "▁codzień": 7458,
      "▁ogó": 7459,
      "mem": 7460,
      "posto": 7461,
      "▁Alf": 7462,
      "▁zdecy": 7463,
      "▁pierwsza": 7464,
      "▁ludzi.": 7465,
      "łać": 7466,
      "▁uderz": 7467,
      "▁trzę": 7468,
      "ord": 7469,
      "▁„T": 7470,
      "larz": 7471,
      "▁izby": 7472,
      "▁przesu": 7473,
      "▁niz": 7474,
      "▁dzwon": 7475,
      "▁nadzieję,": 7476,
      "▁tk": 7477,
      "▁kary": 7478,
      "niem,": 7479,
      "▁surowo": 7480,
      "▁wpół": 7481,
      "dząc,": 7482,
      "▁prez": 7483,
      "jąca": 7484,
      "▁tyle,": 7485,
      "▁napa": 7486,
      "ciąga": 7487,
      "szona": 7488,
      "▁najwięcej": 7489,
      "▁dworu": 7490,
      "▁Byłem": 7491,
      "any.\n": 7492,
      "▁rozsze": 7493,
      "▁powierz": 7494,
      "▁Naresz": 7495,
      "ącej": 7496,
      "▁litości": 7497,
      "▁klasy": 7498,
      "ano.": 7499,
      "▁bliż": 7500,
      "skich.": 7501,
      "▁wyłącznie": 7502,
      "▁łaci": 7503,
      "▁rozt": 7504,
      "▁punkt": 7505,
      "▁Wtem": 7506,
      "▁niedawno": 7507,
      "▁schy": 7508,
      "▁dziwne": 7509,
      "▁rozmyśl": 7510,
      "czą,": 7511,
      "nąć.": 7512,
      "▁strach": 7513,
      "snęła": 7514,
      "ju,": 7515,
      "▁mężczyzna": 7516,
      "▁nieod": 7517,
      "▁zepsu": 7518,
      "«,": 7519,
      "▁pies": 7520,
      "▁twych": 7521,
      "▁brał": 7522,
      "▁gry": 7523,
      "gip": 7524,
      "▁Pewnego": 7525,
      "▁Bole": 7526,
      "▁uderzył": 7527,
      "▁dokto": 7528,
      "▁Pomi": 7529,
      "anad": 7530,
      "żyć,": 7531,
      "▁najmniej": 7532,
      "▁pozor": 7533,
      "alne": 7534,
      "▁pur": 7535,
      "▁zapy": 7536,
      "owych.": 7537,
      "▁Szcze": 7538,
      "gno": 7539,
      "▁tonem": 7540,
      "▁poczy": 7541,
      "▁opan": 7542,
      "▁musimy": 7543,
      "▁wygn": 7544,
      "toli": 7545,
      "▁posły": 7546,
      "▁siostry": 7547,
      "▁ucho": 7548,
      "h!": 7549,
      "dzie.\n": 7550,
      "oni": 7551,
      "▁el": 7552,
      "▁widzę,": 7553,
      "▁czuła": 7554,
      "▁Ca": 7555,
      "jaśni": 7556,
      "▁stad": 7557,
      "▁Paryża": 7558,
      "zdu": 7559,
      "miony": 7560,
      "▁szanow": 7561,
      "▁głową,": 7562,
      "tku,": 7563,
      "GO": 7564,
      "ałą": 7565,
      "▁swéj": 7566,
      "▁rozmowa": 7567,
      "▁wychodząc": 7568,
      "▁wiek": 7569,
      "▁żadne": 7570,
      "▁generał": 7571,
      "▁nao": 7572,
      "\n—\n—\n—\n—": 7573,
      "dze,": 7574,
      "▁kąt": 7575,
      "owiem,": 7576,
      "▁pożegn": 7577,
      "▁zadzi": 7578,
      "▁utk": 7579,
      "ras": 7580,
      "▁siebie.\n": 7581,
      "▁Rober": 7582,
      "amil": 7583,
      "tanie": 7584,
      "▁Wę": 7585,
      "piej,": 7586,
      "dziawszy": 7587,
      "▁krai": 7588,
      "rej": 7589,
      "aniach": 7590,
      "tury": 7591,
      "▁ognia": 7592,
      "stu,": 7593,
      "mistrz": 7594,
      "▁Sain": 7595,
      "▁niep": 7596,
      "atun": 7597,
      "▁pł": 7598,
      "rami,": 7599,
      "▁burz": 7600,
      "woka": 7601,
      "emi,": 7602,
      "▁osło": 7603,
      "▁posą": 7604,
      "wierci": 7605,
      "▁cesar": 7606,
      "▁jakkolwiek": 7607,
      "sia,": 7608,
      "▁pokła": 7609,
      "rzenia,": 7610,
      "▁naprzód,": 7611,
      "▁zwa": 7612,
      ",\nZa": 7613,
      "czeniem": 7614,
      "18": 7615,
      "▁zaż": 7616,
      "▁czysto": 7617,
      "▁weszła": 7618,
      "▁bliżej": 7619,
      "▁królowa": 7620,
      "▁pouf": 7621,
      "▁kapli": 7622,
      "▁szukając": 7623,
      "▁przynosi": 7624,
      "CE": 7625,
      "▁blu": 7626,
      "ło.\n": 7627,
      ";\nW": 7628,
      "▁kamien": 7629,
      "▁wyry": 7630,
      "▁się!": 7631,
      "▁Słowa": 7632,
      "na!": 7633,
      "▁bezpo": 7634,
      "▁Ach": 7635,
      "▁matkę": 7636,
      "▁wszystkiego,": 7637,
      "▁narodu": 7638,
      "▁brz": 7639,
      "▁dole": 7640,
      "▁złoty": 7641,
      "▁drogę,": 7642,
      "▁ofiary": 7643,
      "▁wsk": 7644,
      "▁met": 7645,
      "▁odszedł": 7646,
      "▁jab": 7647,
      "▁was,": 7648,
      "▁orygi": 7649,
      "▁pobliżu": 7650,
      "▁służyć": 7651,
      "▁oddali": 7652,
      "▁prowadząc": 7653,
      "▁szyję": 7654,
      "▁śmiercią": 7655,
      "liza": 7656,
      "▁Czem": 7657,
      "dzonych": 7658,
      "▁Patrz": 7659,
      "czenie,": 7660,
      "ają.": 7661,
      "▁niezwykł": 7662,
      "żono": 7663,
      "ci.": 7664,
      "łod": 7665,
      "ałem.\n": 7666,
      "▁Gil": 7667,
      "ós": 7668,
      "▁podobnego": 7669,
      "▁dusze": 7670,
      "bierze": 7671,
      "▁mni": 7672,
      "▁klasztor": 7673,
      "▁Os": 7674,
      "▁bracia": 7675,
      "▁prosić": 7676,
      "▁di": 7677,
      "czący": 7678,
      "▁rados": 7679,
      "wiej": 7680,
      "bia": 7681,
      "▁razem,": 7682,
      "▁mówi,": 7683,
      "▁odwróci": 7684,
      "niec,": 7685,
      "▁kroki": 7686,
      "▁tygod": 7687,
      "aja": 7688,
      "nięta": 7689,
      "andar": 7690,
      "▁niebawem": 7691,
      "15": 7692,
      "▁dzier": 7693,
      "▁brzę": 7694,
      "▁domu.\n": 7695,
      "cono": 7696,
      "▁małej": 7697,
      "▁szkoły": 7698,
      "▁zkąd": 7699,
      "▁atak": 7700,
      "▁kolum": 7701,
      "▁wyrzekł": 7702,
      "▁Filip": 7703,
      "ropej": 7704,
      "▁nowej": 7705,
      "▁Natu": 7706,
      "▁eleg": 7707,
      "▁radością": 7708,
      "ny;": 7709,
      "▁niewia": 7710,
      "▁dobrej": 7711,
      "sznie": 7712,
      "▁zwierząt": 7713,
      "▁wywoł": 7714,
      "czać": 7715,
      "▁podobnych": 7716,
      "▁jasno": 7717,
      "▁wnęt": 7718,
      "▁bodaj": 7719,
      "siadła": 7720,
      "▁ograni": 7721,
      "▁zdoł": 7722,
      "▁usprawiedli": 7723,
      "skiej.": 7724,
      "gać": 7725,
      "▁świetle": 7726,
      "▁25": 7727,
      "kały": 7728,
      "dyj": 7729,
      "▁gwiazdy": 7730,
      "▁Jedno": 7731,
      "▁znalazła": 7732,
      "duje": 7733,
      "▁jeść": 7734,
      "▁Pierwszy": 7735,
      "▁Następnie": 7736,
      "▁starannie": 7737,
      "10": 7738,
      "▁wymieni": 7739,
      "▁wszyscy,": 7740,
      "▁ową": 7741,
      "ko.": 7742,
      "raża": 7743,
      "▁wyzn": 7744,
      "▁trzas": 7745,
      "▁koron": 7746,
      "▁tłóma": 7747,
      "▁grub": 7748,
      "▁naczy": 7749,
      "▁obc": 7750,
      "▁koleg": 7751,
      "▁przeci": 7752,
      "▁przykry": 7753,
      "▁czarnych": 7754,
      "▁Tom": 7755,
      "lejno": 7756,
      "▁kana": 7757,
      "▁miot": 7758,
      "▁piętna": 7759,
      "▁Fe": 7760,
      "▁towarzyszy": 7761,
      "knęła": 7762,
      "▁stosunki": 7763,
      "▁ściśle": 7764,
      "▁sytua": 7765,
      "▁Winne": 7766,
      "skiem,": 7767,
      "▁sobą.": 7768,
      "serw": 7769,
      "▁schro": 7770,
      "▁zgoła": 7771,
      "▁wcze": 7772,
      "▁kościel": 7773,
      "▁profesor": 7774,
      "bl": 7775,
      "▁dziecin": 7776,
      "cyusz": 7777,
      "ką.\n": 7778,
      "wnie": 7779,
      "▁praca": 7780,
      "1.": 7781,
      "▁kościół": 7782,
      "ńskich,": 7783,
      "▁cien": 7784,
      "dry": 7785,
      "▁Jesteś": 7786,
      "▁ugo": 7787,
      "▁powol": 7788,
      "rzymuje": 7789,
      "▁mną,": 7790,
      "▁mój,": 7791,
      "▁cio": 7792,
      "▁kąc": 7793,
      "▁Kur": 7794,
      "▁Dawi": 7795,
      "rzu,": 7796,
      "▁czuję": 7797,
      "▁przepad": 7798,
      "▁wewnątrz": 7799,
      "▁pozbawi": 7800,
      "▁podobnie": 7801,
      "▁równi": 7802,
      ",\nTo": 7803,
      "▁chęć": 7804,
      "▁[14": 7805,
      "▁słońca,": 7806,
      "▁leci": 7807,
      "▁Lon": 7808,
      "bierać": 7809,
      "▁niezawo": 7810,
      "ało.\n": 7811,
      "skupa": 7812,
      "▁fale": 7813,
      "siła": 7814,
      "ona,": 7815,
      "▁grzesz": 7816,
      "▁karcz": 7817,
      "▁Winneto": 7818,
      "akiem": 7819,
      "▁ur": 7820,
      "▁grzy": 7821,
      "▁wskutek": 7822,
      "▁opła": 7823,
      "biła": 7824,
      "▁db": 7825,
      "łości,": 7826,
      "▁pełną": 7827,
      "amtąd": 7828,
      "▁węz": 7829,
      "▁„B": 7830,
      "▁paru": 7831,
      "▁milcz": 7832,
      "rzył,": 7833,
      "\nU": 7834,
      "▁W.": 7835,
      "▁dziewię": 7836,
      "▁sobie.": 7837,
      "▁Old": 7838,
      "▁spot": 7839,
      "▁szło": 7840,
      "rają": 7841,
      "ana.\n": 7842,
      "▁zamil": 7843,
      "▁zbudow": 7844,
      "▁czele": 7845,
      "▁czekając": 7846,
      "▁miłością": 7847,
      "kiego,": 7848,
      "lim": 7849,
      "▁zdołał": 7850,
      "▁wami": 7851,
      "ża,": 7852,
      "▁ale,": 7853,
      "wający": 7854,
      "▁kościele": 7855,
      "▁ojcem": 7856,
      "▁pierwszą": 7857,
      "enta": 7858,
      "ny!": 7859,
      "▁może.": 7860,
      "▁nieśmi": 7861,
      "▁niewiad": 7862,
      "▁zjad": 7863,
      "▁serdecznie": 7864,
      "▁niewątpli": 7865,
      "dor": 7866,
      "▁naboże": 7867,
      "kiemi": 7868,
      "▁stało,": 7869,
      "▁wnios": 7870,
      "▁wiarę": 7871,
      "▁dzieło": 7872,
      "cił,": 7873,
      "mion": 7874,
      "▁Taki": 7875,
      "▁rzuca": 7876,
      "▁trzymając": 7877,
      "jęła": 7878,
      "▁papier": 7879,
      "piony": 7880,
      "▁lip": 7881,
      "▁sznur": 7882,
      "▁córkę": 7883,
      "▁docho": 7884,
      "▁pokazy": 7885,
      "▁orszak": 7886,
      "▁coś,": 7887,
      "2.": 7888,
      "▁jech": 7889,
      "czeni": 7890,
      "▁wieków": 7891,
      "sch": 7892,
      "▁Aby": 7893,
      "▁murzy": 7894,
      "▁króla,": 7895,
      "▁dobrym": 7896,
      "▁lamp": 7897,
      "▁powiedzi": 7898,
      "\nR": 7899,
      "niły": 7900,
      "▁czoła": 7901,
      "ndu": 7902,
      "▁Toma": 7903,
      "▁zapat": 7904,
      "▁dostatecz": 7905,
      "▁kle": 7906,
      "▁Fry": 7907,
      "owanych": 7908,
      "▁zago": 7909,
      "▁trady": 7910,
      "▁lin": 7911,
      "stąpiła": 7912,
      "▁mieszkania": 7913,
      "szal": 7914,
      "▁pójdę": 7915,
      "▁kamień": 7916,
      "▁widział,": 7917,
      "ux": 7918,
      "▁kola": 7919,
      "są": 7920,
      "▁wraca": 7921,
      "krotnie": 7922,
      "▁Izra": 7923,
      "▁oc": 7924,
      "▁byd": 7925,
      "pij": 7926,
      "▁porę": 7927,
      "▁Fo": 7928,
      "▁system": 7929,
      "kowski": 7930,
      "▁Czemu": 7931,
      "▁zachę": 7932,
      "▁wnu": 7933,
      "anda": 7934,
      "▁chodzić": 7935,
      "▁zbad": 7936,
      "▁co,": 7937,
      "▁wypadku": 7938,
      "▁dlań": 7939,
      "▁gorąco": 7940,
      "▁Skąd": 7941,
      "dem,": 7942,
      "▁czuć": 7943,
      "Ar": 7944,
      "poli": 7945,
      "tory": 7946,
      "▁kam": 7947,
      "cy.\n": 7948,
      "▁podpis": 7949,
      "nym.\n": 7950,
      "▁set": 7951,
      "czną,": 7952,
      "▁idą": 7953,
      "▁uważał": 7954,
      "▁blasku": 7955,
      "▁kogoś": 7956,
      "chani": 7957,
      "▁odważ": 7958,
      ",\nU": 7959,
      "▁Stanisław": 7960,
      "▁prawdziwie": 7961,
      "▁powinno": 7962,
      "lu.": 7963,
      "▁lśni": 7964,
      "▁postrze": 7965,
      "▁doszedł": 7966,
      "▁podług": 7967,
      "▁piersi,": 7968,
      "▁Henryk": 7969,
      "▁kobieta,": 7970,
      "g.": 7971,
      "▁wygod": 7972,
      "▁młodej": 7973,
      "▁wyz": 7974,
      "eks": 7975,
      "▁rozpro": 7976,
      "▁Kom": 7977,
      "łością": 7978,
      "go.": 7979,
      "ść.\n": 7980,
      "▁ludzkich": 7981,
      "▁czytać": 7982,
      "▁trz": 7983,
      "cyi.": 7984,
      "▁szlachec": 7985,
      "▁samo,": 7986,
      "▁honor": 7987,
      "akro": 7988,
      "▁Póź": 7989,
      "▁podnosząc": 7990,
      "▁pisał": 7991,
      "▁dziewczyn": 7992,
      "▁wynios": 7993,
      "▁wykształ": 7994,
      "wy.\n": 7995,
      "▁Kapi": 7996,
      "jącym": 7997,
      "▁\nT": 7998,
      "Jest": 7999,
      "▁modlit": 8000,
      "▁biało": 8001,
      "▁bramy": 8002,
      "▁odrzu": 8003,
      "▁przysł": 8004,
      "ały.\n": 8005,
      "▁prześli": 8006,
      "dziéj": 8007,
      "▁siły,": 8008,
      "\nC": 8009,
      "brze": 8010,
      "▁ście": 8011,
      "elan": 8012,
      "▁własnym": 8013,
      "▁dziesiąt": 8014,
      "kowej": 8015,
      "▁narodow": 8016,
      "▁domyśl": 8017,
      "▁biur": 8018,
      "▁zerwał": 8019,
      "▁such": 8020,
      "▁zbroj": 8021,
      "órz": 8022,
      "wione": 8023,
      "▁szmer": 8024,
      "▁Dan": 8025,
      "▁nieroz": 8026,
      "▁słody": 8027,
      "▁otwarte": 8028,
      "▁starzec": 8029,
      "▁Konstan": 8030,
      "▁oczy.": 8031,
      "▁kędy": 8032,
      "▁sprzę": 8033,
      "▁Choć": 8034,
      "▁nawy": 8035,
      "onego": 8036,
      "▁niepotrzeb": 8037,
      "utro": 8038,
      "▁stopni": 8039,
      "▁podejrz": 8040,
      "▁książki": 8041,
      "▁podusz": 8042,
      "▁złotych": 8043,
      "dywał": 8044,
      "ety": 8045,
      "▁pojm": 8046,
      "▁powieści": 8047,
      "▁gatun": 8048,
      "nika.": 8049,
      "▁nadzieję": 8050,
      "dusz": 8051,
      "żynie": 8052,
      "lub": 8053,
      "czących": 8054,
      "▁Pomimo": 8055,
      "▁bat": 8056,
      "▁doro": 8057,
      "▁wyba": 8058,
      "▁wszelkiego": 8059,
      "mos": 8060,
      "▁takiem": 8061,
      "▁poni": 8062,
      "▁powinni": 8063,
      "▁uch": 8064,
      "▁pięknej": 8065,
      "ęt": 8066,
      "▁przemy": 8067,
      "▁koz": 8068,
      ",\nNi": 8069,
      "▁niektóre": 8070,
      "▁niezna": 8071,
      "▁stłu": 8072,
      "▁Feli": 8073,
      "ch.\n": 8074,
      "▁boleści": 8075,
      "bienia": 8076,
      "▁także,": 8077,
      "wiać": 8078,
      "▁moty": 8079,
      "▁ol": 8080,
      "▁ucha": 8081,
      "▁artyku": 8082,
      "▁potwor": 8083,
      "szep": 8084,
      "▁przeży": 8085,
      "▁orę": 8086,
      "rowie": 8087,
      "▁rozporzą": 8088,
      "rzem,": 8089,
      "▁wrócić": 8090,
      "▁bom": 8091,
      "ństwa.": 8092,
      "▁przybr": 8093,
      "miała": 8094,
      "▁proboszcz": 8095,
      "▁Zło": 8096,
      "▁kapelusz": 8097,
      "ger": 8098,
      "cić,": 8099,
      "▁Ge": 8100,
      "▁ląd": 8101,
      "▁seku": 8102,
      "▁gale": 8103,
      "▁sprzed": 8104,
      "▁umysłu": 8105,
      "h,": 8106,
      "▁mist": 8107,
      "t.\n": 8108,
      "▁kład": 8109,
      "jącej": 8110,
      "łu,": 8111,
      "▁najgor": 8112,
      "▁Jerzy": 8113,
      "▁białą": 8114,
      "▁—\nI": 8115,
      "▁traf": 8116,
      "▁Twarz": 8117,
      "ku!": 8118,
      "▁podobie": 8119,
      "OR": 8120,
      "sek": 8121,
      "▁Wśród": 8122,
      "▁Róż": 8123,
      "▁drzewa,": 8124,
      "▁odwrócił": 8125,
      "zel": 8126,
      "▁ruchu": 8127,
      "▁folwar": 8128,
      "▁wko": 8129,
      "▁szczęście,": 8130,
      "▁owym": 8131,
      "piła": 8132,
      "▁świat,": 8133,
      "▁wprowa": 8134,
      "▁wyobraże": 8135,
      "▁prywat": 8136,
      "▁długą": 8137,
      "▁przyczyny": 8138,
      "▁zanad": 8139,
      "▁draż": 8140,
      "cami,": 8141,
      "▁Dos": 8142,
      "▁któryby": 8143,
      "▁niepodobna": 8144,
      "▁spe": 8145,
      "▁zdą": 8146,
      "▁filozofi": 8147,
      "wicza": 8148,
      "▁ołta": 8149,
      "▁ską": 8150,
      "cle": 8151,
      "▁wchodząc": 8152,
      "▁konia,": 8153,
      "▁adwoka": 8154,
      "▁zazna": 8155,
      "czyk": 8156,
      "▁sma": 8157,
      "▁zry": 8158,
      "▁sprowa": 8159,
      "▁pogląd": 8160,
      "▁klejno": 8161,
      "▁trybu": 8162,
      "łeś": 8163,
      "▁Bru": 8164,
      "▁dwoje": 8165,
      "▁rozciąg": 8166,
      "dnych": 8167,
      "cję,": 8168,
      "▁wrażenie,": 8169,
      "▁dwudziestu": 8170,
      "wca": 8171,
      "▁pru": 8172,
      "▁pokoju.": 8173,
      "▁zbrodnia": 8174,
      "▁miły": 8175,
      "▁porówn": 8176,
      "▁nagle,": 8177,
      "▁rob": 8178,
      "!\nW": 8179,
      "▁nieboszczy": 8180,
      "▁dopraw": 8181,
      "▁obrac": 8182,
      "▁długich": 8183,
      "cając": 8184,
      "▁loka": 8185,
      "▁spuszcz": 8186,
      "▁cieszy": 8187,
      "▁duże": 8188,
      "▁zazwyczaj": 8189,
      "▁ulicz": 8190,
      ").\n\n": 8191,
      "giem,": 8192,
      "▁zamknął": 8193,
      "▁niezad": 8194,
      "?!": 8195,
      "▁has": 8196,
      "▁uniesie": 8197,
      "▁Ok": 8198,
      "▁rezy": 8199,
      "▁uchy": 8200,
      "▁morzu": 8201,
      "▁Ind": 8202,
      "▁przymu": 8203,
      "▁przyzwoi": 8204,
      "nów,": 8205,
      "conych": 8206,
      "ament": 8207,
      "cać": 8208,
      "▁dresz": 8209,
      "nionych": 8210,
      "dnej": 8211,
      "▁drzwiach": 8212,
      "▁waszych": 8213,
      "▁wieść": 8214,
      "▁niepokój": 8215,
      "▁zęby": 8216,
      "dowa": 8217,
      ",\nGdzie": 8218,
      "dobie": 8219,
      "▁mógł,": 8220,
      "▁ostatniego": 8221,
      "▁omy": 8222,
      "▁znaleźli": 8223,
      "▁stosunku": 8224,
      "▁ubó": 8225,
      "▁łatwiej": 8226,
      "▁uczni": 8227,
      "▁Nareszcie": 8228,
      "▁[15": 8229,
      ".\n.\n.\n.\n.\n.\n.\n.\n": 8230,
      "▁dziwi": 8231,
      "▁zagro": 8232,
      "▁smo": 8233,
      "tnym": 8234,
      "▁cieniu": 8235,
      "▁posąg": 8236,
      "▁miłos": 8237,
      "▁uzbro": 8238,
      "▁trzecie": 8239,
      "▁posie": 8240,
      "sza.": 8241,
      "ziął": 8242,
      "▁stanęła": 8243,
      "▁istnieje": 8244,
      "nie;": 8245,
      "▁Jadwi": 8246,
      "▁łok": 8247,
      "▁Moja": 8248,
      "pole": 8249,
      "▁skończo": 8250,
      "brzy": 8251,
      "jony": 8252,
      "żoną": 8253,
      "owego,": 8254,
      "▁rzucić": 8255,
      "▁wieku,": 8256,
      "orst": 8257,
      "owo,": 8258,
      "▁niewiele": 8259,
      "▁właściciel": 8260,
      "▁łeb": 8261,
      "ćmi": 8262,
      "▁średni": 8263,
      "▁mówili": 8264,
      "▁gdybyś": 8265,
      "▁30": 8266,
      "▁powstał": 8267,
      "3.": 8268,
      "▁laty": 8269,
      "▁cicho,": 8270,
      "ela": 8271,
      "▁Nale": 8272,
      "▁wszelki": 8273,
      "▁naci": 8274,
      "▁tegoż": 8275,
      "▁opowiadał": 8276,
      "▁dawne": 8277,
      "▁fortu": 8278,
      "wana": 8279,
      "▁elegan": 8280,
      "chę,": 8281,
      "▁rozdzie": 8282,
      "▁niespodzie": 8283,
      "aków,": 8284,
      "▁Szko": 8285,
      "żeś": 8286,
      "ja.": 8287,
      "▁widząc,": 8288,
      "▁wstał": 8289,
      "▁Hisz": 8290,
      "cząć": 8291,
      "da.\n": 8292,
      "▁mnie.\n": 8293,
      "▁chęci": 8294,
      "▁wu": 8295,
      "rek,": 8296,
      "▁Katarzy": 8297,
      "▁kiedykolwiek": 8298,
      "▁Widział": 8299,
      "▁waszej": 8300,
      "▁wywie": 8301,
      "▁rysu": 8302,
      "tarzał": 8303,
      "▁Chce": 8304,
      "▁napróżno": 8305,
      "▁Kas": 8306,
      "▁powoł": 8307,
      "▁wstrzą": 8308,
      "▁Rzecz": 8309,
      "▁brzu": 8310,
      "▁większe": 8311,
      "czne.": 8312,
      "▁wstrząs": 8313,
      "▁wszystko.": 8314,
      "syte": 8315,
      "▁ćwi": 8316,
      "▁Nor": 8317,
      "aniel": 8318,
      "▁słowi": 8319,
      "▁dokon": 8320,
      "nę.\n": 8321,
      "▁wola": 8322,
      "▁temat": 8323,
      "▁twarze": 8324,
      "▁Antoni": 8325,
      "▁obrzy": 8326,
      "▁Warszawie": 8327,
      "▁upar": 8328,
      "▁Im": 8329,
      "▁starym": 8330,
      "▁pięknie": 8331,
      "▁porze": 8332,
      "▁poez": 8333,
      "▁strasznie": 8334,
      "”.": 8335,
      "▁śnieg": 8336,
      "rzymując": 8337,
      "wierciad": 8338,
      "▁karmi": 8339,
      "alnie": 8340,
      "▁oddawna": 8341,
      "▁ta,": 8342,
      "▁grób": 8343,
      "▁Gran": 8344,
      "▁gniewu": 8345,
      "kają": 8346,
      "▁dawna": 8347,
      "▁napisał": 8348,
      "pry": 8349,
      "▁Pój": 8350,
      "▁ozd": 8351,
      "▁udać": 8352,
      "▁Bro": 8353,
      "▁pełna": 8354,
      "leniem": 8355,
      "▁boja": 8356,
      "▁pewnych": 8357,
      "▁przem": 8358,
      "▁fat": 8359,
      "▁Zaledwie": 8360,
      "▁mieści": 8361,
      "▁melo": 8362,
      "▁przysięg": 8363,
      "ręb": 8364,
      "▁zapał": 8365,
      "▁poby": 8366,
      "\nZa": 8367,
      "▁zakład": 8368,
      "niejsze,": 8369,
      "▁dowiedzieć": 8370,
      "▁usiłu": 8371,
      "▁czytał": 8372,
      "▁poezy": 8373,
      "skając": 8374,
      "▁wspomnienie": 8375,
      "▁zanied": 8376,
      "▁br": 8377,
      "▁kwiatów": 8378,
      "▁zmierz": 8379,
      "▁mieszcz": 8380,
      "▁Ver": 8381,
      "▁zdaje,": 8382,
      "alny": 8383,
      "▁musisz": 8384,
      "▁żebyś": 8385,
      "▁czém": 8386,
      "▁rzekł:": 8387,
      "ckiego,": 8388,
      "▁szalo": 8389,
      "▁innemi": 8390,
      "▁odpar": 8391,
      "▁aresz": 8392,
      "letni": 8393,
      "▁syna,": 8394,
      "▁Jam": 8395,
      "▁niebezpieczeństwo": 8396,
      "dach,": 8397,
      "▁wino": 8398,
      "towi": 8399,
      "▁bowiem,": 8400,
      "kła,": 8401,
      "ir": 8402,
      "żyło": 8403,
      "▁karabi": 8404,
      "stą,": 8405,
      "▁skutek": 8406,
      "▁przyjaciele": 8407,
      "▁widzieli": 8408,
      "▁byłbym": 8409,
      "▁zastana": 8410,
      "▁man": 8411,
      "▁uwię": 8412,
      "▁stę": 8413,
      "▁podwój": 8414,
      "▁przyniósł": 8415,
      "▁kobietę": 8416,
      "▁Wiedział": 8417,
      "lę,": 8418,
      "▁Dziękuję": 8419,
      "ble": 8420,
      "pem": 8421,
      "gi.\n": 8422,
      "stry": 8423,
      "▁była,": 8424,
      "▁Gdybym": 8425,
      "dym": 8426,
      "▁jedwab": 8427,
      ",\nG": 8428,
      "▁izbie": 8429,
      "rzało": 8430,
      "dziesięciu": 8431,
      "▁nigdy,": 8432,
      "▁drobne": 8433,
      "▁stopnia": 8434,
      "▁prawdopodobnie": 8435,
      "▁napeł": 8436,
      "rzeć,": 8437,
      "▁uzy": 8438,
      "▁wesel": 8439,
      "▁cudzoziem": 8440,
      "fy": 8441,
      "▁zdala": 8442,
      "▁tkwi": 8443,
      "nienia,": 8444,
      "dzieć.": 8445,
      "pod": 8446,
      "▁głównie": 8447,
      "kim,": 8448,
      "loną": 8449,
      "▁wolność": 8450,
      "▁młodości": 8451,
      "dzała": 8452,
      "▁biegu": 8453,
      "▁pozór": 8454,
      "▁świadec": 8455,
      "▁dziesięciu": 8456,
      "szość": 8457,
      "........": 8458,
      "recz": 8459,
      "▁Gro": 8460,
      "▁jasne": 8461,
      "▁go.": 8462,
      "owości": 8463,
      "▁Świat": 8464,
      "▁niektórych": 8465,
      "▁przechodząc": 8466,
      "piéj": 8467,
      "4.": 8468,
      "▁pełni": 8469,
      "jona": 8470,
      "▁smutek": 8471,
      "▁Saint-": 8472,
      "▁wiąz": 8473,
      "▁urzędni": 8474,
      "▁daleko,": 8475,
      "▁maje": 8476,
      "ruje": 8477,
      "▁straszne": 8478,
      "▁grzech": 8479,
      "▁ocie": 8480,
      "roczy": 8481,
      "ly": 8482,
      "ników.": 8483,
      "wycię": 8484,
      "rzeli": 8485,
      "czony,": 8486,
      "▁leni": 8487,
      "ki;": 8488,
      "▁chału": 8489,
      "żne": 8490,
      "▁zdrow": 8491,
      "▁oblicze": 8492,
      "▁wiar": 8493,
      "▁widzenia": 8494,
      "▁jesteście": 8495,
      "2]\n": 8496,
      "rzyłem": 8497,
      "▁zaklę": 8498,
      "ski.\n": 8499,
      "▁czarną": 8500,
      "mist": 8501,
      "▁Bur": 8502,
      "dery": 8503,
      "▁istniej": 8504,
      "▁wyobraż": 8505,
      "▁powięk": 8506,
      "▁ludzkiej": 8507,
      "łowę": 8508,
      "▁stamtąd": 8509,
      "▁wejść": 8510,
      "skiéj": 8511,
      "▁braku": 8512,
      "kowy": 8513,
      "▁czarny": 8514,
      "▁pozostać": 8515,
      "jechali": 8516,
      "▁święta": 8517,
      "▁rozmi": 8518,
      "owa.": 8519,
      "▁nikczem": 8520,
      "▁każdemu": 8521,
      "▁najpierw": 8522,
      "▁czarow": 8523,
      "▁królowej": 8524,
      "wiona": 8525,
      "▁Rzu": 8526,
      "▁jedyny": 8527,
      "▁wiedzi": 8528,
      "▁przemo": 8529,
      "dość": 8530,
      "▁Fer": 8531,
      "▁wartości": 8532,
      "▁skie": 8533,
      "rzyć,": 8534,
      "mu.": 8535,
      "szczyz": 8536,
      "▁czynił": 8537,
      "▁podobna": 8538,
      "▁wszelką": 8539,
      "▁małych": 8540,
      "czonej": 8541,
      "coną": 8542,
      "▁Rozumie": 8543,
      "puścił": 8544,
      "▁Chociaż": 8545,
      "▁opowiedział": 8546,
      "▁pracę": 8547,
      "cie?": 8548,
      "ży.": 8549,
      "har": 8550,
      "▁idź": 8551,
      "piał": 8552,
      "▁strachu": 8553,
      "▁Żeby": 8554,
      "▁górę,": 8555,
      "▁rzekłem": 8556,
      "▁tutaj,": 8557,
      "▁gą": 8558,
      "▁ramieniu": 8559,
      "▁towarzystwo": 8560,
      "dniu": 8561,
      "▁starszy": 8562,
      "▁pozwolił": 8563,
      "\nDo": 8564,
      "▁istoty": 8565,
      "▁krą": 8566,
      "ów;": 8567,
      "▁popę": 8568,
      "interes": 8569,
      "▁niemo": 8570,
      "mości": 8571,
      "▁Cały": 8572,
      "▁twarz,": 8573,
      "rumieni": 8574,
      "czce": 8575,
      "▁napi": 8576,
      "▁przery": 8577,
      "s.\n": 8578,
      "▁toż": 8579,
      "▁Kaz": 8580,
      "łość,": 8581,
      "▁naraż": 8582,
      "stety,": 8583,
      "żonych": 8584,
      "wające": 8585,
      "▁Długo": 8586,
      "dzisz": 8587,
      "▁rubli": 8588,
      "▁kamieni": 8589,
      "cowi": 8590,
      "▁prześladow": 8591,
      "▁roku,": 8592,
      "chód": 8593,
      "▁łap": 8594,
      "▁literac": 8595,
      "▁pełno": 8596,
      "▁gwałtownie": 8597,
      "▁zabij": 8598,
      "▁przedsięw": 8599,
      "▁odpowiedni": 8600,
      "▁zamor": 8601,
      "▁tkli": 8602,
      "zul": 8603,
      "czę,": 8604,
      "▁don": 8605,
      "my.\n": 8606,
      "▁dobrych": 8607,
      "▁Jas": 8608,
      "▁dobrowo": 8609,
      "▁no,": 8610,
      "onej": 8611,
      "▁przecho": 8612,
      "▁wasza": 8613,
      "▁rachun": 8614,
      "▁synem": 8615,
      "dzają": 8616,
      "dej": 8617,
      "▁Mal": 8618,
      "▁bogi": 8619,
      "▁poga": 8620,
      "▁nim.": 8621,
      "▁eu": 8622,
      "Prze": 8623,
      "dza,": 8624,
      "▁kłę": 8625,
      "▁spokoju": 8626,
      "▁zastos": 8627,
      "\nG": 8628,
      "▁gli": 8629,
      "▁cichy": 8630,
      "▁innych,": 8631,
      "▁Dobrze,": 8632,
      "▁bezpoś": 8633,
      "▁popeł": 8634,
      "su,": 8635,
      "▁Isto": 8636,
      "▁Zawsze": 8637,
      "▁wago": 8638,
      "▁wierzyć": 8639,
      "▁wydać": 8640,
      "▁Kali": 8641,
      "▁zagrani": 8642,
      "▁interesu": 8643,
      "▁podnios": 8644,
      "▁ręku,": 8645,
      "▁poleg": 8646,
      "▁zapomina": 8647,
      "▁wiedziała": 8648,
      "▁piersiach": 8649,
      "▁Odpowie": 8650,
      "▁siostra": 8651,
      "▁zł": 8652,
      "liwym": 8653,
      "ka!": 8654,
      "▁okrzyk": 8655,
      "▁w.": 8656,
      "▁nieobec": 8657,
      "enty": 8658,
      "▁śpiewa": 8659,
      "brew": 8660,
      "ąst": 8661,
      "▁skutkiem": 8662,
      "▁j.": 8663,
      "▁nagł": 8664,
      "▁prąd": 8665,
      "pur": 8666,
      "▁zada": 8667,
      "▁spotkać": 8668,
      "fo": 8669,
      "▁imieniu": 8670,
      ".\n\n\n\n\n\n": 8671,
      "▁ilość": 8672,
      "▁zej": 8673,
      "▁życie.": 8674,
      "▁zgrzy": 8675,
      "▁lich": 8676,
      "czna,": 8677,
      "▁pierście": 8678,
      "▁pozosta": 8679,
      "hel": 8680,
      "▁kwest": 8681,
      "dz,": 8682,
      "bym,": 8683,
      "▁ne": 8684,
      "▁możnaby": 8685,
      "▁jaz": 8686,
      "▁wyczerp": 8687,
      "▁szp": 8688,
      "▁Tar": 8689,
      "cale,": 8690,
      "ły.\n": 8691,
      "▁obwi": 8692,
      "▁grobu": 8693,
      "▁rozpu": 8694,
      "wymi": 8695,
      "jazd": 8696,
      "ałemi": 8697,
      "▁nogami": 8698,
      "▁Być": 8699,
      "▁opu": 8700,
      "▁głosem,": 8701,
      "▁dają": 8702,
      "▁franków": 8703,
      "cznym,": 8704,
      "▁Powi": 8705,
      "▁Gru": 8706,
      "▁zakła": 8707,
      "▁przyk": 8708,
      "nictwo": 8709,
      "▁Joh": 8710,
      "ena": 8711,
      "▁święte": 8712,
      "▁tat": 8713,
      "▁lubił": 8714,
      "▁wytłuma": 8715,
      "szono": 8716,
      "▁zjawił": 8717,
      "▁kwesty": 8718,
      "▁wyobraz": 8719,
      "tkę": 8720,
      "▁ohy": 8721,
      "▁towarzystwa": 8722,
      "▁mojéj": 8723,
      "szczenia": 8724,
      "▁żołnierzy": 8725,
      "▁słowo,": 8726,
      "▁największą": 8727,
      "▁Często": 8728,
      "▁Hrabia": 8729,
      "▁trak": 8730,
      "rodziej": 8731,
      "▁przywy": 8732,
      "anym,": 8733,
      "▁Lw": 8734,
      "▁pogrąż": 8735,
      "wersyte": 8736,
      "▁sklep": 8737,
      "▁wszystkiem,": 8738,
      "▁przypomniał": 8739,
      "łki": 8740,
      "ciec,": 8741,
      "czając": 8742,
      "▁przemi": 8743,
      "▁piw": 8744,
      "▁powtarzał": 8745,
      "▁najczę": 8746,
      "widu": 8747,
      "cko": 8748,
      "owana": 8749,
      "▁IV": 8750,
      "ziono": 8751,
      "rzyj": 8752,
      "▁człowieka.": 8753,
      "zią": 8754,
      "▁złożył": 8755,
      "ley": 8756,
      "dzieliśmy": 8757,
      "▁Gar": 8758,
      "dzoną": 8759,
      "▁ogniem": 8760,
      "▁wcale,": 8761,
      "rza.\n": 8762,
      "▁królem": 8763,
      "▁nud": 8764,
      "mara": 8765,
      "▁Coś": 8766,
      "▁dozor": 8767,
      "▁zawiad": 8768,
      "szcząc": 8769,
      "▁widzisz": 8770,
      "l.": 8771,
      "rozumi": 8772,
      "szczył": 8773,
      "▁pokład": 8774,
      "▁Justy": 8775,
      "▁wróż": 8776,
      "piąc": 8777,
      "▁pocałun": 8778,
      "▁blizko": 8779,
      "▁ap": 8780,
      "▁Dwa": 8781,
      "szawszy": 8782,
      "▁zanu": 8783,
      "▁most": 8784,
      "▁Tem": 8785,
      "▁poeta": 8786,
      "oj": 8787,
      "▁umrzeć": 8788,
      "▁chwały": 8789,
      "▁duszą": 8790,
      "land": 8791,
      "▁płu": 8792,
      "grani": 8793,
      "wi,": 8794,
      "▁butel": 8795,
      "car": 8796,
      "▁znasz": 8797,
      "▁przyjaźni": 8798,
      "długo": 8799,
      "siąść": 8800,
      "▁mózg": 8801,
      "▁zamknięte": 8802,
      "▁wojsko": 8803,
      "▁oder": 8804,
      "▁zimno": 8805,
      "▁wysz": 8806,
      "▁dłonie": 8807,
      "▁żywot": 8808,
      "knąć": 8809,
      "▁byłam": 8810,
      "pin": 8811,
      "▁pojedy": 8812,
      "liwą": 8813,
      "▁starą": 8814,
      "▁Czasem": 8815,
      ".\nB": 8816,
      "▁zbie": 8817,
      "dzi.": 8818,
      "▁nada": 8819,
      "sk,": 8820,
      "ver": 8821,
      "▁precz": 8822,
      "▁zdanie": 8823,
      "▁później,": 8824,
      "lia": 8825,
      "▁Han": 8826,
      "▁trzydzieści": 8827,
      "▁nazwiska": 8828,
      "▁wrza": 8829,
      "▁się;": 8830,
      "iędzy": 8831,
      "nić,": 8832,
      "▁dalej.": 8833,
      "▁zrazu": 8834,
      "▁rozło": 8835,
      "▁żydow": 8836,
      "nących": 8837,
      "▁Gra": 8838,
      "emon": 8839,
      "▁umyślnie": 8840,
      "ryj": 8841,
      "▁stary,": 8842,
      "▁wyst": 8843,
      "▁pięćdziesiąt": 8844,
      "▁nieprzyjaciół": 8845,
      "▁pieniądze,": 8846,
      "▁jaj": 8847,
      "▁marg": 8848,
      "emną": 8849,
      "deb": 8850,
      "liwszy": 8851,
      "▁ca": 8852,
      "▁Wiecz": 8853,
      "▁Dzień": 8854,
      "▁ambi": 8855,
      "yba": 8856,
      "▁służby": 8857,
      "▁żąda": 8858,
      ".\n\nM": 8859,
      "▁Fa": 8860,
      "▁każdem": 8861,
      "▁Cała": 8862,
      "▁Chwi": 8863,
      "▁rodziców": 8864,
      "▁niego.\n": 8865,
      "▁pośredni": 8866,
      "▁Niektó": 8867,
      "▁siod": 8868,
      "▁wartość": 8869,
      "▁Dzieci": 8870,
      "▁ośm": 8871,
      "▁pacie": 8872,
      "▁powinie": 8873,
      "▁północy": 8874,
      "dnego": 8875,
      "czywszy": 8876,
      "czonym": 8877,
      "▁szczególnie": 8878,
      "▁chyt": 8879,
      "▁pannę": 8880,
      "▁barw": 8881,
      "\nJak": 8882,
      "▁wtenczas": 8883,
      "▁\nD": 8884,
      "▁oczu,": 8885,
      "ÓR": 8886,
      "▁namio": 8887,
      "▁dźwięk": 8888,
      "▁podejrze": 8889,
      "▁Ła": 8890,
      "▁czym": 8891,
      "▁wiosen": 8892,
      "jętnie": 8893,
      "▁grobie": 8894,
      "▁piękności": 8895,
      "▁tragi": 8896,
      "skała": 8897,
      "▁Świ": 8898,
      "▁gniaz": 8899,
      "▁podda": 8900,
      "▁Idź": 8901,
      "▁skały": 8902,
      "▁udzie": 8903,
      "▁wyglądał": 8904,
      "▁okolicy": 8905,
      "▁objawi": 8906,
      "▁wiadomość": 8907,
      "▁zdobyć": 8908,
      "-że": 8909,
      "▁damy": 8910,
      "mięsz": 8911,
      "▁francuz": 8912,
      "▁Natural": 8913,
      "▁synów": 8914,
      "▁Daw": 8915,
      "▁popra": 8916,
      "▁kona": 8917,
      "nący": 8918,
      "▁ona,": 8919,
      "▁raj": 8920,
      "▁bronić": 8921,
      "▁djab": 8922,
      "▁Ab": 8923,
      "▁pielg": 8924,
      "▁Oni": 8925,
      "▁For": 8926,
      "▁pięknych": 8927,
      "▁pełnym": 8928,
      "▁połowie": 8929,
      "▁małym": 8930,
      "zie,": 8931,
      "▁rzecz,": 8932,
      "dzić.": 8933,
      "sal": 8934,
      "▁odemnie": 8935,
      "▁pań": 8936,
      "▁sympaty": 8937,
      "▁odpoczy": 8938,
      "▁tyś": 8939,
      "▁siedem": 8940,
      "▁znuż": 8941,
      "wych,": 8942,
      "aliz": 8943,
      "▁mundu": 8944,
      "▁[16": 8945,
      "▁atmos": 8946,
      "▁jedyną": 8947,
      "▁puścił": 8948,
      "▁bezu": 8949,
      "▁wykrzyknął": 8950,
      "▁żalu": 8951,
      "▁weźmie": 8952,
      "en,": 8953,
      "▁kwadran": 8954,
      "skach": 8955,
      "▁wielkiem": 8956,
      "▁podniesi": 8957,
      "3]\n": 8958,
      "ałaś": 8959,
      "▁Marya": 8960,
      "▁Dom": 8961,
      "▁środek": 8962,
      "▁mig": 8963,
      "▁zamek": 8964,
      "▁zabój": 8965,
      "▁kwit": 8966,
      "an.": 8967,
      "▁nędzy": 8968,
      "▁te,": 8969,
      "▁złoci": 8970,
      "▁eko": 8971,
      "néj,": 8972,
      "zu,": 8973,
      "gom": 8974,
      "▁szan": 8975,
      "▁Wiem": 8976,
      "▁placu": 8977,
      "▁dźwig": 8978,
      "dnym": 8979,
      "▁działo": 8980,
      "▁Uważ": 8981,
      "▁lekce": 8982,
      "▁chciał,": 8983,
      "▁sar": 8984,
      "▁nakry": 8985,
      "▁mono": 8986,
      "▁wsi,": 8987,
      "edy": 8988,
      "▁młodzieniec": 8989,
      "ryn": 8990,
      "▁człek": 8991,
      "▁poszli": 8992,
      "ate": 8993,
      "▁rui": 8994,
      "▁rozstrzy": 8995,
      "!\nA": 8996,
      "ńcem": 8997,
      "▁wyci": 8998,
      "▁Ham": 8999,
      "▁urzęd": 9000,
      "▁mno": 9001,
      "▁zmart": 9002,
      "▁kilkanaście": 9003,
      "20": 9004,
      "▁pieniędzy,": 9005,
      "kom,": 9006,
      "▁chcie": 9007,
      "▁odet": 9008,
      "▁obowiązek": 9009,
      "czką": 9010,
      "▁talen": 9011,
      "▁mowa": 9012,
      "żbie": 9013,
      "żeniem": 9014,
      "▁Panu": 9015,
      "ER": 9016,
      "▁krzak": 9017,
      "▁Ol": 9018,
      "ROZDZIAŁ": 9019,
      "▁Kan": 9020,
      "▁pomyśle": 9021,
      "▁miłość,": 9022,
      "▁cicha": 9023,
      "▁ostatnim": 9024,
      "▁stą": 9025,
      "▁truci": 9026,
      "▁sprzeci": 9027,
      "▁leżała": 9028,
      "▁chwile": 9029,
      "▁dniem": 9030,
      "szel": 9031,
      "▁chłopca": 9032,
      "▁arysto": 9033,
      "▁wymawi": 9034,
      "▁to?": 9035,
      "ność.\n": 9036,
      "▁świętej": 9037,
      "▁przygląd": 9038,
      "▁zawołał:\n": 9039,
      "ł.\n": 9040,
      "▁uchodzi": 9041,
      "stę": 9042,
      "▁ostatecznie": 9043,
      "▁ucał": 9044,
      "niach,": 9045,
      "▁wydawał": 9046,
      "▁admi": 9047,
      "«.": 9048,
      "▁przypuszcze": 9049,
      "▁rozkazu": 9050,
      "tując": 9051,
      "▁Paryżu": 9052,
      "▁uciekł": 9053,
      "▁zabrać": 9054,
      "rzona": 9055,
      "▁Tra": 9056,
      "▁wiad": 9057,
      "▁Rom": 9058,
      "▁bun": 9059,
      "▁darmo": 9060,
      "▁wznios": 9061,
      "▁mieszkanie": 9062,
      "▁przejść": 9063,
      "▁wyzwo": 9064,
      "▁Ger": 9065,
      "▁potrzebuje": 9066,
      "ji.\n": 9067,
      "▁lepszego": 9068,
      "wieni": 9069,
      "szek,": 9070,
      "▁rej": 9071,
      "...\n\n\n": 9072,
      "ń.\n": 9073,
      "iel": 9074,
      "żeć": 9075,
      "▁Pot": 9076,
      "chała": 9077,
      "▁auto": 9078,
      "▁najdroż": 9079,
      "▁przywie": 9080,
      "▁chce,": 9081,
      "▁biedna": 9082,
      "▁wódz": 9083,
      "▁gr": 9084,
      "▁wydała": 9085,
      "łód": 9086,
      "▁wypadek": 9087,
      "▁Alla": 9088,
      "uję": 9089,
      "▁zapowie": 9090,
      "▁Jezusa": 9091,
      "▁ślep": 9092,
      "▁spotyk": 9093,
      "▁Szwe": 9094,
      "▁nadziei,": 9095,
      "▁podstęp": 9096,
      "▁dni,": 9097,
      "▁Nie!": 9098,
      "nością.": 9099,
      "▁zawdzię": 9100,
      "▁pozwala": 9101,
      "▁zależ": 9102,
      ".\nNie": 9103,
      "anina": 9104,
      "▁pojęcia": 9105,
      "▁pośrod": 9106,
      "▁większej": 9107,
      "▁schodzi": 9108,
      "▁Don": 9109,
      "▁naiw": 9110,
      "▁zaczyn": 9111,
      "▁Zresztą,": 9112,
      "▁twą": 9113,
      "▁bogaty": 9114,
      "tów.": 9115,
      "ałoby": 9116,
      "bę,": 9117,
      "dzwo": 9118,
      "▁\nNie": 9119,
      "cznej,": 9120,
      "owskiego": 9121,
      "!\nO": 9122,
      ".\n\nT": 9123,
      "▁serc": 9124,
      "gę.": 9125,
      "▁głowie,": 9126,
      "▁szo": 9127,
      "▁Jedy": 9128,
      "▁chcesz,": 9129,
      "▁Oprócz": 9130,
      "▁obłąk": 9131,
      "▁kącie": 9132,
      "owaniem": 9133,
      "▁mama": 9134,
      "▁porządku": 9135,
      "▁raz,": 9136,
      "▁kierow": 9137,
      "▁party": 9138,
      "▁pisać": 9139,
      "▁pokoi": 9140,
      "▁odbij": 9141,
      "▁otwier": 9142,
      "▁musiałem": 9143,
      "▁umil": 9144,
      "▁spec": 9145,
      "▁kated": 9146,
      "dą.": 9147,
      "owéj": 9148,
      "stytu": 9149,
      "▁tejże": 9150,
      "▁Indy": 9151,
      "▁jeźdź": 9152,
      "▁pomiesz": 9153,
      "▁słońcu": 9154,
      "łogosła": 9155,
      "▁gdzież": 9156,
      "▁wówczas,": 9157,
      "piesznie": 9158,
      "6.": 9159,
      "▁zaczy": 9160,
      "rzał,": 9161,
      "rzó": 9162,
      "▁wieży": 9163,
      "▁ogromne": 9164,
      "dowi": 9165,
      "▁Ksiądz": 9166,
      "▁Hale": 9167,
      "▁szumi": 9168,
      "wiast": 9169,
      "▁zwąt": 9170,
      "▁przech": 9171,
      "▁wskazując": 9172,
      "▁natura": 9173,
      "▁liści": 9174,
      "▁dyab": 9175,
      "▁kolana": 9176,
      "▁psu": 9177,
      "▁księżna": 9178,
      "▁plem": 9179,
      "▁wykwi": 9180,
      "▁oczyma,": 9181,
      "▁stoją": 9182,
      "rzeniu": 9183,
      "▁fla": 9184,
      "▁szczęśliwie": 9185,
      "kania": 9186,
      "▁pańskie": 9187,
      "loty": 9188,
      "▁Paw": 9189,
      "▁doskonał": 9190,
      "▁skłon": 9191,
      "▁Gor": 9192,
      "▁milczenie": 9193,
      "▁wyży": 9194,
      "▁pożar": 9195,
      "▁panując": 9196,
      "▁szczup": 9197,
      "▁podszedł": 9198,
      "gal": 9199,
      "▁chmury": 9200,
      "▁cyt": 9201,
      "▁znaczenie": 9202,
      "▁napow": 9203,
      "▁scen": 9204,
      "owiec": 9205,
      "▁przeważnie": 9206,
      "▁byś": 9207,
      "▁niedzie": 9208,
      "▁szó": 9209,
      "▁rozważ": 9210,
      "owę,": 9211,
      "▁wprzód": 9212,
      "▁codziennie": 9213,
      "▁matką": 9214,
      "▁pewna": 9215,
      "▁obróci": 9216,
      "▁delikat": 9217,
      "▁ton": 9218,
      "▁chra": 9219,
      "▁pozba": 9220,
      "▁uczuł": 9221,
      "▁osłu": 9222,
      "▁gie": 9223,
      "czysz": 9224,
      "bin": 9225,
      "chodzę": 9226,
      "▁młodą": 9227,
      "▁litość": 9228,
      "▁spło": 9229,
      "siedli": 9230,
      "▁męczar": 9231,
      "rwo": 9232,
      "▁spojrzeniem": 9233,
      "▁przyjechał": 9234,
      "pani": 9235,
      "▁poro": 9236,
      "▁zajął": 9237,
      "▁roze": 9238,
      "▁ojcze": 9239,
      "▁Edwar": 9240,
      "▁bólu": 9241,
      "▁Iza": 9242,
      "▁ciemne": 9243,
      "▁byt": 9244,
      "▁spowie": 9245,
      "cznie.": 9246,
      "▁chwali": 9247,
      "kot": 9248,
      "▁władzę": 9249,
      "▁zwal": 9250,
      "▁\nM": 9251,
      "▁dawnego": 9252,
      "▁zob": 9253,
      "szając": 9254,
      "rzywszy": 9255,
      "gór": 9256,
      "żek": 9257,
      "▁jaski": 9258,
      "▁posiadał": 9259,
      "▁utrzymać": 9260,
      "▁powoli,": 9261,
      "▁elekt": 9262,
      "▁drodze,": 9263,
      "▁odrzekła": 9264,
      "▁cząst": 9265,
      "▁lubo": 9266,
      "▁Napole": 9267,
      "zami": 9268,
      "da!": 9269,
      "▁spokojnie,": 9270,
      "▁kupi": 9271,
      "▁Wiem,": 9272,
      "▁liczne": 9273,
      "▁przedsta": 9274,
      "niętą": 9275,
      "▁wstę": 9276,
      "▁zdumie": 9277,
      "▁szły": 9278,
      "▁lubię": 9279,
      "ke": 9280,
      "▁ogrodu": 9281,
      "bacz": 9282,
      "▁num": 9283,
      "wę,": 9284,
      "EN": 9285,
      "▁trzymać": 9286,
      "▁podt": 9287,
      "mu,": 9288,
      "▁wyszu": 9289,
      "▁nieznoś": 9290,
      "▁odwiedzi": 9291,
      "lad": 9292,
      "▁odmien": 9293,
      "▁trzeba,": 9294,
      "łami": 9295,
      "▁usłysze": 9296,
      "bione": 9297,
      "▁stawał": 9298,
      ".\n\n\n(": 9299,
      "▁drzwiami": 9300,
      "▁jął": 9301,
      "▁zwierciad": 9302,
      "▁lepiej,": 9303,
      "▁biorąc": 9304,
      "▁dobrze.": 9305,
      "I.\n": 9306,
      "ować.\n": 9307,
      "▁nam,": 9308,
      "om.": 9309,
      "▁nędza": 9310,
      "▁wypę": 9311,
      "▁pisto": 9312,
      "▁rezul": 9313,
      "▁bok": 9314,
      "▁symbo": 9315,
      "▁wuj": 9316,
      "4]\n": 9317,
      "łoby": 9318,
      "le.\n": 9319,
      "▁goni": 9320,
      "▁budzi": 9321,
      "▁targ": 9322,
      "▁maryna": 9323,
      "▁przeraź": 9324,
      "▁przyje": 9325,
      "▁rany": 9326,
      "▁poprawi": 9327,
      "▁doda": 9328,
      "▁Byli": 9329,
      "▁trudem": 9330,
      "▁mury": 9331,
      "▁służy": 9332,
      "▁wypeł": 9333,
      "▁oczach,": 9334,
      "▁ozdo": 9335,
      "▁Tad": 9336,
      "zja": 9337,
      "▁chwał": 9338,
      "7]\n": 9339,
      "asa": 9340,
      "niona": 9341,
      "▁wielo": 9342,
      "▁nowa": 9343,
      "▁wciąg": 9344,
      "▁mgła": 9345,
      "działy": 9346,
      "▁dostanie": 9347,
      "▁Leon": 9348,
      "▁Maj": 9349,
      "dzenie,": 9350,
      "▁niejako": 9351,
      "▁wiedzy": 9352,
      "▁głębokie": 9353,
      "▁stal": 9354,
      "▁nocą": 9355,
      "▁miną": 9356,
      "▁archi": 9357,
      "la.\n": 9358,
      "▁odgłos": 9359,
      "7.": 9360,
      "▁stronę,": 9361,
      "łszy": 9362,
      "tobli": 9363,
      "nikami": 9364,
      "ązu": 9365,
      "▁wspomnienia": 9366,
      "▁tajemnic": 9367,
      "▁znowu,": 9368,
      "▁życi": 9369,
      "▁żony,": 9370,
      "czności,": 9371,
      "nomi": 9372,
      "▁państw": 9373,
      "▁wąz": 9374,
      "▁obrazy": 9375,
      "▁opuszczo": 9376,
      "▁Uj": 9377,
      "▁zawzię": 9378,
      "▁rozkoszy": 9379,
      "▁Wielki": 9380,
      "▁wysokości": 9381,
      "zal": 9382,
      "niejszy,": 9383,
      "▁Prawda,": 9384,
      "dzenia.": 9385,
      "▁bić": 9386,
      "▁wyprost": 9387,
      "▁chciałbym": 9388,
      "▁przeło": 9389,
      "▁J.": 9390,
      "▁Bel": 9391,
      "▁zdaleka": 9392,
      "▁Anna": 9393,
      "▁porwał": 9394,
      "▁nogi,": 9395,
      "▁wspomni": 9396,
      "▁obmy": 9397,
      "wa.\n": 9398,
      "▁mieszkał": 9399,
      "pety": 9400,
      "▁rozumiem": 9401,
      "▁parob": 9402,
      "kać,": 9403,
      "▁poroz": 9404,
      "▁otrzyma": 9405,
      "łowro": 9406,
      "▁mieszkańców": 9407,
      "wali,": 9408,
      "▁goście": 9409,
      "gali": 9410,
      "▁Ur": 9411,
      "in,": 9412,
      "▁napew": 9413,
      "▁rzecze": 9414,
      "▁nało": 9415,
      "▁najstar": 9416,
      "nu.": 9417,
      "▁oswo": 9418,
      "9]\n": 9419,
      "▁wysta": 9420,
      "▁rękoma": 9421,
      "▁losu": 9422,
      "▁uważa": 9423,
      "▁porów": 9424,
      "▁handl": 9425,
      "▁nie.": 9426,
      "▁Tę": 9427,
      "▁wodzie": 9428,
      "▁fut": 9429,
      "▁charaktery": 9430,
      "▁August": 9431,
      "▁przekle": 9432,
      "▁będziecie": 9433,
      "▁Zw": 9434,
      "▁celem": 9435,
      "▁Sędzi": 9436,
      "▁rozmaitych": 9437,
      "łka": 9438,
      "rzeni": 9439,
      "▁Chrystusa": 9440,
      "▁zrobiła": 9441,
      "lały": 9442,
      "8]\n": 9443,
      "▁Boży": 9444,
      "?\n\n\n": 9445,
      "mej": 9446,
      "cznością": 9447,
      "owała,": 9448,
      "sz!": 9449,
      "▁Sch": 9450,
      "▁przyzwy": 9451,
      "▁odraz": 9452,
      "▁trakt": 9453,
      "▁pysz": 9454,
      "wym,": 9455,
      "wamy": 9456,
      "▁Będę": 9457,
      "nieśli": 9458,
      "▁obraż": 9459,
      "▁czasami": 9460,
      "▁szczęścia,": 9461,
      "▁wysokie": 9462,
      "▁kształt": 9463,
      "▁piekiel": 9464,
      "▁popie": 9465,
      "▁bram": 9466,
      "▁wstyd": 9467,
      "▁łyż": 9468,
      "▁skrzyp": 9469,
      "▁wytwor": 9470,
      "▁Nau": 9471,
      "▁polskich": 9472,
      "▁Ciebie": 9473,
      "hand": 9474,
      "szała": 9475,
      "▁mur": 9476,
      "▁powód": 9477,
      "▁pozostaje": 9478,
      "zę": 9479,
      "▁wpo": 9480,
      "▁Znaj": 9481,
      "▁ledwo": 9482,
      "▁niepoję": 9483,
      "tę.": 9484,
      "eta": 9485,
      "marz": 9486,
      "▁krzesła": 9487,
      "▁momen": 9488,
      "▁Wer": 9489,
      ".\n\nZ": 9490,
      "zmu,": 9491,
      "szar": 9492,
      "▁szer": 9493,
      "▁moje,": 9494,
      "▁przestrzeni": 9495,
      "▁sprawiedliwości": 9496,
      "▁chrześcij": 9497,
      "ciem,": 9498,
      "▁boj": 9499,
      "ospo": 9500,
      "czom": 9501,
      "▁wilgo": 9502,
      "▁samemu": 9503,
      "▁spojrzenia": 9504,
      "▁włości": 9505,
      "▁zachodzi": 9506,
      "▁Zaczę": 9507,
      "szczą": 9508,
      "▁zażąd": 9509,
      "nego.\n": 9510,
      "▁zewnątrz": 9511,
      "es,": 9512,
[...]
