{
  "version": "1.0",
  "truncation": null,
  "padding": null,
  "added_tokens": [
    {
      "id": 0,
      "content": "<UNK>",
      "single_word": false,
      "lstrip": false,
      "rstrip": false,
      "normalized": false,
      "special": true
    },
    {
      "id": 1,
      "content": "<BOS>",
      "single_word": false,
      "lstrip": false,
      "rstrip": false,
      "normalized": false,
      "special": true
    },
    {
      "id": 2,
      "content": "<PAD>",
      "single_word": false,
      "lstrip": false,
      "rstrip": false,
      "normalized": false,
      "special": true
    },
    {
      "id": 3,
      "content": "<EOS>",
      "single_word": false,
      "lstrip": false,
      "rstrip": false,
      "normalized": false,
      "special": true
    }
  ],
  "normalizer": {
    "type": "NFC"
  },
  "pre_tokenizer": {
    "type": "ByteLevel",
    "add_prefix_space": false,
    "trim_offsets": true,
    "use_regex": true
  },
  "post_processor": {
    "type": "Sequence",
    "processors": [
      {
        "type": "ByteLevel",
        "add_prefix_space": true,
        "trim_offsets": true,
        "use_regex": true
      },
      {
        "type": "TemplateProcessing",
        "single": [
          {
            "SpecialToken": {
              "id": "<BOS>",
              "type_id": 0
            }
          },
          {
            "Sequence": {
              "id": "A",
              "type_id": 0
            }
          },
          {
            "SpecialToken": {
              "id": "<EOS>",
              "type_id": 0
            }
          }
        ],
        "pair": [
          {
            "SpecialToken": {
              "id": "<BOS>",
              "type_id": 0
            }
          },
          {
            "Sequence": {
              "id": "A",
              "type_id": 0
            }
          },
          {
            "SpecialToken": {
              "id": "<EOS>",
              "type_id": 0
            }
          },
          {
            "SpecialToken": {
              "id": "<BOS>",
              "type_id": 1
            }
          },
          {
            "Sequence": {
              "id": "B",
              "type_id": 1
            }
          },
          {
            "SpecialToken": {
              "id": "<EOS>",
              "type_id": 1
            }
          }
        ],
        "special_tokens": {
          "<BOS>": {
            "id": "<BOS>",
            "ids": [
              1
            ],
            "tokens": [
              "<BOS>"
            ]
          },
          "<EOS>": {
            "id": "<EOS>",
            "ids": [
              3
            ],
            "tokens": [
              "<EOS>"
            ]
          }
        }
      }
    ]
  },
  "decoder": {
    "type": "ByteLevel",
    "add_prefix_space": true,
    "trim_offsets": true,
    "use_regex": true
  },
  "model": {
    "type": "BPE",
    "dropout": null,
    "unk_token": "<UNK>",
    "continuing_subword_prefix": null,
    "end_of_word_suffix": null,
    "fuse_unk": false,
    "byte_fallback": false,
    "ignore_merges": false,
    "vocab": {
      "<UNK>": 0,
      "<BOS>": 1,
      "<PAD>": 2,
      "<EOS>": 3,
      "!": 4,
      "\"": 5,
      "#": 6,
      "$": 7,
      "%": 8,
      "&": 9,
      "'": 10,
      "(": 11,
      ")": 12,
      "*": 13,
      "+": 14,
      ",": 15,
      "-": 16,
      ".": 17,
      "/": 18,
      "0": 19,
      "1": 20,
      "2": 21,
      "3": 22,
      "4": 23,
      "5": 24,
      "6": 25,
      "7": 26,
      "8": 27,
      "9": 28,
      ":": 29,
      ";": 30,
      "<": 31,
      "=": 32,
      ">": 33,
      "?": 34,
      "@": 35,
      "A": 36,
      "B": 37,
      "C": 38,
      "D": 39,
      "E": 40,
      "F": 41,
      "G": 42,
      "H": 43,
      "I": 44,
      "J": 45,
      "K": 46,
      "L": 47,
      "M": 48,
      "N": 49,
      "O": 50,
      "P": 51,
      "Q": 52,
      "R": 53,
      "S": 54,
      "T": 55,
      "U": 56,
      "V": 57,
      "W": 58,
      "X": 59,
      "Y": 60,
      "Z": 61,
      "[": 62,
      "\\": 63,
      "]": 64,
      "^": 65,
      "_": 66,
      "`": 67,
      "a": 68,
      "b": 69,
      "c": 70,
      "d": 71,
      "e": 72,
      "f": 73,
      "g": 74,
      "h": 75,
      "i": 76,
      "j": 77,
      "k": 78,
      "l": 79,
      "m": 80,
      "n": 81,
      "o": 82,
      "p": 83,
      "q": 84,
      "r": 85,
      "s": 86,
      "t": 87,
      "u": 88,
      "v": 89,
      "w": 90,
      "x": 91,
      "y": 92,
      "z": 93,
      "{": 94,
      "|": 95,
      "}": 96,
      "~": 97,
      "¡": 98,
      "¢": 99,
      "£": 100,
      "¤": 101,
      "¥": 102,
      "¦": 103,
      "§": 104,
      "¨": 105,
      "©": 106,
      "ª": 107,
      "«": 108,
      "¬": 109,
      "®": 110,
      "¯": 111,
      "°": 112,
      "±": 113,
      "²": 114,
      "³": 115,
      "´": 116,
      "µ": 117,
      "¶": 118,
      "·": 119,
      "¸": 120,
      "¹": 121,
      "º": 122,
      "»": 123,
      "¼": 124,
      "½": 125,
      "¾": 126,
      "¿": 127,
      "Â": 128,
      "Ã": 129,
      "Ä": 130,
      "Å": 131,
      "Æ": 132,
      "Ç": 133,
      "È": 134,
      "É": 135,
      "Ê": 136,
      "Ë": 137,
      "Ì": 138,
      "Í": 139,
      "Î": 140,
      "Ï": 141,
      "Ð": 142,
      "Ñ": 143,
      "Ò": 144,
      "Ó": 145,
      "Ô": 146,
      "Õ": 147,
      "Ö": 148,
      "×": 149,
      "Ø": 150,
      "Ù": 151,
      "Ú": 152,
      "Û": 153,
      "Ü": 154,
      "Ý": 155,
      "Þ": 156,
      "ß": 157,
      "à": 158,
      "á": 159,
      "â": 160,
      "ã": 161,
      "ä": 162,
      "å": 163,
      "æ": 164,
      "ç": 165,
      "è": 166,
      "é": 167,
      "ê": 168,
      "ë": 169,
      "ì": 170,
      "í": 171,
      "î": 172,
      "ï": 173,
      "ð": 174,
      "ó": 175,
      "ô": 176,
      "ĉ": 177,
      "Ċ": 178,
      "č": 179,
      "Ġ": 180,
      "ġ": 181,
      "Ģ": 182,
      "ģ": 183,
      "Ĥ": 184,
      "ĥ": 185,
      "Ħ": 186,
      "ħ": 187,
      "Ĩ": 188,
      "ĩ": 189,
      "Ī": 190,
      "ī": 191,
      "Ĭ": 192,
      "ĭ": 193,
      "Į": 194,
      "į": 195,
      "İ": 196,
      "ı": 197,
      "Ĳ": 198,
      "ĳ": 199,
      "Ĵ": 200,
      "ĵ": 201,
      "Ķ": 202,
      "ķ": 203,
      "ĸ": 204,
      "Ĺ": 205,
      "ĺ": 206,
      "Ļ": 207,
      "ļ": 208,
      "Ľ": 209,
      "ľ": 210,
      "Ŀ": 211,
      "ŀ": 212,
      "Ł": 213,
      "ł": 214,
      "Ń": 215,
      "ie": 216,
      "Ġp": 217,
      "ÅĤ": 218,
      "Ġw": 219,
      "Ġs": 220,
      "Ġn": 221,
      "ÄĻ": 222,
      "Ġz": 223,
      "cz": 224,
      "Ġt": 225,
      "Äħ": 226,
      "Å¼": 227,
      "Ġd": 228,
      "ow": 229,
      "ch": 230,
      "Ġm": 231,
      "rz": 232,
      "ra": 233,
      "st": 234,
      "Ã³": 235,
      "ia": 236,
      "Ġo": 237,
      "ÅĽ": 238,
      "Ġj": 239,
      "sz": 240,
      "Ġk": 241,
      "nie": 242,
      "Ġna": 243,
      "Ġi": 244,
      "iÄĻ": 245,
      "Äĩ": 246,
      "ro": 247,
      "dz": 248,
      "Ġpo": 249,
      "le": 250,
      "ak": 251,
      "Ġb": 252,
      "am": 253,
      "an": 254,
      "go": 255,
      "rze": 256,
      "Ġdo": 257,
      "Ġnie": 258,
      "ne": 259,
      "li": 260,
      "ar": 261,
      "Ġje": 262,
      "na": 263,
      "ny": 264,
      "ni": 265,
      "ĠsiÄĻ": 266,
      "ka": 267,
      "Å¼e": 268,
      "ÅĤa": 269,
      "Ġza": 270,
      "ci": 271,
      "re": 272,
      "ki": 273,
      "Ã³w": 274,
      "Ġa": 275,
      "Ġwy": 276,
      "ko": 277,
      "la": 278,
      "czy": 279,
      "Ġu": 280,
      "Ġc": 281,
      "em": 282,
      "rzy": 283,
      "Ġto": 284,
      "ty": 285,
      "ÅĤo": 286,
      "en": 287,
      "jÄħ": 288,
      "ry": 289,
      "wa": 290,
      "je": 291,
      "ta": 292,
      "Ġmo": 293,
      "da": 294,
      "Ġko": 295,
      "Ġprze": 296,
      "te": 297,
      "Ġjak": 298,
      "ym": 299,
      "dzie": 300,
      "ĠP": 301,
      "oÅĽ": 302,
      "owa": 303,
      "Ġte": 304,
      "cie": 305,
      "Ġjest": 306,
      "cze": 307,
      "ku": 308,
      "po": 309,
      "ce": 310,
      "Ġg": 311,
      "Ġro": 312,
      "ĠÅ¼e": 313,
      "Ġod": 314,
      "dy": 315,
      "ĠW": 316,
      "to": 317,
      "tÃ³": 318,
      "sta": 319,
      "wi": 320,
      "lu": 321,
      "wo": 322,
      "cj": 323,
      "ych": 324,
      "Ġma": 325,
      "..": 326,
      "ĠktÃ³": 327,
      "ob": 328,
      "dzi": 329,
      "Ġtak": 330,
      "kie": 331,
      "tu": 332,
      "er": 333,
      "Ġby": 334,
      "wie": 335,
      "Ġprzy": 336,
      "my": 337,
      "nia": 338,
      "Å¼y": 339,
      "ĠN": 340,
      "ÅĤy": 341,
      "Ġch": 342,
      "ÅĦ": 343,
      "cy": 344,
      "âĢ": 345,
      "raz": 346,
      "ru": 347,
      "as": 348,
      "sze": 349,
      "ĠS": 350,
      "Ġdz": 351,
      "Ġf": 352,
      "lo": 353,
      "mi": 354,
      "__": 355,
      "ÅĤam": 356,
      "no": 357,
      "ĠC": 358,
      "ĠJ": 359,
      "Ġcz": 360,
      "ĠT": 361,
      "by": 362,
      "ĠM": 363,
      "owie": 364,
      "Ġsz": 365,
      "Ġczy": 366,
      "szy": 367,
      "Ġpro": 368,
      "Ġwie": 369,
      "pi": 370,
      "nych": 371,
      "ma": 372,
      "Ġpod": 373,
      "owe": 374,
      "rÃ³": 375,
      "owan": 376,
      "du": 377,
      "ÅĤu": 378,
      "pa": 379,
      "de": 380,
      "Ġmi": 381,
      "ĠD": 382,
      "ĠÅĽ": 383,
      "Ġco": 384,
      "pra": 385,
      "ĠA": 386,
      "wia": 387,
      "mie": 388,
      "ĠK": 389,
      "Ġni": 390,
      "Ġale": 391,
      "or": 392,
      "nÄħ": 393,
      "oÅĽci": 394,
      "ja": 395,
      "Ġty": 396,
      "bi": 397,
      "Ġ-": 398,
      "si": 399,
      "Ġin": 400,
      "ĠZ": 401,
      "ca": 402,
      "bie": 403,
      "Ġdla": 404,
      "zy": 405,
      "ek": 406,
      "cia": 407,
      "Ġroz": 408,
      "ĠB": 409,
      "Ġ(": 410,
      "ami": 411,
      "Ġ1": 412,
      "Ġpra": 413,
      "ĠPo": 414,
      "ania": 415,
      "ba": 416,
      "Ġst": 417,
      "ĠO": 418,
      "Ġnaj": 419,
      "ga": 420,
      "pie": 421,
      "ĠâĢ": 422,
      "Åº": 423,
      "Ġze": 424,
      "we": 425,
      "Ġmie": 426,
      "niej": 427,
      "uÅ¼": 428,
      "Ġdzie": 429,
      "al": 430,
      "Ġob": 431,
      "mu": 432,
      "cji": 433,
      "wy": 434,
      "Ġlu": 435,
      "Ġjed": 436,
      "za": 437,
      "Ġbo": 438,
      "owi": 439,
      "nym": 440,
      "Ġspo": 441,
      "jÄĻ": 442,
      "Ġ2": 443,
      "nego": 444,
      "Ġka": 445,
      "ĠsÄħ": 446,
      "il": 447,
      "Ġbar": 448,
      "ÅĽci": 449,
      "mo": 450,
      "ez": 451,
      "ani": 452,
      "dzo": 453,
      "ĠktÃ³re": 454,
      "Ġtym": 455,
      "oÅĽÄĩ": 456,
      "owo": 457,
      "Ġle": 458,
      "pe": 459,
      "Ġgo": 460,
      "gi": 461,
      "nej": 462,
      "Ġe": 463,
      "____": 464,
      "...": 465,
      "jÄħc": 466,
      "on": 467,
      "lko": 468,
      "pu": 469,
      "ĠR": 470,
      "sa": 471,
      "ĠNa": 472,
      "ĠmoÅ¼e": 473,
      "Ġzna": 474,
      "praw": 475,
      "ĠbÄĻ": 476,
      "su": 477,
      "ĠwiÄĻ": 478,
      "owaÄĩ": 479,
      "Ġwi": 480,
      "cza": 481,
      "szyst": 482,
      "Ġprzez": 483,
      "Ġre": 484,
      "bo": 485,
      "rÃ³w": 486,
      "ĠktÃ³ry": 487,
      "Ġsie": 488,
      "ĠI": 489,
      "ÅĽÄĩ": 490,
      "sy": 491,
      "owy": 492,
      "ane": 493,
      "ski": 494,
      "enia": 495,
      "Ġmnie": 496,
      "ĠJe": 497,
      "Ġpa": 498,
      "Ġsam": 499,
      "Ġtego": 500,
      "Ġku": 501,
      "Ġmu": 502,
      "Ġczas": 503,
      "Ġpie": 504,
      "Ġtylko": 505,
      "ÅĤe": 506,
      "ĠNie": 507,
      "ĠjuÅ¼": 508,
      "Ġwszyst": 509,
      "amy": 510,
      "noÅĽci": 511,
      "Ġdob": 512,
      "Ġ\"": 513,
      "kÃ³w": 514,
      "sza": 515,
      "cho": 516,
      "sto": 517,
      "Ġswo": 518,
      "ÅĽcie": 519,
      "Ġh": 520,
      "kÄĻ": 521,
      "do": 522,
      "ÅĽli": 523,
      "Ġbardzo": 524,
      "Ġsk": 525,
      "skie": 526,
      "Ġra": 527,
      "Ġpe": 528,
      "Ġbez": 529,
      "Ġsob": 530,
      "Ġla": 531,
      "dni": 532,
      "im": 533,
      "szcze": 534,
      "gl": 535,
      "ĠteÅ¼": 536,
      "ĠG": 537,
      "Ġpoz": 538,
      "ter": 539,
      "men": 540,
      "kÄħ": 541,
      "Ġsta": 542,
      "rza": 543,
      "nak": 544,
      "cha": 545,
      "art": 546,
      "ÅĤÄħ": 547,
      "rÄĻ": 548,
      "cja": 549,
      "ana": 550,
      "Ġcie": 551,
      "Ġli": 552,
      "Å¼a": 553,
      "ĠmoÅ¼": 554,
      "dzia": 555,
      "rzÄħ": 556,
      "tÃ³w": 557,
      "osta": 558,
      "ÅĤem": 559,
      "owych": 560,
      "Ġmia": 561,
      "fi": 562,
      "ĠL": 563,
      "Ġja": 564,
      "tem": 565,
      "Ġsp": 566,
      "gu": 567,
      "Ġda": 568,
      "ĠâĢĵ": 569,
      "Ġwo": 570,
      "ĠbÄĻdzie": 571,
      "ĠÅ¼y": 572,
      "tycz": 573,
      "Ġos": 574,
      "zu": 575,
      "Ġraz": 576,
      "Ġoraz": 577,
      "ÅĤad": 578,
      "jem": 579,
      "Ġkon": 580,
      "sty": 581,
      "mia": 582,
      "powie": 583,
      "Ġlub": 584,
      "dÄĻ": 585,
      "Ġmam": 586,
      "Ġsobie": 587,
      "ĠwÅĤa": 588,
      "Ġcho": 589,
      "bu": 590,
      "siÄħ": 591,
      "sp": 592,
      "Ġprodu": 593,
      "sia": 594,
      "Ġca": 595,
      "niem": 596,
      "in": 597,
      "bra": 598,
      "dze": 599,
      "Ã³ÅĤ": 600,
      "czo": 601,
      "rw": 602,
      "nu": 603,
      "tk": 604,
      "Ġ20": 605,
      "Ġpi": 606,
      "stÄĻ": 607,
      "Ġpowie": 608,
      "ska": 609,
      "nÄĻ": 610,
      "rÃ³Å¼": 611,
      "dza": 612,
      "ste": 613,
      "ĠJak": 614,
      "ciÄħ": 615,
      "kiem": 616,
      "czÄħ": 617,
      "owane": 618,
      "Ġzd": 619,
      "sie": 620,
      "Ġta": 621,
      "czÄĻ": 622,
      "un": 623,
      "Ġmog": 624,
      "ĠkaÅ¼": 625,
      "Ġkie": 626,
      "ÅĽmy": 627,
      "io": 628,
      "wet": 629,
      "glÄħ": 630,
      "Ġzak": 631,
      "ĠZa": 632,
      "Ã³r": 633,
      "gra": 634,
      "cu": 635,
      "zna": 636,
      "me": 637,
      "Ġde": 638,
      "Ġprzed": 639,
      "ĠbyÄĩ": 640,
      "niu": 641,
      "Ġjeszcze": 642,
      "js": 643,
      "dziej": 644,
      "Ġcze": 645,
      "Ġpot": 646,
      "Ġjakie": 647,
      "Ġsu": 648,
      "ĠF": 649,
      "Ġtu": 650,
      "Ã³j": 651,
      "ĠmoÅ¼na": 652,
      "Ġmy": 653,
      "Ġtem": 654,
      "Ġce": 655,
      "Ġjednak": 656,
      "Ġproduk": 657,
      "ona": 658,
      "iÄĻk": 659,
      "Ã³b": 660,
      "Ġok": 661,
      "rak": 662,
      "Ġten": 663,
      "lej": 664,
      "noÅĽÄĩ": 665,
      "Ġwz": 666,
      "szym": 667,
      "Ġpew": 668,
      "Ġznaj": 669,
      "ĠuÅ¼y": 670,
      "Ġbu": 671,
      "Ġich": 672,
      "jÄħce": 673,
      "wiÄħ": 674,
      "Ġzosta": 675,
      "tego": 676,
      "ĠU": 677,
      "rÄħ": 678,
      "ÅĽnie": 679,
      "gie": 680,
      "Ġwar": 681,
      "owania": 682,
      "ĠrÃ³w": 683,
      "Ġtakie": 684,
      "Ġno": 685,
      "szych": 686,
      "ĠbyÅĤo": 687,
      "owanie": 688,
      "Ġsto": 689,
      "âĢĿ": 690,
      "cznie": 691,
      "Ġjej": 692,
      "Ġkil": 693,
      "Ġwa": 694,
      "ĠÅ": 695,
      "co": 696,
      "czne": 697,
      "ble": 698,
      "Ġba": 699,
      "Ġog": 700,
      "Ġdzi": 701,
      "ich": 702,
      "stÄĻp": 703,
      "spo": 704,
      "cje": 705,
      "Ġnawet": 706,
      "ĠTo": 707,
      "Ġwe": 708,
      "ĠâĢŀ": 709,
      "owej": 710,
      "Ġzro": 711,
      "ĠH": 712,
      "lÄĻ": 713,
      "szÄħ": 714,
      "ii": 715,
      "Ġjego": 716,
      "ĠczÄĻ": 717,
      "cyj": 718,
      "Ġroku": 719,
      "ĠrÃ³Å¼": 720,
      "Ġsy": 721,
      "Ġmiejs": 722,
      "lep": 723,
      "ĠMo": 724,
      "ĠwiÄĻc": 725,
      ").": 726,
      "sko": 727,
      "Ġme": 728,
      "ran": 729,
      "dÄħ": 730,
      "tnie": 731,
      "Ġodpowie": 732,
      "Ġkom": 733,
      "ĠtakÅ¼e": 734,
      "lnie": 735,
      "dÅº": 736,
      "owym": 737,
      "00": 738,
      "ĠDo": 739,
      "ĠE": 740,
      "Ġ3": 741,
      "ĠWy": 742,
      "Ġtej": 743,
      "tek": 744,
      "nik": 745,
      "rem": 746,
      "Ġzam": 747,
      "Ġgdy": 748,
      "Ġak": 749,
      "ony": 750,
      "ĠCh": 751,
      "nika": 752,
      "ĠrÃ³wnie": 753,
      "niÄĻ": 754,
      "os": 755,
      "rowa": 756,
      "one": 757,
      "________": 758,
      "ze": 759,
      "oba": 760,
      "Ġwyko": 761,
      "pad": 762,
      "Ġsm": 763,
      "stu": 764,
      "liw": 765,
      "at": 766,
      "yta": 767,
      "tor": 768,
      "Ġspraw": 769,
      "lar": 770,
      "cjÄĻ": 771,
      "so": 772,
      "owego": 773,
      "kÅĤad": 774,
      "lam": 775,
      "czu": 776,
      "Ġswoje": 777,
      "czas": 778,
      "Ġpierw": 779,
      "Ġrze": 780,
      "pis": 781,
      "Ġnas": 782,
      "Ġwyda": 783,
      "ĠrÃ³wnieÅ¼": 784,
      "ÅĤÃ³w": 785,
      "Ġspos": 786,
      "dnie": 787,
      "any": 788,
      "Ġop": 789,
      "liÅĽmy": 790,
      "dzÄħ": 791,
      "rzÄĻ": 792,
      "ĠcoÅĽ": 793,
      "tni": 794,
      "um": 795,
      "waÄĩ": 796,
      "cej": 797,
      "ĠÅĽwia": 798,
      "Ġpre": 799,
      "prze": 800,
      "ent": 801,
      "Ġteraz": 802,
      "Ġsamo": 803,
      "Ġtam": 804,
      "Ġek": 805,
      "czyÄĩ": 806,
      "ĠÅĤa": 807,
      "rzu": 808,
      "Ġwybra": 809,
      "Ġstro": 810,
      "tki": 811,
      "Ġpowi": 812,
      "czenia": 813,
      "ĠÅĽwie": 814,
      "dzenia": 815,
      "Ġuwa": 816,
      "for": 817,
      "iÄĻki": 818,
      "Ġser": 819,
      "Ġdru": 820,
      "Ġaby": 821,
      "ĠsÅĤu": 822,
      "ej": 823,
      "tyw": 824,
      "Ġjaki": 825,
      "owia": 826,
      "ĠDz": 827,
      "Ġdzia": 828,
      "ciu": 829,
      "Ġrodzi": 830,
      "Ġzw": 831,
      "Ġkiedy": 832,
      "ĠbyÅĤ": 833,
      "dzy": 834,
      "Ġzrobi": 835,
      "daÄĩ": 836,
      "ju": 837,
      "kach": 838,
      "owÄħ": 839,
      "ĠdÅĤu": 840,
      "Ġzaw": 841,
      "bli": 842,
      "cÄħ": 843,
      "Ġnad": 844,
      "arty": 845,
      "kt": 846,
      "se": 847,
      "Ġmode": 848,
      "Ġlat": 849,
      "Ġal": 850,
      "up": 851,
      "Ġdziec": 852,
      "Ġszy": 853,
      "Ġ19": 854,
      "Ġwszystki": 855,
      "Ġoka": 856,
      "aniu": 857,
      "szÄĻ": 858,
      "Ġgra": 859,
      "Ġmoje": 860,
      "Ġpow": 861,
      "ĠktÃ³ra": 862,
      "dziÄĩ": 863,
      "Ã³wi": 864,
      "lan": 865,
      "ĠPrze": 866,
      "Ġ201": 867,
      "yba": 868,
      "ĠMa": 869,
      "fon": 870,
      "ĠksiÄħ": 871,
      "Ġproble": 872,
      "Ġtele": 873,
      "ĠurzÄħ": 874,
      "jemy": 875,
      "trzy": 876,
      "ji": 877,
      "Ġtrze": 878,
      "Ġwszystko": 879,
      "ĠwÅĤo": 880,
      "sk": 881,
      "Ġfi": 882,
      "wiÄĻ": 883,
      "siÄĻ": 884,
      "nki": 885,
      "czywi": 886,
      "),": 887,
      "Ġfa": 888,
      "Ġosob": 889,
      "rod": 890,
      "Ġtro": 891,
      "Ġry": 892,
      "Ġpraw": 893,
      "peÅĤ": 894,
      "cÃ³w": 895,
      "chÄĻ": 896,
      "res": 897,
      "Ġwiele": 898,
      "Na": 899,
      "Ġfil": 900,
      "ĠduÅ¼": 901,
      "om": 902,
      "Ġdomu": 903,
      "Ġdro": 904,
      "ĠÅ¼eby": 905,
      "Ġgdzie": 906,
      "bym": 907,
      "Ġdu": 908,
      "Ġrobi": 909,
      "Ġau": 910,
      "Ġkilka": 911,
      "Ġwiem": 912,
      "Ġtra": 913,
      "Ġzale": 914,
      "Ġfo": 915,
      "Ġdoda": 916,
      "Ġtych": 917,
      "unk": 918,
      "gÄĻ": 919,
      "Ġbardziej": 920,
      "Ġ,": 921,
      "Ġ5": 922,
      "Ġbi": 923,
      "ĠwyglÄħ": 924,
      "lne": 925,
      "Ġsko": 926,
      "Ġdobrze": 927,
      "Ġjestem": 928,
      "Ġpu": 929,
      "ÅĦst": 930,
      "skiego": 931,
      "nymi": 932,
      "Nie": 933,
      "ec": 934,
      "Ġjako": 935,
      "biera": 936,
      "waÅ¼": 937,
      "Ġnajlep": 938,
      "szcza": 939,
      "szej": 940,
      "Ġwsp": 941,
      "tka": 942,
      "nku": 943,
      "anych": 944,
      "Ġele": 945,
      "uje": 946,
      "Ġmiesz": 947,
      "cÄĻ": 948,
      "ĠwiÄĻk": 949,
      "tach": 950,
      "Ġnich": 951,
      "Ġzap": 952,
      "Ġwarto": 953,
      "war": 954,
      "wki": 955,
      "Ġnic": 956,
      "Ġci": 957,
      "ĠniÅ¼": 958,
      "Ġsmart": 959,
      "ĠBo": 960,
      "Ġdzieci": 961,
      "ĠKo": 962,
      "Ġpotrze": 963,
      "ĠkoÅĦ": 964,
      "ĠCo": 965,
      "cen": 966,
      "Ġlo": 967,
      "rud": 968,
      "Ġniez": 969,
      "szego": 970,
      "Ġpracy": 971,
      "ĠbyÅĤa": 972,
      "Ġkolo": 973,
      "ĠwiÄĻcej": 974,
      "pach": 975,
      "Ġpomo": 976,
      "ĠPol": 977,
      "Ġosta": 978,
      "taj": 979,
      "ĠwybraÄĩ": 980,
      "nek": 981,
      "Ġ4": 982,
      "tku": 983,
      "ng": 984,
      "Ġim": 985,
      "ĠAle": 986,
      "Ġszko": 987,
      "Ġzawsze": 988,
      "bar": 989,
      "ĠmajÄħ": 990,
      "fer": 991,
      "stan": 992,
      "ĠjeÅĽli": 993,
      "od": 994,
      "Ġchce": 995,
      "sÅĤ": 996,
      "Ġszyb": 997,
      "Ġstan": 998,
      "ha": 999,
      "Ġspra": 1000,
      "ĠCzy": 1001,
      "wyk": 1002,
      "ciÄĩ": 1003,
      "Ġchyba": 1004,
      "szu": 1005,
      "ĠwÅĤaÅĽnie": 1006,
      "wczy": 1007,
      "Ġsiebie": 1008,
      "el": 1009,
      "Ġpole": 1010,
      "sÅĤu": 1011,
      "tra": 1012,
      "Ġzda": 1013,
      "ÅĤowie": 1014,
      "dem": 1015,
      "Ġhi": 1016,
      "ĠksiÄħÅ¼": 1017,
      "Ġga": 1018,
      "ĠjÄħ": 1019,
      "czenie": 1020,
      "Ġzn": 1021,
      "skiej": 1022,
      "piej": 1023,
      "Ġdy": 1024,
      "two": 1025,
      "Ġpowin": 1026,
      "amiÄĻ": 1027,
      "Ġnam": 1028,
      "Ġpowo": 1029,
      "ĠJa": 1030,
      "czny": 1031,
      "ĠosÃ³b": 1032,
      "owaÅĤ": 1033,
      "ĠmÄĻ": 1034,
      "Ġkobie": 1035,
      "ĠOd": 1036,
      "got": 1037,
      "ĠmÃ³wi": 1038,
      "czej": 1039,
      "gÃ³": 1040,
      "zie": 1041,
      "ĠÅ¼": 1042,
      "ĠsposÃ³b": 1043,
      "cznych": 1044,
      "ĠKa": 1045,
      "rÃ³d": 1046,
      "Ġlek": 1047,
      "jÄħcy": 1048,
      "stem": 1049,
      "niÄĩ": 1050,
      "Ġnim": 1051,
      "tura": 1052,
      "Ġszcze": 1053,
      "Ġzmie": 1054,
      "wiÄħz": 1055,
      "kami": 1056,
      "Å¼ej": 1057,
      "Ġkupi": 1058,
      "ckie": 1059,
      "noÅĽciÄħ": 1060,
      "tÄĻ": 1061,
      "ur": 1062,
      "Ġznajdzie": 1063,
      "fek": 1064,
      "staw": 1065,
      "tÄħ": 1066,
      "Ġon": 1067,
      "py": 1068,
      "âĢī": 1069,
      "Ġczasu": 1070,
      "Ġopi": 1071,
      "ĠktÃ³rym": 1072,
      "Ġalbo": 1073,
      "ĠCz": 1074,
      "skich": 1075,
      "ĠTe": 1076,
      "ĠMi": 1077,
      "Ġmar": 1078,
      "ÅĤoÅĽci": 1079,
      "Ġwp": 1080,
      "Ġkolej": 1081,
      "Ġtrzeba": 1082,
      "dziaÅĤ": 1083,
      "rg": 1084,
      "chodzi": 1085,
      "Ġnale": 1086,
      "Ġwszystkie": 1087,
      "aka": 1088,
      "jÄħcych": 1089,
      "ĠÅ¼a": 1090,
      "Ġpoja": 1091,
      "Ġnau": 1092,
      "czywiÅĽcie": 1093,
      "ĠmiÄĻ": 1094,
      "zd": 1095,
      "ene": 1096,
      "Ġchcia": 1097,
      "Ġposia": 1098,
      "Ġmusi": 1099,
      "Ġsa": 1100,
      "ĠSpraw": 1101,
      "owany": 1102,
      "ĠciÄħ": 1103,
      "tych": 1104,
      "Ġtwo": 1105,
      "pular": 1106,
      "ĠPod": 1107,
      "ĠzdjÄĻ": 1108,
      "sÃ³w": 1109,
      "sku": 1110,
      "ĠdziaÅĤa": 1111,
      "ĠRe": 1112,
      "ĠJed": 1113,
      "Ġpas": 1114,
      "ĠmogÄħ": 1115,
      "Ġsku": 1116,
      "Ġdom": 1117,
      "ĠciÄĻ": 1118,
      "wania": 1119,
      "ĠJeÅĽli": 1120,
      "Ġ:": 1121,
      "dzenie": 1122,
      "Ġarty": 1123,
      "stety": 1124,
      "ÅĤym": 1125,
      "prawdÄĻ": 1126,
      "ĠsÅĤucha": 1127,
      "tera": 1128,
      "Ġspe": 1129,
      "ÅĤÄĻ": 1130,
      "naj": 1131,
      "ĠwÅĤas": 1132,
      "kry": 1133,
      "Ġ.": 1134,
      "tro": 1135,
      "ĠRo": 1136,
      "dzieÄĩ": 1137,
      "Ġcia": 1138,
      "lÄħ": 1139,
      "owni": 1140,
      "ĠktÃ³rych": 1141,
      "ĠÅļ": 1142,
      "ĠPrzy": 1143,
      "ĠkaÅ¼de": 1144,
      "iu": 1145,
      "czki": 1146,
      "czego": 1147,
      "wiet": 1148,
      "Ġwielu": 1149,
      "Ġpodczas": 1150,
      "tr": 1151,
      "ĠmyÅĽ": 1152,
      "tel": 1153,
      "ĠwÄħ": 1154,
      "ĠDla": 1155,
      "nÄħÄĩ": 1156,
      "Ġpol": 1157,
      "Ġsi": 1158,
      "ĠbÄĻdÄħ": 1159,
      "Ġtaki": 1160,
      "ĠtrochÄĻ": 1161,
      "tami": 1162,
      "Po": 1163,
      "ĠczÄĻsto": 1164,
      "rzysta": 1165,
      "maga": 1166,
      "ĠPro": 1167,
      "Ġbra": 1168,
      "pew": 1169,
      "Ġjedno": 1170,
      "Ġprzypad": 1171,
      "ĠTak": 1172,
      "ĠWie": 1173,
      "Ġgru": 1174,
      "bardziej": 1175,
      "niÄħ": 1176,
      "waÅĤ": 1177,
      "Ġper": 1178,
      "Ġso": 1179,
      "dzÄĻ": 1180,
      "star": 1181,
      "Ġrodza": 1182,
      "Ġpowiet": 1183,
      "Ġproblem": 1184,
      "strze": 1185,
      "kÅĤa": 1186,
      "lika": 1187,
      "tak": 1188,
      "Ġide": 1189,
      "Ġinnych": 1190,
      "mniej": 1191,
      "den": 1192,
      "Ġstu": 1193,
      "fe": 1194,
      "Ja": 1195,
      "rt": 1196,
      "Ġchwi": 1197,
      "Ġpomy": 1198,
      "ĠpÅĤy": 1199,
      "Ġokre": 1200,
      "Ġkto": 1201,
      "rek": 1202,
      "wÃ³j": 1203,
      "Ġru": 1204,
      "Ġ6": 1205,
      "ĠdziÄĻki": 1206,
      "Ġczym": 1207,
      "ĠmieÄĩ": 1208,
      "ale": 1209,
      "ktÃ³": 1210,
      "Ġwybo": 1211,
      "ĠzÅĤo": 1212,
      "Ġstar": 1213,
      "god": 1214,
      "gdy": 1215,
      "Ġan": 1216,
      "Ġzach": 1217,
      "glÄĻ": 1218,
      "ot": 1219,
      "ĠIn": 1220,
      "Ġstra": 1221,
      "dar": 1222,
      "powia": 1223,
      "ĠuÅ¼ytk": 1224,
      "Ġlep": 1225,
      "Ġtemu": 1226,
      "try": 1227,
      "rom": 1228,
      "Je": 1229,
      "cki": 1230,
      "ĠpeÅĤ": 1231,
      "ud": 1232,
      "wier": 1233,
      "Ġchodzi": 1234,
      "para": 1235,
      "Ġcieka": 1236,
      "ĠJest": 1237,
      "liwoÅĽci": 1238,
      "skim": 1239,
      "Ġfunk": 1240,
      "wiÄĩ": 1241,
      "logi": 1242,
      "Ġkla": 1243,
      "Ġzapach": 1244,
      "tua": 1245,
      "Ġtrzy": 1246,
      "ĠuwagÄĻ": 1247,
      "dia": 1248,
      "ĠpoczÄħ": 1249,
      "lny": 1250,
      "ri": 1251,
      "wanie": 1252,
      "forma": 1253,
      "Ġoczy": 1254,
      "Ġprodukty": 1255,
      "Å¼yÄĩ": 1256,
      "ĠdostÄĻp": 1257,
      "Ġtelefon": 1258,
      "ĠnaprawdÄĻ": 1259,
      "Ġwra": 1260,
      "Ġkar": 1261,
      "Ġniej": 1262,
      "Ġczego": 1263,
      "Ġofer": 1264,
      "ĠNaj": 1265,
      "Ġmamy": 1266,
      "lki": 1267,
      "Ġbie": 1268,
      "\".": 1269,
      "Ġwszystkim": 1270,
      "Ġdlatego": 1271,
      "!!": 1272,
      "Ġprez": 1273,
      "ĠX": 1274,
      "ĠÅ¼ycia": 1275,
      "pro": 1276,
      "wala": 1277,
      "Ġoko": 1278,
      "ĠduÅ¼o": 1279,
      "ĠskÃ³": 1280,
      "bia": 1281,
      "Ġnajbardziej": 1282,
      "Ġsty": 1283,
      "kre": 1284,
      "tedy": 1285,
      "Ġani": 1286,
      "Ġzdr": 1287,
      "Ġzde": 1288,
      "ĠgÅĤo": 1289,
      "czes": 1290,
      "Ġdobre": 1291,
      "niejsze": 1292,
      "chni": 1293,
      "ĠmÅĤo": 1294,
      "toÅĽ": 1295,
      "Ġzie": 1296,
      "Ã³Åº": 1297,
      "bÄĻ": 1298,
      "Ġnp": 1299,
      "alnie": 1300,
      "ĠSz": 1301,
      "ĠPa": 1302,
      "Ġfor": 1303,
      "tam": 1304,
      "rum": 1305,
      "ĠrÄĻ": 1306,
      "liza": 1307,
      "raj": 1308,
      "szta": 1309,
      "Ġcy": 1310,
      "ĠSprawdÅº": 1311,
      "Ġrazem": 1312,
      "Ġprostu": 1313,
      "Ġwia": 1314,
      "ĠwaÅ¼": 1315,
      "owana": 1316,
      "ÅĤego": 1317,
      "Ġposta": 1318,
      "ĠpamiÄĻ": 1319,
      "Ġpyta": 1320,
      "Ġinte": 1321,
      "ĠWi": 1322,
      "cznej": 1323,
      "ĠzrobiÄĩ": 1324,
      "Ġkole": 1325,
      "Ġefek": 1326,
      "dÃ³w": 1327,
      "Ġmoc": 1328,
      "log": 1329,
      "ĠzwiÄħz": 1330,
      "Ġdobry": 1331,
      "ĠpiÄĻk": 1332,
      "Ġartyku": 1333,
      "Ġostatni": 1334,
      "oby": 1335,
      "chu": 1336,
      "Ġkos": 1337,
      "stÄħ": 1338,
      "ĠsÅĤo": 1339,
      "sÅĤa": 1340,
      "Ġdosta": 1341,
      "ĠpÃ³ÅĤ": 1342,
      "ĠCi": 1343,
      "tne": 1344,
      "rÃ³b": 1345,
      "dajÄħ": 1346,
      "Ġczyli": 1347,
      "trze": 1348,
      "ĠÅĽwiat": 1349,
      "Ġszu": 1350,
      "chy": 1351,
      "Å¼Äħ": 1352,
      "stor": 1353,
      "cyd": 1354,
      "lkie": 1355,
      "Ġpara": 1356,
      "czna": 1357,
      "Ġone": 1358,
      "Å¼enie": 1359,
      "Ġkonie": 1360,
      "Ġtrud": 1361,
      "Ġsze": 1362,
      "ĠkrÃ³": 1363,
      "cznego": 1364,
      "Ġr": 1365,
      "di": 1366,
      "tury": 1367,
      "Ġczu": 1368,
      "duje": 1369,
      "cam": 1370,
      "Ġdziewczy": 1371,
      "cjÄħ": 1372,
      "ĠwzglÄĻ": 1373,
      "ĠbyÅĤy": 1374,
      "czÄĻÅĽcie": 1375,
      "Ġzaba": 1376,
      "Ġludzi": 1377,
      "ĠkaÅ¼dy": 1378,
      "teria": 1379,
      "pisane": 1380,
      "zji": 1381,
      "ÅĤoÅĽÄĩ": 1382,
      "Ġju": 1383,
      "Ġgodzi": 1384,
      "pisa": 1385,
      "dÅĤ": 1386,
      "ĠÅĽmie": 1387,
      "ĠÅ¼ycie": 1388,
      "ĠczÅĤowie": 1389,
      "ge": 1390,
      "tycznie": 1391,
      "ers": 1392,
      "Ġniego": 1393,
      "Ġjedy": 1394,
      "Ġmniej": 1395,
      "Ġzad": 1396,
      "ĠktoÅĽ": 1397,
      "Ġuro": 1398,
      "Å¼u": 1399,
      "Ġponie": 1400,
      "Ġwyso": 1401,
      "Ġjeden": 1402,
      "ple": 1403,
      "tery": 1404,
      "ÅĤabym": 1405,
      "ĠogÃ³": 1406,
      "tar": 1407,
      "Ġpar": 1408,
      "Ġinter": 1409,
      "ĠgÅĤÃ³w": 1410,
      "Ġeksp": 1411,
      "Ġszybko": 1412,
      "ĠwÅĤaÅĽci": 1413,
      "Ġpowietrza": 1414,
      "Ġpora": 1415,
      "ĠdzieÅĦ": 1416,
      "Ġinne": 1417,
      "ĠnaleÅ¼y": 1418,
      "Ġsytua": 1419,
      "zo": 1420,
      "ĠNo": 1421,
      "alne": 1422,
      "trz": 1423,
      "lnych": 1424,
      "Ġinforma": 1425,
      "Ġtakich": 1426,
      "Ã³d": 1427,
      "Ġpodob": 1428,
      "Ġpan": 1429,
      "stra": 1430,
      "ĠÅ¼ad": 1431,
      "ĠktÃ³rej": 1432,
      "Ġzapew": 1433,
      "kro": 1434,
      "Ġjeste": 1435,
      "ĠktÃ³rzy": 1436,
      "Ġpopular": 1437,
      "Ġdwa": 1438,
      "byt": 1439,
      "Ġtyle": 1440,
      "Ġzapo": 1441,
      "ĠchoÄĩ": 1442,
      "Ġcoraz": 1443,
      "Ġdrugie": 1444,
      "Ġprzygot": 1445,
      "ĠTwo": 1446,
      "dzien": 1447,
      "Ġ10": 1448,
      "Ġzar": 1449,
      "Ġdnia": 1450,
      "Ġona": 1451,
      "ĠAr": 1452,
      "liz": 1453,
      "ment": 1454,
      "Ġdni": 1455,
      "he": 1456,
      "per": 1457,
      "Ġwieku": 1458,
      "ÅĽla": 1459,
      "ÅĽwia": 1460,
      "zuje": 1461,
      "Ġobec": 1462,
      "ĠâĢĶ": 1463,
      "Ġwtedy": 1464,
      "Ġspa": 1465,
      "Ġstanie": 1466,
      "dowane": 1467,
      "czeÅĽ": 1468,
      "Ġodpowiedni": 1469,
      "rwa": 1470,
      "sor": 1471,
      "ĠmogÄĻ": 1472,
      "czka": 1473,
      "ĠaÅ¼": 1474,
      "ĠWar": 1475,
      "nic": 1476,
      "Ġkilku": 1477,
      "ĠMar": 1478,
      "wykle": 1479,
      "trzyma": 1480,
      "Ġumie": 1481,
      "ser": 1482,
      "ĠmiaÅĤam": 1483,
      "Ġse": 1484,
      "szcz": 1485,
      "ĠMoÅ¼e": 1486,
      "piero": 1487,
      "naÄĩ": 1488,
      "To": 1489,
      "emu": 1490,
      "kaÄĩ": 1491,
      "che": 1492,
      "Ġpla": 1493,
      "prasz": 1494,
      "niki": 1495,
      "nka": 1496,
      "Ġprak": 1497,
      "Ġ7": 1498,
      "ciw": 1499,
      "ĠmiÄĻdzy": 1500,
      "owaÅĤa": 1501,
      "ĠsprzÄĻ": 1502,
      "Ġmiejsce": 1503,
      "Ġmasz": 1504,
      "gÄħ": 1505,
      "Ġczasie": 1506,
      "Ġwszystkich": 1507,
      "Ġzu": 1508,
      "Ã³g": 1509,
      "nt": 1510,
      "ĠÅ»": 1511,
      "ĠV": 1512,
      "lak": 1513,
      "Ġ15": 1514,
      "ytat": 1515,
      "Ġdw": 1516,
      "Ġdziecka": 1517,
      "Ġpotem": 1518,
      "dek": 1519,
      "Ġkosme": 1520,
      "Ġpozwala": 1521,
      "Ġdobra": 1522,
      "Ġtemat": 1523,
      "tania": 1524,
      "âĢ¦": 1525,
      "Ġrzeczy": 1526,
      "skona": 1527,
      "Ġozna": 1528,
      "Ġkre": 1529,
      "stana": 1530,
      "nem": 1531,
      "onych": 1532,
      "Ġsama": 1533,
      "ĠTy": 1534,
      "gro": 1535,
      "tw": 1536,
      "Ġpozosta": 1537,
      "Ġpotra": 1538,
      "________________": 1539,
      "owaÅĤam": 1540,
      "Cytat": 1541,
      "gle": 1542,
      "wiÄĻk": 1543,
      "daw": 1544,
      "tp": 1545,
      "mÃ³w": 1546,
      "Ġsmartf": 1547,
      "cznym": 1548,
      "Ġcha": 1549,
      "ĠwyglÄħda": 1550,
      "ĠCie": 1551,
      "sem": 1552,
      "ymi": 1553,
      "wycza": 1554,
      "....": 1555,
      "Ġpoli": 1556,
      "zn": 1557,
      "Ġsza": 1558,
      "stanawia": 1559,
      "ÅĤych": 1560,
      "Ġnaz": 1561,
      "nd": 1562,
      "stawie": 1563,
      "Ġtwa": 1564,
      "prowa": 1565,
      "ĠdoÅĽÄĩ": 1566,
      "Ġznajdziesz": 1567,
      "scy": 1568,
      "ĠLe": 1569,
      "laz": 1570,
      "stwo": 1571,
      "ĠkupiÄĩ": 1572,
      "Ġkro": 1573,
      "Ġperf": 1574,
      "ÅĤej": 1575,
      "Ġpom": 1576,
      "__________________": 1577,
      "pl": 1578,
      "aki": 1579,
      "dÅĤu": 1580,
      "kar": 1581,
      "miast": 1582,
      "Ġbe": 1583,
      "mina": 1584,
      "rgani": 1585,
      "Ã³Å¼": 1586,
      "Ġuda": 1587,
      "Ġfak": 1588,
      "nad": 1589,
      "resu": 1590,
      "Ġzdecyd": 1591,
      "Ġnaszym": 1592,
      "Ġznale": 1593,
      "Ġ8": 1594,
      "Ġhistor": 1595,
      "liwe": 1596,
      "cznÄħ": 1597,
      "ĠurzÄħdzenia": 1598,
      "komen": 1599,
      "peÅĤnie": 1600,
      "ĠwpÅĤy": 1601,
      "ĠpÃ³Åº": 1602,
      "Ġkra": 1603,
      "Ġobraz": 1604,
      "Ġnigdy": 1605,
      "cem": 1606,
      "Ġstrony": 1607,
      "Ġzakup": 1608,
      "ĠchÅĤo": 1609,
      "siaj": 1610,
      "fa": 1611,
      "ĠDziÄĻki": 1612,
      "Ġpoka": 1613,
      "ĠgÅĤ": 1614,
      "Ġswoim": 1615,
      "Ġpy": 1616,
      "mal": 1617,
      "ĠNi": 1618,
      "\",": 1619,
      "tora": 1620,
      "Napisane": 1621,
      "ĠdziÅĽ": 1622,
      "ti": 1623,
      "Ġlepiej": 1624,
      "ĠÅĽrod": 1625,
      "czeÅĽniej": 1626,
      "ÅĽwiet": 1627,
      "Ġblo": 1628,
      "Ġcodzien": 1629,
      "gar": 1630,
      "20": 1631,
      "ĠjakieÅĽ": 1632,
      "jnie": 1633,
      "ĠzÅĤ": 1634,
      "Ġpewno": 1635,
      "kol": 1636,
      "be": 1637,
      "czyna": 1638,
      "mawia": 1639,
      "nikÃ³w": 1640,
      "owu": 1641,
      "Ġile": 1642,
      "ĠdÅĤugo": 1643,
      "Ġapara": 1644,
      "Ġtutaj": 1645,
      "Ġcen": 1646,
      "rÃ³ciÄĩ": 1647,
      "ans": 1648,
      "jesz": 1649,
      "zi": 1650,
      "ciaÅ¼": 1651,
      "gna": 1652,
      "Ġmuzy": 1653,
      "lem": 1654,
      "cach": 1655,
      "ĠskÅĤa": 1656,
      "Ġnadzie": 1657,
      "ok": 1658,
      "ĠjakiÅĽ": 1659,
      "Ġproducen": 1660,
      "damy": 1661,
      "sce": 1662,
      "Å¼eli": 1663,
      "ĠbÄĻdÄĻ": 1664,
      "ĠszczegÃ³": 1665,
      "Ġprowa": 1666,
      "Ġczyta": 1667,
      "Ġprzypadku": 1668,
      "ĠwspÃ³ÅĤ": 1669,
      "dam": 1670,
      "Mo": 1671,
      "ĠBy": 1672,
      "ĠtÄĻ": 1673,
      "Ġtre": 1674,
      "Ġpoko": 1675,
      "ho": 1676,
      "Ġinterne": 1677,
      "anego": 1678,
      "ĠciÄĻÅ¼": 1679,
      "ten": 1680,
      "Å¼enia": 1681,
      "ura": 1682,
      "stÄĻpu": 1683,
      "ul": 1684,
      "Ġwsze": 1685,
      "Ġkompu": 1686,
      "ĠjakoÅĽci": 1687,
      "stos": 1688,
      "ĠrÃ³Å¼nych": 1689,
      "tna": 1690,
      "Ġminu": 1691,
      "wiera": 1692,
      "owaniu": 1693,
      "Ġwspo": 1694,
      "ĠswojÄħ": 1695,
      "stwa": 1696,
      "dania": 1697,
      "gry": 1698,
      "ĠmiaÅĤ": 1699,
      "Ġorgani": 1700,
      "ĠÅĤÄħ": 1701,
      "Ã³l": 1702,
      "ĠBar": 1703,
      "Ġmieszka": 1704,
      "pera": 1705,
      "cieÅ¼": 1706,
      "Ġpozio": 1707,
      "stro": 1708,
      "Ġposiada": 1709,
      "Ġnada": 1710,
      "ĠsÅĤ": 1711,
      "Ġwypo": 1712,
      "ck": 1713,
      "Ġdaw": 1714,
      "ĠpÅĤa": 1715,
      "komendowane": 1716,
      "Ġosoby": 1717,
      "pia": 1718,
      ">>": 1719,
      "Ġzmia": 1720,
      "ĠktÃ³rego": 1721,
      "mar": 1722,
      "ĠtÅĤu": 1723,
      "rzenia": 1724,
      "liÄĩ": 1725,
      "bÃ³r": 1726,
      "Ġpozy": 1727,
      "Ġmoim": 1728,
      "ĠporÃ³w": 1729,
      "pre": 1730,
      "now": 1731,
      "pod": 1732,
      "Ġbli": 1733,
      "ĠRa": 1734,
      "nk": 1735,
      "stru": 1736,
      "cych": 1737,
      "ÅĽrÃ³d": 1738,
      "ĠÅĤad": 1739,
      "ĠmoÅ¼esz": 1740,
      "Ġbud": 1741,
      "ĠcaÅĤy": 1742,
      "owanych": 1743,
      "ÅĤaÅĽ": 1744,
      "Ġzamie": 1745,
      "Za": 1746,
      "Ġkosz": 1747,
      "entu": 1748,
      "ner": 1749,
      "ÅĦczy": 1750,
      "ly": 1751,
      "czone": 1752,
      "Ġpoprze": 1753,
      "tyku": 1754,
      "twa": 1755,
      "Ġem": 1756,
      "tny": 1757,
      "szko": 1758,
      "Ġzoba": 1759,
      "ĠmoÅ¼emy": 1760,
      "--": 1761,
      "ÅºÄĩ": 1762,
      "dym": 1763,
      "ĠÅģ": 1764,
      "Ġdodatk": 1765,
      "Ġnowo": 1766,
      "Ġraczej": 1767,
      "szka": 1768,
      "ĠpoczÄħtku": 1769,
      "<<": 1770,
      "Ġzain": 1771,
      "Ġswoich": 1772,
      "ÅĦstwa": 1773,
      "ĠmÃ³j": 1774,
      "nach": 1775,
      "Ġcharak": 1776,
      "Ġki": 1777,
      "Ġtaka": 1778,
      "Ġprzeciw": 1779,
      "Ġ200": 1780,
      "Ġnatura": 1781,
      "ĠpewnoÅĽciÄħ": 1782,
      "Ġprzyjem": 1783,
      "ĠjÄĻ": 1784,
      "Ġcu": 1785,
      "Ġprac": 1786,
      "Ġrazie": 1787,
      "dziel": 1788,
      "west": 1789,
      "menta": 1790,
      "ano": 1791,
      "ĠzostaÅĤ": 1792,
      "Ġfir": 1793,
      "Ġobie": 1794,
      "Ġbezpie": 1795,
      "ĠLi": 1796,
      "Ġrynku": 1797,
      "Ġpotrzeb": 1798,
      "pada": 1799,
      "owiÄħ": 1800,
      "tyczne": 1801,
      "leg": 1802,
      "rzyÄĩ": 1803,
      "âĢĿ.": 1804,
      "jÄħca": 1805,
      "jny": 1806,
      "Ġpytanie": 1807,
      "iÄħ": 1808,
      "Ġzaku": 1809,
      "Ġdziecko": 1810,
      "raÅ¼": 1811,
      "wiek": 1812,
      "mnia": 1813,
      "wod": 1814,
      "jcie": 1815,
      "uro": 1816,
      "IE": 1817,
      "przy": 1818,
      "sztaÅĤ": 1819,
      "tan": 1820,
      "ĠWa": 1821,
      "ĠdokÅĤad": 1822,
      "Ġprzyja": 1823,
      "Ġar": 1824,
      "Ġdowie": 1825,
      "ĠJednak": 1826,
      "Ġranki": 1827,
      "nii": 1828,
      "Ġtakiego": 1829,
      "Ġdoskona": 1830,
      "Ġil": 1831,
      "ĠPie": 1832,
      "ciach": 1833,
      "Ġbia": 1834,
      "rii": 1835,
      "ĠÅº": 1836,
      "cenia": 1837,
      "Ã³wno": 1838,
      "Ġzim": 1839,
      "Ġ...": 1840,
      "Ġzbyt": 1841,
      "Ġspecj": 1842,
      "stnie": 1843,
      "Ġsame": 1844,
      "Ġwykon": 1845,
      "ĠpÃ³Åºniej": 1846,
      "Ġwal": 1847,
      "wiÄħza": 1848,
      "Ġap": 1849,
      "ke": 1850,
      "Ġlata": 1851,
      "tomiast": 1852,
      "Ġtypu": 1853,
      "ĠwÅĤosy": 1854,
      "ĠjakÄħ": 1855,
      "Ġpisa": 1856,
      "ĠktÃ³rÄħ": 1857,
      "Ġmodeli": 1858,
      "ĠwczeÅĽniej": 1859,
      "ĠmiesiÄħ": 1860,
      "Ġstos": 1861,
      "Ġczasem": 1862,
      "ĠCho": 1863,
      "âĢĶ": 1864,
      "Ġ18": 1865,
      "Ġdopiero": 1866,
      "Ġprzysz": 1867,
      "Ġnor": 1868,
      "redni": 1869,
      "ĠmiaÅĤa": 1870,
      "lenia": 1871,
      "lepiej": 1872,
      "Ġrozpo": 1873,
      "ĠcaÅĤ": 1874,
      "Ġzaj": 1875,
      "roni": 1876,
      "dom": 1877,
      "Ġniestety": 1878,
      "ĠczÄĻÅĽci": 1879,
      "Ġkry": 1880,
      "chodzÄħ": 1881,
      "Ġeksper": 1882,
      "Ġne": 1883,
      "owarzy": 1884,
      "ÅĽwiad": 1885,
      "Ġzwie": 1886,
      "lek": 1887,
      "lubi": 1888,
      "kolwiek": 1889,
      "Ġsprze": 1890,
      "Ġsen": 1891,
      "wam": 1892,
      "ren": 1893,
      "Ġludzie": 1894,
      "mÄĻ": 1895,
      "ĠwÅĤosÃ³w": 1896,
      "liwoÅĽÄĩ": 1897,
      "ĠwiÄĻksz": 1898,
      "czek": 1899,
      "Äħd": 1900,
      "Ġplan": 1901,
      "Ġ9": 1902,
      "Ġat": 1903,
      "ĠponiewaÅ¼": 1904,
      "Ġmateria": 1905,
      "ĠjÄĻzy": 1906,
      "lik": 1907,
      "Ġsamocho": 1908,
      "ĠMam": 1909,
      "Ġparame": 1910,
      "ĠkoÅĦcu": 1911,
      "kon": 1912,
      "Ġsmartfon": 1913,
      "min": 1914,
      "Ġswojej": 1915,
      "ĠwzglÄĻdu": 1916,
      "ster": 1917,
      "Ġprzede": 1918,
      "Ġdecy": 1919,
      "stawia": 1920,
      "lenie": 1921,
      "iedy": 1922,
      "ciÄĻ": 1923,
      "ĠkaÅ¼dego": 1924,
      "czeÅĽnie": 1925,
      "Ġskute": 1926,
      "Ġpierwszy": 1927,
      "szyÄĩ": 1928,
      "ĠTa": 1929,
      "ĠLu": 1930,
      "lub": 1931,
      "tal": 1932,
      "Ġwody": 1933,
      "ciÄħg": 1934,
      "Ġpodoba": 1935,
      "ĠoczywiÅĽcie": 1936,
      "rach": 1937,
      "ĠdÅº": 1938,
      "rzÄħd": 1939,
      "nosi": 1940,
      "ĠkaÅ¼dym": 1941,
      "ĠksiÄħÅ¼ki": 1942,
      "Ġnasze": 1943,
      "ĠÅĤ": 1944,
      "Ġmieszk": 1945,
      "ĠpoÅĤÄħ": 1946,
      "ve": 1947,
      "alny": 1948,
      "wÄĻ": 1949,
      "Ġlubi": 1950,
      "wek": 1951,
      "starczy": 1952,
      "powiadamy": 1953,
      "ĠCene": 1954,
      "ĠCeneo": 1955,
      "Ġelemen": 1956,
      "Ġrazy": 1957,
      "Å»": 1958,
      "lni": 1959,
      "Ġregu": 1960,
      "wÄħ": 1961,
      "Ġgro": 1962,
      "Ġbym": 1963,
      "gan": 1964,
      "der": 1965,
      "ĠPolsce": 1966,
      "Ġjednym": 1967,
      "mart": 1968,
      "grani": 1969,
      "Ġnieco": 1970,
      "ÅĤania": 1971,
      "Ġkomu": 1972,
      "tyki": 1973,
      "Ġponad": 1974,
      "Ġlatach": 1975,
      "ĠprzykÅĤad": 1976,
      "ĠniektÃ³": 1977,
      "Ġzasa": 1978,
      "omi": 1979,
      "Ġ?": 1980,
      "ĠRoz": 1981,
      "Ġkur": 1982,
      "kom": 1983,
      "Ġwymaga": 1984,
      "Ġstop": 1985,
      "ĠnastÄĻp": 1986,
      "ĠRekomendowane": 1987,
      "Ġodpowiednie": 1988,
      "Ġmiejsca": 1989,
      "bud": 1990,
      "Ġniewie": 1991,
      "dziÅĤ": 1992,
      "Ġtakim": 1993,
      "Ġkam": 1994,
      "Ġtrak": 1995,
      "por": 1996,
      "ĠmaÅĤo": 1997,
      "ÅĤat": 1998,
      "stawi": 1999,
      "Ġprawdzi": 2000,
      "kuje": 2001,
      "sych": 2002,
      "Ġmoja": 2003,
      "tuje": 2004,
      "stanowi": 2005,
      "ĠgÃ³": 2006,
      "ĠsÅĤuchawki": 2007,
      "Ġauto": 2008,
      "cale": 2009,
      "cyjne": 2010,
      "ĠchÄĻ": 2011,
      "Ġczar": 2012,
      "rÃ³ci": 2013,
      "ĠznaleÅºÄĩ": 2014,
      "Ġciep": 2015,
      "ĠzarÃ³wno": 2016,
      "robi": 2017,
      "ĠKup": 2018,
      "Ġmusia": 2019,
      "Ġkieru": 2020,
      "ÅĤeÅĽ": 2021,
      "Ġspotka": 2022,
      "czni": 2023,
      "Ġtygo": 2024,
      "Ġnowe": 2025,
      "ĠogÃ³le": 2026,
      "Ġtrwa": 2027,
      "dne": 2028,
      "ĠWo": 2029,
      "danie": 2030,
      "Ġmojej": 2031,
      "Ġogrom": 2032,
      "Ġsystem": 2033,
      "muje": 2034,
      "Ġtez": 2035,
      "Ġprawie": 2036,
      "Ġznalaz": 2037,
      "Ġmiejscu": 2038,
      "pozy": 2039,
      "szyscy": 2040,
      "skÄħ": 2041,
      "Ġskle": 2042,
      "Ġdzisiaj": 2043,
      "Å¼czy": 2044,
      "ĠJakie": 2045,
      "man": 2046,
      "ĠoglÄħ": 2047,
      "Ġobu": 2048,
      "ĠDzie": 2049,
      "ĠÅ¼yciu": 2050,
      "Ġleka": 2051,
      "ÅĦstwo": 2052,
      "Ġkolor": 2053,
      "Ġsmak": 2054,
      "ĠzdjÄĻcia": 2055,
      "Ġprodukt": 2056,
      "Ġgot": 2057,
      "resz": 2058,
      "Ġlicz": 2059,
      "iem": 2060,
      "jÄħcym": 2061,
      "cznoÅĽci": 2062,
      "Ġchcesz": 2063,
      "ĠsobÄħ": 2064,
      "Ġelekt": 2065,
      "rp": 2066,
      "Ġdrugi": 2067,
      "ĠniÄħ": 2068,
      "dziaÅĤam": 2069,
      "Ġtema": 2070,
      "ĠWszyst": 2071,
      "Co": 2072,
      "lnego": 2073,
      "Ġjuz": 2074,
      "Ġsztu": 2075,
      "ĠOb": 2076,
      "Ġwymie": 2077,
      "ĠPi": 2078,
      "ĠMu": 2079,
      "Ġpotrafi": 2080,
      "Ġzau": 2081,
      "ĠMy": 2082,
      "Ġswojego": 2083,
      "Wi": 2084,
      "duk": 2085,
      "Ġgar": 2086,
      "kowi": 2087,
      "Ġdalej": 2088,
      "mnie": 2089,
      "Ġmodele": 2090,
      "sÅĤy": 2091,
      "ĠjakoÅĽ": 2092,
      "Ġprzyj": 2093,
      "Jak": 2094,
      "Ġsposob": 2095,
      "tyk": 2096,
      "raca": 2097,
      "wyczaj": 2098,
      "sam": 2099,
      "Ġoznacza": 2100,
      "ÅĽcia": 2101,
      "taÄĩ": 2102,
      "Ġkatego": 2103,
      "moÅ¼": 2104,
      "stÃ³w": 2105,
      "Ġposzu": 2106,
      "wajÄħ": 2107,
      "ĠDzi": 2108,
      "nien": 2109,
      "stÄħpi": 2110,
      "jÄħcego": 2111,
      "ĠspoÅĤe": 2112,
      "Ġpodstaw": 2113,
      "Ġekra": 2114,
      "Ġ<<": 2115,
      "hi": 2116,
      "Ġbrak": 2117,
      "Ġpojawia": 2118,
      "ĠÅĽmier": 2119,
      "Ġwido": 2120,
      "Ġdop": 2121,
      "Ġmoni": 2122,
      "Ġjakby": 2123,
      "owiem": 2124,
      "Ġpowsta": 2125,
      "Ġjaka": 2126,
      "Ġautor": 2127,
      "ĠSam": 2128,
      "Ġpier": 2129,
      "ÅĤaszcza": 2130,
      "Ġrok": 2131,
      "Ġponi": 2132,
      "ngu": 2133,
      "Ġwska": 2134,
      "Ġklasy": 2135,
      "togra": 2136,
      "ron": 2137,
      "Ġpewnie": 2138,
      "bez": 2139,
      "obra": 2140,
      "ĠBa": 2141,
      "Ġwyposa": 2142,
      "Ġopinie": 2143,
      "Ġpracu": 2144,
      "Ġwcale": 2145,
      "Ġjas": 2146,
      "Ġpry": 2147,
      "Ġprzeczy": 2148,
      "Ġzako": 2149,
      "Ã³gÅĤ": 2150,
      "ĠJaki": 2151,
      "ĠArtyku": 2152,
      "goÅĽ": 2153,
      "Ġstosu": 2154,
      "Ã³ch": 2155,
      "Ġartykule": 2156,
      "ciÄħÅ¼": 2157,
      "ĠÅĤat": 2158,
      "ĠkÄħ": 2159,
      "Ġpoza": 2160,
      "mach": 2161,
      "Ġwybiera": 2162,
      "Ġnasz": 2163,
      "Ġboha": 2164,
      "Ġszuka": 2165,
      "cjon": 2166,
      "Ġtek": 2167,
      "owymi": 2168,
      "ien": 2169,
      "ĠkiedyÅĽ": 2170,
      "gnie": 2171,
      "ĠproduktÃ³w": 2172,
      "ÅĽni": 2173,
      "onie": 2174,
      "tej": 2175,
      "ĠrozwiÄħza": 2176,
      "czony": 2177,
      "Ġnapisa": 2178,
      "Ġwyj": 2179,
      "ĠsÅĤy": 2180,
      "ĠpoÅĽ": 2181,
      "ĠBardzo": 2182,
      "No": 2183,
      "ĠchociaÅ¼": 2184,
      "Ġprogra": 2185,
      "Ġzaczyna": 2186,
      "Ġspoko": 2187,
      "siÅĤ": 2188,
      "Wy": 2189,
      "ĠrobiÄĩ": 2190,
      "rew": 2191,
      "Ġrodzaju": 2192,
      "Ġmodel": 2193,
      "Ġjedynie": 2194,
      "19": 2195,
      "Ġdelika": 2196,
      "ÅĽnia": 2197,
      "ĠzaczÄĻ": 2198,
      "Ġproce": 2199,
      "ĠwyjÄħ": 2200,
      "anej": 2201,
      "Ġjakim": 2202,
      "rzystaÄĩ": 2203,
      "Ġmimo": 2204,
      "Ġdwie": 2205,
      "ĠGdy": 2206,
      "nÄħÅĤ": 2207,
      "fika": 2208,
      "Ale": 2209,
      "ĠArtykuÅĤy": 2210,
      "Ġpowodu": 2211,
      "ĠjakoÅĽÄĩ": 2212,
      "Ġpani": 2213,
      "kiej": 2214,
      "Ġforum": 2215,
      "ĠczÄĻÅĽÄĩ": 2216,
      "syw": 2217,
      "ĠzostaÅĤa": 2218,
      "Ġ;": 2219,
      "Ġmojego": 2220,
      "??": 2221,
      "anym": 2222,
      "zja": 2223,
      "ĠdwÃ³ch": 2224,
      "ĠTwoje": 2225,
      "szczÄĻ": 2226,
      "ĠmÄĻÅ¼czy": 2227,
      "ĠtÄħ": 2228,
      "Ġmomen": 2229,
      "fia": 2230,
      "jek": 2231,
      "Ġstwo": 2232,
      "ĠzwrÃ³ciÄĩ": 2233,
      "Ġgrze": 2234,
      "ĠSÄħ": 2235,
      "Ġulubi": 2236,
      "UR": 2237,
      "Ġtwarzy": 2238,
      "Ġmalu": 2239,
      "ĠdoÅĽwiad": 2240,
      "zjÄĻ": 2241,
      "ĠchÅĤop": 2242,
      "Ġeksperckie": 2243,
      "ĠÅĽwiecie": 2244,
      "Ġ:)": 2245,
      "czyn": 2246,
      "ĠurzÄħdze": 2247,
      "gii": 2248,
      "ĠDe": 2249,
      "lnoÅĽci": 2250,
      "Ġpomie": 2251,
      "Ġwymia": 2252,
      "Ġpsych": 2253,
      "ĠgÅĤoÅĽ": 2254,
      "ĠwybÃ³r": 2255,
      "ciem": 2256,
      "leÅ¼": 2257,
      "Ġkoniec": 2258,
      "tym": 2259,
      "niajÄħ": 2260,
      "jecha": 2261,
      "szczy": 2262,
      "Ġinternet": 2263,
      "Ġczer": 2264,
      "Ġnaszych": 2265,
      "lnym": 2266,
      "umy": 2267,
      "Ġ100": 2268,
      "czoraj": 2269,
      "ĠmyÅĽli": 2270,
      "Ġkup": 2271,
      "ĠÄĩ": 2272,
      "ĠzupeÅĤnie": 2273,
      "Ġkul": 2274,
      "jÄħcÄħ": 2275,
      "noÅĽ": 2276,
      "ĠÅĽwiata": 2277,
      "lna": 2278,
      "Ġho": 2279,
      "zje": 2280,
      "praszamy": 2281,
      "Ġzgo": 2282,
      "Ġnimi": 2283,
      "bior": 2284,
      "Ġdie": 2285,
      "ĠKaÅ¼": 2286,
      "ĠKiedy": 2287,
      "wali": 2288,
      "ĠnadziejÄĻ": 2289,
      "szenia": 2290,
      "Ġuwie": 2291,
      "Ġam": 2292,
      "ÅĽmie": 2293,
      "Ġczeka": 2294,
      "Ġrazu": 2295,
      "Ġha": 2296,
      "ĠspÄĻ": 2297,
      "oÅĽciÄħ": 2298,
      "Ġrozu": 2299,
      "II": 2300,
      "niejszych": 2301,
      "ĠpielÄĻ": 2302,
      "ĠSmart": 2303,
      "ĠzaleÅ¼y": 2304,
      "Ġoczyszcza": 2305,
      "Ġubra": 2306,
      "Ġot": 2307,
      "Tak": 2308,
      "ĠDa": 2309,
      "Ġ30": 2310,
      "Ġnajlepiej": 2311,
      "Ġdziw": 2312,
      "Ġfilm": 2313,
      "Ġpodej": 2314,
      "ĠAl": 2315,
      "ĠPra": 2316,
      "kowe": 2317,
      "ĠprzecieÅ¼": 2318,
      "wem": 2319,
      "cjach": 2320,
      "Ġzamia": 2321,
      "tory": 2322,
      "Ġokaza": 2323,
      "Ġsuper": 2324,
      "Ġsek": 2325,
      "lnej": 2326,
      "nÄĻtrz": 2327,
      "rzyst": 2328,
      "ĠWas": 2329,
      "ĠbyÅĤam": 2330,
      "âĢĿ,": 2331,
      "dziaÅĤa": 2332,
      "jÄħcej": 2333,
      "Ġtelewi": 2334,
      "ĠmuszÄĻ": 2335,
      "row": 2336,
      "rzo": 2337,
      "Ġtowarzy": 2338,
      "ĠwÅĽrÃ³d": 2339,
      "Ġstanowi": 2340,
      "ĠCiÄĻ": 2341,
      "Ġjednej": 2342,
      "ĠszczÄĻÅĽcie": 2343,
      "Ġucze": 2344,
      "Ġusta": 2345,
      "Ġnaszego": 2346,
      "gen": 2347,
      "ĠrÃ³Å¼ne": 2348,
      "Ġwarun": 2349,
      "Ġpotrzebu": 2350,
      "Ġdzien": 2351,
      "Ġpowinien": 2352,
      "Ġznak": 2353,
      "ĠsÅĤa": 2354,
      "tyka": 2355,
      "ĠnajwiÄĻk": 2356,
      "kra": 2357,
      "zm": 2358,
      "ĠurzÄħdzenie": 2359,
      "Ġkategorii": 2360,
      "nanie": 2361,
      "spi": 2362,
      "rÄĻcz": 2363,
      "licy": 2364,
      "jak": 2365,
      "ss": 2366,
      "Ġprzej": 2367,
      "ĠÅĽwiÄĻ": 2368,
      "ĠDlatego": 2369,
      "wat": 2370,
      "Ġprzyda": 2371,
      "struk": 2372,
      "ĠswÃ³j": 2373,
      "Ġpoda": 2374,
      "ĠpomocÄħ": 2375,
      "domo": 2376,
      "Ġ13": 2377,
      "ĠNiestety": 2378,
      "Ġdlaczego": 2379,
      "Ġzawiera": 2380,
      "Ġkwest": 2381,
      "teres": 2382,
      "chno": 2383,
      "Ġkobiety": 2384,
      "Ġsumie": 2385,
      "Ġusu": 2386,
      "Ġstara": 2387,
      "Ġobecnie": 2388,
      "mow": 2389,
      "chi": 2390,
      "ĠTu": 2391,
      "rzenie": 2392,
      "giem": 2393,
      "naczej": 2394,
      "ÅĦski": 2395,
      "ĠokoÅĤo": 2396,
      "Ġdrugiej": 2397,
      "ÅĤka": 2398,
      "kam": 2399,
      "pon": 2400,
      "Ġpowa": 2401,
      "Ġzastanawia": 2402,
      "ĠZoba": 2403,
      "ĠmÃ³gÅĤ": 2404,
      "Ġpubli": 2405,
      "Ġ14": 2406,
      "ĠkaÅ¼dej": 2407,
      "Ġinteresu": 2408,
      "ut": 2409,
      "Ġwydaj": 2410,
      "ĠdokÅĤadnie": 2411,
      "kujÄĻ": 2412,
      "ĠkoÅĦca": 2413,
      "Ġisto": 2414,
      "lka": 2415,
      "zumie": 2416,
      "dzielcz": 2417,
      "siÄĻcy": 2418,
      "Ġstrasz": 2419,
      "Ġpierwsze": 2420,
      "Ġpozna": 2421,
      "Ġrad": 2422,
      "ĠlubiÄĻ": 2423,
      "rami": 2424,
      "Ġwers": 2425,
      "Ġwygod": 2426,
      "ĠnajwaÅ¼": 2427,
      "Å¼na": 2428,
      "cer": 2429,
      "siej": 2430,
      "Ġnajlepsze": 2431,
      "towaÄĩ": 2432,
      "ĠPe": 2433,
      "wiam": 2434,
      "ĠCiebie": 2435,
      "Ġniepo": 2436,
      "Ġprezent": 2437,
      "tkowo": 2438,
      "Ġwyja": 2439,
      "ĠÄĩwi": 2440,
      "Ġ12": 2441,
      "Ġprzypo": 2442,
      "ing": 2443,
      "Ġ16": 2444,
      "Ġciebie": 2445,
      "ĠchcÄĻ": 2446,
      "Ġinnego": 2447,
      "nio": 2448,
      "vi": 2449,
      "czÄĻÅĽciej": 2450,
      "Ġjedna": 2451,
      "ĠrÃ³Å¼ni": 2452,
      "URL": 2453,
      "wych": 2454,
      "Ġwitami": 2455,
      "Ġwydaje": 2456,
      "koÅĽÄĩ": 2457,
      "Ġkontak": 2458,
      "cep": 2459,
      "Ġistnie": 2460,
      "ĠZe": 2461,
      "lona": 2462,
      "Ġwart": 2463,
      "Ġaktyw": 2464,
      "czeniu": 2465,
      "Ġzatem": 2466,
      "ĠdostÄĻpne": 2467,
      "pÅĤy": 2468,
      "Ġdaje": 2469,
      "bieg": 2470,
      "Ġwiesz": 2471,
      "grze": 2472,
      ".:": 2473,
      "Å¼d": 2474,
      "Ġgry": 2475,
      "czyÅĤ": 2476,
      "Ġfotogra": 2477,
      "Ġkrzy": 2478,
      "wu": 2479,
      "ĠMe": 2480,
      "bezpie": 2481,
      "Ġkomple": 2482,
      "wej": 2483,
      "obie": 2484,
      "Ġuzy": 2485,
      "lin": 2486,
      "len": 2487,
      "szki": 2488,
      "lach": 2489,
      "Ġminut": 2490,
      "Å¼an": 2491,
      "Ġaplika": 2492,
      "Ġtrzyma": 2493,
      "ĠzaÅĤo": 2494,
      "ĠpowiedzieÄĩ": 2495,
      "biÄĻ": 2496,
      "Ġsamym": 2497,
      "niach": 2498,
      "pto": 2499,
      "najmniej": 2500,
      "ĠÅĤy": 2501,
      "cjona": 2502,
      "Ġpojawi": 2503,
      "zno": 2504,
      "Ġczyn": 2505,
      "ĠPrzed": 2506,
      "Ġfizy": 2507,
      "Ġmas": 2508,
      "Ġoch": 2509,
      "Ġatrak": 2510,
      "Ch": 2511,
      "wego": 2512,
      "Ġpolecam": 2513,
      "ĠPan": 2514,
      "kow": 2515,
      "Ġrozmia": 2516,
      "ĠjesteÅĽ": 2517,
      "Ġtwoje": 2518,
      "Ġtakiej": 2519,
      "Ġpozwo": 2520,
      "Ġuczu": 2521,
      "Ġtrafi": 2522,
      "lnoÅĽÄĩ": 2523,
      "ĠKu": 2524,
      "dniej": 2525,
      "ĠskÃ³ry": 2526,
      "szczenia": 2527,
      "Ġrozumie": 2528,
      "sji": 2529,
      "owaÅĤy": 2530,
      "ĠtakÄħ": 2531,
      "ÅĦskiego": 2532,
      "tru": 2533,
      "Ġsez": 2534,
      "Ġkuch": 2535,
      "lnÄħ": 2536,
      "Ġniezwykle": 2537,
      "dÅĤug": 2538,
      "Ġface": 2539,
      "Ġpytania": 2540,
      "Äħc": 2541,
      "Ġad": 2542,
      "Ġnaszej": 2543,
      "Ġwyboru": 2544,
      "fony": 2545,
      "lacji": 2546,
      "Do": 2547,
      "Å¼o": 2548,
      "tnÄħ": 2549,
      "cyjnych": 2550,
      "jÄĻcia": 2551,
      "Ġzainteres": 2552,
      "czona": 2553,
      "akija": 2554,
      "fo": 2555,
      "Ġwyborem": 2556,
      "lbia": 2557,
      "Ġmini": 2558,
      "szedÅĤ": 2559,
      "Ġsport": 2560,
      "Ġtyp": 2561,
      "Ġinaczej": 2562,
      "ĠwidaÄĩ": 2563,
      "Ġmocno": 2564,
      "zaleÅ¼": 2565,
      "10": 2566,
      "ĠmÄħ": 2567,
      "ĠprÃ³": 2568,
      "owaÅĤo": 2569,
      "roz": 2570,
      "zwyczaj": 2571,
      "Ġfar": 2572,
      "Ġprawda": 2573,
      "Ġostatnio": 2574,
      "Ġmoich": 2575,
      "ĠDob": 2576,
      "ryka": 2577,
      "ĠwÄĻ": 2578,
      "Ġfan": 2579,
      "Ġcelu": 2580,
      "Ġzy": 2581,
      "Ġtytu": 2582,
      "Ġcharaktery": 2583,
      "ĠAu": 2584,
      "Ġrodzaj": 2585,
      "ĠzwÅĤaszcza": 2586,
      "Ġchoro": 2587,
      "mio": 2588,
      "Ġgdyby": 2589,
      "ĠokreÅĽ": 2590,
      "Ġbla": 2591,
      "Ġter": 2592,
      "Ġstronie": 2593,
      "Ġrozwi": 2594,
      "Ġwraz": 2595,
      "Ġkuchni": 2596,
      "ĠczÅĤowieka": 2597,
      "kim": 2598,
      "rych": 2599,
      "Ġwyra": 2600,
      "let": 2601,
      "peÅĤnia": 2602,
      "Ġlecz": 2603,
      "Ġnoc": 2604,
      "wane": 2605,
      "Ġfry": 2606,
      "dujÄħ": 2607,
      "owali": 2608,
      "Ġefekt": 2609,
      "Ġokazji": 2610,
      "ĠTym": 2611,
      "pÄĻ": 2612,
      "Ġsil": 2613,
      "Ġszero": 2614,
      "Ġnikt": 2615,
      "Ġolej": 2616,
      "ĠmoÅ¼liwoÅĽci": 2617,
      "ĠZobacz": 2618,
      "Åºdzie": 2619,
      "Ġstudia": 2620,
      "logii": 2621,
      "Ġsch": 2622,
      "trÃ³w": 2623,
      "ĠsiÅĤ": 2624,
      "Ġbowiem": 2625,
      "Ġwszyscy": 2626,
      "ier": 2627,
      "Ġczemu": 2628,
      "Ġzmienia": 2629,
      "ĠszczegÃ³lnie": 2630,
      "ĠÅĽcia": 2631,
      "Ġinnymi": 2632,
      "Ġzastos": 2633,
      "sti": 2634,
      "iÄĩ": 2635,
      "ĠobowiÄħ": 2636,
      "ĠwaÅ¼ne": 2637,
      "ĠzÅĤotych": 2638,
      "Ġzapro": 2639,
      "szÅĤo": 2640,
      "Ġnadal": 2641,
      "Ġdopas": 2642,
      "Ġnawi": 2643,
      "ĠZapraszamy": 2644,
      "dli": 2645,
      "Ġsporo": 2646,
      "Ġkli": 2647,
      "Ġmiejsc": 2648,
      "ary": 2649,
      "Ġtygodni": 2650,
      "cent": 2651,
      "Ġsytuacji": 2652,
      "ĠcaÅĤÄħ": 2653,
      "cego": 2654,
      "ĠGo": 2655,
      "Å¼ek": 2656,
      "wyÅ¼": 2657,
      "ĠobsÅĤu": 2658,
      "zne": 2659,
      "ks": 2660,
      "ciel": 2661,
      "waÅĤa": 2662,
      "Ġtempera": 2663,
      "ĠgÅĤowy": 2664,
      "Ġodci": 2665,
      "dach": 2666,
      "pierw": 2667,
      "ĠksztaÅĤ": 2668,
      "rwi": 2669,
      "Ġnajlepszych": 2670,
      "Ġnu": 2671,
      "Prze": 2672,
      "Ġ'": 2673,
      "Ġpopraw": 2674,
      "Ġoto": 2675,
      "Ġzwyk": 2676,
      "Ġobja": 2677,
      "Ġznajom": 2678,
      "dzone": 2679,
      "dro": 2680,
      "Ġab": 2681,
      "ĠOczywiÅĽcie": 2682,
      "ĠzaczÄħ": 2683,
      "zdy": 2684,
      "ÅĽciÄĩ": 2685,
      "prawia": 2686,
      "ĠgdyÅ¼": 2687,
      "Ġcenie": 2688,
      "Ġemo": 2689,
      "nios": 2690,
      "ĠszczÄĻ": 2691,
      "wiej": 2692,
      "Ġoba": 2693,
      "owaniem": 2694,
      "Ġtechno": 2695,
      "Ã³z": 2696,
      "Ġciem": 2697,
      "Ġpart": 2698,
      "nami": 2699,
      "Ġdziewczyny": 2700,
      "jne": 2701,
      "Ġocze": 2702,
      "cyjny": 2703,
      "Ġpowinna": 2704,
      "ach": 2705,
      "ĠÅĤatwo": 2706,
      "cesor": 2707,
      "Ġobej": 2708,
      "ĠjednoczeÅĽnie": 2709,
      "ĠurzÄħdzeÅĦ": 2710,
      "Ġpor": 2711,
      "ĠSpo": 2712,
      "Te": 2713,
      "Ġranking": 2714,
      "wan": 2715,
      "wnÄĻtrz": 2716,
      "ĠiÅ¼": 2717,
      "âĢĻ": 2718,
      "wka": 2719,
      "ĠwciÄħÅ¼": 2720,
      "Czy": 2721,
      "ĠCzas": 2722,
      "Ġprzezna": 2723,
      "czeÅĦ": 2724,
      "ĠpiÄĻ": 2725,
      "ĠWe": 2726,
      "spÃ³ÅĤ": 2727,
      "Ġpunk": 2728,
      "moÅ¼li": 2729,
      "Ġdzisiej": 2730,
      "Ġzadowo": 2731,
      "ĠpÄĻ": 2732,
      "Ġprzestrze": 2733,
      "ĠwraÅ¼enie": 2734,
      "Ġpogo": 2735,
      "Ġsprawia": 2736,
      "alnych": 2737,
      "Ġbuty": 2738,
      "Ġproduktu": 2739,
      "ĠjednÄħ": 2740,
      "giel": 2741,
      "ĠodÅ¼y": 2742,
      "myÅĽ": 2743,
      "wym": 2744,
      "Ġtelefonu": 2745,
      "znok": 2746,
      "Ġinnym": 2747,
      "Ġtrady": 2748,
      "alna": 2749,
      "Ġzmieni": 2750,
      "Ġmak": 2751,
      "Ġceny": 2752,
      "Ġwystarczy": 2753,
      "siÄĩ": 2754,
      "dko": 2755,
      "Ġdoro": 2756,
      "Ġopowie": 2757,
      "Ġban": 2758,
      "ĠWarsza": 2759,
      "powiada": 2760,
      "cenie": 2761,
      "zw": 2762,
      "wÃ³r": 2763,
      "Ã©": 2764,
      "cznoÅĽÄĩ": 2765,
      "Ġgi": 2766,
      "Ġstwier": 2767,
      "ĠCa": 2768,
      "las": 2769,
      "gn": 2770,
      "ĠgÅĤÃ³wnie": 2771,
      "ÅĤucha": 2772,
      "Ġdanych": 2773,
      "ĠwiÄĻkszoÅĽÄĩ": 2774,
      "Ġmaja": 2775,
      "sym": 2776,
      "dnia": 2777,
      "Ġpomaga": 2778,
      "Ã³c": 2779,
      "Ġitp": 2780,
      "gÅĤo": 2781,
      "Ġple": 2782,
      "gina": 2783,
      "Ġska": 2784,
      "enera": 2785,
      "ĠprÃ³b": 2786,
      "szenie": 2787,
      "kniÄĻ": 2788,
      "ĠTeraz": 2789,
      "nicy": 2790,
      "nne": 2791,
      "rzem": 2792,
      "piera": 2793,
      "Ġszk": 2794,
      "rÃ³t": 2795,
      "lony": 2796,
      "Ġpapie": 2797,
      "ĠtelefonÃ³w": 2798,
      "Ġzaraz": 2799,
      "Ġzre": 2800,
      "Ġperfumy": 2801,
      "Ġpoczu": 2802,
      "styczne": 2803,
      "ĠJeÅ¼eli": 2804,
      "Ġznajduje": 2805,
      "Ġwrze": 2806,
      "ler": 2807,
      "tkÄĻ": 2808,
      "ĠpracÄĻ": 2809,
      "Ġ[": 2810,
      "Ġznacznie": 2811,
      "tur": 2812,
      "Ġdotycz": 2813,
      "Å¼one": 2814,
      "nienia": 2815,
      "czkÄĻ": 2816,
      "ĠpielÄĻgna": 2817,
      "Ġperfum": 2818,
      "podob": 2819,
      "Ġrek": 2820,
      "Ġwszelkie": 2821,
      "Ġsym": 2822,
      "Ġwielo": 2823,
      "nuje": 2824,
      "Ġmiasta": 2825,
      "rÃ³j": 2826,
      "ĠLa": 2827,
      "Ġmusisz": 2828,
      "Ġtrudno": 2829,
      "Ġrzu": 2830,
      "ĠksiÄĻ": 2831,
      "ĠskÅĤadni": 2832,
      "iÄĻdzy": 2833,
      "Dot": 2834,
      "ĠprzeglÄħ": 2835,
      "waÅĤam": 2836,
      "Ġzauwa": 2837,
      "fort": 2838,
      "ĠzaleÅ¼": 2839,
      "Ġchwili": 2840,
      "Ġwiadomo": 2841,
      "Ġgu": 2842,
      "dra": 2843,
      "ciÄħga": 2844,
      "prac": 2845,
      "Ġkonkre": 2846,
      "tnych": 2847,
      "Ġrozwo": 2848,
      "Ġprzeko": 2849,
      "Ġzdoby": 2850,
      "us": 2851,
      "Ġstylu": 2852,
      "ber": 2853,
      "niku": 2854,
      "cka": 2855,
      "Ġpropozy": 2856,
      "Ġnowych": 2857,
      "ĠKon": 2858,
      "ĠbÄĻdziesz": 2859,
      "Ġ25": 2860,
      "Ġ17": 2861,
      "Ġtable": 2862,
      "Ġsamego": 2863,
      "Ġpaznok": 2864,
      "Ma": 2865,
      "ĠAn": 2866,
      "kiego": 2867,
      "ĠgÅĤÄĻ": 2868,
      "Ġeg": 2869,
      "lone": 2870,
      "Ġrobo": 2871,
      "ĠsÅĤowa": 2872,
      "Ġwas": 2873,
      "ĠJo": 2874,
      "Ġsprawdzi": 2875,
      "kowane": 2876,
      "Ġlapto": 2877,
      "tom": 2878,
      "sek": 2879,
      "Ġpory": 2880,
      "Ġseria": 2881,
      "ĠchcÄħ": 2882,
      "Ġwielki": 2883,
      "Ġrzecz": 2884,
      "ĠSta": 2885,
      "LI": 2886,
      "ĠwyÅĤÄħ": 2887,
      "ĠdotyczÄħ": 2888,
      "Ġekranu": 2889,
      "ĠczÅĤowiek": 2890,
      "praszam": 2891,
      "Ġsklep": 2892,
      "przewod": 2893,
      "Ġwykorzy": 2894,
      "Ġkolory": 2895,
      "Åģ": 2896,
      "czym": 2897,
      "ĠwnÄĻ": 2898,
      "ĠwyÅĽwiet": 2899,
      "zuka": 2900,
      "Ġkwia": 2901,
      "iÄĻkujÄĻ": 2902,
      "ĠEuro": 2903,
      "Ġsalo": 2904,
      "Ġnatomiast": 2905,
      "Ġpia": 2906,
      "owanym": 2907,
      "ownie": 2908,
      "ĠPierw": 2909,
      "ĠuwaÅ¼": 2910,
      "bÄħ": 2911,
      "Ġplu": 2912,
      "Ġ50": 2913,
      "kich": 2914,
      "rÃ³cz": 2915,
      "ĠzaÅĽ": 2916,
      "Ġjednego": 2917,
      "krÄĻ": 2918,
      "Ġrea": 2919,
      "Ġkrem": 2920,
      "Ġosobi": 2921,
      "jekt": 2922,
      "Ġrozm": 2923,
      "ĠwÄħtp": 2924,
      "ĠmoÅ¼liwoÅĽÄĩ": 2925,
      "Ġklu": 2926,
      "ĠduÅ¼e": 2927,
      "ĠpowaÅ¼": 2928,
      "Ġnorma": 2929,
      "lizacji": 2930,
      "Ġucie": 2931,
      "Ġograni": 2932,
      "nÃ³w": 2933,
      "wen": 2934,
      "niejszy": 2935,
      "Ġnowoczes": 2936,
      "Ġit": 2937,
      "ĠWam": 2938,
      "ĠwidzÄĻ": 2939,
      "niw": 2940,
      "Ġludz": 2941,
      "dziela": 2942,
      "Ġode": 2943,
      "ĠBe": 2944,
      "ĠWarto": 2945,
      "ĠniezbÄĻ": 2946,
      "Ġnauczy": 2947,
      "Ġtry": 2948,
      "Ġkobiet": 2949,
      "ujÄħ": 2950,
      "jona": 2951,
      "oÅĤ": 2952,
      "Ġdam": 2953,
      "th": 2954,
      "ĠsÅĤuchawek": 2955,
      "sach": 2956,
      "wal": 2957,
      "Ġnowego": 2958,
      "Ġkomenta": 2959,
      "Mam": 2960,
      "ĠzostaÅĤy": 2961,
      "Ġmakija": 2962,
      "sc": 2963,
      "Ġzmy": 2964,
      "Ġwczoraj": 2965,
      "Ġboga": 2966,
      "Ġwyobra": 2967,
      "ĠcaÅĤkiem": 2968,
      "Ġzao": 2969,
      "ĠpodÅĤo": 2970,
      "Ġmatera": 2971,
      "tacji": 2972,
      "jed": 2973,
      "ĠuÅ¼ytkowni": 2974,
      "szczenie": 2975,
      "Ġinny": 2976,
      "Ġmoze": 2977,
      "bywa": 2978,
      "Ġmle": 2979,
      "Ġzwykle": 2980,
      "dzieÅĦ": 2981,
      "ĠkomÃ³r": 2982,
      "ĠSa": 2983,
      "ĠjesteÅĽmy": 2984,
      "orÃ³w": 2985,
      "Ġpostaci": 2986,
      "ĠrodzicÃ³w": 2987,
      "ĠSy": 2988,
      "owaliÅĽmy": 2989,
      "Ġjakich": 2990,
      "cami": 2991,
      "Ġpoch": 2992,
      "Ġzawo": 2993,
      "Ġwyd": 2994,
      "ium": 2995,
      "Ġlitera": 2996,
      "ĠudaÅĤo": 2997,
      "Ġener": 2998,
      "Ġpomi": 2999,
      "Ġrozdzielcz": 3000,
      "kaza": 3001,
      "Ġowo": 3002,
      "ĠchwilÄĻ": 3003,
      "Ġznowu": 3004,
      "Ġsprawdza": 3005,
      "cieli": 3006,
      "czonych": 3007,
      "Ġzdecydowanie": 3008,
      "Ġproblemu": 3009,
      "Ġdrze": 3010,
      "Ġkraju": 3011,
      "Ġstycz": 3012,
      "Ġbudy": 3013,
      "Ġrodziny": 3014,
      "pisu": 3015,
      "Ġoj": 3016,
      "nam": 3017,
      "ĠMia": 3018,
      "Ġpowierz": 3019,
      "Ġ11": 3020,
      "Ġpostanowi": 3021,
      "kowy": 3022,
      "nkÃ³w": 3023,
      "Åļ": 3024,
      "Ġuko": 3025,
      "Ġzabra": 3026,
      "Ġpowinny": 3027,
      "Ġwizy": 3028,
      "Ġtrakcie": 3029,
      "Ġmeto": 3030,
      "stoÅĽci": 3031,
      "ĠchciaÅĤ": 3032,
      "Dzie": 3033,
      "Ġwios": 3034,
      "lig": 3035,
      "Ġczytel": 3036,
      "dr": 3037,
      "Ġws": 3038,
      "Ġzestaw": 3039,
      "znaÄĩ": 3040,
      "ĠzdjÄĻÄĩ": 3041,
      "kÃ³j": 3042,
      "sja": 3043,
      "tkÃ³w": 3044,
      "szem": 3045,
      "ckiego": 3046,
      "ĠpomysÅĤ": 3047,
      "Ġpomoc": 3048,
      "ĠosiÄħ": 3049,
      "Ġinformacje": 3050,
      "Ġpowinno": 3051,
      "ciej": 3052,
      "ĠumoÅ¼li": 3053,
      "tycznych": 3054,
      "Ġkorzysta": 3055,
      "Ġinten": 3056,
      "rki": 3057,
      "wsze": 3058,
      "par": 3059,
      "Ġpodzie": 3060,
      "Å¼yÅĤam": 3061,
      "ĠÅĽwietnie": 3062,
      "ĠRos": 3063,
      "Ġszpi": 3064,
      "ĠPO": 3065,
      "Ġodkry": 3066,
      "ĠMoÅ¼na": 3067,
      "Ġgospo": 3068,
      "Ġzni": 3069,
      "mier": 3070,
      "Ġbater": 3071,
      "ĠpiÄħ": 3072,
      "rzeÄĩ": 3073,
      "ĠczegoÅĽ": 3074,
      "ĠÅĤazie": 3075,
      "Åºdzier": 3076,
      "ĠdÅĤugi": 3077,
      "Ġskrzy": 3078,
      "ĠmiÅĤoÅĽci": 3079,
      "tnym": 3080,
      "Ġpierwszym": 3081,
      "Ġpl": 3082,
      "Ġwzro": 3083,
      "ir": 3084,
      "Ġ)": 3085,
      "Ġsprzeda": 3086,
      "ĠSo": 3087,
      "Ġidzie": 3088,
      "popular": 3089,
      "powiedzi": 3090,
      "ĠszkoÅĤy": 3091,
      "ðŁ": 3092,
      "ĠzaleÅ¼noÅĽci": 3093,
      "22": 3094,
      "ĠciaÅĤa": 3095,
      "owÄĻ": 3096,
      "Ġhistorii": 3097,
      "anÄħ": 3098,
      "Ġkocha": 3099,
      "ĠY": 3100,
      "ĠGa": 3101,
      "ĠSt": 3102,
      "Ġproblemy": 3103,
      "Ġklo": 3104,
      "ĠmiÅĤo": 3105,
      "Ġpis": 3106,
      "ĠPolski": 3107,
      "Ġczerw": 3108,
      "anim": 3109,
      "Ġsmartfona": 3110,
      "Ġniedo": 3111,
      "Ġzachwy": 3112,
      "pisy": 3113,
      "mat": 3114,
      "AN": 3115,
      "ĠproducentÃ³w": 3116,
      "Ġnawil": 3117,
      "ĠÅĽredni": 3118,
      "Ġkontro": 3119,
      "wamy": 3120,
      "sÅĤo": 3121,
      "Ġbezprzewod": 3122,
      "Ġokoli": 3123,
      "ĠgdzieÅĽ": 3124,
      "Ġsub": 3125,
      "ĠkrÄĻ": 3126,
      "Ġpowinni": 3127,
      "ĠgÃ³ry": 3128,
      "ĠmyÅĽlÄĻ": 3129,
      "Ġlisto": 3130,
      "daÅĦ": 3131,
      "Ġutrzy": 3132,
      "ĠFran": 3133,
      "Ġkomi": 3134,
      "ĠWszystko": 3135,
      "Ġsmartfony": 3136,
      "tkiem": 3137,
      "Ġpal": 3138,
      "baÄĩ": 3139,
      "ĠTen": 3140,
      "ĠsprzÄĻt": 3141,
      "Ġbio": 3142,
      "rzeÅĦ": 3143,
      "is": 3144,
      "ĠFo": 3145,
      "bio": 3146,
      "Ġzasko": 3147,
      "Ġpraktycznie": 3148,
      "Ġ0": 3149,
      "Ã³wki": 3150,
      "Ġodpowiedzi": 3151,
      "torÃ³w": 3152,
      "ĠmaÅĤe": 3153,
      "Ġobiek": 3154,
      "Ġwprowa": 3155,
      "prez": 3156,
      "Ġgrafi": 3157,
      "Ġserii": 3158,
      "Ġkas": 3159,
      "rzej": 3160,
      "ĠSÅĤucha": 3161,
      "piÄĻ": 3162,
      "tyczny": 3163,
      "Ġprzynajmniej": 3164,
      "dzeniem": 3165,
      "aa": 3166,
      "----": 3167,
      "Ġinformacji": 3168,
      "ĠpaÅºdzier": 3169,
      "ĠpoÅĽwiÄĻ": 3170,
      "Ġbizne": 3171,
      "ger": 3172,
      "onu": 3173,
      "zmu": 3174,
      "Ġopo": 3175,
      "gÅĤa": 3176,
      "ĠponiÅ¼": 3177,
      "Ġdrz": 3178,
      "Ġmuzyki": 3179,
      "Ġ199": 3180,
      "Ġher": 3181,
      "lii": 3182,
      "Ġcud": 3183,
      "Ġporadni": 3184,
      "ĠJego": 3185,
      "Ġor": 3186,
      "Ġproste": 3187,
      "szech": 3188,
      "iaomi": 3189,
      "ĠcaÅĤe": 3190,
      "starcza": 3191,
      "zujÄħ": 3192,
      "urat": 3193,
      "Ġuwielbia": 3194,
      "Ġnowy": 3195,
      "chem": 3196,
      "Ġitd": 3197,
      "Ġwidzi": 3198,
      "Ġurodzi": 3199,
      "ĠHo": 3200,
      "Ġskoro": 3201,
      "ĠMie": 3202,
      "Ġkoch": 3203,
      "Ġlip": 3204,
      "rygina": 3205,
      "Ġgaz": 3206,
      "Ġsieci": 3207,
      "Ġbezpiecze": 3208,
      "Ġkwa": 3209,
      "szÅĤa": 3210,
      "jÄĻt": 3211,
      "ĠfilmÃ³w": 3212,
      "rudnia": 3213,
      "Ġlekko": 3214,
      "Ġloka": 3215,
      "jmy": 3216,
      "zda": 3217,
      "Ġukry": 3218,
      "ĠXiaomi": 3219,
      "Ġwielkie": 3220,
      "widÅĤ": 3221,
      "bry": 3222,
      "ciami": 3223,
      "ĠmoÅ¼liwe": 3224,
      "Ġbezp": 3225,
      "racji": 3226,
      "Ġl": 3227,
      "ĠkrÃ³t": 3228,
      "Ġakcesor": 3229,
      "sli": 3230,
      "ÅĤÄħcz": 3231,
      "Ġzdaniem": 3232,
      "Ġpozytyw": 3233,
      "Ġprawo": 3234,
      "Ġczerwo": 3235,
      "Ġspecy": 3236,
      "iÄĻc": 3237,
      "Ġprzepis": 3238,
      "Ġtajem": 3239,
      "dow": 3240,
      "ÄħdÅº": 3241,
      "Ġrozmawia": 3242,
      "Ġprezentu": 3243,
      "Ġzobaczy": 3244,
      "Ġdzieje": 3245,
      "nera": 3246,
      "ĠKaÅ¼dy": 3247,
      "ĠuÅĤat": 3248,
      "kowych": 3249,
      "Ġoferty": 3250,
      "Ġobser": 3251,
      "Ġspod": 3252,
      "sci": 3253,
      "Ġsuk": 3254,
      "gÃ³w": 3255,
      "Ġpowy": 3256,
      "ĠÅĤatwiej": 3257,
      "Ġodpowiedniego": 3258,
      "ĠmogÅĤa": 3259,
      "Ġsio": 3260,
      "Ġwej": 3261,
      "Ġsposoby": 3262,
      "Ġopak": 3263,
      "ĠuÅ¼ytkowania": 3264,
      "stry": 3265,
      "ĠII": 3266,
      "Ġoni": 3267,
      "ĠwiedzieÄĩ": 3268,
      "Ġeko": 3269,
      "Ġakurat": 3270,
      "obec": 3271,
      "ĠpoÅĤo": 3272,
      "Ġlam": 3273,
      "ciÃ³ÅĤ": 3274,
      "Ġopu": 3275,
      "ĠwÄħtpliwoÅĽci": 3276,
      "Ġznajdziemy": 3277,
      "Ġwoj": 3278,
      "ĠwrÄĻcz": 3279,
      "ĠmnÄħ": 3280,
      "cjami": 3281,
      "ĠgÅĤu": 3282,
      "zer": 3283,
      "czem": 3284,
      "ĠJestem": 3285,
      "wany": 3286,
      "Ġtran": 3287,
      "ĠFa": 3288,
      "reb": 3289,
      "ĠksiÄħÅ¼ek": 3290,
      "Ã³ki": 3291,
      "Âł": 3292,
      "Ġposzuki": 3293,
      "ĠkoÅĽci": 3294,
      "Ġnocy": 3295,
      "ĠobowiÄħz": 3296,
      "dny": 3297,
      "Ġopowia": 3298,
      "Ġprofe": 3299,
      "ĠciÄĻÅ¼ko": 3300,
      "and": 3301,
      "Ġanty": 3302,
      "Ġcena": 3303,
      "anki": 3304,
      "Ġdrew": 3305,
      "kier": 3306,
      "enty": 3307,
      "Ġkomputer": 3308,
      "Ġwieczo": 3309,
      "Ġnajmniej": 3310,
      "Å¼ki": 3311,
      "dzam": 3312,
      "Ġuczy": 3313,
      "dio": 3314,
      "ĠciÄħÅ¼y": 3315,
      "daje": 3316,
      "ĠwyglÄħd": 3317,
      "Ġzapa": 3318,
      "szek": 3319,
      "Ġzanie": 3320,
      "Ġzja": 3321,
      "Ġwiel": 3322,
      "ĠÅºle": 3323,
      "ÅĦskiej": 3324,
      "ĠbÅĤy": 3325,
      "Ġznaczy": 3326,
      "et": 3327,
      "ĠPodpowiadamy": 3328,
      "szne": 3329,
      "ownik": 3330,
      "ĠcaÅĤym": 3331,
      "ĠcÃ³r": 3332,
      "ĠwyÅ¼": 3333,
      "Ġopie": 3334,
      "Ġcm": 3335,
      "ĠDu": 3336,
      "ĠuwaÅ¼a": 3337,
      "owanej": 3338,
      "Ġzakupi": 3339,
      "owano": 3340,
      "tnia": 3341,
      "Ġumy": 3342,
      "piÄħ": 3343,
      "Ġfirmy": 3344,
      "Ġdoku": 3345,
      "Ġkomfort": 3346,
      "ÅĤki": 3347,
      "ĠHi": 3348,
      "nÄĻÅĤa": 3349,
      "ĠdÅºwiÄĻ": 3350,
      "ĠzwiÄħzku": 3351,
      "turze": 3352,
      "Ġkorzyst": 3353,
      "Ġniemow": 3354,
      "Ġwiec": 3355,
      "ĠskoÅĦczy": 3356,
      "ĠnajczÄĻÅĽciej": 3357,
      "Ġprzesta": 3358,
      "zio": 3359,
      "Ġstandar": 3360,
      "Ġwspania": 3361,
      "Ġwypad": 3362,
      "Ġnajlepszy": 3363,
      "Ġrzeczywi": 3364,
      "anu": 3365,
      "ĠdziaÅĤania": 3366,
      "pienia": 3367,
      "Ġzespo": 3368,
      "Ġoczeki": 3369,
      "ĠkogoÅĽ": 3370,
      "Ġtreni": 3371,
      "Ġkonku": 3372,
      "ÅĤoby": 3373,
      "Ġfotografi": 3374,
      "Ġdwo": 3375,
      "Ġwyk": 3376,
      "Ġczasami": 3377,
      "21": 3378,
      "czar": 3379,
      "ĠSÅĤuchawki": 3380,
      "onÄħ": 3381,
      "stki": 3382,
      "ĠÅ¼adnych": 3383,
      "Ġkl": 3384,
      "Åºni": 3385,
      "ĠÅĽro": 3386,
      "znaj": 3387,
      "ĠwyrÃ³Å¼": 3388,
      "Ġdal": 3389,
      "ĠSzuka": 3390,
      "Od": 3391,
      "Ġkolejne": 3392,
      "Ġmieszkania": 3393,
      "Å¼ÄĻ": 3394,
      "ĠduÅ¼Äħ": 3395,
      "oo": 3396,
      "ĠporzÄħd": 3397,
      "Ġdia": 3398,
      "owanÄħ": 3399,
      "spek": 3400,
      "Ġwskaz": 3401,
      "Ġsprawa": 3402,
      "Ġbyli": 3403,
      "menty": 3404,
      "ĠpeÅĤni": 3405,
      "ĠJuÅ¼": 3406,
      "ÅĽwie": 3407,
      "Ġdowo": 3408,
      "Ġpolec": 3409,
      "Dz": 3410,
      "Ġpoziomie": 3411,
      "Ġangiel": 3412,
      "ĠgorÄħ": 3413,
      "nij": 3414,
      "ĠkawaÅĤ": 3415,
      "ĠproblemÃ³w": 3416,
      "ĠksiÄħÅ¼ka": 3417,
      "Å¼yÅĤ": 3418,
      "Ġsierp": 3419,
      "Ġstron": 3420,
      "ĠdÅĤuÅ¼": 3421,
      "ĠiloÅĽÄĩ": 3422,
      "ĠchÄĻtnie": 3423,
      "resztÄħ": 3424,
      "AM": 3425,
      "samowi": 3426,
      "Ġniemal": 3427,
      "ĠwedÅĤug": 3428,
      "Ġstudi": 3429,
      "Ġkart": 3430,
      "ĠjeÅ¼eli": 3431,
      "ĠpÃ³j": 3432,
      "Ġmal": 3433,
      "ciera": 3434,
      "ĠJez": 3435,
      "Ġdoskonale": 3436,
      "ĠDziÅĽ": 3437,
      "nÃ³": 3438,
      "Ġprzeprowa": 3439,
      "ĠciÄħgu": 3440,
      "ĠDoda": 3441,
      "ĠzajÄĻ": 3442,
      "ĠBez": 3443,
      "ĠsprawdzÄħ": 3444,
      "owoÅĽci": 3445,
      "ĠbÄĻdziemy": 3446,
      "ĠTylko": 3447,
      "Ġorygina": 3448,
      "Ġintensyw": 3449,
      "Ġpoprzez": 3450,
      "ciÅĤ": 3451,
      "ĠwrÃ³ci": 3452,
      "ÅĤÃ³": 3453,
      "Ġwam": 3454,
      "Ġmarca": 3455,
      "Ġszkole": 3456,
      "Ġegz": 3457,
      "Ġkrwi": 3458,
      "Ġdra": 3459,
      "Ġzamiast": 3460,
      "ĠOsta": 3461,
      "Ġwaka": 3462,
      "Ġekran": 3463,
      "asa": 3464,
      "Ġsoli": 3465,
      "Ġbrz": 3466,
      "Ġobo": 3467,
      "wana": 3468,
      "owiedz": 3469,
      "ĠmojÄħ": 3470,
      "Ġbedzie": 3471,
      "ĠstaÅĤo": 3472,
      "Ġinspi": 3473,
      "towe": 3474,
      "MoÅ¼e": 3475,
      "Ġkim": 3476,
      "ĠcaÅĤkowi": 3477,
      "tykÃ³w": 3478,
      "ĠpowiedziaÅĤ": 3479,
      "Ġgodzin": 3480,
      "Ġwyp": 3481,
      "Ã³wczas": 3482,
      "ÂŃ": 3483,
      "ĠPole": 3484,
      "Ġsamej": 3485,
      "Ġniech": 3486,
      "ĠsprawÄĻ": 3487,
      "gÃ³lnie": 3488,
      "ĠmyÅĽla": 3489,
      "Wie": 3490,
      "Ġfakt": 3491,
      "oÅĤa": 3492,
      "Ġwych": 3493,
      "kurza": 3494,
      "dziÅĤa": 3495,
      "Ġprojek": 3496,
      "ĠroÅĽli": 3497,
      "ÅĤek": 3498,
      "ĠBi": 3499,
      "ĠkaÅ¼da": 3500,
      "Ġdoko": 3501,
      "akÃ³w": 3502,
      "ĠCzÄĻ": 3503,
      "ĠwyjÄħtk": 3504,
      "ĠBu": 3505,
      "Ġwysy": 3506,
      "Ġgodziny": 3507,
      "Ġjakiej": 3508,
      "Ġpojem": 3509,
      "Cz": 3510,
      "Ġrza": 3511,
      "biega": 3512,
      "szaÄĩ": 3513,
      "Ġodwie": 3514,
      "ĠciÄħgle": 3515,
      "Ġbrzu": 3516,
      "Ġzmiany": 3517,
      "Ġpoziom": 3518,
      "Ġidealny": 3519,
      "Ġproducenta": 3520,
      "Ġnazy": 3521,
      "bel": 3522,
      "Ġodpowiednio": 3523,
      "ĠukÅĤa": 3524,
      "Ġkupu": 3525,
      "Ġmomencie": 3526,
      "Ġzazwyczaj": 3527,
      "mienia": 3528,
      "wszy": 3529,
      "Ġnieu": 3530,
      "cym": 3531,
      "Ġdwu": 3532,
      "Ġlepsze": 3533,
      "Ġow": 3534,
      "Ġpromo": 3535,
      "dna": 3536,
      "ckiej": 3537,
      "eli": 3538,
      "!!!": 3539,
      "kse": 3540,
      "ower": 3541,
      "mam": 3542,
      "Ġwywo": 3543,
      "ĠprzekÄħ": 3544,
      "nikiem": 3545,
      "koÅĽci": 3546,
      "Ġ500": 3547,
      "ĠzamkniÄĻ": 3548,
      "ĠÅĽlub": 3549,
      "ĠposiadajÄħ": 3550,
      "kowa": 3551,
      "Ġdoj": 3552,
      "Ġwielko": 3553,
      "Ġwraca": 3554,
      "ĠokazjÄĻ": 3555,
      "ĠproszÄĻ": 3556,
      "Ġtru": 3557,
      "ĠNatomiast": 3558,
      "Ġkwiet": 3559,
      "Å¼em": 3560,
      "ĠJu": 3561,
      "Ġogro": 3562,
      "Ġtzw": 3563,
      "mm": 3564,
      "âĢĵ": 3565,
      "Ġpotrzeby": 3566,
      "ian": 3567,
      "aru": 3568,
      "ĠkoleÅ¼an": 3569,
      "leÄĩ": 3570,
      "Ġocho": 3571,
      "ÅĦcÃ³w": 3572,
      "Ġodczu": 3573,
      "ĠwzglÄĻdem": 3574,
      "Ġblogu": 3575,
      "waÅĤy": 3576,
      "Ġpisze": 3577,
      "Ġobro": 3578,
      "turÄĻ": 3579,
      "nujemy": 3580,
      "Ġkana": 3581,
      "Ġpsycho": 3582,
      "Ġnajnow": 3583,
      "daÅĤ": 3584,
      "Ġczerwca": 3585,
      "Przy": 3586,
      "Ġobrazu": 3587,
      "Ġidealnie": 3588,
      "ĠÅºrÃ³d": 3589,
      "50": 3590,
      "JeÅĽli": 3591,
      "terÃ³w": 3592,
      "sjona": 3593,
      "ĠprzyjaciÃ³ÅĤ": 3594,
      "Ġpach": 3595,
      "Ġwykony": 3596,
      "Ġmacie": 3597,
      "waÅĤo": 3598,
      "Ġlak": 3599,
      "Ġjesie": 3600,
      "Ġdysku": 3601,
      "ĠwrzeÅĽnia": 3602,
      "Ġzrozumie": 3603,
      "nomi": 3604,
      "Ġprzewo": 3605,
      "owanego": 3606,
      "Ġlutego": 3607,
      "ĠLo": 3608,
      "My": 3609,
      "Ġcos": 3610,
      "ĠNawet": 3611,
      "Ġprzyczy": 3612,
      "ĠdÅĤugie": 3613,
      "cieka": 3614,
      "ĠpoznaÄĩ": 3615,
      "Ġregular": 3616,
      "ĠbÄħdÅº": 3617,
      "Ġodpowiada": 3618,
      "ĠpomÃ³c": 3619,
      "Ġenergii": 3620,
      "Ġwil": 3621,
      "Ġaktu": 3622,
      "Ġoce": 3623,
      "Ġelegan": 3624,
      "Ġkolejny": 3625,
      "ĠsprzÄĻtu": 3626,
      "ĠÅ»y": 3627,
      ".\"": 3628,
      "Ġpomys": 3629,
      "str": 3630,
      "Ġcuk": 3631,
      "Ġspotk": 3632,
      "Ġbro": 3633,
      "ĠCe": 3634,
      "fy": 3635,
      "cjali": 3636,
      "ĠczÅĤo": 3637,
      "ĠwziÄħ": 3638,
      "dowe": 3639,
      "ktÃ³re": 3640,
      "Ġgospodar": 3641,
      "ĠÅĽwiad": 3642,
      "Ġzab": 3643,
      "aku": 3644,
      "Ġtechni": 3645,
      "czeniem": 3646,
      "ĠAby": 3647,
      "pla": 3648,
      "wienie": 3649,
      "Ġrecen": 3650,
      "ÅĽlÄĻ": 3651,
      "bija": 3652,
      "Ġprzedmio": 3653,
      "ĠskÅĤad": 3654,
      "Ġotwar": 3655,
      "Ġrodzin": 3656,
      "Ġzabaw": 3657,
      "ĠpomiÄĻdzy": 3658,
      "Ko": 3659,
      "Ġpopra": 3660,
      "ĠPodczas": 3661,
      "bliÅ¼": 3662,
      "Ġspowo": 3663,
      "ĠgÃ³r": 3664,
      "ĠChoÄĩ": 3665,
      "Ġwier": 3666,
      "ST": 3667,
      "dziaÅĤek": 3668,
      "ĠokreÅĽla": 3669,
      "Ġresz": 3670,
      "Ġlektury": 3671,
      "cyjna": 3672,
      "ĠciÄħg": 3673,
      "Ġzdrowie": 3674,
      "Ġsma": 3675,
      "ĠumoÅ¼liwia": 3676,
      "Ġherba": 3677,
      "ĠmiesiÄĻcy": 3678,
      "Ġpoje": 3679,
      "Ġpodkre": 3680,
      "tle": 3681,
      "Ġsobo": 3682,
      "Ġmusimy": 3683,
      "Ġotrzyma": 3684,
      "Ġfe": 3685,
      "Ġster": 3686,
      "dziÅĤam": 3687,
      "Ġznam": 3688,
      "Ġstopni": 3689,
      "ĠpodrÃ³Å¼": 3690,
      "Ġstrasznie": 3691,
      "gla": 3692,
      "Ġkap": 3693,
      "ĠZastanawia": 3694,
      "Ġprawa": 3695,
      "Ġsmu": 3696,
      "Ġpierwszej": 3697,
      "Ġwese": 3698,
      "Ġstycznia": 3699,
      "jeÅ¼d": 3700,
      "Ġniesamowi": 3701,
      "Ġniemie": 3702,
      "Ġwychodzi": 3703,
      "Ġpraca": 3704,
      "ĠPani": 3705,
      "Ġobok": 3706,
      "ĠwspÃ³l": 3707,
      "ligent": 3708,
      "com": 3709,
      "rÃ³Å¼y": 3710,
      "ĠpaÅºdziernika": 3711,
      "kola": 3712,
      "Ġzdo": 3713,
      "Pro": 3714,
      "tniej": 3715,
      "Ġwszystkiego": 3716,
      "ĠDlaczego": 3717,
      "reszcie": 3718,
      "ĠwÄħtek": 3719,
      "niesie": 3720,
      "Ġdrob": 3721,
      "Ġdobrego": 3722,
      "strzy": 3723,
      "Ġgrani": 3724,
      "Ġwyraz": 3725,
      "ĠWÅĤa": 3726,
      "OW": 3727,
      "ĠPu": 3728,
      "ÅĽciej": 3729,
      "ĠpowieÅĽci": 3730,
      "ĠiÅĽÄĩ": 3731,
      "kowaÄĩ": 3732,
      "Ġelektry": 3733,
      "ĠmuszÄħ": 3734,
      "ĠstronÄĻ": 3735,
      "pol": 3736,
      "ĠskÃ³rÄĻ": 3737,
      "ĠUS": 3738,
      "Ġrano": 3739,
      "Ġzdrowia": 3740,
      "Ġobia": 3741,
      "ĠbyÅĤoby": 3742,
      "Ġdrzwi": 3743,
      "Ġprost": 3744,
      "nowa": 3745,
      "ĠtÅĤuma": 3746,
      "Ġ24": 3747,
      "waran": 3748,
      "Ġmieli": 3749,
      "ĠÅĽwiÄħ": 3750,
      "Ġczuje": 3751,
      "Ġochro": 3752,
      "ĠzostaÅĤo": 3753,
      "Ġprzesz": 3754,
      "ĠOp": 3755,
      "ĠsprawdziÄĩ": 3756,
      "Ġud": 3757,
      "Mi": 3758,
      "iar": 3759,
      "ĠsÅĤoÅĦ": 3760,
      "Ġpodstawie": 3761,
      "Bo": 3762,
      "paÄĩ": 3763,
      "duka": 3764,
      "ĠrozwiÄħz": 3765,
      "jÄħÄĩ": 3766,
      "Ġuwagi": 3767,
      "Ġkobieta": 3768,
      "Ġgrudnia": 3769,
      "woÅĽci": 3770,
      "ĠSzcze": 3771,
      "ĠmnÃ³": 3772,
      "AR": 3773,
      "Ġdrodze": 3774,
      "dzajÄħ": 3775,
      "peÅĤni": 3776,
      "niÄĻcia": 3777,
      "ĠObec": 3778,
      "lama": 3779,
      "ĠðŁ": 3780,
      "Ġskar": 3781,
      "ver": 3782,
      "Ġindy": 3783,
      "ĠzakoÅĦ": 3784,
      "ĠSe": 3785,
      "ĠchciaÅĤam": 3786,
      "Ġmili": 3787,
      "ĠcaÅĤej": 3788,
      "rabia": 3789,
      "ownika": 3790,
      "gno": 3791,
      "piÄĻk": 3792,
      "ĠznÃ³w": 3793,
      "ĠtwÃ³r": 3794,
      "Ġponow": 3795,
      "deÅĤ": 3796,
      "daj": 3797,
      "ĠKtÃ³": 3798,
      "qu": 3799,
      "ĠÅĤo": 3800,
      "Ġgrupy": 3801,
      "ĠnajwyÅ¼": 3802,
      "dopodob": 3803,
      "Ġdar": 3804,
      "Ġpozby": 3805,
      "ĠmÃ³w": 3806,
      "stw": 3807,
      "lno": 3808,
      "Ġnami": 3809,
      "30": 3810,
      "ĠÅļwiÄĻ": 3811,
      "Ġzmar": 3812,
      "ÅĤach": 3813,
      "wnÄħ": 3814,
      "dami": 3815,
      "Ġmor": 3816,
      "Ġ2013": 3817,
      "Ġserca": 3818,
      "Åºnie": 3819,
      "ÅĤami": 3820,
      "ĠmaÅĤ": 3821,
      "Ġ2014": 3822,
      "Ġof": 3823,
      "Ġniko": 3824,
      "Ġlistopada": 3825,
      "bienia": 3826,
      "Ġkrea": 3827,
      "ĠpamiÄĻci": 3828,
      "pki": 3829,
      "ĠiloÅĽci": 3830,
      "dob": 3831,
      "ĠPoza": 3832,
      "ĠprawidÅĤ": 3833,
      "ĠzmieniÄĩ": 3834,
      "Ġmaksym": 3835,
      "kana": 3836,
      "ĠpieniÄħ": 3837,
      "es": 3838,
      "Ġdodatkowo": 3839,
      "Ġkamie": 3840,
      "ĠchciaÅĤa": 3841,
      "Ġwyz": 3842,
      "Ġtor": 3843,
      "mai": 3844,
      "Ġkuchen": 3845,
      "alnego": 3846,
      "ĠwiÄĻkszoÅĽci": 3847,
      "ĠbÅĤÄĻ": 3848,
      "Ġ/": 3849,
      "nujÄħ": 3850,
      "Ġpokaza": 3851,
      "Ġserwi": 3852,
      "nkÄĻ": 3853,
      "dki": 3854,
      "owac": 3855,
      "ld": 3856,
      "Dla": 3857,
      "Ġchi": 3858,
      "tnio": 3859,
      "Ġlekarza": 3860,
      "Ġfunkcjon": 3861,
      "Ġfaj": 3862,
      "Ġbal": 3863,
      "ĠpozwalajÄħ": 3864,
      "torem": 3865,
      "ĠduÅ¼y": 3866,
      "Ġkol": 3867,
      "ĠzobaczyÄĩ": 3868,
      "dzamy": 3869,
      "jo": 3870,
      "18": 3871,
      "Ġbohater": 3872,
      "Ġutwo": 3873,
      "ĠuÅĽmie": 3874,
      "czach": 3875,
      "Ġpokoju": 3876,
      "Ġparametry": 3877,
      "Ġcier": 3878,
      "ĠrozwiÄħzanie": 3879,
      "Ġ194": 3880,
      "Ġokresie": 3881,
      "wczyny": 3882,
      "szkÄĻ": 3883,
      "ĠpielÄĻgnacji": 3884,
      "taÅĤam": 3885,
      "onem": 3886,
      "ĠparÄĻ": 3887,
      "CA": 3888,
      "ĠSmartfony": 3889,
      "ĠzwierzÄĻ": 3890,
      "dziaÅĤem": 3891,
      "ĠwpÅĤyw": 3892,
      "tnej": 3893,
      "ĠznajdujÄħ": 3894,
      "lega": 3895,
      "Ġkoja": 3896,
      "Ġziemi": 3897,
      "lew": 3898,
      "Ġdobrym": 3899,
      "ĠwÅĤaÅĽciwie": 3900,
      "fie": 3901,
      "Å¼eniem": 3902,
      "Ġjutro": 3903,
      "ĠposÅĤu": 3904,
      "ĠGra": 3905,
      "ĠpoÅĤ": 3906,
      "Ġokres": 3907,
      "ĠmiaÅĤy": 3908,
      "Ġpowro": 3909,
      "moc": 3910,
      "glÄħda": 3911,
      "chÃ³w": 3912,
      "ĠIm": 3913,
      "ĠPrzez": 3914,
      "szymi": 3915,
      "ĠmiÄĻk": 3916,
      "ĠÅ»e": 3917,
      "ll": 3918,
      "tujÄħ": 3919,
      "Ġrankingu": 3920,
      "Ġrozwoju": 3921,
      "ton": 3922,
      "Ġmama": 3923,
      "Ġczwar": 3924,
      "wienia": 3925,
      "Ġdawno": 3926,
      "Ġcali": 3927,
      "Ġrodzaje": 3928,
      "ĠZam": 3929,
      "tÅĤu": 3930,
      "ĠÅĽmierci": 3931,
      "ĠsmartfonÃ³w": 3932,
      "12": 3933,
      "Ġzapewnia": 3934,
      "Ġpomocy": 3935,
      "rzuca": 3936,
      "ĠtydzieÅĦ": 3937,
      "logia": 3938,
      "Ġfaktycznie": 3939,
      "ĠniektÃ³re": 3940,
      "Ġszam": 3941,
      "trzeÄĩ": 3942,
      "Ġrozwija": 3943,
      "ĠKsiÄħ": 3944,
      "ĠÅĤÃ³Å¼": 3945,
      "Ġciekawe": 3946,
      "mos": 3947,
      "torek": 3948,
      "enta": 3949,
      "niejsza": 3950,
      "emi": 3951,
      "wz": 3952,
      "ĠwystÄĻpu": 3953,
      "tnego": 3954,
      "Ġdowiesz": 3955,
      "widu": 3956,
      "Ġum": 3957,
      "Ġdale": 3958,
      "cone": 3959,
      "Ġuzna": 3960,
      "ĠnajwaÅ¼niejsze": 3961,
      "zny": 3962,
      "Ġmart": 3963,
      "Ġsprawie": 3964,
      "cio": 3965,
      "ĠzÄĻ": 3966,
      "tele": 3967,
      "By": 3968,
      "ĠosiÄħg": 3969,
      "ĠtaÅĦ": 3970,
      "Ġstyl": 3971,
      "ĠnastÄĻpnie": 3972,
      "Ġostatnich": 3973,
      "imi": 3974,
      "Ġgwia": 3975,
      "Ġlipca": 3976,
      "Ġrozumiem": 3977,
      "Ġklien": 3978,
      "ĠDobrze": 3979,
      "ĠpamiÄĻtam": 3980,
      "ĠksiÄħÅ¼kÄĻ": 3981,
      "ĠwspÃ³": 3982,
      "Ġdrogi": 3983,
      "Sz": 3984,
      "ĠCze": 3985,
      "Ġporu": 3986,
      "Ġkraj": 3987,
      "Ġcel": 3988,
      "turÄħ": 3989,
      "Ġtajemni": 3990,
      "Ġbab": 3991,
      "lor": 3992,
      "Ġnajpierw": 3993,
      "Ġopa": 3994,
      "Ġpozwoli": 3995,
      "Ġmonitor": 3996,
      "Ġkolei": 3997,
      "Ġzapyta": 3998,
      "Ġstaje": 3999,
      "dka": 4000,
      "Ġszczy": 4001,
      "Ġge": 4002,
      "ĠuÅ¼yciu": 4003,
      "piÄĩ": 4004,
      "Ġeta": 4005,
      "wiÅĤ": 4006,
      "ĠwiÄĻkszÄħ": 4007,
      "ĠÅ¼Ã³ÅĤ": 4008,
      "Ġtygodniu": 4009,
      "Ni": 4010,
      "ĠFi": 4011,
      "ĠmieÅĽcie": 4012,
      "Ġuczest": 4013,
      "Ġkarty": 4014,
      "Ġosoba": 4015,
      "Å¼ka": 4016,
      "Ġciasto": 4017,
      "Ġsierpnia": 4018,
      "Ġtwarz": 4019,
      "Ġkontra": 4020,
      "ĠpodÅĤÄħ": 4021,
      "gh": 4022,
      "ĠHe": 4023,
      "Ġtwar": 4024,
      "Ġcyf": 4025,
      "ĠzmÄĻ": 4026,
      "ĠzdecydowaÄĩ": 4027,
      "ĠXX": 4028,
      "Ġkierunku": 4029,
      "Ġspecjalne": 4030,
      "kÃ³ÅĤ": 4031,
      "ĠwÃ³wczas": 4032,
      "ĠporÃ³wn": 4033,
      "ĠchciaÅĤabym": 4034,
      "Ġwynika": 4035,
      "Ġzdarza": 4036,
      "15": 4037,
      "Ġrodzice": 4038,
      "ĠwpÅĤywa": 4039,
      "Ġsprawy": 4040,
      "ĠrolÄĻ": 4041,
      "ĠPre": 4042,
      "Ġkwietnia": 4043,
      "ĠmnÃ³stwo": 4044,
      "Ġzegar": 4045,
      "ĠjakaÅĽ": 4046,
      "Ġfunkcji": 4047,
      "Ġpios": 4048,
      "ĠmiÅĤoÅĽÄĩ": 4049,
      "dÅĤa": 4050,
      "Ġfilmu": 4051,
      "Ġspodzie": 4052,
      "sÄħ": 4053,
      "Ġcent": 4054,
      "cesz": 4055,
      "dÅĤo": 4056,
      "Ġdomowych": 4057,
      "Ġwyma": 4058,
      "ĠZnaj": 4059,
      "Ġprzypomina": 4060,
      "zdra": 4061,
      "ĠpÅĤyn": 4062,
      "les": 4063,
      "ON": 4064,
      "ĠczujÄĻ": 4065,
      "ĠSp": 4066,
      "ĠwÄħtku": 4067,
      "ĠcaÅĤego": 4068,
      "Ġzanim": 4069,
      "Ġniedaw": 4070,
      "Ġnagry": 4071,
      "Ġ40": 4072,
      "stka": 4073,
      "nale": 4074,
      "Ġniby": 4075,
      "lacja": 4076,
      "ĠdodaÄĩ": 4077,
      "ĠdobrÄħ": 4078,
      "gani": 4079,
      "Ġwytrzyma": 4080,
      "koÅĤa": 4081,
      "Ġtanie": 4082,
      "Ġtwier": 4083,
      "Ġdeko": 4084,
      "dla": 4085,
      "rady": 4086,
      "dzaÄĩ": 4087,
      "tyczna": 4088,
      "jÄħco": 4089,
      "Å¼ony": 4090,
      "ĠZak": 4091,
      "dziesz": 4092,
      "ĠSzukasz": 4093,
      "Ġryzy": 4094,
      "ĠÅĤadnie": 4095,
      ".,": 4096,
      "ĠszczÄĻÅĽli": 4097,
      "Ġjo": 4098,
      "obi": 4099,
      "Ġ2012": 4100,
      "ckich": 4101,
      "ĠgÅĤÄĻbo": 4102,
      "Ġpane": 4103,
      "wÅĤa": 4104,
      "mentÃ³w": 4105,
      "Ġzielo": 4106,
      "Ġniczym": 4107,
      "Ġporo": 4108,
      "TE": 4109,
      "ĠgÅĤowie": 4110,
      "Ġzmniej": 4111,
      "ĠudziaÅĤ": 4112,
      "Ġtar": 4113,
      "nienie": 4114,
      "ĠTrze": 4115,
      "Ġzwraca": 4116,
      "ciele": 4117,
      "Ġgatu": 4118,
      "Ġ2015": 4119,
      "Ġzabawy": 4120,
      "ĠSer": 4121,
      "ĠNe": 4122,
      "Ġzalety": 4123,
      "hone": 4124,
      "ĠdÅĤo": 4125,
      "Ġwygo": 4126,
      "ĠwziÄĻ": 4127,
      "andy": 4128,
      "ĠKar": 4129,
      "ĠbÃ³l": 4130,
      "ĠuwaÅ¼am": 4131,
      "feren": 4132,
      "ĠsÅĤÃ³w": 4133,
      "Ġnajpopular": 4134,
      "sÅĤaw": 4135,
      "ĠmÅĤod": 4136,
      "ĠMat": 4137,
      "czyÅĤa": 4138,
      "Ġoku": 4139,
      "Ġprzedstawia": 4140,
      "Ġwypa": 4141,
      "Ro": 4142,
      "Ġprzygo": 4143,
      "ĠNic": 4144,
      "Ġnieod": 4145,
      "eken": 4146,
      "Ġeduka": 4147,
      "Ġpoma": 4148,
      "dzieli": 4149,
      "Ġmodelu": 4150,
      "cyjnie": 4151,
      "ĠSto": 4152,
      "Ã³dz": 4153,
      "ĠwyglÄħdaÄĩ": 4154,
      "Ġtani": 4155,
      "rtu": 4156,
      "Ġmat": 4157,
      "Ġlepszym": 4158,
      "Ġnieza": 4159,
      "Ġ198": 4160,
      "ĠBoÅ¼e": 4161,
      "Ġpotwier": 4162,
      "ĠprzeÅ¼y": 4163,
      "Ġthe": 4164,
      "zacji": 4165,
      "Ġznie": 4166,
      "domoÅĽci": 4167,
      "ciela": 4168,
      "ĠwnÄĻt": 4169,
      "Ġostatnie": 4170,
      "Ġzaa": 4171,
      "Ġpopularnych": 4172,
      "kÄħd": 4173,
      "ĠpiÄħtek": 4174,
      "ĠdostaÄĩ": 4175,
      "noszÄħ": 4176,
      "Ġwarzy": 4177,
      "waniu": 4178,
      "krotnie": 4179,
      "ĠpiÄĻknie": 4180,
      "ĠwydajnoÅĽÄĩ": 4181,
      "ĠwartoÅĽci": 4182,
      "ou": 4183,
      "ĠrÄĻce": 4184,
      "Ġnieprzy": 4185,
      "ĠbudÅ¼e": 4186,
      "Ġpewne": 4187,
      "Ġwro": 4188,
      "Ġskon": 4189,
      "ĠgÅĤos": 4190,
      "ĠPy": 4191,
      "ĠProduk": 4192,
      "ĠpamiÄĻtaÄĩ": 4193,
      "Ġzbiera": 4194,
      "Ġalbu": 4195,
      "Ġspoj": 4196,
      "Ġwiza": 4197,
      "Ġhistoria": 4198,
      "dzeniu": 4199,
      "Ġtymi": 4200,
      "Ġhu": 4201,
      "Ġodw": 4202,
      "leÅĦ": 4203,
      "Ġkonstruk": 4204,
      "Ġpodobnie": 4205,
      "skiem": 4206,
      "Ġana": 4207,
      "mini": 4208,
      "Ġzajmu": 4209,
      "Ġnieo": 4210,
      "ĠskorzystaÄĩ": 4211,
      "ĠDowiedz": 4212,
      "Ġtere": 4213,
      "ĠkupiÅĤam": 4214,
      "Ġsyn": 4215,
      "Ġuzyska": 4216,
      "Ġsami": 4217,
      "GO": 4218,
      "ĠsiÄĻg": 4219,
      "Ġupo": 4220,
      "ĠpiÄĻkne": 4221,
      "ĠjakiegoÅĽ": 4222,
      "chaÄĩ": 4223,
      "Ġodda": 4224,
      "ĠdÅĤuÅ¼ej": 4225,
      "ĠjakÄħÅĽ": 4226,
      "ĠniektÃ³rych": 4227,
      "Ġprzedstawi": 4228,
      "dnych": 4229,
      "ĠPamiÄĻ": 4230,
      "Ġodcie": 4231,
      "wnÄħtrz": 4232,
      "gor": 4233,
      "ĠwyÅĤÄħcznie": 4234,
      "Ġgor": 4235,
      "alnÄħ": 4236,
      "Ġnar": 4237,
      "syj": 4238,
      "dej": 4239,
      "Ġzi": 4240,
      "ĠponiedziaÅĤek": 4241,
      "Ġfajnie": 4242,
      "Ty": 4243,
      "Ġsmo": 4244,
      "ĠcaÅĤa": 4245,
      "Ġfin": 4246,
      "Ġwiek": 4247,
      "ĠkrÃ³tki": 4248,
      "Ġelektroni": 4249,
      "Ġzakupu": 4250,
      "Ġbru": 4251,
      "Ġfla": 4252,
      "rym": 4253,
      "ĠRy": 4254,
      "ĠAnd": 4255,
      "Ġuniw": 4256,
      "lami": 4257,
      "ĠBoga": 4258,
      "ĠChyba": 4259,
      "ĠzaczÄħÄĩ": 4260,
      "ĠumiejÄĻt": 4261,
      "Ġnarze": 4262,
      "ĠnajbliÅ¼": 4263,
      "Ġpolega": 4264,
      "kle": 4265,
      "Ġdobrej": 4266,
      "Ġindywidu": 4267,
      "scie": 4268,
      "stytu": 4269,
      "Å¼owe": 4270,
      "Ġbloga": 4271,
      "ĠgÄĻ": 4272,
      "Ġpowoduje": 4273,
      "ĠPrzygot": 4274,
      "ĠduÅ¼ym": 4275,
      "ĠzwiÄĻk": 4276,
      "Ġnaczy": 4277,
      "ĠObecnie": 4278,
      "Ġ1500": 4279,
      "Ġzostanie": 4280,
      "dzÄħc": 4281,
      "dzony": 4282,
      "Ġodby": 4283,
      "Ġelement": 4284,
      "raÅ¼a": 4285,
      "ĠrozwiÄħzania": 4286,
      "Ġklima": 4287,
      "Ġmedy": 4288,
      "ĠpomoÅ¼e": 4289,
      "lina": 4290,
      "Ġszan": 4291,
      "ĠpieniÄħdze": 4292,
      "ÅĤoÅ¼yÄĩ": 4293,
      "Ġnauki": 4294,
      "Ġformie": 4295,
      "Ġspokojnie": 4296,
      "ĠPolecam": 4297,
      "ĠnarzÄĻ": 4298,
      "Ġozd": 4299,
      "ĠdÅºwiÄĻku": 4300,
      "cemy": 4301,
      "Ġkosmetyki": 4302,
      "ĠrÄħ": 4303,
      "era": 4304,
      "bro": 4305,
      "Ġkrze": 4306,
      "Ġ2016": 4307,
      "Sk": 4308,
      "dzimy": 4309,
      "Ġotwo": 4310,
      "Ġcza": 4311,
      "Ġwitaminy": 4312,
      "amie": 4313,
      "byÅĽ": 4314,
      "roma": 4315,
      "czesne": 4316,
      "ĠpoÅĤu": 4317,
      "Ġ!": 4318,
      "Ġbezprzewodowe": 4319,
      "tere": 4320,
      "arki": 4321,
      "Ġwiecz": 4322,
      "ĠPR": 4323,
      "ĠdaÄĩ": 4324,
      "owoÅĽÄĩ": 4325,
      "Ġzabawki": 4326,
      "Ġweeken": 4327,
      "Ġsukce": 4328,
      "Ġzazna": 4329,
      "stym": 4330,
      "Ġ;)": 4331,
      "Ġ60": 4332,
      "Ġuszko": 4333,
      "Ġspecjali": 4334,
      "ĠzewnÄĻtrz": 4335,
      "ĠMamy": 4336,
      "stawy": 4337,
      "wiaÄĩ": 4338,
      "ego": 4339,
      "Ġczekola": 4340,
      "Ġplus": 4341,
      "szaÅĤam": 4342,
      "dziÄĻ": 4343,
      "ĠbÃ³": 4344,
      "ĠBie": 4345,
      "obraz": 4346,
      "ĠczÄĻÅĽciej": 4347,
      "Ġzeby": 4348,
      "ĠHa": 4349,
      "Ġsukie": 4350,
      "Ġwynosi": 4351,
      "ban": 4352,
      "ĠOpi": 4353,
      "Fo": 4354,
      "strz": 4355,
      "towa": 4356,
      "ĠcaÅĤkowicie": 4357,
      "ĠpowyÅ¼ej": 4358,
      "noc": 4359,
      "Ġy": 4360,
      "Ġpsa": 4361,
      "kowej": 4362,
      "ĠpoÅĤÄħczenie": 4363,
      "Ġwyborze": 4364,
      "ĠcenÄĻ": 4365,
      "szÅĤam": 4366,
      "szo": 4367,
      "Ġdem": 4368,
      "ĠsiÄĻga": 4369,
      "gre": 4370,
      "mÄħ": 4371,
      "Ġgrzy": 4372,
      "ĠÅĽle": 4373,
      "Ġpomieszcze": 4374,
      "ÅĽliÄĩ": 4375,
      "ĠÅĤatw": 4376,
      "Ġdrugiego": 4377,
      "ĠpodrÃ³Å¼y": 4378,
      "niÅĤ": 4379,
      "wans": 4380,
      "cÅĤa": 4381,
      "Ġkomunika": 4382,
      "ĠÅĽlu": 4383,
      "zdu": 4384,
      "ĠSu": 4385,
      "ĠRu": 4386,
      "Ġwyro": 4387,
      "Ġrady": 4388,
      "ĠlepszÄħ": 4389,
      "sh": 4390,
      "zÅĤ": 4391,
      "ĠstosowaÄĩ": 4392,
      "Ġswobo": 4393,
      "ÅĦskich": 4394,
      "Ġwybie": 4395,
      "Ġpoprzedni": 4396,
      "Ġinteligent": 4397,
      "nerg": 4398,
      "trzeb": 4399,
      "ĠmÃ³wiÄħc": 4400,
      "Ġwykonane": 4401,
      "Ġ22": 4402,
      "Ġwarunkach": 4403,
      "ĠOn": 4404,
      "dÅ¼e": 4405,
      "Ġcodziennie": 4406,
      "fil": 4407,
      "mowaÄĩ": 4408,
      "ĠczymÅĽ": 4409,
      "ĠCzÄĻsto": 4410,
      "Ġprojekt": 4411,
      "jka": 4412,
      "Hej": 4413,
      "Ġpokry": 4414,
      "Ġwspomnie": 4415,
      "LE": 4416,
      "mp": 4417,
      "Ġprofesjona": 4418,
      "Ġhe": 4419,
      "ĠwidziaÅĤam": 4420,
      "nom": 4421,
      "Ġnapis": 4422,
      "kla": 4423,
      "nawi": 4424,
      "ĠÅĤÄħczÄħ": 4425,
      "Ġostate": 4426,
      "ĠwyÅĽwietla": 4427,
      "rzyÅĤ": 4428,
      "Ġaplikacji": 4429,
      "ĠwiÄħ": 4430,
      "Ġtrzech": 4431,
      "tÄħd": 4432,
      "va": 4433,
      "Ka": 4434,
      "ĠliÅĽcie": 4435,
      "Ġfanta": 4436,
      "Ġopera": 4437,
      "dii": 4438,
      "Ġocenia": 4439,
      "Ġimpre": 4440,
      "ĠdostÄĻpnych": 4441,
      "Ġtk": 4442,
      "jeÅ¼dÅ¼a": 4443,
      "ĠbezpoÅĽ": 4444,
      "ĠlodÃ³w": 4445,
      "Ġwyci": 4446,
      "Ġsubstan": 4447,
      "ĠktÃ³remu": 4448,
      "ĠzakÅĤa": 4449,
      "ĠProdukty": 4450,
      "alnym": 4451,
      "ĠzÅĤa": 4452,
      "ĠWil": 4453,
      "Ġinternetowych": 4454,
      "Ġabso": 4455,
      "ZE": 4456,
      "Ġblog": 4457,
      "Ġkonsu": 4458,
      "ĠnaszÄħ": 4459,
      "story": 4460,
      "net": 4461,
      "dzielnie": 4462,
      "oÅĽciach": 4463,
      "dziemy": 4464,
      "wnie": 4465,
      "lon": 4466,
      "ĠmÅĤody": 4467,
      "Ġ23": 4468,
      "nÄĻÅĤam": 4469,
      "Ġofi": 4470,
      "Ġhy": 4471,
      "Ġ+": 4472,
      "ĠÅ¼yÄĩ": 4473,
      "blem": 4474,
      "ĠprzygotowaÄĩ": 4475,
      "lacje": 4476,
      "gow": 4477,
      "Ġpracuje": 4478,
      "ĠtysiÄĻcy": 4479,
      "lia": 4480,
      "Ġbrakuje": 4481,
      "Ġmarki": 4482,
      "czkÄħ": 4483,
      "ĠspeÅĤnia": 4484,
      "ĠwÅĤasne": 4485,
      "sen": 4486,
      "zygn": 4487,
      "Ġwycie": 4488,
      "Ġserce": 4489,
      "tow": 4490,
      "Ġistnieje": 4491,
      "Ġzanieczy": 4492,
      "unkt": 4493,
      "leni": 4494,
      "ĠWybÃ³r": 4495,
      "Ġmiasto": 4496,
      "Ġprepara": 4497,
      "Ġniewiele": 4498,
      "ĠwykonaÄĩ": 4499,
      "ĠwokÃ³ÅĤ": 4500,
      "Ġgenera": 4501,
      "Ġnagle": 4502,
      "ĠelementÃ³w": 4503,
      "Ġopis": 4504,
      "stawienie": 4505,
      "ff": 4506,
      "ÅĦska": 4507,
      "Ġsklepie": 4508,
      "ĠrobiÄĻ": 4509,
      "ĠdÅºwiÄĻk": 4510,
      "ĠpomogÄħ": 4511,
      "moÅ¼e": 4512,
      "stÄĻpnie": 4513,
      "Ġznajomych": 4514,
      "ama": 4515,
      "Ġszpita": 4516,
      "czych": 4517,
      "ĠTÅ»": 4518,
      "cyjnej": 4519,
      "Å¼eniu": 4520,
      "Å¼ne": 4521,
      "Ġpierwszego": 4522,
      "Ġpojedy": 4523,
      "Ġkolek": 4524,
      "pow": 4525,
      "ĠoÅĽwiet": 4526,
      "lowe": 4527,
      "dzania": 4528,
      "ee": 4529,
      "Ġwobec": 4530,
      "biÄĩ": 4531,
      "sten": 4532,
      "stwie": 4533,
      "tui": 4534,
      "ĠÅ¼adnego": 4535,
      "ĠrzeczywiÅĽcie": 4536,
      "dzieÅ¼": 4537,
      "Ġwyb": 4538,
      "Ġust": 4539,
      "ĠkaÅ¼dÄħ": 4540,
      "Ġpiekar": 4541,
      "Ġodpor": 4542,
      "Ġoczyszczacz": 4543,
      "Ġew": 4544,
      "ÅĽciu": 4545,
      "Ġponownie": 4546,
      "ĠduÅ¼ej": 4547,
      "ckim": 4548,
      "IA": 4549,
      "ĠKoÅĽci": 4550,
      "czymy": 4551,
      "Ġalko": 4552,
      "ĠdziaÅĤanie": 4553,
      "Ġzle": 4554,
      "Ġfryzu": 4555,
      "bÃ³w": 4556,
      "chani": 4557,
      "rÃ³bu": 4558,
      "ĠcieszyÄĩ": 4559,
      "Ġzga": 4560,
      "ĠBÄĻ": 4561,
      "gania": 4562,
      "umer": 4563,
      "Ġzor": 4564,
      "Ġbadania": 4565,
      "dziaÅĤu": 4566,
      "ĠmÄħÅ¼": 4567,
      "ĠprawdÄĻ": 4568,
      "Ġzadowolona": 4569,
      "Ġkawy": 4570,
      "Ġnagra": 4571,
      "Ġmieszkaniu": 4572,
      "Ġkier": 4573,
      "Ġpowiem": 4574,
      "laÄĩ": 4575,
      "taÅĦ": 4576,
      "ULI": 4577,
      "Ġblisko": 4578,
      "Ġono": 4579,
      "Ġniebie": 4580,
      "rop": 4581,
      "ĠrzÄħ": 4582,
      "Ġwpad": 4583,
      "wyciÄĻ": 4584,
      "Ġhor": 4585,
      "ĠprÃ³bu": 4586,
      "Ġforma": 4587,
      "Ġwersji": 4588,
      "ĠMimo": 4589,
      "Ġdniu": 4590,
      "rysty": 4591,
      "Ġaparatu": 4592,
      "nny": 4593,
      "Ġzali": 4594,
      "czyÅĤam": 4595,
      "dal": 4596,
      "Ġdobrych": 4597,
      "Ġpsychi": 4598,
      "jest": 4599,
      "ĠpowinniÅĽmy": 4600,
      "Ġprzeszka": 4601,
      "Ġczwartek": 4602,
      "Ġchle": 4603,
      "ĠSi": 4604,
      "Ġnapi": 4605,
      "cona": 4606,
      "szeni": 4607,
      "pej": 4608,
      "Ġwojny": 4609,
      "Pod": 4610,
      "ĠmaÅĤy": 4611,
      "kseli": 4612,
      "Ġwykonania": 4613,
      "wanych": 4614,
      "Ġdedy": 4615,
      "ĠuÅ¼ywaÄĩ": 4616,
      "Ġbaterii": 4617,
      "zdrawiam": 4618,
      "ĠzwiÄħzane": 4619,
      "Ġgwaran": 4620,
      "fii": 4621,
      "Ġprzewi": 4622,
      "Ġkg": 4623,
      "Ġwygra": 4624,
      "Ġml": 4625,
      "Ġwykorzystu": 4626,
      "ĠmÃ³wiÄĩ": 4627,
      "Ġzbli": 4628,
      "ULICA": 4629,
      "ĠwspÃ³ÅĤczes": 4630,
      "ĠczytaÄĩ": 4631,
      "Ġwys": 4632,
      "ĠzachÄĻ": 4633,
      "Ġmedia": 4634,
      "sami": 4635,
      "Ġspowod": 4636,
      "Ġorze": 4637,
      "Ġwyszu": 4638,
      "Ġinsta": 4639,
      "Ġpasuje": 4640,
      "Ġ21": 4641,
      "Ġbior": 4642,
      "anii": 4643,
      "ĠWÅĤo": 4644,
      "ĠwiÄĻksze": 4645,
      "Ġsia": 4646,
      "twÃ³r": 4647,
      "ĠopÅĤa": 4648,
      "Ġzagro": 4649,
      "Ġzostaje": 4650,
      "Ġwidzenia": 4651,
      "jciec": 4652,
      "ĠdzieciÄĻ": 4653,
      "Ġuzu": 4654,
      "ĠPio": 4655,
      "ÅĦskie": 4656,
      "ĠposiÅĤ": 4657,
      "Ġodzy": 4658,
      "ĠponiÅ¼ej": 4659,
      "ĠgoÅĽci": 4660,
      "szczu": 4661,
      "Ġunika": 4662,
      "tycznÄħ": 4663,
      "Ġfunkcjona": 4664,
      "Ġucz": 4665,
      "Ġpunkt": 4666,
      "waj": 4667,
      "Ġwygodne": 4668,
      "Ġofia": 4669,
      "Ġfryzje": 4670,
      "ĠZie": 4671,
      "tyce": 4672,
      "Ġtoale": 4673,
      "ĠporÃ³wnaniu": 4674,
      "smy": 4675,
      "ĠKolej": 4676,
      "ĠmÃ³wiÄħ": 4677,
      "tion": 4678,
      "Ġmon": 4679,
      "Ġplo": 4680,
      "Ġpr": 4681,
      "staura": 4682,
      "Ġpocie": 4683,
      "zÄĻ": 4684,
      "teli": 4685,
      "ĠCzym": 4686,
      "guje": 4687,
      "Ġpomieszczenia": 4688,
      "ĊĊ": 4689,
      "ĠWiele": 4690,
      "Ġpierwszych": 4691,
      "ĠThe": 4692,
      "Jestem": 4693,
      "ĠmiesiÄħc": 4694,
      "ĠjakimÅĽ": 4695,
      "ĠzuÅ¼y": 4696,
      "nione": 4697,
      "Ġniespo": 4698,
      "ĠzdjÄĻcie": 4699,
      "blio": 4700,
      "Ġ197": 4701,
      "Ġszans": 4702,
      "alnej": 4703,
      "Ġnazwi": 4704,
      "rÃ³bowaÄĩ": 4705,
      "Ġ2017": 4706,
      "Ġutrzyma": 4707,
      "lacjÄĻ": 4708,
      "ÅĦstw": 4709,
      "Ġnasza": 4710,
      "Ġzabu": 4711,
      "au": 4712,
      "line": 4713,
      "owaÅĤem": 4714,
      "are": 4715,
      "Ġenerg": 4716,
      "Ġszkoda": 4717,
      "ĠStan": 4718,
      "ĠokazaÅĤo": 4719,
      "rag": 4720,
      "ĠChcesz": 4721,
      "szeniu": 4722,
      "ĠstaÅĤ": 4723,
      "Ġkonkur": 4724,
      "Ġstuden": 4725,
      "ol": 4726,
      "ĠpieniÄĻ": 4727,
      "ĠwÅĤasnych": 4728,
      "Ġokazuje": 4729,
      "Ġchcemy": 4730,
      "ĠpÅĤ": 4731,
      "Ġzasadzie": 4732,
      "liwie": 4733,
      "Mu": 4734,
      "ĠartykuÅĤ": 4735,
      "tywa": 4736,
      "niami": 4737,
      "pak": 4738,
      "Sklep": 4739,
      "bienie": 4740,
      "cznymi": 4741,
      "miar": 4742,
      "Ġ2011": 4743,
      "Ġdostos": 4744,
      "Ġuli": 4745,
      "ĠBÃ³g": 4746,
      "Ġsymbo": 4747,
      "ĠLE": 4748,
      "Ġsuple": 4749,
      "ĠÄĩwiczenia": 4750,
      "rans": 4751,
      "Ġrozwie": 4752,
      "Ġwreszcie": 4753,
      "Ġniczego": 4754,
      "Äĺ": 4755,
      "Ġx": 4756,
      "Ġodpowiedzia": 4757,
      "Ġwspar": 4758,
      "ĠÅĽrodku": 4759,
      "ĠBla": 4760,
      "ardzo": 4761,
      "Ġogrze": 4762,
      "Ġdziedzi": 4763,
      "jedno": 4764,
      "ĠMicha": 4765,
      "Ġwtorek": 4766,
      "ĠÅĽw": 4767,
      "ĠDru": 4768,
      "chowy": 4769,
      "Ġsklepach": 4770,
      "Ġsposobem": 4771,
      "ĠktÃ³rymi": 4772,
      "nce": 4773,
      "Ġkoniecznie": 4774,
      "ĠsposobÃ³w": 4775,
      "ĠJej": 4776,
      "ĠmogÅĤam": 4777,
      "cyjnÄħ": 4778,
      "Ġmagi": 4779,
      "Ġsiedzi": 4780,
      "Ġodleg": 4781,
      "ĠsiÅĤow": 4782,
      "ĠÅĽpie": 4783,
      "Ġpropozycje": 4784,
      "stej": 4785,
      "Ġcer": 4786,
      "Ġdoty": 4787,
      "Ġpiosen": 4788,
      "ersy": 4789,
      "Ġcyk": 4790,
      "ĠuÅ¼ywam": 4791,
      "Ġalkoho": 4792,
      "ÅĤyÅĽmy": 4793,
      "zumia": 4794,
      "Ġkomputera": 4795,
      "eryka": 4796,
      "terna": 4797,
      "ĠnawilÅ¼a": 4798,
      "Ġprogram": 4799,
      "Ġprzyz": 4800,
      "Ġstru": 4801,
      "Ġogar": 4802,
      "toli": 4803,
      "resie": 4804,
      "Ġdyspo": 4805,
      "Ġpotrzebne": 4806,
      "ĠdziesiÄħ": 4807,
      "16": 4808,
      "ĠKrak": 4809,
      "arka": 4810,
      "Ġmody": 4811,
      "gach": 4812,
      "Ġkogo": 4813,
      "Ġciekawych": 4814,
      "tyfika": 4815,
      "cony": 4816,
      "Ġdruga": 4817,
      "ranÅ¼a": 4818,
      "ĠusÅĤy": 4819,
      "Ġzabieg": 4820,
      "ĠoszczÄĻ": 4821,
      "Ġprosto": 4822,
      "Ġzacze": 4823,
      "Ġwystarcza": 4824,
      "ÅĤod": 4825,
      "lta": 4826,
      "Ġzwo": 4827,
      "Ġnumer": 4828,
      "czyli": 4829,
      "Ġkilo": 4830,
      "Ġaler": 4831,
      "Ġtest": 4832,
      "tarz": 4833,
      "ĠÅĤu": 4834,
      "ĠmiaÅĤo": 4835,
      "ery": 4836,
      "ĠskÅĤada": 4837,
      "Ġdane": 4838,
      "ÅĦskim": 4839,
      "Ġpat": 4840,
      "Ġjakiego": 4841,
      "Ġfran": 4842,
      "Ġv": 4843,
      "Ġaku": 4844,
      "ĠWszystkie": 4845,
      "jÄħcymi": 4846,
      "Ġelementem": 4847,
      "Ġner": 4848,
      "Ġukoch": 4849,
      "czasem": 4850,
      "szoÅĽÄĩ": 4851,
      "Ġskutecznie": 4852,
      "Ġegzami": 4853,
      "Ġhigie": 4854,
      "cyjnym": 4855,
      "ĠdotyczÄħce": 4856,
      "Ġniewy": 4857,
      "ĠStar": 4858,
      "Ġfas": 4859,
      "nkiem": 4860,
      "Ġdoprowa": 4861,
      "ĠOs": 4862,
      "ĠSzko": 4863,
      "ĠÅĽrodowi": 4864,
      "Ġedy": 4865,
      "tacza": 4866,
      "ĠspoÅĤecznoÅĽci": 4867,
      "np": 4868,
      "Ġwchodzi": 4869,
      "Ġszczerze": 4870,
      "sorty": 4871,
      "ĠBra": 4872,
      "Ġcyfr": 4873,
      "Ġsprawi": 4874,
      "ĠnastÄĻpu": 4875,
      "ĠodÅĽwie": 4876,
      "bawi": 4877,
      "uper": 4878,
      "ĠrzÄĻ": 4879,
      "lane": 4880,
      "Ġopinii": 4881,
      "200": 4882,
      "dzanie": 4883,
      "Ġmogli": 4884,
      "ient": 4885,
      "14": 4886,
      "Ġobiad": 4887,
      "ĠNiem": 4888,
      "owaÅĦ": 4889,
      "ĠrÃ³wno": 4890,
      "lizacja": 4891,
      "Ġulubionych": 4892,
      "ĠRze": 4893,
      "ĠdostaÅĤam": 4894,
      "ĠkosmetykÃ³w": 4895,
      "stola": 4896,
      "krÃ³t": 4897,
      "demu": 4898,
      "nÄĻÅĤo": 4899,
      "Ġrozmowy": 4900,
      "puszcza": 4901,
      "Ġrestaura": 4902,
      "ĠstaÄĩ": 4903,
      "Ġcieszy": 4904,
      "ĠniezaleÅ¼": 4905,
      "Ġwady": 4906,
      "szczÄħ": 4907,
      "Ġsmartwat": 4908,
      "ĠwÅĤaÅĽciwoÅĽci": 4909,
      "ard": 4910,
      "CH": 4911,
      "Ġdrugim": 4912,
      "Jest": 4913,
      "tycznego": 4914,
      "ĠwÅĤÄħ": 4915,
      "ĠprzenoÅĽ": 4916,
      "Ġpierwsza": 4917,
      "tycznym": 4918,
      "Ġwydaw": 4919,
      "lot": 4920,
      "Ġtygodnie": 4921,
      "Ġprzeby": 4922,
      "dwie": 4923,
      "Å¼ona": 4924,
      "nieÅĽÄĩ": 4925,
      "Ġzabie": 4926,
      "Ġzakupy": 4927,
      "Ġwspomnia": 4928,
      "Ġczasach": 4929,
      "Ġulicy": 4930,
      "Ġoczywi": 4931,
      "Ġdodatkowe": 4932,
      "Ġstoi": 4933,
      "ĠWystarczy": 4934,
      "kowym": 4935,
      "Ġorganiz": 4936,
      "lue": 4937,
      "ĠszukaÄĩ": 4938,
      "ĠmaÅĤym": 4939,
      "Ġdostrze": 4940,
      "jew": 4941,
      "ĠbrÄħ": 4942,
      "ĠChcia": 4943,
      "ĠsiÅĤy": 4944,
      "ĠokreÅĽlo": 4945,
      "ĠwziÄħÄĩ": 4946,
      "Ġprzemy": 4947,
      "mak": 4948,
      "ĠzostaÄĩ": 4949,
      "Ġnagro": 4950,
      "rost": 4951,
      "Ġsce": 4952,
      "ĠWÅĽrÃ³d": 4953,
      "Ġdosy": 4954,
      "Ġpolskich": 4955,
      "gÅĤÄĻ": 4956,
      "ĠKrÃ³": 4957,
      "jÄħÅĤ": 4958,
      "spe": 4959,
      "Ġmega": 4960,
      "rka": 4961,
      "ĠWiÄĻc": 4962,
      "Ġrozry": 4963,
      "tycznej": 4964,
      "Ġspecyfika": 4965,
      "ĠukÅĤad": 4966,
      "gdzie": 4967,
      "ĠÅļwia": 4968,
      "Ġmocy": 4969,
      "ĠoglÄħda": 4970,
      "cham": 4971,
      "Ġwsta": 4972,
      "mentu": 4973,
      "Ġwysokiej": 4974,
      "ĠnapisaÄĩ": 4975,
      "ĠwyglÄħdu": 4976,
      "Ġzapachy": 4977,
      "ad": 4978,
      "Ġskuteczne": 4979,
      "Ġjazdy": 4980,
      "Ġmiejscach": 4981,
      "Ġ2018": 4982,
      "ĠskÃ³ra": 4983,
      "ĠtytuÅĤ": 4984,
      "Ġreak": 4985,
      "domoÅĽÄĩ": 4986,
      "Ġinnej": 4987,
      "tywy": 4988,
      "Ġramach": 4989,
      "ĠJedy": 4990,
      "Ġprowadzi": 4991,
      "ĠdobraÄĩ": 4992,
      "Ġsytuacjach": 4993,
      "Ġmro": 4994,
      "âĢŀ": 4995,
      "ĠogÃ³lnie": 4996,
      "Ġbierze": 4997,
      "Ġparametr": 4998,
      "ĠzastÄħpi": 4999,
      "ĠporzÄħdku": 5000,
      "ĠwiedzÄħ": 5001,
      "kowÄħ": 5002,
      "prawy": 5003,
      "ĠProdu": 5004,
      "ĠjÄĻzyka": 5005,
      "Ġbas": 5006,
      "ĠsÅĤone": 5007,
      "ĠzadbaÄĩ": 5008,
      "ĠOto": 5009,
      "ĠgadÅ¼e": 5010,
      "czko": 5011,
      "Ġzawie": 5012,
      "sznie": 5013,
      "Ġofercie": 5014,
      "ĠzrobiÅĤam": 5015,
      "ĠniezbÄĻdne": 5016,
      "Ġchrze": 5017,
      "gami": 5018,
      "ĠPoz": 5019,
      "Ġinni": 5020,
      "kÅĤada": 5021,
      "Ġ193": 5022,
      "ĠKrzy": 5023,
      "ĠPow": 5024,
      "Ġkontakt": 5025,
      "Ġoby": 5026,
      "Ġznaczenie": 5027,
      "kaz": 5028,
      "ĠzapewniÄĩ": 5029,
      "son": 5030,
      "Ġpowoli": 5031,
      "lec": 5032,
      "Ġefekty": 5033,
      "ĠÅĽci": 5034,
      "ĠuÅ¼ytkownikÃ³w": 5035,
      "Ġregi": 5036,
      "Ġpikseli": 5037,
      "ĠwspÃ³ÅĤpra": 5038,
      "Ġzawi": 5039,
      "pka": 5040,
      "Ġkata": 5041,
      "Ġbylo": 5042,
      "Ġus": 5043,
      "Ġsuch": 5044,
      "ĠRob": 5045,
      "Ġopony": 5046,
      "znania": 5047,
      "suje": 5048,
      "Ġfunkcje": 5049,
      "Ġznajdu": 5050,
      "Ġzabezpie": 5051,
      "Ġodrobi": 5052,
      "ĠmyÅĽlaÅĤam": 5053,
      "Ġprzestrzeni": 5054,
      "Ġprzychodzi": 5055,
      "szÄĻdzie": 5056,
      "Ġprzedszko": 5057,
      "ĠkÄħtem": 5058,
      "kÅĤ": 5059,
      "Ġ27": 5060,
      "Ġniebezpie": 5061,
      "niÄĻcie": 5062,
      "Ġnaro": 5063,
      "Ġarchi": 5064,
      "ĠbezpoÅĽredni": 5065,
      "ĠkorzystaÄĩ": 5066,
      "rzÄħc": 5067,
      "Ġkwestia": 5068,
      "Ġtrudne": 5069,
      "ĠodpowiedÅº": 5070,
      "stego": 5071,
      "ĠdziaÅĤ": 5072,
      "ĠAutor": 5073,
      "ĠuÅ¼ytkownika": 5074,
      "ĠÅĽli": 5075,
      "ĠsiÅĤowniÄĻ": 5076,
      "Ġtechnologii": 5077,
      "Ġseku": 5078,
      "Ġprace": 5079,
      "Ġodbiera": 5080,
      "ĠJan": 5081,
      "Ġbyc": 5082,
      "Ġwieczorem": 5083,
      "listy": 5084,
      "Ġpowierzchni": 5085,
      "ciÅĤa": 5086,
      "Ġwrzu": 5087,
      "ĠdoÅĽwiadczenia": 5088,
      "ĠÅĽre": 5089,
      "terze": 5090,
      "Ġpowszech": 5091,
      "ĠwnÄĻtrza": 5092,
      "liwa": 5093,
      "dan": 5094,
      "Ġ90": 5095,
      "Ġpost": 5096,
      "naÅĤ": 5097,
      "Ġwykonanie": 5098,
      "ĠmyÅĽlÄħ": 5099,
      "Ġnowa": 5100,
      "szone": 5101,
      "Ġodkurza": 5102,
      "Ġsmaku": 5103,
      "Ġpobli": 5104,
      "ĠrozpoczÄĻ": 5105,
      "Ġrozmiar": 5106,
      "Ġtygod": 5107,
      "Ġdr": 5108,
      "ĠiP": 5109,
      "Ġhistory": 5110,
      "ĠzasÅĤu": 5111,
      "nna": 5112,
      "Ġdziewczyna": 5113,
      "ĠprzyjÄĻ": 5114,
      "ĠRek": 5115,
      "ĠJednym": 5116,
      "ĠTele": 5117,
      "ĠZastanawiasz": 5118,
      "ÅĦstwie": 5119,
      "Ġzaga": 5120,
      "ĠChry": 5121,
      "ĠSk": 5122,
      "jach": 5123,
      "ĠtysiÄħ": 5124,
      "Ġbywa": 5125,
      "ĠOfer": 5126,
      "cko": 5127,
      "ĠpisaÄĩ": 5128,
      "ĠTro": 5129,
      "Ġpozycji": 5130,
      "Ġdanym": 5131,
      "Ġzm": 5132,
      "Ġsyl": 5133,
      "Ġscho": 5134,
      "owuje": 5135,
      "it": 5136,
      "Ġoferuje": 5137,
      "11": 5138,
      "mieni": 5139,
      "sÅĤych": 5140,
      "Ġpopro": 5141,
      "ĠwodÄĻ": 5142,
      "kiedy": 5143,
      "ĠbezpieczeÅĦstwa": 5144,
      "szczegÃ³": 5145,
      "ĠÅĽnie": 5146,
      "Ġlinii": 5147,
      "Ġpotrzebuje": 5148,
      "gatyw": 5149,
      "Cze": 5150,
      "Ġwspiera": 5151,
      "Dziewczyny": 5152,
      "Ġspace": 5153,
      "24": 5154,
      "Ġswego": 5155,
      "Ġsytuacja": 5156,
      "ĠrozdzielczoÅĽÄĩ": 5157,
      "dziliÅĽmy": 5158,
      "lkich": 5159,
      "ĠÅĽwietnÄħ": 5160,
      "ĠTV": 5161,
      "rucho": 5162,
      "Ġzgodnie": 5163,
      "ĠpoczÄħtek": 5164,
      "ĠJeszcze": 5165,
      "Ġjakimi": 5166,
      "RA": 5167,
      "Ġporadnik": 5168,
      "ruje": 5169,
      "ft": 5170,
      "szczo": 5171,
      "Ġameryka": 5172,
      "Ġbiur": 5173,
      "tkami": 5174,
      "poczu": 5175,
      "wien": 5176,
      "Ġdzwo": 5177,
      "ĠnaleÅ¼Äħ": 5178,
      "ÅĤama": 5179,
      "Ġstabi": 5180,
      "Ġkreatyw": 5181,
      "Ġfacet": 5182,
      "ĠrobiÄħ": 5183,
      "ĠmÄĻÅ¼a": 5184,
      "ĠBia": 5185,
      "Ġtworzy": 5186,
      "ltra": 5187,
      "Ġscen": 5188,
      "ĠWarszawie": 5189,
      "Ġprezen": 5190,
      "chÃ³d": 5191,
      "ĠpojawiajÄħ": 5192,
      "lip": 5193,
      "ĠrÃ³Å¼nego": 5194,
      "Ġminera": 5195,
      "Ġotrzy": 5196,
      "twie": 5197,
      "Ġszukasz": 5198,
      "ĠzresztÄħ": 5199,
      "Ġprzesy": 5200,
      "ĠzamÃ³w": 5201,
      "ĠTrzeba": 5202,
      "zyj": 5203,
      "ĠsÅĤuÅ¼": 5204,
      "Ġmoment": 5205,
      "ĠskÃ³r": 5206,
      "Ġmeble": 5207,
      "wiajÄħ": 5208,
      "ĠpieniÄĻdzy": 5209,
      "Ġcudow": 5210,
      "Ġzmu": 5211,
      "Ġnajlepszym": 5212,
      "Ġtera": 5213,
      "Ġkoszu": 5214,
      "ĠrÃ³Å¼niÄħ": 5215,
      "rÃ³Äĩ": 5216,
      "ĠrÃ³Å¼no": 5217,
      "Ġatmos": 5218,
      "Ġszale": 5219,
      "OS": 5220,
      "ĠPodob": 5221,
      "ĠwodÄħ": 5222,
      "Ġwsi": 5223,
      "Ġtroche": 5224,
      "ĠhaÅĤa": 5225,
      "ĠuÅ¼ywa": 5226,
      "Ġwyzna": 5227,
      "stych": 5228,
      "szczone": 5229,
      "ĠZw": 5230,
      "TA": 5231,
      "stawa": 5232,
      "wolu": 5233,
      "Ġabsolu": 5234,
      "Ġodpo": 5235,
      "ĠÅĽwiatÅĤa": 5236,
      "ĠChociaÅ¼": 5237,
      "ganiz": 5238,
      "ĠcaÅĤoÅĽci": 5239,
      "Ġreklam": 5240,
      "ĠWro": 5241,
      "Ġstanu": 5242,
      "ĠmiaÅĤem": 5243,
      "Ġdiety": 5244,
      "Ġzmian": 5245,
      "Ġostro": 5246,
      "rie": 5247,
      "Forum": 5248,
      "Pa": 5249,
      "Ġstrze": 5250,
      "ĠaktywnoÅĽci": 5251,
      "ĠOdpowie": 5252,
      "ĠsklepÃ³w": 5253,
      "Ġdora": 5254,
      "ĠSamsu": 5255,
      "ĠAk": 5256,
      "Ġruch": 5257,
      "Ġzawod": 5258,
      "Ġpowierzch": 5259,
      "Le": 5260,
      "ĠPoznaj": 5261,
      "Ġrewe": 5262,
      "Ġogo": 5263,
      "Ġnajlepsza": 5264,
      "Ġrodzina": 5265,
      "ĠwraÅ¼": 5266,
      "Ġreprez": 5267,
      "ĠznalazÅĤam": 5268,
      "Ġnowej": 5269,
      "dziesiÄħ": 5270,
      "rzÄħt": 5271,
      "ĠmyÅĽl": 5272,
      "ĠbÅĤo": 5273,
      "ĠogromnÄħ": 5274,
      "camy": 5275,
      "ĠimiÄĻ": 5276,
      "Ãĵ": 5277,
      "Ġref": 5278,
      "Ġzrezygn": 5279,
      "wkÄĻ": 5280,
      "ĠwaÅ¼ny": 5281,
      "ĠWyso": 5282,
      "Ġpana": 5283,
      "Ġdniach": 5284,
      "ĠprÄĻ": 5285,
      "mÃ³wi": 5286,
      "Ġaparaty": 5287,
      "niecznie": 5288,
      "liÅĤ": 5289,
      "Ġ26": 5290,
      "czÄħc": 5291,
      "wne": 5292,
      "13": 5293,
      "Ġzbior": 5294,
      "ĠmateriaÅĤÃ³w": 5295,
      "ndy": 5296,
      "Ġidealne": 5297,
      "ĠPla": 5298,
      "gram": 5299,
      "Ġduch": 5300,
      "ĠTrans": 5301,
      "Ġmig": 5302,
      "Ġzas": 5303,
      "Ġspotkanie": 5304,
      "Ġrower": 5305,
      "ĠzasiÄĻ": 5306,
      "Naj": 5307,
      "Ġdrewnia": 5308,
      "kowo": 5309,
      "ĠWiem": 5310,
      "niejszym": 5311,
      "liny": 5312,
      "Ġspad": 5313,
      "ĠHu": 5314,
      "Ġnormalnie": 5315,
      "Ġspecjalnie": 5316,
      "lania": 5317,
      "nowi": 5318,
      "Ġdroga": 5319,
      "ĠPotem": 5320,
      "Ġgrub": 5321,
      "puszcz": 5322,
      "skimi": 5323,
      "Ġrozwa": 5324,
      "ĠKom": 5325,
      "ĠiPhone": 5326,
      "zdro": 5327,
      "ĠHD": 5328,
      "Ġmaszy": 5329,
      "ĠTakie": 5330,
      "anka": 5331,
      "ic": 5332,
      "ĠwymieniÄĩ": 5333,
      "ÅĽlaÅĤam": 5334,
      "ĠporÃ³wny": 5335,
      "Ġpos": 5336,
      "ĠoprÃ³cz": 5337,
      "fiÄĻ": 5338,
      "ĠmiarÄĻ": 5339,
      "Ã©j": 5340,
      "ĠwartoÅĽÄĩ": 5341,
      "rzeniem": 5342,
      "ĠliczyÄĩ": 5343,
      "Ġnosi": 5344,
      "Ġchoroby": 5345,
      "ĠÅ¼ar": 5346,
      "Ġpolecanych": 5347,
      "ĠCzar": 5348,
      "Ġur": 5349,
      "zor": 5350,
      "ĠzaczÄĻÅĤam": 5351,
      "ĠMoja": 5352,
      "Ġprysz": 5353,
      "ĠPer": 5354,
      "ĠJedno": 5355,
      "ĠÅĽwietny": 5356,
      "ĠOprÃ³cz": 5357,
      "twarza": 5358,
      "prawie": 5359,
      "ÅĽciÄħ": 5360,
      "Ġopar": 5361,
      "Ġatak": 5362,
      "ĠmÄħd": 5363,
      "Witam": 5364,
      "Ġspotkania": 5365,
      "ĠDy": 5366,
      "miÄĻ": 5367,
      "ersyte": 5368,
      "Ġopty": 5369,
      "CO": 5370,
      "ciÅĤam": 5371,
      "Ġdow": 5372,
      "ĠsprawdÅº": 5373,
      "ĠPar": 5374,
      "cjonar": 5375,
      "Å¼eÅĦ": 5376,
      "Ġuczni": 5377,
      "Ġcechy": 5378,
      "Ġfiltr": 5379,
      "Ġudo": 5380,
      "ono": 5381,
      "dent": 5382,
      "dle": 5383,
      "Cho": 5384,
      "Ġsamopoczu": 5385,
      "ĠochotÄĻ": 5386,
      "ĠwewnÄĻtrz": 5387,
      "owani": 5388,
      "Ġtelewizo": 5389,
      "Ġwiedzy": 5390,
      "Ġakcji": 5391,
      "Ġzask": 5392,
      "ĠpodraÅ¼": 5393,
      "ĠdoÅĤÄħ": 5394,
      "ZY": 5395,
      "Ġdrogie": 5396,
      "ĠdrugÄħ": 5397,
      "ĠÅ¼adnej": 5398,
      "Ġrzadko": 5399,
      "Ġ28": 5400,
      "Ġfinans": 5401,
      "letni": 5402,
      "dzona": 5403,
      "Ġpok": 5404,
      "del": 5405,
      "Ġasorty": 5406,
      "ĠChrystu": 5407,
      "Ġfrancu": 5408,
      "Ġfun": 5409,
      "Ġpatel": 5410,
      "Ġewentu": 5411,
      "Ġdzieckiem": 5412,
      "Ġzakupem": 5413,
      "Ġdba": 5414,
      "NE": 5415,
      "misja": 5416,
      "Ġwlas": 5417,
      "Ġzapomnia": 5418,
      "ĠskÅĤadnikÃ³w": 5419,
      "Ġtwojego": 5420,
      "60": 5421,
      "000": 5422,
      "wicz": 5423,
      "oth": 5424,
      "ĠaranÅ¼a": 5425,
      "Ġsamochodu": 5426,
      "ĠDodatkowo": 5427,
      "Ġkorzy": 5428,
      "stoÅĽÄĩ": 5429,
      "ĠInter": 5430,
      "Ġmasa": 5431,
      "ÄĦ": 5432,
      "ĠWiÄĻk": 5433,
      "Ġwnios": 5434,
      "bliote": 5435,
      "Ġinfor": 5436,
      "ryfi": 5437,
      "ĠIch": 5438,
      "ĠmaÅĤa": 5439,
      "ÅĤopo": 5440,
      "ĠKra": 5441,
      "ĠTwojego": 5442,
      "liwy": 5443,
      "ĠmÄĻskie": 5444,
      "Ġkor": 5445,
      "ĠrÄĻkÄĻ": 5446,
      "mowe": 5447,
      "kowego": 5448,
      "ĠReklama": 5449,
      "ĠlubiÄħ": 5450,
      "tanie": 5451,
      "Ġdziennie": 5452,
      "ownicy": 5453,
      "owski": 5454,
      "Ġuz": 5455,
      "ĠwystÄĻp": 5456,
      "Ġpewnym": 5457,
      "Ġzdanie": 5458,
      "ĠrzeczywistoÅĽci": 5459,
      "Ġcodziennego": 5460,
      "czeka": 5461,
      "ĠdziÄĻkujÄĻ": 5462,
      "ĠcieszÄħ": 5463,
      "Ġszklan": 5464,
      "ĠmÄĻÅ¼czyzn": 5465,
      "ĠnowÄħ": 5466,
      "ĠzwyciÄĻ": 5467,
      "decyd": 5468,
      "liÅĽcie": 5469,
      "ĠwyobraÅ¼a": 5470,
      "cyjnego": 5471,
      "Ġniezwyk": 5472,
      "snÄħ": 5473,
      "Wiza": 5474,
      "Ġpaznokci": 5475,
      "Ġuniwers": 5476,
      "gne": 5477,
      "Ġszybciej": 5478,
      "Ġwoda": 5479,
      "ĠchoÄĩby": 5480,
      "ĠPat": 5481,
      "ĠpotrafiÄħ": 5482,
      "Ġroli": 5483,
      "Ġotwiera": 5484,
      "Ġporoz": 5485,
      "Ġpewna": 5486,
      "ĠBlack": 5487,
      "ĠprÄħ": 5488,
      "Ġszere": 5489,
      "23": 5490,
      "ĠWybiera": 5491,
      "ĠzaczÄħÅĤ": 5492,
      "Ġzakresie": 5493,
      "Ġcztery": 5494,
      "tarza": 5495,
      "czeni": 5496,
      "mienie": 5497,
      "Ġnikogo": 5498,
      "ĠciaÅĤo": 5499,
      "Ġinna": 5500,
      "ĠdrogÄħ": 5501,
      "bach": 5502,
      "Ġole": 5503,
      "logiÄĻ": 5504,
      "waniem": 5505,
      "ĠAme": 5506,
      "ĠtwÃ³j": 5507,
      "ĠÅĽwiatÅĤo": 5508,
      "Ġwierz": 5509,
      "czce": 5510,
      "ĠTutaj": 5511,
      "dowaÄĩ": 5512,
      "Ġpolskim": 5513,
      "typ": 5514,
      "ĠskÄħd": 5515,
      "ĠponiÅ¼szym": 5516,
      "rez": 5517,
      "siÄĻbior": 5518,
      "Ġzastanawiam": 5519,
      "Ġunik": 5520,
      "ĠporÃ³wnanie": 5521,
      "Ġprzekon": 5522,
      "Ġkolorze": 5523,
      "ĠÅĽwieÅ¼": 5524,
      "lnia": 5525,
      "ĠpotÄĻ": 5526,
      "17": 5527,
      "Ġupa": 5528,
      "ĠÅĽwi": 5529,
      "ĠDzisiaj": 5530,
      "ĠdowiedzieÄĩ": 5531,
      "Ġprzek": 5532,
      "ĠznaÄĩ": 5533,
      "Ġprzeszkadza": 5534,
      "Ġroman": 5535,
      "stek": 5536,
      "dego": 5537,
      "Ġprywat": 5538,
      "ĠMyÅĽlÄĻ": 5539,
      "ĠzapewniajÄħ": 5540,
      "Ġciekawa": 5541,
      "ĠPrzygotowaliÅĽmy": 5542,
      "ĠspoÅ¼y": 5543,
      "rea": 5544,
      "systen": 5545,
      "ĠstanowiÄħ": 5546,
      "Ġmonitora": 5547,
      "bki": 5548,
      "ĠdosyÄĩ": 5549,
      "ĠmiesiÄħce": 5550,
      "Ġ2019": 5551,
      "ĠÅĽla": 5552,
      "Ġzaawans": 5553,
      "ĠmaÅĤÅ¼e": 5554,
      "ÅĽle": 5555,
      "ĠsÅĤowo": 5556,
      "krai": 5557,
      "Ġspodoba": 5558,
      "ĠwszÄĻdzie": 5559,
      "Ġzasi": 5560,
      "ponu": 5561,
      "Ġniewielkie": 5562,
      "ĠuÅ¼ytku": 5563,
      "Ġoczu": 5564,
      "dziaÅĤy": 5565,
      "ĠradÄĻ": 5566,
      "stre": 5567,
      "biÃ³r": 5568,
      "Ġfrag": 5569,
      "Ġciu": 5570,
      "towy": 5571,
      "Ġnasi": 5572,
      "ĠwÅĤasnego": 5573,
      "Ġwymy": 5574,
      "Ġzje": 5575,
      "Ġnegatyw": 5576,
      "ĠczasÃ³w": 5577,
      "ĠmÃ³wiÄĻ": 5578,
      "Ġdelikatnie": 5579,
      "Ġrozgry": 5580,
      "Ġwykorzysty": 5581,
      "Ġpatrzy": 5582,
      "ĠPonad": 5583,
      "ĠpozbyÄĩ": 5584,
      "jnik": 5585,
      "czami": 5586,
      "ĠsÅĤod": 5587,
      "bla": 5588,
      "Ġprzesa": 5589,
      "Ġzdra": 5590,
      "ĠwykoÅĦ": 5591,
      "Ġniedziela": 5592,
      "ĠwysiÅĤ": 5593,
      "ĠkoÅĤo": 5594,
      "ĠJezu": 5595,
      "Ġude": 5596,
      "Ġstaro": 5597,
      "ĠwyposaÅ¼one": 5598,
      "dopodobnie": 5599,
      "Ġgrania": 5600,
      "Ġobud": 5601,
      "wiÄĻcej": 5602,
      "ĠskÃ³rze": 5603,
      "kazuje": 5604,
      "onÃ³w": 5605,
      "czytaj": 5606,
      "ĠNastÄĻpnie": 5607,
      "Ġinfek": 5608,
      "Ġzacho": 5609,
      "Ġnarod": 5610,
      "brew": 5611,
      "Ġrozmai": 5612,
      "ĠprzemyÅĽ": 5613,
      "zyden": 5614,
      "Dzi": 5615,
      "Ġnadaje": 5616,
      "ĠumiejÄĻtnoÅĽci": 5617,
      "tko": 5618,
      "Ġpop": 5619,
      "ctwa": 5620,
      "Ġzapewne": 5621,
      "ĠDzieÅĦ": 5622,
      "Ġ80": 5623,
      "stawiamy": 5624,
      "Ġpodobne": 5625,
      "wÃ³w": 5626,
      "Ġdobro": 5627,
      "Ġzaka": 5628,
      "Ġcebu": 5629,
      "ĠByÅĤ": 5630,
      "WizaÅ¼owe": 5631,
      "ĠchÅĤopak": 5632,
      "ĠjeÅº": 5633,
      "ĠksiÄħÅ¼ce": 5634,
      "Ġmieszkanie": 5635,
      "ĠpodkÅĤad": 5636,
      "twem": 5637,
      "ĠtrÃ³j": 5638,
      "Ġmozna": 5639,
      "ĠOj": 5640,
      "Ġwiemy": 5641,
      "stkÄĻ": 5642,
      "godnie": 5643,
      "Ġorganizm": 5644,
      "Ġprzyzna": 5645,
      "Ġwakacje": 5646,
      "Ġodde": 5647,
      "Ġprawdziwy": 5648,
      "Ġadres": 5649,
      "ĠpÅĤo": 5650,
      "ĠZosta": 5651,
      "ĠzapÅĤa": 5652,
      "bieraÄĩ": 5653,
      "ord": 5654,
      "ĠÅĽroda": 5655,
      "ctwo": 5656,
      "ĠwyglÄħdajÄħ": 5657,
      "czynku": 5658,
      "Ġcukru": 5659,
      "usz": 5660,
      "ĠwyciÄħg": 5661,
      "ĠCzasem": 5662,
      "Ġaroma": 5663,
      "Ġinwe": 5664,
      "KA": 5665,
      "Ġproducenci": 5666,
      "Ġprzeciwko": 5667,
      "ĠNajczÄĻÅĽciej": 5668,
      "Ġwiary": 5669,
      "ĠSamsung": 5670,
      "ĠstaÅĤy": 5671,
      "ĠuzaleÅ¼": 5672,
      "ownikÃ³w": 5673,
      "ĠczuÄĩ": 5674,
      "Ġnieprzyjem": 5675,
      "ĠgÅĤad": 5676,
      "ĠkaÅ¼demu": 5677,
      "Ġwojs": 5678,
      "gaÅ¼": 5679,
      "Ġkolejnych": 5680,
      "Ġ2020": 5681,
      "ĠrÄħk": 5682,
      "Ġaktualnie": 5683,
      "ĠwybieraÄĩ": 5684,
      "Ġspacer": 5685,
      "ĠfunkcjÄĻ": 5686,
      "ĠcÃ³Å¼": 5687,
      "Ġwolno": 5688,
      "oÅĽciami": 5689,
      "ĠÅ¼aden": 5690,
      "Ġmobi": 5691,
      "Ġalerg": 5692,
      "ĠsÅĤuÅ¼y": 5693,
      "tali": 5694,
      "Ġnr": 5695,
      "Ġznanych": 5696,
      "Ġznik": 5697,
      "Ġwlo": 5698,
      "ĠmusiaÅĤa": 5699,
      "Ġefektyw": 5700,
      "Ġmaj": 5701,
      "dak": 5702,
      "ĠposzczegÃ³": 5703,
      "Ġakcesoria": 5704,
      "ĠwyszÅĤo": 5705,
      "ĠbohaterÃ³w": 5706,
      "ĠNajlep": 5707,
      "ĠNA": 5708,
      "ĠSte": 5709,
      "dzwo": 5710,
      "ĠZawsze": 5711,
      "ĠmakijaÅ¼": 5712,
      "ĠsÅĤab": 5713,
      "ĠOr": 5714,
      "owiec": 5715,
      "Ġkm": 5716,
      "Ġziemnia": 5717,
      "oÅĤnie": 5718,
      "nor": 5719,
      "tkach": 5720,
      "ĠusÅĤu": 5721,
      "mnieÄĩ": 5722,
      "Ġsensu": 5723,
      "Ġwykona": 5724,
      "szÅĤy": 5725,
      "ĠSzy": 5726,
      "ĠhistoriÄĻ": 5727,
      "niony": 5728,
      "iÃ³w": 5729,
      "lator": 5730,
      "Ġmil": 5731,
      "gÃ³ÅĤ": 5732,
      "Ġprzeno": 5733,
      "Ġnaturalny": 5734,
      "ĠokazaÄĩ": 5735,
      "gowe": 5736,
      "dÅĤugo": 5737,
      "Ġnowym": 5738,
      "Ġzebra": 5739,
      "ĠGe": 5740,
      "Ġurodziny": 5741,
      "ĠpowiedziaÅĤa": 5742,
      "Ġtreningu": 5743,
      "Ġpowodzeniem": 5744,
      "sf": 5745,
      "Ġmikro": 5746,
      "boo": 5747,
      "Ġdaj": 5748,
      "Ġkonty": 5749,
      "Ġzabi": 5750,
      "chwy": 5751,
      "ĠpostÄĻp": 5752,
      "Ġokolicy": 5753,
      "Ġpraktyczne": 5754,
      "Ġfilo": 5755,
      "Ġcierp": 5756,
      "ĠwÅĤasnej": 5757,
      "!!!!": 5758,
      "ĠgÅĤowÄĻ": 5759,
      "Ġotacza": 5760,
      "ĠwÅĤasnÄħ": 5761,
      "Ġsklepu": 5762,
      "Ġnieko": 5763,
      "ĠMÃ³j": 5764,
      "ĠmaÅĤych": 5765,
      "ril": 5766,
      "ant": 5767,
      "ĠNiektÃ³re": 5768,
      "stycznych": 5769,
      "IM": 5770,
      "Ġpunktu": 5771,
      "krÃ³tce": 5772,
      "ĠrÃ³Å¼norod": 5773,
      "Ġzaczyn": 5774,
      "siada": 5775,
      "zon": 5776,
      "Ġopcja": 5777,
      "Ġwczes": 5778,
      "mac": 5779,
      "ĠGre": 5780,
      "Ġrozpa": 5781,
      "Ġmarek": 5782,
      "Ġkot": 5783,
      "Ġweekend": 5784,
      "Ġciasta": 5785,
      "ĠÅĽmia": 5786,
      "Ġtle": 5787,
      "Ġpanie": 5788,
      "wzglÄĻ": 5789,
      "Ġnapraw": 5790,
      "Ġobserw": 5791,
      "lizowaÄĩ": 5792,
      "Ġobjawy": 5793,
      "day": 5794,
      "Ġpozo": 5795,
      "ĠsamÄħ": 5796,
      "rzone": 5797,
      "czekaÄĩ": 5798,
      "Ġspotyk": 5799,
      "nerw": 5800,
      "ĠKto": 5801,
      "Ġdoleg": 5802,
      "Ġnastola": 5803,
      "Ġlegen": 5804,
      "OR": 5805,
      "Ġfilmy": 5806,
      "ĠzapachÃ³w": 5807,
      "sow": 5808,
      "ĠWspÃ³ÅĤ": 5809,
      "jechaÄĩ": 5810,
      "ĠprzyszÅĤoÅĽci": 5811,
      "Ġwypada": 5812,
      "czajÄħ": 5813,
      "ĠNowo": 5814,
      "Ġprosty": 5815,
      "Ġkieszeni": 5816,
      "Ġwykorzysta": 5817,
      "ÅĤÄħd": 5818,
      "ĠWtedy": 5819,
      "ĠwÃ³z": 5820,
      "Ġtekst": 5821,
      "Ġzalet": 5822,
      "Ġbran": 5823,
      "Ġwysu": 5824,
      "jemu": 5825,
      "ime": 5826,
      "chodziÄĩ": 5827,
      "Ġautoma": 5828,
      "ĠrozwÃ³j": 5829,
      "Ġbry": 5830,
      "Ġelementy": 5831,
      "ĠEl": 5832,
      "Ġmodli": 5833,
      "--------": 5834,
      "ĠduÅ¼a": 5835,
      "Ġmycia": 5836,
      "ĠskÅĤadniki": 5837,
      "Ġbak": 5838,
      "Ġzgod": 5839,
      "szt": 5840,
      "ĠskoÅĦ": 5841,
      "Ġpiersi": 5842,
      "ĠpowieÅĽÄĩ": 5843,
      "ya": 5844,
      "ĠAng": 5845,
      "Ġ70": 5846,
      "ĠtreÅĽci": 5847,
      "Ġreli": 5848,
      "pio": 5849,
      "logiczne": 5850,
      "tychczas": 5851,
      "Ġsypia": 5852,
      "ĠprzyjemnoÅĽÄĩ": 5853,
      "Ġznakomi": 5854,
      "ĠzakÅĤad": 5855,
      "gam": 5856,
      "ĠPolakÃ³w": 5857,
      "rzyÅĤo": 5858,
      "ĠmusiaÅĤ": 5859,
      "ĠpoÅĤudni": 5860,
      "ĠmoÅ¼ecie": 5861,
      "Ġsamodzielnie": 5862,
      "Ġkarie": 5863,
      "ĠnosiÄĩ": 5864,
      "ĠwyjÄħtkowo": 5865,
      "Ġdok": 5866,
      "Ġfajne": 5867,
      "ĠÅĽmierÄĩ": 5868,
      "ĠPana": 5869,
      "mon": 5870,
      "ĠkÄħpie": 5871,
      "skawi": 5872,
      "Ġfabu": 5873,
      "Ġwg": 5874,
      "Ġwpis": 5875,
      "niewaÅ¼": 5876,
      "Ġpak": 5877,
      "ĠkoÅĦczy": 5878,
      "ĠpracowaÄĩ": 5879,
      "Ġojca": 5880,
      "Ġzachowania": 5881,
      "nikami": 5882,
      "Ġprysznic": 5883,
      "Ġustawie": 5884,
      "Ġtranspo": 5885,
      "szony": 5886,
      "ariu": 5887,
      "Ġwyrzu": 5888,
      "Ġinteresuje": 5889,
      "ĠzrobiÅĤ": 5890,
      "rzony": 5891,
      "zacja": 5892,
      "ĠJako": 5893,
      "Ġkawa": 5894,
      "ksu": 5895,
      "Ġznaczenia": 5896,
      "tujÄĻ": 5897,
      "Ġzo": 5898,
      "Ġcentrum": 5899,
      "Ġbrzmi": 5900,
      "ĠAG": 5901,
      "Ġsztuki": 5902,
      "ĠÅĤÄħczy": 5903,
      "nnych": 5904,
      "Ġwina": 5905,
      "kÅĤo": 5906,
      "Ġzyska": 5907,
      "niec": 5908,
      "Ġzawart": 5909,
      "ĠDoÅĤÄħcz": 5910,
      "ĠBlue": 5911,
      "ĠmaÅĤego": 5912,
      "Ġtermi": 5913,
      "weryfi": 5914,
      "ĠczytaÅĤam": 5915,
      "Ġeuro": 5916,
      "Ġlekarz": 5917,
      "Ġzastosowanie": 5918,
      "Ġjesli": 5919,
      "ĠciÅĽnie": 5920,
      "Ġprzesu": 5921,
      "Ġ29": 5922,
      "ĠWiÄĻkszoÅĽÄĩ": 5923,
      "Ġhand": 5924,
      "Ġwzo": 5925,
      "loga": 5926,
      "Ġgorzej": 5927,
      "Ġreduk": 5928,
      "Ġwoli": 5929,
      "Ġlaptop": 5930,
      "Ġprzyci": 5931,
      "ĠkrÃ³l": 5932,
      "Ġstacjonar": 5933,
      "rzaÅĤ": 5934,
      "ĠdorosÅĤych": 5935,
      "ĠstÃ³": 5936,
      "ĠÅģa": 5937,
      "ĠWrocÅĤa": 5938,
      "Ġubo": 5939,
      "szar": 5940,
      "Ġcharakter": 5941,
      "Ġniedob": 5942,
      "ĠmÃ³wiÅĤ": 5943,
      "**": 5944,
      "ĠjeÅĽÄĩ": 5945,
      "ĠciepÅĤa": 5946,
      "Ġdaleko": 5947,
      "ĠPytania": 5948,
      "ĠTransmisja": 5949,
      "Ġprzys": 5950,
      "ĠkÅĤopo": 5951,
      "ĠUrzÄħ": 5952,
      "Ġzer": 5953,
      "ĠÅĽwiÄĻta": 5954,
      "kania": 5955,
      "Ġchu": 5956,
      "ĠMon": 5957,
      "Ġosa": 5958,
      "Ġflagow": 5959,
      "sÅĤane": 5960,
      "anach": 5961,
      "Ġilu": 5962,
      "ĠPolska": 5963,
      "mujÄħ": 5964,
      "ĠÅ¼yje": 5965,
      "dzisz": 5966,
      "Ġprzyro": 5967,
      "Ġchem": 5968,
      "-)": 5969,
      "Ġogromny": 5970,
      "ĠdziaÅĤaÄĩ": 5971,
      "Ġzagra": 5972,
      "...)": 5973,
      "twier": 5974,
      "ĠoglÄħdaÄĩ": 5975,
      "Ġkondy": 5976,
      "Ġpreferen": 5977,
      "Ġcukier": 5978,
      "skÄĻ": 5979,
      "Ġspi": 5980,
      "tkÄħ": 5981,
      "Ġwypadku": 5982,
      "Ġbiu": 5983,
      "Ġnormal": 5984,
      "Ġtoreb": 5985,
      "Ġzbud": 5986,
      "Ġnogi": 5987,
      "ĠprzyznaÄĩ": 5988,
      "Ġsezonie": 5989,
      "ĠprowadziÄĩ": 5990,
      "Ġlepszy": 5991,
      "Ġprzygotowy": 5992,
      "ĠspaÄĩ": 5993,
      "ĠMak": 5994,
      "Ġdotyczy": 5995,
      "Ġzajmuje": 5996,
      "ĠwielkÄħ": 5997,
      "ĠwÅĤasnym": 5998,
      "Ġkota": 5999,
      "ĠcaÅĤoÅĽÄĩ": 6000,
      "ĠodpowiedzieÄĩ": 6001,
      "Ġkloc": 6002,
      "ĠSprawdzamy": 6003,
      "Ġuprawia": 6004,
      "ĠwyrÃ³Å¼nia": 6005,
      "lany": 6006,
      "Ġwyna": 6007,
      "Ġinha": 6008,
      "zajem": 6009,
      "Ġzwycza": 6010,
      "Ġrekomendowane": 6011,
      "strzo": 6012,
      "ĠnajtaÅĦ": 6013,
      "ĠmateriaÅĤu": 6014,
      "lowaÄĩ": 6015,
      "Ġterenie": 6016,
      "Ġ2010": 6017,
      "rys": 6018,
      "ĠzwiÄħzek": 6019,
      "Ġpaznokcie": 6020,
      "lory": 6021,
      "dowy": 6022,
      "Ġkonsek": 6023,
      "mieniu": 6024,
      "byÅĽmy": 6025,
      "jÃ³w": 6026,
      "Ġpoziomu": 6027,
      "Ġstudiach": 6028,
      "zach": 6029,
      "Ġekonomi": 6030,
      "Ġczasy": 6031,
      "ĠzarzÄħ": 6032,
      "Ġliczby": 6033,
      "Gdy": 6034,
      "ÄĨ": 6035,
      "40": 6036,
      "Ġblu": 6037,
      "ĠÅ¼ywo": 6038,
      "Ġojciec": 6039,
      "oni": 6040,
      "Ġkierow": 6041,
      "Ġmonta": 6042,
      "Ġman": 6043,
      "ram": 6044,
      "ĠMary": 6045,
      "ĠstaÅĤa": 6046,
      "Ġ150": 6047,
      "Ġorganizmu": 6048,
      "Ġregularnie": 6049,
      "styczny": 6050,
      "ĠpomyÅĽ": 6051,
      "ycha": 6052,
      "nictwo": 6053,
      "Ġstopniu": 6054,
      "Ġzadanie": 6055,
      "zem": 6056,
      "Ġzjawi": 6057,
      "ĠwyjÅĽÄĩ": 6058,
      "ĠFil": 6059,
      "Ġmani": 6060,
      "Ġprzyw": 6061,
      "Ġekspres": 6062,
      "Ã³sÅĤ": 6063,
      "Ġnieba": 6064,
      "kos": 6065,
      "Ġwyle": 6066,
      "ria": 6067,
      "Ġkolczy": 6068,
      "ĠrodzajÃ³w": 6069,
      "ĠnieodÅĤÄħ": 6070,
      "Ġwarszta": 6071,
      "tychmiast": 6072,
      "obby": 6073,
      "Ġkoloru": 6074,
      "Ġmechani": 6075,
      "ĠpojÄĻcia": 6076,
      "25": 6077,
      "ĠznaczÄħ": 6078,
      "Ġstre": 6079,
      "Ġnapo": 6080,
      "ĠzamÃ³wie": 6081,
      "Ġdziwne": 6082,
      "bek": 6083,
      "Ġpotrzeba": 6084,
      "ĠkoÅĦcÃ³w": 6085,
      "Ġsos": 6086,
      "dnym": 6087,
      "kan": 6088,
      "luje": 6089,
      "Ġszkod": 6090,
      "daniem": 6091,
      "ĠPowie": 6092,
      "Ġmys": 6093,
      "Ġchwil": 6094,
      "Ġcztere": 6095,
      "ĠobciÄħ": 6096,
      "Ġpoprawnie": 6097,
      "ĠNIE": 6098,
      "Ġktore": 6099,
      "ĠzaÅĤat": 6100,
      "NA": 6101,
      "Ġinstruk": 6102,
      "Ġwarst": 6103,
      "Ġporozmawia": 6104,
      "lamy": 6105,
      "lt": 6106,
      "ĠÅĽnia": 6107,
      "Ġprodukcji": 6108,
      "Ġprzer": 6109,
      "Ġpewien": 6110,
      "Ġzwro": 6111,
      "Ġpowietrze": 6112,
      "Ġspecyfi": 6113,
      "stania": 6114,
      "Ġzastanowi": 6115,
      "pÅĤyw": 6116,
      "Ġwypowie": 6117,
      "Ġpocz": 6118,
      "dru": 6119,
      "ĠWiza": 6120,
      "piÅĤam": 6121,
      "Ġbrze": 6122,
      "ĠmateriaÅĤ": 6123,
      "Ġ195": 6124,
      "ĠwolÄĻ": 6125,
      "Ġwspomina": 6126,
      "Ġpodstawowe": 6127,
      "Ġliczy": 6128,
      "Ġsnu": 6129,
      "ĠpiÄĻÄĩ": 6130,
      "lum": 6131,
      "wajÄħc": 6132,
      "Ġspania": 6133,
      "Ġliczba": 6134,
      "prawa": 6135,
      "Ġulubio": 6136,
      "uu": 6137,
      "ĠszczegÃ³ÅĤ": 6138,
      "westowaÄĩ": 6139,
      "ĠsprÃ³bowaÄĩ": 6140,
      "lizacjÄĻ": 6141,
      "Ġzasady": 6142,
      "czaÄĩ": 6143,
      "ĠtroszkÄĻ": 6144,
      "peÅĤnienie": 6145,
      "Ġzdzi": 6146,
      "Ġdekora": 6147,
      "ministra": 6148,
      "ĠwykorzystaÄĩ": 6149,
      "Ġwidzia": 6150,
      "wanego": 6151,
      "ĠAp": 6152,
      "Ġnaturalne": 6153,
      "Ġdodatek": 6154,
      "pety": 6155,
      "Ġprzytu": 6156,
      "ĠmusiaÅĤam": 6157,
      "set": 6158,
      "ĠCieka": 6159,
      "ĠbÅĤyskawi": 6160,
      "ĠmakijaÅ¼u": 6161,
      "terii": 6162,
      "rzyja": 6163,
      "âĢľ": 6164,
      "nÄĻÅĤy": 6165,
      "Ġzakupie": 6166,
      "ĠosobiÅĽcie": 6167,
      "ĠprzeÅĤo": 6168,
      "prz": 6169,
      "grom": 6170,
      "ĠpeÅĤnÄħ": 6171,
      "Ġpoten": 6172,
      "Ġproces": 6173,
      "Ġtacy": 6174,
      "ĠoÅĽ": 6175,
      "Ġplasti": 6176,
      "Ġzamy": 6177,
      "Ġformy": 6178,
      "Ġczytam": 6179,
      "ĠSuper": 6180,
      "ĠstÄħd": 6181,
      "ĠpoÅ¼y": 6182,
      "Ġopcji": 6183,
      "Ġbutel": 6184,
      "Ġoficj": 6185,
      "Ġklucz": 6186,
      "ĠTaki": 6187,
      "Ġpolskiego": 6188,
      "ĠSÅĤ": 6189,
      "ĠCar": 6190,
      "grzy": 6191,
      "Ġkrok": 6192,
      "ĠokreÅĽliÄĩ": 6193,
      "ĠsprzÄħ": 6194,
      "Ġserde": 6195,
      "Ġupie": 6196,
      "fu": 6197,
      "ĠPraw": 6198,
      "Ġkoncer": 6199,
      "Ġuwielbiam": 6200,
      "Ġodpowiedniej": 6201,
      "ĠbezpieczeÅĦstwo": 6202,
      "Ġemocji": 6203,
      "Ġpopularne": 6204,
      "Ġ2021": 6205,
      "ĠPas": 6206,
      "Teraz": 6207,
      "ĠmieszkaÅĦcÃ³w": 6208,
      "Ġuzda": 6209,
      "Ġsystemu": 6210,
      "Ġwiecie": 6211,
      "Ġotw": 6212,
      "ĠBer": 6213,
      "Ta": 6214,
      "Kiedy": 6215,
      "ĠwaÅ¼na": 6216,
      "OD": 6217,
      "Ġpodpowiadamy": 6218,
      "Ġ196": 6219,
      "Ġnag": 6220,
      "ĠmieszkaÅĦ": 6221,
      "kwi": 6222,
      "ĠdrogÄĻ": 6223,
      "ĠXV": 6224,
      "jewÃ³dz": 6225,
      "ĠMusi": 6226,
      "ĠnapiÄĻ": 6227,
      "ĠMoÅ¼esz": 6228,
      "ĠkrÄħ": 6229,
      "ĠtrÄħ": 6230,
      "ĠpÅĤu": 6231,
      "ĠwdziÄĻ": 6232,
      "Ġletnie": 6233,
      "Ġuzdatnia": 6234,
      "ĠwiÄĻkszej": 6235,
      "Ġpokro": 6236,
      "ĠbrÄħz": 6237,
      "Ġpodobno": 6238,
      "ĠOpinie": 6239,
      "mato": 6240,
      "nica": 6241,
      "ĠJednÄħ": 6242,
      "ĠwysokoÅĽci": 6243,
      "ĠFe": 6244,
      "liwych": 6245,
      "ĠwielkoÅĽci": 6246,
      "ĠsÅĤuÅ¼Äħ": 6247,
      "Ġpremie": 6248,
      "ĠÅ¼oÅĤnie": 6249,
      "Ġprzewodni": 6250,
      "Ġmin": 6251,
      "ĠdosÅĤ": 6252,
      "Ġsylwet": 6253,
      "stawiÄĩ": 6254,
      "ĠHar": 6255,
      "Ġcywi": 6256,
      "80": 6257,
      "Ġbraku": 6258,
      "Ġwybu": 6259,
      "ĠMoje": 6260,
      "ĠpostaÄĩ": 6261,
      "Ġsygna": 6262,
      "ĠrozpoczÄħ": 6263,
      "Å¼sze": 6264,
      "ĠwnÄĻtrze": 6265,
      "Ġmarzy": 6266,
      "dowych": 6267,
      "rzona": 6268,
      "Ġformu": 6269,
      "skach": 6270,
      "Ġnazwa": 6271,
      "ĠstworzyÄĩ": 6272,
      "czku": 6273,
      "narod": 6274,
      "Ġoliw": 6275,
      "ĠzewnÄħtrz": 6276,
      "Ġjab": 6277,
      "Ġtekstu": 6278,
      "Ġseksu": 6279,
      "nictwa": 6280,
      "niÄĻte": 6281,
      "Ġmoge": 6282,
      "Da": 6283,
      "ĠrozwiÄħzaniem": 6284,
      "rator": 6285,
      "ĠksztaÅĤt": 6286,
      "Ġszczo": 6287,
      "ĠogÅĤo": 6288,
      "Ġuczucie": 6289,
      "Ġzostawia": 6290,
      "lana": 6291,
      "Hz": 6292,
      "bin": 6293,
      "Ġaparat": 6294,
      "Ġstarszych": 6295,
      "Ġrozsze": 6296,
      "Ġpolskiej": 6297,
      "Ġdawna": 6298,
      "Ġzdrowo": 6299,
      "Ġzesz": 6300,
      "Ġup": 6301,
      "sum": 6302,
      "ĠparametrÃ³w": 6303,
      "PS": 6304,
      "mÅĤod": 6305,
      "steÅĽ": 6306,
      "ĠpoÅĽcie": 6307,
      "ĠCy": 6308,
      "ĠGru": 6309,
      "Å¼yÅĤa": 6310,
      "ĠprzeczytaÄĩ": 6311,
      "Ġzamiesz": 6312,
      "zym": 6313,
      "ret": 6314,
      "uka": 6315,
      "ĠWybierajÄħc": 6316,
      "Pie": 6317,
      "Äĩmi": 6318,
      "pat": 6319,
      "ĠðŁĺ": 6320,
      "ĠMasz": 6321,
      "Ġsobota": 6322,
      "Ġpochodzi": 6323,
      "ĠKla": 6324,
      "Ġfajny": 6325,
      "Å¼eczka": 6326,
      "weÅĤ": 6327,
      "ina": 6328,
      "Ġruchu": 6329,
      "cielem": 6330,
      "Ġtr": 6331,
      "ĠduÅ¼ych": 6332,
      "Ġrodzinie": 6333,
      "ĠSko": 6334,
      "Ġzorganiz": 6335,
      "Ġbateria": 6336,
      "Ġpozostaje": 6337,
      "Ġsocze": 6338,
      "ĠÅĽcie": 6339,
      "ĠSie": 6340,
      "Ġniedawno": 6341,
      "Ġcytry": 6342,
      "Ġgrup": 6343,
      "Ġpowia": 6344,
      "sÅĤawa": 6345,
      "rat": 6346,
      "pres": 6347,
      "ĠWszyscy": 6348,
      "ĠDÅĤu": 6349,
      "ĠwychodzÄħ": 6350,
      "terem": 6351,
      "tooth": 6352,
      "ĠÄĩwiczeÅĦ": 6353,
      "Ġintry": 6354,
      "Ġiden": 6355,
      "ĠzajÄĻcia": 6356,
      "ĠstajÄħ": 6357,
      "ER": 6358,
      "oÅĽrÃ³d": 6359,
      "dzielczoÅĽÄĩ": 6360,
      "caÄĩ": 6361,
      "Ġdotar": 6362,
      "Ġlotni": 6363,
      "Ġnajgor": 6364,
      "ĠnaÅĤo": 6365,
      "Ġostatnim": 6366,
      "Ġkierunek": 6367,
      "Ġgodzinie": 6368,
      "ĠciÄĻÅ¼ar": 6369,
      "Ġboli": 6370,
      "Ġeste": 6371,
      "Ġproblemem": 6372,
      "ĠÅĤazienki": 6373,
      "towych": 6374,
      "ĠnauczyÄĩ": 6375,
      "Ġczytania": 6376,
      "Ġdodatku": 6377,
      "Ġpolskie": 6378,
      "dale": 6379,
      "Ġ2022": 6380,
      "Ġzama": 6381,
      "Ġprogramu": 6382,
      "ĠXI": 6383,
      "pry": 6384,
      "ĠjÄĻzyk": 6385,
      "ĠhaÅĤasu": 6386,
      "Ġczekam": 6387,
      "ĠinnÄħ": 6388,
      "Ġzdaje": 6389,
      "ĠsiÅĤÄĻ": 6390,
      "Ġprzechowy": 6391,
      "Ġsyna": 6392,
      ":)": 6393,
      "Ġnaby": 6394,
      "sper": 6395,
      "Ġpachnie": 6396,
      "Ġwyszuki": 6397,
      "ĠRozdzielczoÅĽÄĩ": 6398,
      "stanÄħ": 6399,
      "Ġlogi": 6400,
      "ĠrÄĻka": 6401,
      "ĠpÃ³ki": 6402,
      "Ġpragnie": 6403,
      "Ġalterna": 6404,
      "ĠbiÅ¼u": 6405,
      "rzeniu": 6406,
      "Ġlaptopa": 6407,
      "gowi": 6408,
      "ĠAGD": 6409,
      "Ġmatka": 6410,
      "Ġautora": 6411,
      "ĠwysÅĤa": 6412,
      "ĠNaprawdÄĻ": 6413,
      "Ġozdob": 6414,
      "ĠSama": 6415,
      "akra": 6416,
      "Ġuroczy": 6417,
      "ĠsprzedaÅ¼y": 6418,
      "boga": 6419,
      "Ġzasy": 6420,
      "Ġperspek": 6421,
      "dzieÅ¼y": 6422,
      "Ġdecyduje": 6423,
      "Ġwarunki": 6424,
      "Ġport": 6425,
      "ĠwiÄĻksza": 6426,
      "ĠczekaÄĩ": 6427,
      "ĠszczÄĻÅĽcia": 6428,
      "ĠnajwaÅ¼niejszych": 6429,
      "Ġzaopa": 6430,
      "ell": 6431,
      "Ġdanego": 6432,
      "Ġsalonie": 6433,
      "Ġprania": 6434,
      "tnoÅĽci": 6435,
      "Ġkompletnie": 6436,
      "ĠczÄĻstot": 6437,
      "ĠStra": 6438,
      "Ġutra": 6439,
      "alam": 6440,
      "ĠpopularnoÅĽciÄħ": 6441,
      "ĠOdpowiedzi": 6442,
      "Ġminima": 6443,
      "Ġprzenoszenia": 6444,
      "Ġnienawi": 6445,
      "TeÅ¼": 6446,
      "Ġrelak": 6447,
      "Ġwalki": 6448,
      "Ġlakie": 6449,
      "Ġpolski": 6450,
      "Wszyst": 6451,
      "ĠzdjÄĻciu": 6452,
      "Ġpewnego": 6453,
      "ĠuczyÄĩ": 6454,
      "glÄħd": 6455,
      "wiad": 6456,
      "puÅĽci": 6457,
      "Ġpowiedzia": 6458,
      "ĠukÅĤadu": 6459,
      "Ġdziwnego": 6460,
      "leÅ¼y": 6461,
      "Ġlewej": 6462,
      "Ġkonsysten": 6463,
      "pan": 6464,
      "Ġokazja": 6465,
      "Ġsezon": 6466,
      "Ġkoszt": 6467,
      "yn": 6468,
      "ĠQ": 6469,
      "mplik": 6470,
      "ĠkolorÃ³w": 6471,
      "ĠÅļwiet": 6472,
      "ĠjakiejÅĽ": 6473,
      "nkowo": 6474,
      "ĠSh": 6475,
      "ĠbezpoÅĽrednio": 6476,
      "dzonych": 6477,
      "cin": 6478,
      "ĠnakÅĤad": 6479,
      "ĠpisaÅĤam": 6480,
      "Ġsalonu": 6481,
      "ĠbutÃ³w": 6482,
      "ĠklockÃ³w": 6483,
      "Ġkojarzy": 6484,
      "chodzÄĻ": 6485,
      "Ġprzykry": 6486,
      "Ġwygla": 6487,
      "ĠGu": 6488,
      "Ġswe": 6489,
      "ĠciepÅĤo": 6490,
      "ĠmÅĤodych": 6491,
      "ĠprzyjemnoÅĽciÄħ": 6492,
      "ĠEuropy": 6493,
      "ĠpoÅĤowie": 6494,
      "ÅĤuje": 6495,
      "Ġswoimi": 6496,
      "Ġposzuku": 6497,
      "Ġdrzewa": 6498,
      "win": 6499,
      "Ġhas": 6500,
      "Ġszaf": 6501,
      "prawiÄĩ": 6502,
      "ĠzaczÄĻÅĤa": 6503,
      "Ġkompozy": 6504,
      "ĠpowtÃ³": 6505,
      "lle": 6506,
      "Ġpotrzebujesz": 6507,
      "cajÄħ": 6508,
      "ĠzdÄħ": 6509,
      "Ġopowiada": 6510,
      "Ġwsty": 6511,
      "ĠUltra": 6512,
      "Ġprzew": 6513,
      "ĠIde": 6514,
      "Ġcery": 6515,
      "sma": 6516,
      "Ġwyczu": 6517,
      "Ġobli": 6518,
      "Ġnajcieka": 6519,
      "Mie": 6520,
      "Ġsamopoczucie": 6521,
      "ĠwspÃ³lnego": 6522,
      "ĠIII": 6523,
      "Ġdomowe": 6524,
      "niejszÄħ": 6525,
      "ĠTwÃ³j": 6526,
      "ĠstudiÃ³w": 6527,
      "Ġobserwa": 6528,
      "Ġgam": 6529,
      "CZ": 6530,
      "Å»y": 6531,
      "Ġprzyby": 6532,
      "WysÅĤane": 6533,
      "Ġgustu": 6534,
      "ĠrÃ³": 6535,
      "dera": 6536,
      "nikach": 6537,
      "dniki": 6538,
      "Ġzapachu": 6539,
      "Ġatrakcyjnych": 6540,
      "Ġwyniku": 6541,
      "Ġnajwy": 6542,
      "ĠspoÅĤecze": 6543,
      "ĠÅĽrednio": 6544,
      "Ġsamych": 6545,
      "owskiego": 6546,
      "ĠdoskonaÅĤy": 6547,
      "ĠTam": 6548,
      "ĠwÅĤasny": 6549,
      "Ġoszu": 6550,
      "ĠuÅ¼ytkownik": 6551,
      "Ġodpowiadamy": 6552,
      "ĠpochodzÄħ": 6553,
      "ĠpopularnoÅĽÄĩ": 6554,
      "ĠprzeszÅĤoÅĽci": 6555,
      "Ġpil": 6556,
      "Bardzo": 6557,
      "Ġlatem": 6558,
      "Ġobni": 6559,
      "ĠktÃ³raÅĽ": 6560,
      "EM": 6561,
      "Ġ:/": 6562,
      "Ġpieczenia": 6563,
      "ĠszansÄĻ": 6564,
      "ÅĦcz": 6565,
      "rzaÅĤam": 6566,
      "Ġkru": 6567,
      "tÃ³Å¼": 6568,
      "Ġpomimo": 6569,
      "owujÄħc": 6570,
      "ĠâĢľ": 6571,
      "ĠPonadto": 6572,
      "lanie": 6573,
      "Ġkwestii": 6574,
      "Ġnatychmiast": 6575,
      "ĠtuÅ¼": 6576,
      "nkach": 6577,
      "kÅĤady": 6578,
      "ĠurzÄĻ": 6579,
      "ĠujÄĻ": 6580,
      "WÅĤa": 6581,
      "Ġrewela": 6582,
      "ĠakcesoriÃ³w": 6583,
      "ĠDro": 6584,
      "Ġkonsekwen": 6585,
      "ĠUSA": 6586,
      "KI": 6587,
      "ĠspotkaÄĩ": 6588,
      "Ġoczekiwania": 6589,
      "Dob": 6590,
      "ĠpiÄĻkna": 6591,
      "dnÄħ": 6592,
      "Ġkwo": 6593,
      "Ġwydarzenia": 6594,
      "Ġaktor": 6595,
      "ĠGÅĤÃ³w": 6596,
      "Ġtemperatury": 6597,
      "ĠznalazÅĤy": 6598,
      "Ġham": 6599,
      "ĠKi": 6600,
      "ĠPoli": 6601,
      "Ġ,,": 6602,
      "ĠKil": 6603,
      "Czas": 6604,
      "In": 6605,
      "ĠOferty": 6606,
      "anna": 6607,
      "ĠliczbÄĻ": 6608,
      "weryfikowane": 6609,
      "knie": 6610,
      "ĠdruÅ¼y": 6611,
      "Ġodmia": 6612,
      "jaÅĽnia": 6613,
      "ÅĤowe": 6614,
      "ĠpokÃ³j": 6615,
      "Ġpary": 6616,
      "laka": 6617,
      "Ġprzo": 6618,
      "ĠMÅĤo": 6619,
      "Ġhormo": 6620,
      "Ġkomentarz": 6621,
      "ĠmogÅĤo": 6622,
      "kor": 6623,
      "ĠpierwszÄħ": 6624,
      "ĠMas": 6625,
      "ĠzespÃ³ÅĤ": 6626,
      "ĠwydawaÄĩ": 6627,
      "OTE": 6628,
      "ĠwiedziaÅĤam": 6629,
      "pienie": 6630,
      "Ġsmartfonie": 6631,
      "ĠOstatnio": 6632,
      "ĠUniw": 6633,
      "Ġnajpopularniejszych": 6634,
      "dzili": 6635,
      "Ġdobrane": 6636,
      "ĠwyÅ¼ej": 6637,
      "ĠosobÄħ": 6638,
      "ĠpociÄħg": 6639,
      "Ġmen": 6640,
      "Ġmaterac": 6641,
      "tce": 6642,
      "Ġmatki": 6643,
      "Ġjakies": 6644,
      "Ġodnale": 6645,
      "Ġdomowego": 6646,
      "Ġdamskie": 6647,
      "ĠzwierzÄħt": 6648,
      "HD": 6649,
      "Ã³ra": 6650,
      "ĠpobliÅ¼u": 6651,
      "ĠpodkreÅĽla": 6652,
      "ĠczynnoÅĽci": 6653,
      "szyÅĤ": 6654,
      "ĠrzÄħd": 6655,
      "dor": 6656,
      "Ġbudynku": 6657,
      "Ġhar": 6658,
      "Ġpozbawi": 6659,
      "ĠprzeciÄĻ": 6660,
      "Ġfigu": 6661,
      "Ġzapas": 6662,
      "gru": 6663,
      "ĠsÅĤuch": 6664,
      "Ġder": 6665,
      "Ġdyskusji": 6666,
      "mont": 6667,
      "Ġatmosfe": 6668,
      "Ġopieku": 6669,
      "ĠTh": 6670,
      "Ġkontynu": 6671,
      "Ġplanu": 6672,
      "mem": 6673,
      "ĠniektÃ³rzy": 6674,
      "Ġczterech": 6675,
      "gaÄĩ": 6676,
      "ĠnaleÅ¼a": 6677,
      "rasta": 6678,
      "ance": 6679,
      "Ġrozpoczyna": 6680,
      "QU": 6681,
      "ĠÅĽwiÄħte": 6682,
      "kÄħtna": 6683,
      ".)": 6684,
      "Ġodebra": 6685,
      "torzy": 6686,
      "ĠspokÃ³j": 6687,
      "Ġpomieszczeniu": 6688,
      "99": 6689,
      "ĠJoh": 6690,
      "dÅĤem": 6691,
      "pem": 6692,
      "ĠzespoÅĤu": 6693,
      "plo": 6694,
      "ĠzmÄĻczenie": 6695,
      "Ġarchitek": 6696,
      "sÄĻ": 6697,
      "Ġwielkim": 6698,
      "dowa": 6699,
      "pisaÄĩ": 6700,
      "ĠpodzieliÄĩ": 6701,
      "ĠÃ³w": 6702,
      "Lu": 6703,
      "ĠwÄħt": 6704,
      "ĠBry": 6705,
      "Ġfirm": 6706,
      "ĠuÅĽmiech": 6707,
      "ĠdostÄĻpu": 6708,
      "Ġpodstawowych": 6709,
      "Ġmase": 6710,
      "Ġoczyszczacza": 6711,
      "Ġzrozumia": 6712,
      "ĠzasiÄĻgu": 6713,
      "ĠdostÄĻpna": 6714,
      "ĠsÅĤow": 6715,
      "ĠNor": 6716,
      "ĠÅ¼ona": 6717,
      "Ġpokazuje": 6718,
      "ĠzakupÃ³w": 6719,
      "ĠkomuÅĽ": 6720,
      "Å¼onych": 6721,
      "zj": 6722,
      "biut": 6723,
      "xy": 6724,
      "Ġfarb": 6725,
      "legro": 6726,
      "Ġpodzi": 6727,
      "ĠpiÄĻkny": 6728,
      "jna": 6729,
      "ome": 6730,
      "Ġdecyzji": 6731,
      "ĠPozna": 6732,
      "lety": 6733,
      "dÅºmi": 6734,
      "Ã³wek": 6735,
      "deo": 6736,
      "ĠIle": 6737,
      "ght": 6738,
      "Ġekspe": 6739,
      "Ġszlak": 6740,
      "ĠnaukÄĻ": 6741,
      "zz": 6742,
      "Ġzacznie": 6743,
      "Ġdotychczas": 6744,
      "Ġgraczy": 6745,
      "Ġnadzieje": 6746,
      "wielbia": 6747,
      "ĠdbaÄĩ": 6748,
      "ĠAlbo": 6749,
      "NI": 6750,
      "ĠlÄĻ": 6751,
      "ĠTego": 6752,
      "brzy": 6753,
      "ÅĽciem": 6754,
      "jki": 6755,
      "ĠzgÅĤo": 6756,
      "Ġmotyw": 6757,
      "ĠprowadzÄħ": 6758,
      "ĠpokazaÄĩ": 6759,
      "ĠnajmÅĤod": 6760,
      "Ġspodnie": 6761,
      "lizacje": 6762,
      "dac": 6763,
      "tuj": 6764,
      "ĠbojÄĻ": 6765,
      "uf": 6766,
      "ĠwkÅĤad": 6767,
      "Ġdym": 6768,
      "Ġnormalne": 6769,
      "Ġobiektyw": 6770,
      "ĠIstnie": 6771,
      "Ġchro": 6772,
      "rudno": 6773,
      "Ġtrans": 6774,
      "ĠÅĤÃ³": 6775,
      "Ġpodar": 6776,
      "Ġubrania": 6777,
      "Ġokrop": 6778,
      "ĠpracujÄħ": 6779,
      "ĠpeÅĤne": 6780,
      "Ġniepotrzeb": 6781,
      "Ġjaj": 6782,
      "III": 6783,
      "Ġtrzeci": 6784,
      "ĠDi": 6785,
      "Ġnadmier": 6786,
      "ĠÅ»a": 6787,
      "ĠGdzie": 6788,
      "ĠmÃ³z": 6789,
      "ĠWal": 6790,
      "Ġchcieli": 6791,
      "ĠmieliÅĽmy": 6792,
      "ĠKaro": 6793,
      "Ġbibliote": 6794,
      "ĠpostanowiÅĤam": 6795,
      "Ġzarzu": 6796,
      "ĠracjÄĻ": 6797,
      "ĠkrÃ³tko": 6798,
      "tÅĤuma": 6799,
      "strza": 6800,
      "ĠgodzinÄĻ": 6801,
      "Ġwarzyw": 6802,
      "Ġzazdro": 6803,
      "Ġtale": 6804,
      "Ġdziecku": 6805,
      "Ġtur": 6806,
      "patal": 6807,
      "Ġmialam": 6808,
      "Ġtabli": 6809,
      "Ġprzypa": 6810,
      "Ġgier": 6811,
      "storia": 6812,
      "Ġobdar": 6813,
      "Ġwez": 6814,
      "zeum": 6815,
      "Ġkrymina": 6816,
      "Ġotoczenia": 6817,
      "robiÄĩ": 6818,
      "king": 6819,
      "ĠprezentujÄħ": 6820,
      "pek": 6821,
      "niÃ³sÅĤ": 6822,
      "Ġwidzisz": 6823,
      "ĠFri": 6824,
      "ktÃ³rzy": 6825,
      "ĠnajpiÄĻk": 6826,
      "Ġapte": 6827,
      "Ġwersja": 6828,
      "WiÄĻc": 6829,
      "Ġpodaw": 6830,
      "ĠtrzymaÄĩ": 6831,
      "Ġpowinnam": 6832,
      "gera": 6833,
      "ĠczÄĻÅĽciÄħ": 6834,
      "ĠkimÅĽ": 6835,
      "Ġstres": 6836,
      "towane": 6837,
      "Ġgaze": 6838,
      "Ġczos": 6839,
      "ĠwrÃ³ciÄĩ": 6840,
      "Ġwola": 6841,
      "ĠokaÅ¼e": 6842,
      "ĠpaÅĦstwa": 6843,
      "Ġtrening": 6844,
      "dwo": 6845,
      "ĠTwoja": 6846,
      "ĠTapatal": 6847,
      "Re": 6848,
      "Ġsposobu": 6849,
      "Ġsreb": 6850,
      "Ġtwoim": 6851,
      "ĠBluetooth": 6852,
      "ore": 6853,
      "ĠÂ": 6854,
      "Ġprzyzwycza": 6855,
      "Ġrami": 6856,
      "ĠVi": 6857,
      "zujemy": 6858,
      "Ġreszta": 6859,
      "szona": 6860,
      "ĠpÅĤyty": 6861,
      "Ġtelef": 6862,
      "Tu": 6863,
      "nieÅ¼": 6864,
      "Ġosu": 6865,
      "szymy": 6866,
      "Ġizo": 6867,
      "ĠKiedyÅĽ": 6868,
      "Ġgl": 6869,
      "spoko": 6870,
      "ĠpoÅĤÄħczenia": 6871,
      "szaÅĤ": 6872,
      "ree": 6873,
      "mania": 6874,
      "kowanie": 6875,
      "ĠPrzekÄħtna": 6876,
      "Ġrezy": 6877,
      "Ġsur": 6878,
      "ĠPamiÄĻtaj": 6879,
      "We": 6880,
      "kamy": 6881,
      "dziesiÄħt": 6882,
      "Ġzaledwie": 6883,
      "Ġmalucha": 6884,
      "ĠbraÄĩ": 6885,
      "Ġnud": 6886,
      "Ġpocho": 6887,
      "jnych": 6888,
      "Ġuczelni": 6889,
      "ĠFor": 6890,
      "ĠzrobiÅĤa": 6891,
      "Ġuj": 6892,
      "ĠpÃ³ÅĤnoc": 6893,
      "Ġopisa": 6894,
      "Ġorganiza": 6895,
      "ĠRodzi": 6896,
      "ĠwymagajÄħ": 6897,
      "ĠwyraÅºnie": 6898,
      "prost": 6899,
      "ĠpÃ³ÅĤki": 6900,
      "Ġklocki": 6901,
      "Ġkrew": 6902,
      ".âĢĿ": 6903,
      "kÅĤadu": 6904,
      "ĠSze": 6905,
      "tykÄħ": 6906,
      "Ġnowoczesne": 6907,
      "ĠPrzeczytaj": 6908,
      "Ra": 6909,
      "owin": 6910,
      "Ġfu": 6911,
      "ĠrobiÅĤam": 6912,
      "Ġodgry": 6913,
      "jÄĻcie": 6914,
      "kanaÅĽcie": 6915,
      "ĠPoczÄħ": 6916,
      "Ġprywa": 6917,
      "bor": 6918,
      "Ġrosyj": 6919,
      "Ġszo": 6920,
      "ĠDecy": 6921,
      "Ġzdalnie": 6922,
      "Ġkolorysty": 6923,
      "Ġwyniki": 6924,
      "QUOTE": 6925,
      "Ġleki": 6926,
      "Ġhum": 6927,
      "Ġdany": 6928,
      "Ġurlo": 6929,
      "Ġserwisu": 6930,
      "Ġogrzewanie": 6931,
      "Ġuczestni": 6932,
      "ĠdomÃ³w": 6933,
      "letnie": 6934,
      "ĠCoraz": 6935,
      "ĠAdam": 6936,
      "Ġstaram": 6937,
      "ĠPÅĤy": 6938,
      "dnego": 6939,
      "tylko": 6940,
      "Ġbudow": 6941,
      "Ġaka": 6942,
      "ĠUÅ¼y": 6943,
      "ĠpsÃ³w": 6944,
      "ĠaparatÃ³w": 6945,
      "ĠZna": 6946,
      "dziÅĤo": 6947,
      "Ġbarw": 6948,
      "Ġwidok": 6949,
      "Ġfirma": 6950,
      "ĠbyÅĤem": 6951,
      "ph": 6952,
      "Ġdziecia": 6953,
      "ĠÅĽpi": 6954,
      "ĠkoÅĽcioÅĤa": 6955,
      "Ġwzbu": 6956,
      "rzam": 6957,
      "ujesz": 6958,
      "ĠpamiÄĻta": 6959,
      "Ġprosta": 6960,
      "Ġochrony": 6961,
      "ĠÅĤatwoÅĽciÄħ": 6962,
      "Ġpapier": 6963,
      "Ġstosowania": 6964,
      "US": 6965,
      "ĠKtÃ³ry": 6966,
      "Ġoczach": 6967,
      "ĠJaka": 6968,
      "ĠwieczÃ³r": 6969,
      "Ġdyrek": 6970,
      "ĠchrzeÅĽci": 6971,
      "Ġniedzie": 6972,
      "ĠStu": 6973,
      "Ġabsolutnie": 6974,
      "owicz": 6975,
      "Ġprote": 6976,
      "Ġnies": 6977,
      "Ġzatrzyma": 6978,
      "Ġwyobraz": 6979,
      "tema": 6980,
      "Ġdomy": 6981,
      "Ġzba": 6982,
      "ĠartykuÅĤu": 6983,
      "Ġyou": 6984,
      "Ġtrafia": 6985,
      "NIE": 6986,
      "Ġoddech": 6987,
      "Ġhybry": 6988,
      "pas": 6989,
      "ĠradoÅĽci": 6990,
      "ĠGdyby": 6991,
      "ĠMnie": 6992,
      "dero": 6993,
      "Ã³ze": 6994,
      "mer": 6995,
      "Ġszybkie": 6996,
      "rzyÅĤa": 6997,
      "Ġnawie": 6998,
      "DziÄĻkujÄĻ": 6999,
      "noÅĽciach": 7000,
      "Ã³Åºniej": 7001,
      "Ġumiera": 7002,
      "Ġmateraca": 7003,
      "Ġboi": 7004,
      "Ġkultury": 7005,
      "Ġzrobienia": 7006,
      "Ġprzechodzi": 7007,
      "Ġzimno": 7008,
      "ĠrÄĻki": 7009,
      "ĠwiÄĻkszych": 7010,
      "Ġwprost": 7011,
      "warki": 7012,
      "ĠdzieÄĩmi": 7013,
      "labym": 7014,
      "Ġimprez": 7015,
      "Ġpozytywnie": 7016,
      "Ġpies": 7017,
      "wer": 7018,
      "niesi": 7019,
      "ĠWysokoÅĽÄĩ": 7020,
      ".....": 7021,
      "Ġpromocji": 7022,
      "niÄĻty": 7023,
      "Wiem": 7024,
      "ĠKur": 7025,
      "Ġchwila": 7026,
      "Ġâ": 7027,
      "ctwem": 7028,
      "ĠLEGO": 7029,
      "Ġodwa": 7030,
      "cjom": 7031,
      "Ġsuche": 7032,
      "ĠmÄħki": 7033,
      "Ġmaka": 7034,
      "ĠZu": 7035,
      "ĠTru": 7036,
      "Ġhobby": 7037,
      "czkach": 7038,
      "Ġklimat": 7039,
      "Ġstawia": 7040,
      "Ġstresu": 7041,
      "ĠchodziÄĩ": 7042,
      "znam": 7043,
      "ultura": 7044,
      "Ġtemperatura": 7045,
      "ĠChi": 7046,
      "ĠoglÄħdania": 7047,
      "oÅ¼y": 7048,
      "ĠporadziÄĩ": 7049,
      "Ġkrzyw": 7050,
      "Ġcenach": 7051,
      "Ġprawdopodobnie": 7052,
      "ĠmogÅĤy": 7053,
      "Ġopakowanie": 7054,
      "ĠwiadomoÅĽci": 7055,
      "ĠwÄĻd": 7056,
      "szyb": 7057,
      "ĠpomysÅĤÃ³w": 7058,
      "imna": 7059,
      "ĠPiÄĻk": 7060,
      "ĠNigdy": 7061,
      "talu": 7062,
      "Ġniezbyt": 7063,
      "Ġdochodzi": 7064,
      "ĠpiÅĤ": 7065,
      "Ġchwile": 7066,
      "ĠDzia": 7067,
      "Ġdeszcz": 7068,
      "90": 7069,
      "ĠÅ¼el": 7070,
      "Ġwidoczne": 7071,
      "ĠzauwaÅ¼yÅĤam": 7072,
      "ĠzastÄħpiÄĩ": 7073,
      "Ġteat": 7074,
      "ĠLego": 7075,
      "ĠsÅĤuchaÄĩ": 7076,
      "stwem": 7077,
      "ĠIP": 7078,
      "ĠCia": 7079,
      "ĠWaÅ¼ne": 7080,
      "Ġkatoli": 7081,
      "Ġdiagno": 7082,
      "dniego": 7083,
      "mowÄĻ": 7084,
      "Ġwszelkich": 7085,
      "ĠÅ¼wi": 7086,
      "pÅĤa": 7087,
      "mum": 7088,
      "Ġpacj": 7089,
      "ÅĦcu": 7090,
      "DziÄĻki": 7091,
      "ĠnajwiÄĻkszych": 7092,
      "ĠwiÄĻkszy": 7093,
      "ĠiloÅĽciÄħ": 7094,
      "macnia": 7095,
      "ĠÅĽrodka": 7096,
      "ĠPierwszy": 7097,
      "ine": 7098,
      "ĠzainwestowaÄĩ": 7099,
      "Ġstosunkowo": 7100,
      "ĠleÅ¼y": 7101,
      "Ġdenerw": 7102,
      "Ġadministra": 7103,
      "ĠNajlepiej": 7104,
      "land": 7105,
      "Ġakcep": 7106,
      "Ġpowtarza": 7107,
      "ĠwystÄĻpuje": 7108,
      "ĠzbliÅ¼a": 7109,
      "Ġstosunek": 7110,
      "knÄħÄĩ": 7111,
      "Ġsaty": 7112,
      "ĠÅ¼ebym": 7113,
      "Ġszukam": 7114,
      "ĠWielkie": 7115,
      "Ġzestawie": 7116,
      "ĠpamiÄĻÄĩ": 7117,
      "Ġlos": 7118,
      "ĠUniwersyte": 7119,
      "Ġgroma": 7120,
      "Ġkoszty": 7121,
      "ÅĤby": 7122,
      "Ġlato": 7123,
      "Ġciekawy": 7124,
      "ĠJana": 7125,
      "ĠJas": 7126,
      "Ġszybki": 7127,
      "Ġpoprawia": 7128,
      "wskiego": 7129,
      "ĠsÄħsia": 7130,
      "Ġpartner": 7131,
      "ĠzrozumieÄĩ": 7132,
      "ĠDuÅ¼": 7133,
      "Ġbiznesu": 7134,
      "Ġwydajny": 7135,
      "leniu": 7136,
      "Ġspek": 7137,
      "gujÄħ": 7138,
      "ĠradoÅĽÄĩ": 7139,
      "Ġpomara": 7140,
      "Ġlista": 7141,
      "dowo": 7142,
      "Ġjedzenia": 7143,
      "nionych": 7144,
      "ĠmaÅĤej": 7145,
      "szto": 7146,
      "dnoÅĽci": 7147,
      "Ġnieprze": 7148,
      "szajÄħ": 7149,
      "ksy": 7150,
      "Ġrand": 7151,
      "ĠzwracaÄĩ": 7152,
      "Ġmm": 7153,
      "wach": 7154,
      "Ġopisy": 7155,
      "Ġwyczy": 7156,
      "Ġinspiracji": 7157,
      "Mia": 7158,
      "ĠludÅºmi": 7159,
      "ĠkotÃ³w": 7160,
      "Ġktos": 7161,
      "ĠpowiÄĻk": 7162,
      "czkÃ³w": 7163,
      "ĠzamÃ³wi": 7164,
      "29": 7165,
      "Ġtermin": 7166,
      "Ġtelewizji": 7167,
      "Ġryzyko": 7168,
      "zÄħ": 7169,
      "ĠniedÅĤugo": 7170,
      "poko": 7171,
      "ĠzÅĤe": 7172,
      "ĠJezus": 7173,
      "ĠopowieÅĽci": 7174,
      "lkÄħ": 7175,
      "Ġvi": 7176,
      "ĠpeÅĤna": 7177,
      "ĠÅ¼yci": 7178,
      "26": 7179,
      "vo": 7180,
      "Ġpode": 7181,
      "Ġmusie": 7182,
      "ĠbÃ³lu": 7183,
      "Ġprag": 7184,
      "???": 7185,
      "teru": 7186,
      "Ġskomplik": 7187,
      "Ġczo": 7188,
      "Ġand": 7189,
      "racjÄĻ": 7190,
      "Ġdostarcza": 7191,
      "Ġletni": 7192,
      "Ġautorka": 7193,
      "Ġdzisiejszym": 7194,
      "Ġzaro": 7195,
      "Ġpupi": 7196,
      "ĠodpowiedniÄħ": 7197,
      "Ġtys": 7198,
      "Ġdum": 7199,
      "Ġcech": 7200,
      "LA": 7201,
      "Ġwlasnie": 7202,
      "Ġkciu": 7203,
      "Ġzabiera": 7204,
      "ĠopowieÅĽÄĩ": 7205,
      "Ġtypy": 7206,
      "kowania": 7207,
      "ĠMag": 7208,
      "Ġpoczucie": 7209,
      "Ġszampon": 7210,
      "ĠTobie": 7211,
      "Ġznana": 7212,
      "mii": 7213,
      "Ġlice": 7214,
      "Ġ2009": 7215,
      "Ġchleb": 7216,
      "ĠwspÃ³ÅĤprac": 7217,
      "Ġbyl": 7218,
      "Ġbede": 7219,
      "Ġdrzew": 7220,
      "Ġprzygotowania": 7221,
      "wiÅĤa": 7222,
      "cyk": 7223,
      "ĠmÄĻÅ¼czyzny": 7224,
      "CzeÅĽÄĩ": 7225,
      "ĠPrzede": 7226,
      "Chcia": 7227,
      "Ġkredy": 7228,
      "Ġcokolwiek": 7229,
      "Ġwysoko": 7230,
      "Ġjedzenie": 7231,
      "Ġmiej": 7232,
      "groma": 7233,
      "Ġplotk": 7234,
      "ĠokÅĤad": 7235,
      "Ġroze": 7236,
      "27": 7237,
      "ĠFunk": 7238,
      "ĠÅĽcian": 7239,
      "ĠinteresujÄħ": 7240,
      "Ġbrzy": 7241,
      "Ġinteres": 7242,
      "ĠkorzyÅĽci": 7243,
      "Ġgmi": 7244,
      "rej": 7245,
      "Ġokna": 7246,
      "Ġduzo": 7247,
      "ĠTrochÄĻ": 7248,
      "chÅĤo": 7249,
      "czonÄħ": 7250,
      "Ġkontrah": 7251,
      "Ġzwal": 7252,
      "Ġlepsza": 7253,
      "Åºle": 7254,
      "Ġprzekona": 7255,
      "Ġnur": 7256,
      "Ġkosztuje": 7257,
      "Äħb": 7258,
      "ĠKat": 7259,
      "ĠsprawÄħ": 7260,
      "Ġsamolo": 7261,
      "ĠsieciÄħ": 7262,
      "Ġgwiazd": 7263,
      "Ġgardero": 7264,
      "tujÄħce": 7265,
      "ĠwyksztaÅĤ": 7266,
      "ĠKomi": 7267,
      "czam": 7268,
      "Ġrowe": 7269,
      "liwej": 7270,
      "Ġpli": 7271,
      "unku": 7272,
      "ĠroÅĽlin": 7273,
      "Ġol": 7274,
      "iach": 7275,
      "Ġstrona": 7276,
      "Ġzaprez": 7277,
      "owska": 7278,
      "ĠRAM": 7279,
      "Ġjasne": 7280,
      "Ġokie": 7281,
      "ĠwojewÃ³dz": 7282,
      "Ġzagrani": 7283,
      "Ġreg": 7284,
      "ĠrozmÃ³w": 7285,
      "ĠmÄĻÅ¼czyzna": 7286,
      "Ġbiznes": 7287,
      "Ġserialu": 7288,
      "Ġkasy": 7289,
      "ĠzachowaÄĩ": 7290,
      "owar": 7291,
      "Ġmomentu": 7292,
      "Ġbezpieczny": 7293,
      "Ġkocham": 7294,
      "ĠPrzecieÅ¼": 7295,
      "owcÃ³w": 7296,
      "Ġsens": 7297,
      "Ġswej": 7298,
      "Ġoczami": 7299,
      "cznik": 7300,
      "Ġpublika": 7301,
      "Ġpatelni": 7302,
      "chodni": 7303,
      "ĠTra": 7304,
      "trach": 7305,
      "Ġpokazy": 7306,
      "Ġogrodzie": 7307,
      "Ġnaw": 7308,
      "ĠcieszÄĻ": 7309,
      "nos": 7310,
      "ĠWia": 7311,
      "ĠmyÅĽleÄĩ": 7312,
      "28": 7313,
      "ĠÅģo": 7314,
      "ĠÅ»eby": 7315,
      "Ġkina": 7316,
      "stroju": 7317,
      "Ġniz": 7318,
      "ĠpojawiÅĤ": 7319,
      "Ġuprze": 7320,
      "ĠÅĽredniej": 7321,
      "Ġpowrotem": 7322,
      "nice": 7323,
      "ĠKobie": 7324,
      "ĠkilkanaÅĽcie": 7325,
      "ĠkoÅĽcie": 7326,
      "ĠpodrÄĻcz": 7327,
      "ĠzaczynajÄħ": 7328,
      "Ġludziom": 7329,
      "obo": 7330,
      "tyj": 7331,
      "ĠZda": 7332,
      "Ġmusze": 7333,
      "ĠpowstaÅĤa": 7334,
      "jaw": 7335,
      "lim": 7336,
      "ĠÅĤatwy": 7337,
      "Ġnia": 7338,
      "ĠKsiÄĻ": 7339,
      "czonej": 7340,
      "lache": 7341,
      "Ġ1000": 7342,
      "niÄĻciu": 7343,
      "ĠzabraÄĩ": 7344,
      "Ġzbro": 7345,
      "Ġwiru": 7346,
      "Ġpt": 7347,
      "ĠFriday": 7348,
      "ĠdosÅĤownie": 7349,
      "Ġszeroki": 7350,
      "Ġreflek": 7351,
      "ĠWÅĤaÅĽnie": 7352,
      "Ġtematu": 7353,
      "dÅĤam": 7354,
      "ĠJezusa": 7355,
      "Ġnajnowsze": 7356,
      "Ġedycji": 7357,
      "Ġklik": 7358,
      "ĠuÅĤatwia": 7359,
      "Ġsensie": 7360,
      "szku": 7361,
      "Ġsportowe": 7362,
      "Ġspotyka": 7363,
      "Ġpreferencji": 7364,
      "Ġinternecie": 7365,
      "ĠubraÅĦ": 7366,
      "ĠdajÄħ": 7367,
      "ĠnastÄħpi": 7368,
      "ĠTwoim": 7369,
      "tch": 7370,
      "Ġaplikacje": 7371,
      "ĠNau": 7372,
      "metr": 7373,
      "ÅĽciach": 7374,
      "MÃ³j": 7375,
      "nkÄħ": 7376,
      "iera": 7377,
      "Ġzadzwo": 7378,
      "Ġintui": 7379,
      "Ġkonstrukcji": 7380,
      "Ġgabi": 7381,
      "wszyst": 7382,
      "ĠCent": 7383,
      "ĠTymczasem": 7384,
      "Ġszar": 7385,
      "Ġteor": 7386,
      "nania": 7387,
      "Ġpostrze": 7388,
      "Ġserdecznie": 7389,
      "ĠwiedzÄĻ": 7390,
      "ĠwraÅ¼enia": 7391,
      "Ġdoce": 7392,
      "Ġwor": 7393,
      "Ġtygodnia": 7394,
      "sjÄĻ": 7395,
      "dry": 7396,
      "Ġut": 7397,
      "Ġnazywa": 7398,
      "ĠdÅĤugoÅĽci": 7399,
      "Ġdostaw": 7400,
      "Ġwyg": 7401,
      "ĠÅĤatwe": 7402,
      "cina": 7403,
      "Ġzare": 7404,
      "Ġzup": 7405,
      "ĠskÅĤo": 7406,
      "dago": 7407,
      "Ġodz": 7408,
      "ĠPewnie": 7409,
      "mimo": 7410,
      "Ġsali": 7411,
      "ĠWyko": 7412,
      "niaÄĩ": 7413,
      "form": 7414,
      "szli": 7415,
      "[/": 7416,
      "Ġukaza": 7417,
      "Ġtrybie": 7418,
      "Ġinwesty": 7419,
      "ĠNowy": 7420,
      "Ġniemowlaka": 7421,
      "ĠgÅĤÃ³wne": 7422,
      "lanych": 7423,
      "pli": 7424,
      "Ġpoe": 7425,
      "Ġczynienia": 7426,
      "ĠnajwiÄĻcej": 7427,
      "ĠNarod": 7428,
      "Ġprocesor": 7429,
      "ĠprzeglÄħd": 7430,
      "Ġen": 7431,
      "Li": 7432,
      "ÅĤymi": 7433,
      "ĠSan": 7434,
      "Pra": 7435,
      "skaÄĩ": 7436,
      "'s": 7437,
      "Ġul": 7438,
      "ĠÅĤÄħcznoÅĽÄĩ": 7439,
      "anymi": 7440,
      "Ġpokar": 7441,
      "ĠWym": 7442,
      "ĠofertÄĻ": 7443,
      "Ġzasad": 7444,
      "ĠpojawiÅĤy": 7445,
      "Ġmetody": 7446,
      "psu": 7447,
      "Ġskier": 7448,
      "waÅ¼a": 7449,
      "Ġuczucia": 7450,
      "jechaÅĤ": 7451,
      "Ġczyt": 7452,
      "gazy": 7453,
      "ĠwnÄĻtrz": 7454,
      "ĠKsiÄħÅ¼ka": 7455,
      "Ġwarunkiem": 7456,
      "ĠprzejÅĽÄĩ": 7457,
      "pel": 7458,
      "ĠsÅĤyszaÅĤam": 7459,
      "dÅĤuÅ¼": 7460,
      "Ġwesele": 7461,
      "szpa": 7462,
      "ĠmiÄĻsa": 7463,
      "pisie": 7464,
      "Ġlekar": 7465,
      "ĠzmieniaÄĩ": 7466,
      "ĠbieÅ¼Äħ": 7467,
      "ĠkÅĤam": 7468,
      "miot": 7469,
      "Ġstosunku": 7470,
      "romo": 7471,
      "ĠstanÄħ": 7472,
      "ĠmajÄħc": 7473,
      "ĠJÃ³ze": 7474,
      "ganie": 7475,
      "Ġprzemie": 7476,
      "Ġmorder": 7477,
      "dzespo": 7478,
      "Ġefekcie": 7479,
      "ĠtrÄħdzi": 7480,
      "Ġrach": 7481,
      "ĠpomysÅĤem": 7482,
      "pen": 7483,
      "ĠnajtaÅĦsze": 7484,
      "ĠLon": 7485,
      "!)": 7486,
      "Ġwilgot": 7487,
      "Ġtabletki": 7488,
      "Ġposiadanie": 7489,
      "tywne": 7490,
      "Ġmleka": 7491,
      "Pe": 7492,
      "Ġprzodu": 7493,
      "Ġaudio": 7494,
      "Ġprezenty": 7495,
      "ĠdolegliwoÅĽci": 7496,
      "ĠKos": 7497,
      "ĠpaÅĦstw": 7498,
      "Ġenerge": 7499,
      "Ġkwiaty": 7500,
      "Ġmatry": 7501,
      "ĠSIM": 7502,
      "Ġniepoko": 7503,
      "ĠrodzinÄĻ": 7504,
      "lenda": 7505,
      "Ġprawdziwe": 7506,
      "fik": 7507,
      "Ġkoro": 7508,
      "Ġemocjona": 7509,
      "Ġsiostra": 7510,
      "Ġoznaczenia": 7511,
      "ĠAni": 7512,
      "ĠmiesiÄħcu": 7513,
      "iast": 7514,
      "klej": 7515,
      "necie": 7516,
      "Ġcyklu": 7517,
      "Ġkontek": 7518,
      "Ġotwarty": 7519,
      "nicja": 7520,
      "Ġlisty": 7521,
      "ang": 7522,
      "ĠuzyskaÄĩ": 7523,
      "ĠutrzymaÄĩ": 7524,
      "ĠSpe": 7525,
      "Tylko": 7526,
      "Ġtzn": 7527,
      "wski": 7528,
      "zjÄħ": 7529,
      "Ġwybi": 7530,
      "Ġdedykowane": 7531,
      "ĠdÅĤoni": 7532,
      "Ġprecy": 7533,
      "Ġdzisiejszych": 7534,
      "ciwie": 7535,
      "Ġeksplo": 7536,
      "ĠNowoczesne": 7537,
      "sje": 7538,
      "kracza": 7539,
      "Ġserial": 7540,
      "czyszcza": 7541,
      "ÅĤoÅĽciÄħ": 7542,
      "cm": 7543,
      "ĠtwÃ³rcz": 7544,
      "Ġwyzwanie": 7545,
      "Ġliczbie": 7546,
      "ĠtobÄħ": 7547,
      "ĠZd": 7548,
      "uch": 7549,
      "gÅĤy": 7550,
      "Ġwierzy": 7551,
      "nastu": 7552,
      "lonych": 7553,
      "nowy": 7554,
      "Ġkara": 7555,
      "rodzi": 7556,
      "Ġrozczar": 7557,
      "ĠwyobraÅº": 7558,
      "czkami": 7559,
      "ĠwiÄĻzie": 7560,
      "Ġprzetr": 7561,
      "ĠÅĽrodek": 7562,
      "ĠnastÄĻpujÄħce": 7563,
      "szczonych": 7564,
      "Ġgrupa": 7565,
      "demi": 7566,
      "ĠidÄħ": 7567,
      "ĠmiesiÄħca": 7568,
      "ĠmasÄĻ": 7569,
      "Ġzaplan": 7570,
      "jsce": 7571,
      "Ġspory": 7572,
      "Ġpapiero": 7573,
      "ĠzÅĤÄħ": 7574,
      "ĠsÅĤoÅĦce": 7575,
      "Ġlist": 7576,
      "Ġzio": 7577,
      "Ġjakos": 7578,
      "Ġkapi": 7579,
      "Ġfizycznej": 7580,
      "Ġaspek": 7581,
      "wac": 7582,
      "ĠUkrai": 7583,
      "ĠuÅ¼yÄĩ": 7584,
      "Ġprosi": 7585,
      "Ġcenty": 7586,
      "Ġoleju": 7587,
      "lera": 7588,
      "Kultura": 7589,
      "niona": 7590,
      "ĠJakÄħ": 7591,
      "stycznÄħ": 7592,
      "Ġoprac": 7593,
      "Ġprzyczyny": 7594,
      "EN": 7595,
      "ĠzawierajÄħ": 7596,
      "Ġosobom": 7597,
      "ĠnoÅĽ": 7598,
      "ĠÅĽciany": 7599,
      "ĠByÄĩ": 7600,
      "Ġwyrazi": 7601,
      "ÂłÂł": 7602,
      "ĠWz": 7603,
      "ĠwykÅĤad": 7604,
      "Ġnigdzie": 7605,
      "ĠczekajÄħ": 7606,
      "ĠbliÅ¼ej": 7607,
      "ĠdÅĤugim": 7608,
      "wielbiam": 7609,
      "Ġrozmaitych": 7610,
      "ĠwalczyÄĩ": 7611,
      "warty": 7612,
      "ĠidÄĻ": 7613,
      "Ġwio": 7614,
      "Ġpoczy": 7615,
      "ĠzÅĤego": 7616,
      "Ġtwojej": 7617,
      "Ġpodzespo": 7618,
      "ĠÅĽwiatowej": 7619,
      "ĠÅĽrodkÃ³w": 7620,
      "talnie": 7621,
      "ĠzwiÄħzanych": 7622,
      "Ġdieta": 7623,
      "ĠzrobiÄĻ": 7624,
      "Ġekspery": 7625,
      "Ġistotne": 7626,
      "Ġspor": 7627,
      "ĠPor": 7628,
      "waliÄĩ": 7629,
      "dba": 7630,
      "Ġfilmie": 7631,
      "Ġchemi": 7632,
      "Ġdobie": 7633,
      "czonym": 7634,
      "waÅĤem": 7635,
      "ĠosobÄĻ": 7636,
      "ĠKor": 7637,
      "ĠKrakowie": 7638,
      "Ġowoce": 7639,
      "Ġinternetu": 7640,
      "Ġstylizacji": 7641,
      "ĠbadaÅĦ": 7642,
      "ema": 7643,
      "ĠNajpopular": 7644,
      "Ġemi": 7645,
      "Ġostrze": 7646,
      "niÅĤa": 7647,
      "nen": 7648,
      "maty": 7649,
      "Ġbawi": 7650,
      "czania": 7651,
      "Ġniespodzia": 7652,
      "ĠWin": 7653,
      "Ġmai": 7654,
      "ĠzamkniÄĻte": 7655,
      "ĠuÅĤo": 7656,
      "ĠPozdrawiam": 7657,
      "Ġostatecznie": 7658,
      "ĠPOCO": 7659,
      "obraÅ¼": 7660,
      "ĠniemowlÄĻ": 7661,
      "ĠSmartfon": 7662,
      "ĠosiÄħgnÄħÄĩ": 7663,
      "Ġumiem": 7664,
      "szak": 7665,
      "ĠbÄĻdÄħc": 7666,
      "twy": 7667,
      "ĠHen": 7668,
      "Ġobywa": 7669,
      "Ġciaste": 7670,
      "ĠkÅĤa": 7671,
      "problem": 7672,
      "ĠkolejnÄħ": 7673,
      "Ġprzyjdzie": 7674,
      "ĠSzczegÃ³lnie": 7675,
      "70": 7676,
      "cik": 7677,
      "ÅĤbym": 7678,
      "ĠPanie": 7679,
      "cal": 7680,
      "Ġpoga": 7681,
      "ĠWedÅĤug": 7682,
      "tarzy": 7683,
      "ÅĤaÄĩ": 7684,
      "ĠKaÅ¼da": 7685,
      "woÅĽÄĩ": 7686,
      "ham": 7687,
      "ĠrÃ³Å¼nica": 7688,
      "ĠdowÃ³d": 7689,
      "pii": 7690,
      "Ġwyjdzie": 7691,
      "ÅĦstwem": 7692,
      "MI": 7693,
      "Ġznany": 7694,
      "Ġhumo": 7695,
      "Ġpodstawa": 7696,
      "godne": 7697,
      "ĠspoÅĽrÃ³d": 7698,
      "Ġpysz": 7699,
      "ĠÅ¼adne": 7700,
      "ĠRÃ³w": 7701,
      "kÅĤadnie": 7702,
      "asi": 7703,
      "Ġprzybli": 7704,
      "Ġwizer": 7705,
      "Ġwsparcie": 7706,
      "dujÄħc": 7707,
      "ĠÅĽwiado": 7708,
      "test": 7709,
      "ĠPierwsza": 7710,
      "tujemy": 7711,
      "Ġzaczynam": 7712,
      "ali": 7713,
      "Ġwzboga": 7714,
      "ĠInte": 7715,
      "Ġpojedyn": 7716,
      "Ġkolejna": 7717,
      "ĠpasoÅ¼y": 7718,
      "ĠobsÅĤugi": 7719,
      "ĠwiÄħÅ¼e": 7720,
      "Ġmetal": 7721,
      "Ġznaku": 7722,
      "AK": 7723,
      "ĠkupowaÄĩ": 7724,
      "Ġczaso": 7725,
      "ĠlekÃ³w": 7726,
      "gli": 7727,
      "Ġodmie": 7728,
      "dziale": 7729,
      "ĠmÃ³gÅĤby": 7730,
      "ĠbyÅĤby": 7731,
      "ĠnieodÅĤÄħcznym": 7732,
      "ĠzakoÅĦczy": 7733,
      "Å¼onÄħ": 7734,
      "Mnie": 7735,
      "sfak": 7736,
      "Ġkurz": 7737,
      "Ġdynami": 7738,
      "ĠPara": 7739,
      "Ġkle": 7740,
      "tkie": 7741,
      "ĠpowstaÅĤ": 7742,
      "tykie": 7743,
      "zujÄĻ": 7744,
      "Ġogrod": 7745,
      "ĠOgÃ³lnie": 7746,
      "ys": 7747,
      "Ġzdrowe": 7748,
      "Ġare": 7749,
      "Ġwpisu": 7750,
      "Ġpowiedz": 7751,
      "ĠSpoÅĤe": 7752,
      "waÅ¼am": 7753,
      "ĠrosnÄħ": 7754,
      "Ġwynik": 7755,
      "Ġstare": 7756,
      "Ġsprzyja": 7757,
      "Ġtenden": 7758,
      "szalne": 7759,
      "Ġrozs": 7760,
      "Ġmistrzo": 7761,
      "ml": 7762,
      "Ġbyle": 7763,
      "Ġakumu": 7764,
      "Ġgdybym": 7765,
      "cyna": 7766,
      "Ġopan": 7767,
      "larz": 7768,
      "ĠSzkoda": 7769,
      "Ġmebli": 7770,
      "wÅĤaÅĽci": 7771,
      "Ġcodzienne": 7772,
      "Ġposzukiwania": 7773,
      "Ġemocje": 7774,
      "Ġboku": 7775,
      "pom": 7776,
      ".<<": 7777,
      "Ġwodzie": 7778,
      "kazy": 7779,
      "piec": 7780,
      "rÃ³ciÅĤ": 7781,
      "Ġnebu": 7782,
      "ĠzwierzÄĻta": 7783,
      "Ġliteratury": 7784,
      "Ġposty": 7785,
      "ĠkoÅĤ": 7786,
      "Ġszef": 7787,
      "ÅĦskÄħ": 7788,
      "ĠcÃ³rka": 7789,
      "Moja": 7790,
      "Ġnaci": 7791,
      "Ġ31": 7792,
      "Ġprezyden": 7793,
      "Ġznajdziecie": 7794,
      "ĠpytaÅĦ": 7795,
      "Ġdodatkowych": 7796,
      "ĠRi": 7797,
      "ÅĤujÄĻ": 7798,
      "tus": 7799,
      "panii": 7800,
      "ĠponiÅ¼szego": 7801,
      "Ġduszy": 7802,
      "liwym": 7803,
      "lnymi": 7804,
      "Ġnazwy": 7805,
      "ĠkierowaÄĩ": 7806,
      "Ġgigan": 7807,
      "mowy": 7808,
      "ĠstaÅĤe": 7809,
      "Ġwitamin": 7810,
      "ĠtÄĻsk": 7811,
      "Ġtemacie": 7812,
      "ĠsytuacjÄĻ": 7813,
      "Ġposie": 7814,
      "wiÄĻki": 7815,
      "Ġnatury": 7816,
      "Ġsezonu": 7817,
      "Ġer": 7818,
      "ĠPrzedstawiamy": 7819,
      "ĠnadajÄħ": 7820,
      "Ġpolu": 7821,
      "Ġupad": 7822,
      "Ġuszkodzenia": 7823,
      "Ġreje": 7824,
      "Ġ2008": 7825,
      "ĠsÅĤody": 7826,
      "Ġzapraszam": 7827,
      "ĠPiS": 7828,
      "ĠgorÄħco": 7829,
      "ĠAmery": 7830,
      "Ġwielka": 7831,
      "ĠpojemnoÅĽci": 7832,
      "Ġzatru": 7833,
      "ĠdaÅĤ": 7834,
      "Ġorien": 7835,
      "Ġpoznasz": 7836,
      "Ġbohatera": 7837,
      "trafi": 7838,
      "ĠÅģat": 7839,
      "Ġjakbym": 7840,
      "........": 7841,
      "Ġrecep": 7842,
      "Ġposy": 7843,
      "Ġjakis": 7844,
      "Ġzag": 7845,
      "Ġmokre": 7846,
      "ĠEuropej": 7847,
      "Ġferomo": 7848,
      "ĠkÃ³ÅĤ": 7849,
      "zdr": 7850,
      "gosÅĤu": 7851,
      "Ġparu": 7852,
      "ĠbiaÅĤe": 7853,
      "Ġfilozo": 7854,
      "ckÄħ": 7855,
      "rÃ³Å¼nia": 7856,
      "Ġalbum": 7857,
      "onach": 7858,
      "nnie": 7859,
      "Ġwaha": 7860,
      "owskiej": 7861,
      "ĠproÅĽ": 7862,
      "SZ": 7863,
      "Ġgum": 7864,
      "Ġroboty": 7865,
      "Ġzakupiony": 7866,
      "Ġkaza": 7867,
      "Ġkolorach": 7868,
      "ĠmaÅĤÄħ": 7869,
      "ĠSza": 7870,
      "Ġgnia": 7871,
      "Ġcal": 7872,
      "ĠCzasami": 7873,
      "Ġkiep": 7874,
      "ĠpiszÄĻ": 7875,
      "Ġagen": 7876,
      "Ġzdania": 7877,
      "ĠokrÄĻ": 7878,
      "Ġwszech": 7879,
      "ĠleÅ¼Äħ": 7880,
      "latka": 7881,
      "ed": 7882,
      "ĠNiech": 7883,
      "ĠdÅĤugoÅĽÄĩ": 7884,
      "mierz": 7885,
      "ĠgÅĤoÅĽniki": 7886,
      "tuÅĤ": 7887,
      "ĠFrancji": 7888,
      "Ġuwo": 7889,
      "Ġtermo": 7890,
      "ĠskÅĤadzie": 7891,
      "ĠkawaÅĤek": 7892,
      "ĠÅĽcieÅ¼": 7893,
      "Ġturysty": 7894,
      "Ġkandy": 7895,
      "ĠNaro": 7896,
      "car": 7897,
      "Ġ..": 7898,
      "Ġurucho": 7899,
      "ĠpiszÄħ": 7900,
      "Ġmiast": 7901,
      "dali": 7902,
      "Ġowoc": 7903,
      "ĠznalazÅĤa": 7904,
      "ĠpÅĤci": 7905,
      "Ġniebo": 7906,
      "jac": 7907,
      "ĠpotrafiÄĻ": 7908,
      "fumy": 7909,
      "Ġzestawienie": 7910,
      "rujÄħ": 7911,
      "Ġniekiedy": 7912,
      "Chyba": 7913,
      "Ġwiecej": 7914,
      "ĠsprÃ³bu": 7915,
      "tt": 7916,
      "ĠjÄĻzyku": 7917,
      "ĠdziesiÄĻ": 7918,
      "ĠuniknÄħÄĩ": 7919,
      "ĠHer": 7920,
      "ĠrozmiarÃ³w": 7921,
      "ĠwydarzeÅĦ": 7922,
      "linar": 7923,
      "ĠwystÄħpi": 7924,
      "Ġdou": 7925,
      "Ġkroku": 7926,
      "ĠStani": 7927,
      "Ġchroni": 7928,
      "Ġlekki": 7929,
      "ĠsÅĤoi": 7930,
      "Ġ35": 7931,
      "Ġzaprojekt": 7932,
      "ĠrÄĻkÄħ": 7933,
      "zania": 7934,
      "ĠprzedsiÄĻbior": 7935,
      "caÅĤ": 7936,
      "Ġflak": 7937,
      "ĠOl": 7938,
      "Ġzgi": 7939,
      "Ġspie": 7940,
      "ĠmiejscowoÅĽci": 7941,
      "Ġpozostawia": 7942,
      "ĠpewnoÅĽÄĩ": 7943,
      "ĠÅĤyÅ¼ki": 7944,
      "Ġzato": 7945,
      "Ġmagazy": 7946,
      "Ġdotk": 7947,
      "zia": 7948,
      "ĠekspertÃ³w": 7949,
      "Ġmniejsze": 7950,
      "Ġkonieczne": 7951,
      "Ġnadmia": 7952,
      "ĠLek": 7953,
      "Ġstary": 7954,
      "ĠPora": 7955,
      "ĠMiaÅĤam": 7956,
      "ĠpasujÄħ": 7957,
      "Ġjedne": 7958,
      "sna": 7959,
      "pieÅĦ": 7960,
      "ĠÅĤÃ³Å¼ka": 7961,
      "''": 7962,
      "ĠKoÅĽcioÅĤa": 7963,
      "rzaÅĤem": 7964,
      "angaÅ¼": 7965,
      "Ġtury": 7966,
      "czyk": 7967,
      "ĠpodejÅĽcie": 7968,
      "Ġmniejsza": 7969,
      "ÅĤanie": 7970,
      "Ġwojen": 7971,
      "cisz": 7972,
      "ĠZresztÄħ": 7973,
      "ĠgÃ³rÄĻ": 7974,
      "Ġzadania": 7975,
      "Ġliczne": 7976,
      "ĠLudzie": 7977,
      "Ġkonkuren": 7978,
      "ĠpoÅĽredni": 7979,
      "ĠspÄĻdza": 7980,
      "ĠchÅĤopaka": 7981,
      "ĠmiÄĻso": 7982,
      "Ġnaprawde": 7983,
      "ĠszczegÃ³lnÄħ": 7984,
      "ĠdecyzjÄĻ": 7985,
      "logicznych": 7986,
      "ĠwyposaÅ¼eniem": 7987,
      "ĠÅĽwietna": 7988,
      "Ġdelikatne": 7989,
      "przez": 7990,
      "ĠformÄĻ": 7991,
      "Ġkomputerze": 7992,
      "?!": 7993,
      "Ġprzystos": 7994,
      "ĠSty": 7995,
      "Ġpobu": 7996,
      "ĠsprzÄĻtÃ³w": 7997,
      "dziÅĤy": 7998,
      "Ġgene": 7999,
      "ĠPiotr": 8000,
      "ĠpomysÅĤy": 8001,
      "peÅĤniÄĩ": 8002,
      "Ġkarmi": 8003,
      "Ġznane": 8004,
      "Ġkorek": 8005,
      "ĠwÅĤadzy": 8006,
      "ĠmogÅĤabym": 8007,
      "ĠistniejÄħ": 8008,
      "ĠpatrzeÄĩ": 8009,
      "ÅĦca": 8010,
      "ĠuÅ¼yte": 8011,
      "Ġet": 8012,
      "Ġleczenia": 8013,
      "demii": 8014,
      "telu": 8015,
      "ĠTwojej": 8016,
      "ĠRober": 8017,
      "ĠZdecyd": 8018,
      "Ġzakres": 8019,
      "Ġpodpowie": 8020,
      "cert": 8021,
      "Ġniedawna": 8022,
      "ĠGar": 8023,
      "ĠwiedziaÅĤ": 8024,
      "Ġzarazem": 8025,
      "Ġkonser": 8026,
      "ĠmÃ³c": 8027,
      "wio": 8028,
      "Ġbiznesem": 8029,
      "ĠdziaÅĤajÄħ": 8030,
      "Ġopakowania": 8031,
      "Ġwodo": 8032,
      "Ġbom": 8033,
      "Ġmarke": 8034,
      "Ġcala": 8035,
      "Ġpionie": 8036,
      "toni": 8037,
      "ĠpodwÃ³j": 8038,
      "ĠzÄĻbÃ³w": 8039,
      "ĠzaÅĤoÅ¼yÄĩ": 8040,
      "Ġdodajemy": 8041,
      "Ġpiw": 8042,
      "snÄħÄĩ": 8043,
      "ĠzrezygnowaÄĩ": 8044,
      "jazd": 8045,
      "ĠskrÄĻ": 8046,
      "rr": 8047,
      "Ġlekarzem": 8048,
      "ĠpozwoliÄĩ": 8049,
      "PI": 8050,
      "ĠcharakteryzujÄħ": 8051,
      "ĠczÅĤowiekiem": 8052,
      "ĠkrÄĻgosÅĤu": 8053,
      "nau": 8054,
      "ĠpaÅĤa": 8055,
      "AT": 8056,
      "Ġcharakterystyczne": 8057,
      "szczania": 8058,
      "ĠmamÄħ": 8059,
      "Ġefektu": 8060,
      "dnej": 8061,
      "ĠÅĤadne": 8062,
      "Ġfotograf": 8063,
      "ĠPoniewaÅ¼": 8064,
      "ĠczystoÅĽci": 8065,
      "strÃ³j": 8066,
      "ĠpostawiÄĩ": 8067,
      "Ġwilgo": 8068,
      "RE": 8069,
      "Ġuzysk": 8070,
      "ĠKtÃ³re": 8071,
      "dujemy": 8072,
      "Ġodwo": 8073,
      "ĠniezaleÅ¼nie": 8074,
      "ĠgarÅĽÄĩ": 8075,
      "ĠnapisaÅĤ": 8076,
      "Mar": 8077,
      "ĠwkrÃ³tce": 8078,
      "ĠZapach": 8079,
      "ĠdÅºwiÄĻki": 8080,
      "ĠDopiero": 8081,
      "orÄħ": 8082,
      "Ġlekkie": 8083,
      "Ġporady": 8084,
      "ĠMuszÄĻ": 8085,
      "gres": 8086,
      "Ġfio": 8087,
      "dowej": 8088,
      "Ġdysko": 8089,
      "Roz": 8090,
      "ĠBogu": 8091,
      "warce": 8092,
      "anta": 8093,
      "Ġogromne": 8094,
      "ĠznalazÅĤ": 8095,
      "ĠmetrÃ³w": 8096,
      "Ġwzajem": 8097,
      "Fa": 8098,
      "Ġochron": 8099,
      "Ġodbior": 8100,
      "ĠtyÅĤu": 8101,
      "Ġ).": 8102,
      "ĠzaskoczyÄĩ": 8103,
      "ĠpojawiÅĤa": 8104,
      "Ġcelem": 8105,
      "Ġstruk": 8106,
      "Ġwysp": 8107,
      "Ġmija": 8108,
      "Ġdziewczyn": 8109,
      "Ġpodobny": 8110,
      "ÅĽwiado": 8111,
      "ĠOna": 8112,
      "Ġewentualnie": 8113,
      "Ġdodatkiem": 8114,
      "bierz": 8115,
      "styczna": 8116,
      "Ġdlu": 8117,
      "niÅ¼": 8118,
      "ĠÅ¼adnym": 8119,
      "Ġprzeczyta": 8120,
      "Ġutrzymy": 8121,
      "Ġczyszczenie": 8122,
      "Ġwan": 8123,
      "Ġzwyczajnie": 8124,
      "ĠMÃ³wi": 8125,
      "Ġzago": 8126,
      "Ġwyjazd": 8127,
      "ls": 8128,
      "Ġsprzed": 8129,
      "Ġustawi": 8130,
      "ĠwrÃ³": 8131,
      "Ġwypowiedzi": 8132,
      "Ġobra": 8133,
      "obowiÄħ": 8134,
      "ĠprzemysÅĤ": 8135,
      "Ġwiny": 8136,
      "ĠWielu": 8137,
      "ĠbÅĤÄħd": 8138,
      "ĠRanki": 8139,
      "Ġuszy": 8140,
      "Ġodej": 8141,
      "Ġprzycze": 8142,
      "Ġzobaczymy": 8143,
      "ĠÅ¼yciem": 8144,
      "Ob": 8145,
      "Ġteksty": 8146,
      "ĠÅºrÃ³dÅĤo": 8147,
      "ĠwielkoÅĽÄĩ": 8148,
      "Ġdostar": 8149,
      "Ġth": 8150,
      "Ġeli": 8151,
      "ĠCer": 8152,
      "Ġgimna": 8153,
      "ĠzmianÄĻ": 8154,
      "ĠsprawiajÄħ": 8155,
      "Ġbrat": 8156,
      "Ġfotel": 8157,
      "biu": 8158,
      "Ġskuteczny": 8159,
      "Ġcele": 8160,
      "ĠRoss": 8161,
      "Ġbiegu": 8162,
      "Ġzestawy": 8163,
      "ĠnajwiÄĻkszÄħ": 8164,
      "Ġbroni": 8165,
      "ĠKorzysta": 8166,
      "czno": 8167,
      "Ġracji": 8168,
      "ĠogrÃ³d": 8169,
      "ĠfaÅĤ": 8170,
      "Ġprzekro": 8171,
      "ceÅĦ": 8172,
      "Ġdomach": 8173,
      "ĠwyrÃ³Å¼niajÄħ": 8174,
      "ĠÅļwie": 8175,
      "ĠpodkreÅĽ": 8176,
      "Å¼ym": 8177,
      "ĠprzyszÅĤoÅĽÄĩ": 8178,
      "Ġnajlepszego": 8179,
      "Ġnaraz": 8180,
      "ĠwskazÃ³wki": 8181,
      "ĠWoj": 8182,
      "Wiesz": 8183,
      "Ġczarne": 8184,
      "Ġdokon": 8185,
      "okie": 8186,
      "amiÄħ": 8187,
      "Ġtwoich": 8188,
      "Ġdodatki": 8189,
      "Ġtakimi": 8190,
      "ĠchociaÅ¼by": 8191,
      "ĠprzeczytaÅĤam": 8192,
      "ĠCzyli": 8193,
      "ĠpÅĤytki": 8194,
      "ĠdÃ³ÅĤ": 8195,
      "Ġzachowanie": 8196,
      "Ġsuger": 8197,
      "Ġstopy": 8198,
      "ĠpoglÄħ": 8199,
      "Hi": 8200,
      "ĠCon": 8201,
      "Ġrana": 8202,
      "Ġniewi": 8203,
      "Ġpogoda": 8204,
      "bami": 8205,
      "Ġostatniej": 8206,
      "rne": 8207,
      "Ġsprawdzone": 8208,
      "kaÅ¼": 8209,
      "Ġkciuki": 8210,
      "lizm": 8211,
      "trem": 8212,
      "ĠÅĽrodki": 8213,
      "gowaÄĩ": 8214,
      "stycznej": 8215,
      "Ġpopa": 8216,
      "Ġauta": 8217,
      "Cie": 8218,
      "Ġrelacji": 8219,
      "Ġdb": 8220,
      "ĠMaksym": 8221,
      "Ġwzmacnia": 8222,
      "Ġherbaty": 8223,
      "Ġlada": 8224,
      "torze": 8225,
      "Ġznakiem": 8226,
      "iana": 8227,
      "Ġkurcz": 8228,
      "ĠprzygodÄĻ": 8229,
      "Ġplany": 8230,
      "ĠzapamiÄĻ": 8231,
      "Ġcio": 8232,
      "czyÅĤo": 8233,
      "ĠPS": 8234,
      "owanymi": 8235,
      "ĠSzyb": 8236,
      "Ġalergi": 8237,
      "ĠRanking": 8238,
      "NY": 8239,
      "ĠÅ¼o": 8240,
      "Ġliceum": 8241,
      "ĠKolor": 8242,
      "Ġ180": 8243,
      "Ġgre": 8244,
      "posa": 8245,
      "ela": 8246,
      "hh": 8247,
      "rzaÄĩ": 8248,
      "ĠWÄĻ": 8249,
      "ĠbateriÄħ": 8250,
      "Ġjedyne": 8251,
      "ĠSmartwat": 8252,
      "Ġkonf": 8253,
      "ĠlodÃ³wki": 8254,
      "ĠgÅĤÃ³wnej": 8255,
      "ĠSku": 8256,
      "Ġsypialni": 8257,
      "choÄĩ": 8258,
      "Ġzmiana": 8259,
      "Ġporodzie": 8260,
      "Ġradzi": 8261,
      "ĠÅĽwieÅ¼o": 8262,
      "ĠwÅĤaÅĽciciel": 8263,
      "ĠznajdÄħ": 8264,
      "ĠCzer": 8265,
      "Ġnosa": 8266,
      "Ġcentyme": 8267,
      "ĠTrzy": 8268,
      "Ġalternatyw": 8269,
      "Ġklub": 8270,
      "ĠpachnÄħ": 8271,
      "Ġnajlepszej": 8272,
      "grzewa": 8273,
      "Ġdelikatny": 8274,
      "Ġznika": 8275,
      "Ġobuwia": 8276,
      "Ġmiaste": 8277,
      "Ġautobu": 8278,
      "ĠsamochÃ³d": 8279,
      "Ġpodpowiedzi": 8280,
      "ĠdziaÅĤaniu": 8281,
      "pisz": 8282,
      "ĠwyobraziÄĩ": 8283,
      "szer": 8284,
      "ĠpomieszczeÅĦ": 8285,
      "Ġsamemu": 8286,
      "Ġposiad": 8287,
      "szczona": 8288,
      "ĠuczniÃ³w": 8289,
      "Ġcharakteryzuje": 8290,
      "Ġstarych": 8291,
      "Ġiry": 8292,
      "ksztaÅĤ": 8293,
      "Ġwyprowa": 8294,
      "Ġniekoniecznie": 8295,
      "Ġmediach": 8296,
      "ĠnieÅºle": 8297,
      "Ġszereg": 8298,
      "ĠzajÄĻÄĩ": 8299,
      "Ġdi": 8300,
      "Ġzdje": 8301,
      "Ġwyba": 8302,
      "ĠPosiada": 8303,
      "Ġznajd": 8304,
      "ĠbÅĤyskawicznie": 8305,
      "WÅĤaÅĽnie": 8306,
      "ĠobsÅĤuga": 8307,
      "Ġjedyny": 8308,
      "dziec": 8309,
      "Ġszpitalu": 8310,
      "Ġjezio": 8311,
      "Ġotwarte": 8312,
      "Ġdysk": 8313,
      "Ġreligi": 8314,
      "ĠrozwiÄħzaÅĦ": 8315,
      "tykÄĻ": 8316,
      "ull": 8317,
      "Ġkurs": 8318,
      "Ġobuwie": 8319,
      "ÅĤku": 8320,
      "ĠMikoÅĤa": 8321,
      "ÅĽnikÃ³w": 8322,
      "Ġchmu": 8323,
      "zki": 8324,
      "Ġzapobiega": 8325,
      "Ġodbywa": 8326,
      "Ġprostych": 8327,
      "sory": 8328,
      "ÅĤko": 8329,
      "kowie": 8330,
      "rowaÄĩ": 8331,
      "ĠczÅĤonkÃ³w": 8332,
      "ÅĤowiek": 8333,
      "Ġwielokrotnie": 8334,
      "Ġpanele": 8335,
      "ponujemy": 8336,
      "ĠinteresujÄħce": 8337,
      "stanÄĻ": 8338,
      "Ġmuzyka": 8339,
      "trak": 8340,
      "rywa": 8341,
      "tacja": 8342,
      "Ġmiec": 8343,
      "ĠrozwaÅ¼yÄĩ": 8344,
      "Ġokru": 8345,
      "ĠÅĤadny": 8346,
      "jsc": 8347,
      "Ġsiostry": 8348,
      "cuje": 8349,
      "ĠÅĤyÅ¼e": 8350,
      "lie": 8351,
      "lus": 8352,
      "JuÅ¼": 8353,
      "deÅĤka": 8354,
      "strak": 8355,
      "Ġprom": 8356,
      "Ġskupia": 8357,
      "ĠKilka": 8358,
      "ĠkawÄĻ": 8359,
      "wiÄħzy": 8360,
      "Ġfoteli": 8361,
      "ĠÅĽwiadomoÅĽci": 8362,
      "Ġwyco": 8363,
      "Ġbezpieczne": 8364,
      "ps": 8365,
      "Ġbisku": 8366,
      "Ġodnaj": 8367,
      "Ġposiadania": 8368,
      "ĠsÃ³l": 8369,
      "bur": 8370,
      "Ġzawodni": 8371,
      "ĠmyÅĽlenia": 8372,
      "Ġplam": 8373,
      "Ġpotraw": 8374,
      "Ġprzypadkach": 8375,
      "Ġoferta": 8376,
      "dnienia": 8377,
      "Ġredak": 8378,
      "ĠwÄħtpienia": 8379,
      "Ġpiekarnika": 8380,
      "wiar": 8381,
      "ĠGenera": 8382,
      "poli": 8383,
      "ĠzawartoÅĽÄĩ": 8384,
      "Ġwzor": 8385,
      "Ġzby": 8386,
      "ĠLud": 8387,
      "ĠTur": 8388,
      "Ġplane": 8389,
      "ĠwyraÅº": 8390,
      "ĠnieszczÄĻ": 8391,
      "mujemy": 8392,
      "Ġpatr": 8393,
      "ĠByÅĤo": 8394,
      "rzego": 8395,
      "ĠpomagajÄħ": 8396,
      "Ġptak": 8397,
      "lat": 8398,
      "ryte": 8399,
      "Ġ300": 8400,
      "Ġokresu": 8401,
      "Ġdostanie": 8402,
      "ĠmieÅĽci": 8403,
      "Ġmatema": 8404,
      "Ġosusza": 8405,
      "Ġwysokie": 8406,
      "Ġkasz": 8407,
      "ĠWarszawy": 8408,
      "ĠwysokoÅĽÄĩ": 8409,
      "ĠMini": 8410,
      "Ġdocenia": 8411,
      "ĠWydaje": 8412,
      "ĠbÄĻdziecie": 8413,
      "ĠGala": 8414,
      "ĠpeÅĤno": 8415,
      "ĠuÅ¼ytkownikom": 8416,
      "ĠprzeglÄħdania": 8417,
      "szty": 8418,
      "ĠwysiÅĤku": 8419,
      "ĠOw": 8420,
      "Ġbyla": 8421,
      "ĠNiez": 8422,
      "Ġzawar": 8423,
      "Ġpozorom": 8424,
      "jniki": 8425,
      "ĠOtÃ³Å¼": 8426,
      "Ġtelefo": 8427,
      "waÅĦ": 8428,
      "ĠsiedzÄħ": 8429,
      "Ġzabiegu": 8430,
      "minam": 8431,
      "ĠSÅĤo": 8432,
      "ĠrzekÅĤ": 8433,
      "ĠwolnoÅĽci": 8434,
      "Ġgodzinach": 8435,
      "Ġzaprezent": 8436,
      "landii": 8437,
      "Ġetapie": 8438,
      "tajcie": 8439,
      "czonego": 8440,
      "ĠInha": 8441,
      "ĠkrÃ³tkie": 8442,
      "ĠokrÄħ": 8443,
      "stanie": 8444,
      "Ġwymiany": 8445,
      "ĠÅļwiat": 8446,
      "Ġjedyna": 8447,
      "Ġsmartwatch": 8448,
      "Ġdoros": 8449,
      "WA": 8450,
      "Ġwzru": 8451,
      "Ġfaktu": 8452,
      "wiony": 8453,
      "Ġprzeze": 8454,
      "ĠopÃ³Åº": 8455,
      "ĠÅĤam": 8456,
      "Ġosie": 8457,
      "Ġwykonany": 8458,
      "TY": 8459,
      "Ġmiejscem": 8460,
      "ĠMÄĻ": 8461,
      "ras": 8462,
      "Ġnajszyb": 8463,
      "ĠMaÅĤ": 8464,
      "Ġrobisz": 8465,
      "DZ": 8466,
      "logicznego": 8467,
      "rego": 8468,
      "Ġfajna": 8469,
      "Ġprezentuje": 8470,
      "ĠklientÃ³w": 8471,
      "Ġbrata": 8472,
      "ĠPozosta": 8473,
      "Ġrecenzji": 8474,
      "ĠczuÅĤam": 8475,
      "Ġbezproblem": 8476,
      "towania": 8477,
      "ĠToma": 8478,
      "Ġwybierze": 8479,
      "rku": 8480,
      "Ġsymboli": 8481,
      "Ġ2000": 8482,
      "bij": 8483,
      "45": 8484,
      "ĠÅ¼yw": 8485,
      "Ġkomentarzy": 8486,
      "ĠXIX": 8487,
      "dowi": 8488,
      "pÃ³w": 8489,
      "ĠpoleciÄĩ": 8490,
      "die": 8491,
      "ĠkostkÄĻ": 8492,
      "Ġprawdy": 8493,
      "bardzo": 8494,
      "ĠwiÄĻkszym": 8495,
      "ĠÅļlÄħ": 8496,
      "ĠwydajnoÅĽci": 8497,
      "Ġniezn": 8498,
      "Ġodro": 8499,
      "ĠwygÅĤa": 8500,
      "ÅĤaÅĤ": 8501,
      "Ġzielonym": 8502,
      "ĠdÄħ": 8503,
      "ĠMoni": 8504,
      "noÅĽnie": 8505,
      "ziem": 8506,
      "Ġdzieli": 8507,
      "rotnie": 8508,
      "ĠdwÃ³j": 8509,
      "uj": 8510,
      "ProszÄĻ": 8511,
      "ĠwyjÅĽcia": 8512,
      "Ġcmenta": 8513,
      "ĠÅĽwietnym": 8514,
      "Ġczwo": 8515,
      "Ġepi": 8516,
      "Ġgotowe": 8517,
      "Ġprojektu": 8518,
      "ĠAsper": 8519,
      "Ġzakupionych": 8520,
      "Ġsympa": 8521,
      "Ġdedyk": 8522,
      "Ġkorzystania": 8523,
      "niÄĻta": 8524,
      "Ġspektak": 8525,
      "ĠzÄĻby": 8526,
      "ĠgamÄĻ": 8527,
      "tymi": 8528,
      "lary": 8529,
      "ĠProszÄĻ": 8530,
      "ĠRzym": 8531,
      "Ġwyprze": 8532,
      "Ġuleg": 8533,
      "Ġodcinek": 8534,
      "Ġprzeczyt": 8535,
      "Ġzadowolony": 8536,
      "Ġsem": 8537,
      "Ġdesi": 8538,
      "Ġporan": 8539,
      "Ġstaran": 8540,
      "tyfikaty": 8541,
      "ĠbudÅ¼et": 8542,
      "rele": 8543,
      "ĠuÅ¼ywana": 8544,
      "ĠdziaÅĤaÅĦ": 8545,
      "ĠPorÃ³w": 8546,
      "ĠgwaÅĤ": 8547,
      "Osta": 8548,
      "ĠzaangaÅ¼": 8549,
      "Ġmagne": 8550,
      "ĠusunÄħÄĩ": 8551,
      "ĠnajmÅĤodszych": 8552,
      "Ġfot": 8553,
      "ĠKomu": 8554,
      "dycha": 8555,
      "czanie": 8556,
      "Ġorganizmie": 8557,
      "Ġpotencj": 8558,
      "ĠPlan": 8559,
      "pij": 8560,
      "Ġzabawa": 8561,
      "ĠSprawdziliÅĽmy": 8562,
      "ĠjesteÅĽcie": 8563,
      "Ġnapisane": 8564,
      "KO": 8565,
      "ĠAf": 8566,
      "ĠuwzglÄĻ": 8567,
      "Ġowsi": 8568,
      "lÄħt": 8569,
      "ĠÅĽlubu": 8570,
      "Ġmora": 8571,
      "ĠAspergera": 8572,
      "rodek": 8573,
      "ĠobejrzeÄĩ": 8574,
      "ĠpomyÅĽleÄĩ": 8575,
      "Ġteren": 8576,
      "lecia": 8577,
      "prawdzie": 8578,
      "ĠdotÄħd": 8579,
      "Ġfaceta": 8580,
      "Ġzarabia": 8581,
      "Ġwydoby": 8582,
      "niÅ¼ej": 8583,
      "Ġopon": 8584,
      "ĠKie": 8585,
      "publi": 8586,
      "wczych": 8587,
      "Å¼ni": 8588,
      "Ġnietyp": 8589,
      "ĠDO": 8590,
      "ling": 8591,
      "ĠgÅĤowÄħ": 8592,
      "Ġzwyczaj": 8593,
      "racja": 8594,
      "ĠuczÄħ": 8595,
      "owujÄħ": 8596,
      "Ġwyglada": 8597,
      "Ġkorzystaniu": 8598,
      "Ġwul": 8599,
      "ĠNikt": 8600,
      "produk": 8601,
      "Ġlampy": 8602,
      "Ġdanej": 8603,
      "ĠÅĽciera": 8604,
      "Ġspokoju": 8605,
      "ĠBoÅ¼ego": 8606,
      "Ġinstru": 8607,
      "ĠszkÃ³ÅĤ": 8608,
      "godzi": 8609,
      "ĠnazwÄĻ": 8610,
      "sier": 8611,
      "ĠgÅĤoÅĽnik": 8612,
      "ĠskrÃ³": 8613,
      "wny": 8614,
      "ĠpowaÅ¼nie": 8615,
      "Ġrezer": 8616,
      "BÄĻ": 8617,
      "ĠrÃ³Å¼nicÄĻ": 8618,
      "wit": 8619,
      "ĠPoja": 8620,
      "ĠPodobnie": 8621,
      "Pi": 8622,
      "Ġpanu": 8623,
      "ĠmÅĤodzieÅ¼y": 8624,
      "Ġprzepisy": 8625,
      "ĠPierwsze": 8626,
      "Ġmleko": 8627,
      "ĠsÅĤabo": 8628,
      "Ġpoleca": 8629,
      "Ġautorstwa": 8630,
      "waga": 8631,
      "ĠsÅĤoÅĦca": 8632,
      "bili": 8633,
      "ĠzapomnieÄĩ": 8634,
      "ĠwierzÄĻ": 8635,
      "ĠTeÅ¼": 8636,
      "ĠprzedÅĤu": 8637,
      "peÅĤniajÄħ": 8638,
      "pt": 8639,
      "ĠOgrom": 8640,
      "Ġkosmetyk": 8641,
      "Ġimi": 8642,
      "ĠmateriaÅĤy": 8643,
      "ĠXXI": 8644,
      "chyba": 8645,
      "ĠMor": 8646,
      "ĠsobotÄĻ": 8647,
      "spoli": 8648,
      "Ġodchu": 8649,
      "Ġniemu": 8650,
      "woje": 8651,
      "Ġstale": 8652,
      "odpor": 8653,
      "ĠpomysÅĤu": 8654,
      "Dlaczego": 8655,
      "ĠÅºrÃ³dÅĤa": 8656,
      "ĠTakÅ¼e": 8657,
      "ĠpowodÃ³w": 8658,
      "ĠChrystusa": 8659,
      "Ġbazy": 8660,
      "razy": 8661,
      "ĠÅĽwietne": 8662,
      "dzej": 8663,
      "Ġagre": 8664,
      "tecznie": 8665,
      "ĠczytajÄħc": 8666,
      "ĠjechaÄĩ": 8667,
      "Ġcharakteru": 8668,
      "Ġwiosen": 8669,
      "ĠczynnikÃ³w": 8670,
      "Ġpopo": 8671,
      "usza": 8672,
      "ĠrÃ³wnowa": 8673,
      "Ġzgroma": 8674,
      "Ġsekre": 8675,
      "Ġrestauracji": 8676,
      "Ġzamierza": 8677,
      "Ġopubli": 8678,
      "Ġ190": 8679,
      "Ġkoszy": 8680,
      "ĠTrady": 8681,
      "Ġmasy": 8682,
      "gia": 8683,
      "gajÄħ": 8684,
      "Ġzwierz": 8685,
      "Ġkosmety": 8686,
      "ĠTrudno": 8687,
      "ĠGT": 8688,
      "stal": 8689,
      "Å¼Äħd": 8690,
      "Ġodp": 8691,
      "Ġnume": 8692,
      "Ġfiltra": 8693,
      "aÄĩ": 8694,
      "ĠPodstaw": 8695,
      "nowaÄĩ": 8696,
      "Ġniedro": 8697,
      "tno": 8698,
      "Ġdomi": 8699,
      "ĠwejÅĽÄĩ": 8700,
      "ĠreguÅĤy": 8701,
      "Ġczytanie": 8702,
      "Ġofert": 8703,
      "ĠszczegÃ³lnoÅĽci": 8704,
      "czer": 8705,
      "Ġwalce": 8706,
      "lkÄĻ": 8707,
      "ĠdroÅ¼d": 8708,
      "nes": 8709,
      "ĠmoÅ¼liw": 8710,
      "Ġserio": 8711,
      "Ġomi": 8712,
      "ĠwÅĤosach": 8713,
      "towanie": 8714,
      "sÅĤania": 8715,
      "ĠzastanowiÄĩ": 8716,
      "Ġdopasowane": 8717,
      "liwoÅĽciÄħ": 8718,
      "dniu": 8719,
      "ĠnapisaÅĤam": 8720,
      "Ġrodzicom": 8721,
      "Ġinicja": 8722,
      "ĠZakup": 8723,
      "czkolwiek": 8724,
      "Ġbrud": 8725,
      "Ġis": 8726,
      "Ġprzydatne": 8727,
      "Ġkapsu": 8728,
      "kÅĤadaÄĩ": 8729,
      "Ġzamiar": 8730,
      "Ġzwia": 8731,
      "Ġpada": 8732,
      "Å¼ar": 8733,
      "ĠPary": 8734,
      "ĠprzyszedÅĤ": 8735,
      "ĠzakÅĤada": 8736,
      "strzyma": 8737,
      "resy": 8738,
      "ĠprzystÄĻp": 8739,
      "Ġkabla": 8740,
      "Ġtematem": 8741,
      "Ġakademi": 8742,
      "ĠsÄĻ": 8743,
      "Ġprzyjm": 8744,
      "Ġbanku": 8745,
      "Å¼ania": 8746,
      "ĠdysponujÄħ": 8747,
      "Ġbliskich": 8748,
      "shi": 8749,
      "~~": 8750,
      "ĠGdaÅĦ": 8751,
      "Ġciemno": 8752,
      "lowa": 8753,
      "ĠodlegÅĤoÅĽÄĩ": 8754,
      "skÃ³w": 8755,
      "PA": 8756,
      "kur": 8757,
      "Ġkolejnym": 8758,
      "Ġakcja": 8759,
      "Ġtransportu": 8760,
      "dium": 8761,
      "ĠpÃ³Åºno": 8762,
      "puÅĽciÄĩ": 8763,
      "Ġallegro": 8764,
      "ĠTar": 8765,
      "nder": 8766,
      "ĠZwÅĤaszcza": 8767,
      "Ġspry": 8768,
      "Ġsatysfak": 8769,
      "ĠposiadaÄĩ": 8770,
      "ÅĽwiÄĻ": 8771,
      "Ġetykie": 8772,
      "ĠÅĤÃ³Å¼ku": 8773,
      "Ġporze": 8774,
      "ĠkosztujÄħ": 8775,
      "Ġpakie": 8776,
      "los": 8777,
      "zwo": 8778,
      "ĠSkÅĤa": 8779,
      "odia": 8780,
      "Ca": 8781,
      "pkÄĻ": 8782,
      "cieÄĩ": 8783,
      "Ġ*": 8784,
      "ĠzajmujÄħ": 8785,
      "nowe": 8786,
      "ĠwysokÄħ": 8787,
      "Ġbalsam": 8788,
      "Ġwysoka": 8789,
      "steÅĽmy": 8790,
      "ĠoznaczaÄĩ": 8791,
      "ĠsiÅĤowni": 8792,
      "Ġzade": 8793,
      "ĠMoim": 8794,
      "ĠdoÅĽwiadczenie": 8795,
      "zycji": 8796,
      "ĠchrzeÅĽcija": 8797,
      "Ġnazwie": 8798,
      "Ġboles": 8799,
      "Ġkandyda": 8800,
      "ĠporzÄħ": 8801,
      "CJ": 8802,
      "ĠMan": 8803,
      "ĠartykuÅĤy": 8804,
      "Ġorganizacji": 8805,
      "Ġsercu": 8806,
      "ĠprzeraÅ¼a": 8807,
      "ĠÅĤazience": 8808,
      "ĠtworzÄħ": 8809,
      "owca": 8810,
      "ĠkoniecznoÅĽci": 8811,
      "ĠprzestrzeÅĦ": 8812,
      "Ġucho": 8813,
      "ĠdzieÅĤa": 8814,
      "gr": 8815,
      "ĠdopÃ³ki": 8816,
      "Ġzakam": 8817,
      "Ġszpitala": 8818,
      "ĠÅĽwiÄħty": 8819,
      "ĠpamiÄħ": 8820,
      "Ġmult": 8821,
      "ĠpomyÅĽla": 8822,
      "Ġtrage": 8823,
      "dagogi": 8824,
      "ĠJeden": 8825,
      "Ġobchodzi": 8826,
      "Ġfal": 8827,
      "\")": 8828,
      "grafi": 8829,
      "ĠMin": 8830,
      "ĠzasÅĤo": 8831,
      "Ġwygodny": 8832,
      "owywaÄĩ": 8833,
      "ĠApple": 8834,
      "zosta": 8835,
      "ĠpÅĤytek": 8836,
      "Ġsprowa": 8837,
      "Ġzbo": 8838,
      "owala": 8839,
      "ĠreÅ¼y": 8840,
      "Ġdzieciom": 8841,
      "ĠNaleÅ¼y": 8842,
      "rÃ³Å¼nic": 8843,
      "Ġkoncent": 8844,
      "ĠzimÄħ": 8845,
      "Ġegzem": 8846,
      "ĠoceniajÄħ": 8847,
      "ĠkilkadziesiÄħt": 8848,
      "ĠzwrÃ³Äĩ": 8849,
      "ĠpostÄĻpu": 8850,
      "ĠkoleÅ¼anki": 8851,
      "ako": 8852,
      "Ġtowarzyszy": 8853,
      "Ġela": 8854,
      "zaleÅ¼nie": 8855,
      "dniÄĩ": 8856,
      "Ġmowi": 8857,
      "Ġodczy": 8858,
      "ĠZnajdziesz": 8859,
      "rÃ³deÅĤ": 8860,
      "ĠprÃ³buje": 8861,
      "ĠzÅĤota": 8862,
      "Ġskutki": 8863,
      "Ġodpoczy": 8864,
      "Ġdermato": 8865,
      "Ġulega": 8866,
      "ytanie": 8867,
      "Ġnerw": 8868,
      "Ġdojrza": 8869,
      "Ġbrzucha": 8870,
      "nkowe": 8871,
      "nisz": 8872,
      "ĠciÄĻÅ¼kie": 8873,
      "Ġpartii": 8874,
      "ĠOpis": 8875,
      "Ġkalenda": 8876,
      "ĠbawiÄĩ": 8877,
      "ĠrozdzielczoÅĽci": 8878,
      "Ġnebuliza": 8879,
      "Ġke": 8880,
      "Ġzapropon": 8881,
      "Ġtanich": 8882,
      "ĠFak": 8883,
      "Ġobfi": 8884,
      "lla": 8885,
      "szeÄĩ": 8886,
      "gowych": 8887,
      "Ġtelewizora": 8888,
      "dzono": 8889,
      "Ġcicho": 8890,
      "Ġpolecenia": 8891,
      "Ġniee": 8892,
      "Ġmoj": 8893,
      "ĠwyraÅ¼a": 8894,
      "Ġwybor": 8895,
      "Ġwywia": 8896,
      "Ġmail": 8897,
      "Ġ5000": 8898,
      "ĠNajpierw": 8899,
      "wiu": 8900,
      "Ġkontaktu": 8901,
      "Ġpojazd": 8902,
      "Ġskrom": 8903,
      "ĠpracÄħ": 8904,
      "Ġkorzystanie": 8905,
      "tnoÅĽÄĩ": 8906,
      "Ġkonkretnego": 8907,
      "ĠotrzymaÅĤ": 8908,
      "Ġsamochodem": 8909,
      "port": 8910,
      "Ġzapra": 8911,
      "ĠPorady": 8912,
      "Ten": 8913,
      "ĠudostÄĻp": 8914,
      "ĠbyliÅĽmy": 8915,
      "kujÄħ": 8916,
      "Ġargu": 8917,
      "ĠpozostaÅĤych": 8918,
      "ĠKas": 8919,
      "Ġchwy": 8920,
      "iny": 8921,
      "Ġodpowiednim": 8922,
      "ĠopiniÄĻ": 8923,
      "ĠcÃ³rki": 8924,
      "Ġprodukcie": 8925,
      "teÅ¼": 8926,
      "ĠMoÅ¼emy": 8927,
      "Ġlink": 8928,
      "Ġinstalacji": 8929,
      "Ġkremu": 8930,
      "Ġnapa": 8931,
      "latory": 8932,
      "fla": 8933,
      "dzeni": 8934,
      "ÅĤaby": 8935,
      "Ġpoprawnym": 8936,
      "Ġrynek": 8937,
      "Ġsprzedaw": 8938,
      "ĠKry": 8939,
      "ĠWczoraj": 8940,
      "rono": 8941,
      "Ġreklamy": 8942,
      "Ġzamek": 8943,
      "ĠpoÅ¼e": 8944,
      "ĠzauwaÅ¼y": 8945,
      "Ġposa": 8946,
      "ĠzbÄĻ": 8947,
      "ĠposzczegÃ³lnych": 8948,
      "Ġporusza": 8949,
      "Ġzajm": 8950,
      "ĠÅĽwiadczy": 8951,
      "Ġanali": 8952,
      "ĠsaÅĤa": 8953,
      "Ġporadnika": 8954,
      "ĠwyszedÅĤ": 8955,
      "Ġdrama": 8956,
      "ĠwiÄĻkszego": 8957,
      "Ġpiwo": 8958,
      "Ġpasa": 8959,
      "ĠNad": 8960,
      "Ġczytelnika": 8961,
      "dzeÅĦ": 8962,
      "ÅĤÃ³Å¼": 8963,
      "ĠNiektÃ³rzy": 8964,
      "Ġposz": 8965,
      "inte": 8966,
      "IL": 8967,
      "rÃ³g": 8968,
      "zaÄĩ": 8969,
      "ĠwpÅĤywajÄħ": 8970,
      "Ġwolnego": 8971,
      "ĠwiadomoÅĽÄĩ": 8972,
      "ĠGÃ³r": 8973,
      "Ġnawierz": 8974,
      "ĠmiesiÄħcach": 8975,
      "ĠkwiatÃ³w": 8976,
      "ogle": 8977,
      "iÄĻcej": 8978,
      "Ġtypowo": 8979,
      "Ġlabo": 8980,
      "Å¼ynie": 8981,
      "Niestety": 8982,
      "ĠmiÄĻdzynarod": 8983,
      "ĠuÅ¼ytkowaÄĩ": 8984,
      "ĠstwierdziÄĩ": 8985,
      "kujemy": 8986,
      "Ba": 8987,
      "zowaÄĩ": 8988,
      "powtarz": 8989,
      "ĠpoÅĤowy": 8990,
      "Ġtkani": 8991,
      "Ġwypie": 8992,
      "Ġdystan": 8993,
      "ĠIV": 8994,
      "ĠgÅĤowa": 8995,
      "Ġrej": 8996,
      "ĠgrÄĻ": 8997,
      "ĠstÃ³p": 8998,
      "ĠfanÃ³w": 8999,
      "Ġzamon": 9000,
      "Ġwizyty": 9001,
      "Ġwarsza": 9002,
      "Ġwenty": 9003,
      "ĠWÅĤaÅĽci": 9004,
      "ĠPopular": 9005,
      "Ġwizu": 9006,
      "ĠnarzÄĻdzie": 9007,
      "ĠpÃ³jÅĽÄĩ": 9008,
      "czÄħce": 9009,
      "ĠNajbardziej": 9010,
      "ĠÅºrÃ³deÅĤ": 9011,
      "Ġwielkich": 9012,
      "bÄĻdzie": 9013,
      "mana": 9014,
      "ĠprzyrzÄħ": 9015,
      "ĠpodÅĤÄħczyÄĩ": 9016,
      "owalam": 9017,
      "ĠwyobraÅ¼": 9018,
      "niczne": 9019,
      "Ġwino": 9020,
      "Ġreakcji": 9021,
      "low": 9022,
      "lowy": 9023,
      "ĠGalaxy": 9024,
      "ĠzaczÄĻÅĤo": 9025,
      "ĠTaka": 9026,
      "Ġpoto": 9027,
      "anÃ³w": 9028,
      "wic": 9029,
      "Dobrze": 9030,
      "Ġnikomu": 9031,
      "Ġsubstancji": 9032,
      "Ġzepsu": 9033,
      "Ġwieczor": 9034,
      "Ġprzyjemny": 9035,
      "stanowie": 9036,
      "Ġgril": 9037,
      "Ġbur": 9038,
      "ĠWio": 9039,
      "ĠtrudnoÅĽci": 9040,
      "ven": 9041,
      "The": 9042,
      "Ġkryzy": 9043,
      "Ġproducent": 9044,
      "Ġzodia": 9045,
      "ĠFilm": 9046,
      "jaÄĩ": 9047,
      "gnia": 9048,
      "Ġpiosenki": 9049,
      "ĠdaÅĤo": 9050,
      "Ġsubstancje": 9051,
      "Ġkory": 9052,
      "Ġminimum": 9053,
      "Ġbudzi": 9054,
      "ĠFace": 9055,
      "Ġwarzywa": 9056,
      "ĠkoleÅ¼anka": 9057,
      "Ġgenia": 9058,
      "ĠSamo": 9059,
      "Ġsmogiem": 9060,
      "Ġmarzenia": 9061,
      "Ġtelefony": 9062,
      "ĠwspÃ³lnie": 9063,
      "Ġilustra": 9064,
      "Ġszum": 9065,
      "ley": 9066,
      "Ġuchwy": 9067,
      "Ġowszem": 9068,
      "Ġszczu": 9069,
      "ĠZA": 9070,
      "Ġwoka": 9071,
      "Ġwarte": 9072,
      "wisz": 9073,
      "Ġdole": 9074,
      "Ġprowadzenie": 9075,
      "niejszego": 9076,
      "Ġwymo": 9077,
      "Ġkapu": 9078,
      "ĠCiÄħ": 9079,
      "Ġzwi": 9080,
      "Ġtom": 9081,
      "Wszystko": 9082,
      "ĠBel": 9083,
      "ame": 9084,
      "ĠmÄĻskich": 9085,
      "nicze": 9086,
      "Ġegzempla": 9087,
      "Ġpou": 9088,
      "ĠÅĤyÅ¼": 9089,
      "Ġnajnowszy": 9090,
      "ĠzadaÅĦ": 9091,
      "ĠSch": 9092,
      "leniem": 9093,
      "ĠPÃ³ÅĤ": 9094,
      "Ġambi": 9095,
      "Ġzada": 9096,
[...]
