{
  "version": "1.0",
  "truncation": null,
  "padding": null,
  "added_tokens": [
    {
      "id": 0,
      "content": "<PAD>",
      "single_word": false,
      "lstrip": false,
      "rstrip": false,
      "normalized": false,
      "special": true
    },
    {
      "id": 1,
      "content": "<UNK>",
      "single_word": false,
      "lstrip": false,
      "rstrip": false,
      "normalized": false,
      "special": true
    },
    {
      "id": 2,
      "content": "<BOS>",
      "single_word": false,
      "lstrip": false,
      "rstrip": false,
      "normalized": false,
      "special": true
    },
    {
      "id": 3,
      "content": "<EOS>",
      "single_word": false,
      "lstrip": false,
      "rstrip": false,
      "normalized": false,
      "special": true
    }
  ],
  "normalizer": {
    "type": "Sequence",
    "normalizers": [
      {
        "type": "NFKC"
      },
      {
        "type": "Replace",
        "pattern": {
          "Regex": " {2,}"
        },
        "content": " "
      }
    ]
  },
  "pre_tokenizer": {
    "type": "Whitespace"
  },
  "post_processor": null,
  "decoder": null,
  "model": {
    "type": "BPE",
    "dropout": null,
    "unk_token": "<UNK>",
    "continuing_subword_prefix": null,
    "end_of_word_suffix": null,
    "fuse_unk": false,
    "byte_fallback": false,
    "ignore_merges": false,
    "vocab": {
      "<PAD>": 0,
      "<UNK>": 1,
      "<BOS>": 2,
      "<EOS>": 3,
      "\t": 4,
      "\n": 5,
      "\u000b": 6,
      "\f": 7,
      "\r": 8,
      " ": 9,
      "!": 10,
      "\"": 11,
      "#": 12,
      "$": 13,
      "%": 14,
      "&": 15,
      "'": 16,
      "(": 17,
      ")": 18,
      "*": 19,
      "+": 20,
      ",": 21,
      "-": 22,
      ".": 23,
      "/": 24,
      "0": 25,
      "1": 26,
      "2": 27,
      "3": 28,
      "4": 29,
      "5": 30,
      "6": 31,
      "7": 32,
      "8": 33,
      "9": 34,
      ":": 35,
      ";": 36,
      "<": 37,
      "=": 38,
      ">": 39,
      "?": 40,
      "@": 41,
      "A": 42,
      "B": 43,
      "C": 44,
      "D": 45,
      "E": 46,
      "F": 47,
      "G": 48,
      "H": 49,
      "I": 50,
      "J": 51,
      "K": 52,
      "L": 53,
      "M": 54,
      "N": 55,
      "O": 56,
      "P": 57,
      "Q": 58,
      "R": 59,
      "S": 60,
      "T": 61,
      "U": 62,
      "V": 63,
      "W": 64,
      "X": 65,
      "Y": 66,
      "Z": 67,
      "[": 68,
      "\\": 69,
      "]": 70,
      "^": 71,
      "_": 72,
      "`": 73,
      "a": 74,
      "b": 75,
      "c": 76,
      "d": 77,
      "e": 78,
      "f": 79,
      "g": 80,
      "h": 81,
      "i": 82,
      "j": 83,
      "k": 84,
      "l": 85,
      "m": 86,
      "n": 87,
      "o": 88,
      "p": 89,
      "q": 90,
      "r": 91,
      "s": 92,
      "t": 93,
      "u": 94,
      "v": 95,
      "w": 96,
      "x": 97,
      "y": 98,
      "z": 99,
      "{": 100,
      "|": 101,
      "}": 102,
      "~": 103,
      "": 104,
      "": 105,
      "¡": 106,
      "£": 107,
      "¤": 108,
      "¦": 109,
      "§": 110,
      "©": 111,
      "«": 112,
      "¬": 113,
      "­": 114,
      "®": 115,
      "°": 116,
      "±": 117,
      "·": 118,
      "»": 119,
      "¿": 120,
      "À": 121,
      "Á": 122,
      "Â": 123,
      "Ä": 124,
      "Å": 125,
      "Æ": 126,
      "Ç": 127,
      "È": 128,
      "É": 129,
      "Ê": 130,
      "Ë": 131,
      "Í": 132,
      "Ï": 133,
      "Ñ": 134,
      "Ó": 135,
      "Ô": 136,
      "Ö": 137,
      "×": 138,
      "Ú": 139,
      "Ü": 140,
      "ß": 141,
      "à": 142,
      "á": 143,
      "â": 144,
      "ã": 145,
      "ä": 146,
      "å": 147,
      "æ": 148,
      "ç": 149,
      "è": 150,
      "é": 151,
      "ê": 152,
      "ë": 153,
      "ì": 154,
      "í": 155,
      "î": 156,
      "ï": 157,
      "ð": 158,
      "ñ": 159,
      "ò": 160,
      "ó": 161,
      "ô": 162,
      "õ": 163,
      "ö": 164,
      "ù": 165,
      "ú": 166,
      "û": 167,
      "ü": 168,
      "ý": 169,
      "ÿ": 170,
      "Ā": 171,
      "ā": 172,
      "ă": 173,
      "Ą": 174,
      "ą": 175,
      "Ć": 176,
      "ć": 177,
      "ĉ": 178,
      "ċ": 179,
      "Č": 180,
      "č": 181,
      "đ": 182,
      "Ē": 183,
      "ē": 184,
      "ĕ": 185,
      "ė": 186,
      "Ę": 187,
      "ę": 188,
      "ě": 189,
      "Ĝ": 190,
      "ğ": 191,
      "ĥ": 192,
      "ħ": 193,
      "Ī": 194,
      "ī": 195,
      "Ĭ": 196,
      "ĭ": 197,
      "Į": 198,
      "į": 199,
      "ı": 200,
      "ķ": 201,
      "ĸ": 202,
      "ļ": 203,
      "ľ": 204,
      "Ł": 205,
      "ł": 206,
      "Ń": 207,
      "ń": 208,
      "ņ": 209,
      "ň": 210,
      "ō": 211,
      "Ő": 212,
      "ő": 213,
      "œ": 214,
      "ŕ": 215,
      "Ř": 216,
      "ř": 217,
      "Ś": 218,
      "ś": 219,
      "Ŝ": 220,
      "ş": 221,
      "Š": 222,
      "š": 223,
      "ţ": 224,
      "ť": 225,
      "ŧ": 226,
      "ū": 227,
      "ŭ": 228,
      "ů": 229,
      "ű": 230,
      "ų": 231,
      "Ź": 232,
      "ź": 233,
      "Ż": 234,
      "ż": 235,
      "Ž": 236,
      "ž": 237,
      "ư": 238,
      "ǁ": 239,
      "ǃ": 240,
      "ǝ": 241,
      "ǵ": 242,
      "ș": 243,
      "ȩ": 244,
      "ȷ": 245,
      "ɐ": 246,
      "ɔ": 247,
      "ə": 248,
      "ɛ": 249,
      "ɜ": 250,
      "ɩ": 251,
      "ɯ": 252,
      "ɹ": 253,
      "ɾ": 254,
      "ʹ": 255,
      "ʻ": 256,
      "ː": 257,
      "˗": 258,
      "̀": 259,
      "́": 260,
      "̃": 261,
      "̄": 262,
      "̅": 263,
      "̆": 264,
      "̇": 265,
      "̓": 266,
      "̗": 267,
      "̞": 268,
      "̧": 269,
      "͡": 270,
      "Ά": 271,
      "Έ": 272,
      "Ή": 273,
      "Ί": 274,
      "Ό": 275,
      "ΐ": 276,
      "Α": 277,
      "Β": 278,
      "Γ": 279,
      "Δ": 280,
      "Ε": 281,
      "Η": 282,
      "Θ": 283,
      "Ι": 284,
      "Κ": 285,
      "Λ": 286,
      "Μ": 287,
      "Ν": 288,
      "Ξ": 289,
      "Ο": 290,
      "Π": 291,
      "Ρ": 292,
      "Σ": 293,
      "Τ": 294,
      "Υ": 295,
      "Φ": 296,
      "Χ": 297,
      "Ψ": 298,
      "Ω": 299,
      "ά": 300,
      "έ": 301,
      "ή": 302,
      "ί": 303,
      "α": 304,
      "β": 305,
      "γ": 306,
      "δ": 307,
      "ε": 308,
      "ζ": 309,
      "η": 310,
      "θ": 311,
      "ι": 312,
      "κ": 313,
      "λ": 314,
      "μ": 315,
      "ν": 316,
      "ξ": 317,
      "ο": 318,
      "π": 319,
      "ρ": 320,
      "ς": 321,
      "σ": 322,
      "τ": 323,
      "υ": 324,
      "φ": 325,
      "χ": 326,
      "ψ": 327,
      "ω": 328,
      "ϊ": 329,
      "ό": 330,
      "ύ": 331,
      "ώ": 332,
      "Ϝ": 333,
      "Ё": 334,
      "І": 335,
      "А": 336,
      "Б": 337,
      "В": 338,
      "Г": 339,
      "Д": 340,
      "Е": 341,
      "Ж": 342,
      "З": 343,
      "И": 344,
      "Й": 345,
      "К": 346,
      "Л": 347,
      "М": 348,
      "Н": 349,
      "О": 350,
      "П": 351,
      "Р": 352,
      "С": 353,
      "Т": 354,
      "У": 355,
      "Ф": 356,
      "Х": 357,
      "Ц": 358,
      "Ч": 359,
      "Ш": 360,
      "Щ": 361,
      "Ъ": 362,
      "Ь": 363,
      "Э": 364,
      "Ю": 365,
      "Я": 366,
      "а": 367,
      "б": 368,
      "в": 369,
      "г": 370,
      "д": 371,
      "е": 372,
      "ж": 373,
      "з": 374,
      "и": 375,
      "й": 376,
      "к": 377,
      "л": 378,
      "м": 379,
      "н": 380,
      "о": 381,
      "п": 382,
      "р": 383,
      "с": 384,
      "т": 385,
      "у": 386,
      "ф": 387,
      "х": 388,
      "ц": 389,
      "ч": 390,
      "ш": 391,
      "щ": 392,
      "ъ": 393,
      "ы": 394,
      "ь": 395,
      "э": 396,
      "ю": 397,
      "я": 398,
      "ѐ": 399,
      "ё": 400,
      "ђ": 401,
      "є": 402,
      "і": 403,
      "ї": 404,
      "Ѣ": 405,
      "ѣ": 406,
      "ѥ": 407,
      "ѫ": 408,
      "ҍ": 409,
      "ҝ": 410,
      "ӡ": 411,
      "ӧ": 412,
      "ּ": 413,
      "א": 414,
      "ב": 415,
      "ג": 416,
      "ד": 417,
      "ה": 418,
      "ו": 419,
      "ז": 420,
      "ח": 421,
      "ט": 422,
      "י": 423,
      "ך": 424,
      "כ": 425,
      "ל": 426,
      "ם": 427,
      "מ": 428,
      "ן": 429,
      "נ": 430,
      "ס": 431,
      "ע": 432,
      "פ": 433,
      "צ": 434,
      "ק": 435,
      "ר": 436,
      "ש": 437,
      "ת": 438,
      "׳": 439,
      "״": 440,
      "؛": 441,
      "ں": 442,
      "।": 443,
      "ૹ": 444,
      "ஐ": 445,
      "௳": 446,
      "௸": 447,
      "ᑐ": 448,
      "ḍ": 449,
      "ḥ": 450,
      "ḷ": 451,
      "ḹ": 452,
      "ṁ": 453,
      "ṅ": 454,
      "ṇ": 455,
      "ṕ": 456,
      "Ṛ": 457,
      "ṛ": 458,
      "ṝ": 459,
      "Ṡ": 460,
      "ṣ": 461,
      "Ṭ": 462,
      "ṭ": 463,
      "ẃ": 464,
      "ẏ": 465,
      "ẓ": 466,
      "ạ": 467,
      "Ẹ": 468,
      "ọ": 469,
      "ỏ": 470,
      "ἀ": 471,
      "ἁ": 472,
      "ἂ": 473,
      "ἄ": 474,
      "ἅ": 475,
      "Ἀ": 476,
      "ἐ": 477,
      "ἑ": 478,
      "ἒ": 479,
      "ἔ": 480,
      "ἕ": 481,
      "Ἐ": 482,
      "Ἓ": 483,
      "Ἔ": 484,
      "ἠ": 485,
      "ἡ": 486,
      "ἢ": 487,
      "ἤ": 488,
      "ἥ": 489,
      "ἦ": 490,
      "ἧ": 491,
      "Ἤ": 492,
      "ἰ": 493,
      "ἱ": 494,
      "ἲ": 495,
      "ἴ": 496,
      "ἵ": 497,
      "ἶ": 498,
      "ἷ": 499,
      "Ἰ": 500,
      "ὀ": 501,
      "ὁ": 502,
      "ὃ": 503,
      "ὄ": 504,
      "ὅ": 505,
      "Ὁ": 506,
      "ὐ": 507,
      "ὑ": 508,
      "ὔ": 509,
      "ὕ": 510,
      "ὖ": 511,
      "ὗ": 512,
      "ὠ": 513,
      "ὡ": 514,
      "ὥ": 515,
      "ὦ": 516,
      "ὧ": 517,
      "ὰ": 518,
      "ὲ": 519,
      "ὴ": 520,
      "ὶ": 521,
      "ὸ": 522,
      "ὺ": 523,
      "ὼ": 524,
      "ᾆ": 525,
      "ᾓ": 526,
      "ᾖ": 527,
      "ᾠ": 528,
      "ᾦ": 529,
      "ᾱ": 530,
      "ᾳ": 531,
      "ᾶ": 532,
      "ῃ": 533,
      "ῄ": 534,
      "ῆ": 535,
      "ῇ": 536,
      "ῐ": 537,
      "ῑ": 538,
      "ῖ": 539,
      "ῡ": 540,
      "ῦ": 541,
      "ῳ": 542,
      "ῶ": 543,
      "ῷ": 544,
      "​": 545,
      "‐": 546,
      "‒": 547,
      "–": 548,
      "—": 549,
      "―": 550,
      "‘": 551,
      "’": 552,
      "‚": 553,
      "“": 554,
      "”": 555,
      "„": 556,
      "‟": 557,
      "†": 558,
      "•": 559,
      "‰": 560,
      "′": 561,
      "‹": 562,
      "›": 563,
      "‿": 564,
      "⁂": 565,
      "⁄": 566,
      "⁞": 567,
      "⁪": 568,
      "€": 569,
      "℟": 570,
      "℣": 571,
      "℧": 572,
      "ↀ": 573,
      "↑": 574,
      "→": 575,
      "∂": 576,
      "−": 577,
      "∗": 578,
      "√": 579,
      "∛": 580,
      "∞": 581,
      "∣": 582,
      "∪": 583,
      "∴": 584,
      "∽": 585,
      "≈": 586,
      "≡": 587,
      "⊙": 588,
      "⋅": 589,
      "⋔": 590,
      "⋮": 591,
      "⌂": 592,
      "⌒": 593,
      "⌴": 594,
      "⎪": 595,
      "⎫": 596,
      "⎬": 597,
      "⎭": 598,
      "⎰": 599,
      "⎱": 600,
      "⏑": 601,
      "⏓": 602,
      "⏘": 603,
      "␣": 604,
      "⑂": 605,
      "─": 606,
      "│": 607,
      "═": 608,
      "╱": 609,
      "╲": 610,
      "╷": 611,
      "■": 612,
      "□": 613,
      "▢": 614,
      "▫": 615,
      "▭": 616,
      "▰": 617,
      "▲": 618,
      "△": 619,
      "►": 620,
      "▼": 621,
      "▽": 622,
      "◆": 623,
      "◈": 624,
      "◡": 625,
      "◤": 626,
      "◻": 627,
      "★": 628,
      "☆": 629,
      "☉": 630,
      "☐": 631,
      "☙": 632,
      "☼": 633,
      "☿": 634,
      "♀": 635,
      "♄": 636,
      "♦": 637,
      "♭": 638,
      "♮": 639,
      "♯": 640,
      "⚜": 641,
      "⚫": 642,
      "✕": 643,
      "✟": 644,
      "✠": 645,
      "✡": 646,
      "✰": 647,
      "✳": 648,
      "✴": 649,
      "✶": 650,
      "✸": 651,
      "✺": 652,
      "✻": 653,
      "✽": 654,
      "❀": 655,
      "❃": 656,
      "❉": 657,
      "❋": 658,
      "❧": 659,
      "❭": 660,
      "⟙": 661,
      "⨀": 662,
      "⨉": 663,
      "⬛": 664,
      "ⵊ": 665,
      "ⵎ": 666,
      "⸗": 667,
      "〰": 668,
      "卍": 669,
      "ꕯ": 670,
      "︎": 671,
      "﻿": 672,
      "𝅘": 673,
      "𝅥": 674,
      "𝅮": 675,
      "𝆒": 676,
      "𝆓": 677,
      "𝈱": 678,
      "🞶": 679,
      "🞼": 680,
      "ie": 681,
      "rz": 682,
      "nie": 683,
      "na": 684,
      "cz": 685,
      "ch": 686,
      "sz": 687,
      "po": 688,
      "st": 689,
      "ał": 690,
      "ni": 691,
      "ię": 692,
      "dz": 693,
      "ra": 694,
      "ro": 695,
      "go": 696,
      "rze": 697,
      "je": 698,
      "do": 699,
      "się": 700,
      "wi": 701,
      "ci": 702,
      "ko": 703,
      "li": 704,
      "za": 705,
      "wa": 706,
      "em": 707,
      "le": 708,
      "ło": 709,
      "ka": 710,
      "mi": 711,
      "by": 712,
      "wie": 713,
      "ła": 714,
      "wy": 715,
      "rzy": 716,
      "ny": 717,
      "ta": 718,
      "ne": 719,
      "ja": 720,
      "to": 721,
      "no": 722,
      "że": 723,
      "te": 724,
      "wo": 725,
      "ki": 726,
      "pa": 727,
      "da": 728,
      "ty": 729,
      "dzi": 730,
      "ry": 731,
      "dzie": 732,
      "cie": 733,
      "ją": 734,
      "prze": 735,
      "mo": 736,
      "la": 737,
      "dy": 738,
      "kie": 739,
      "czy": 740,
      "ma": 741,
      "ów": 742,
      "od": 743,
      "..": 744,
      "szy": 745,
      "sta": 746,
      "ob": 747,
      "re": 748,
      "ce": 749,
      "ści": 750,
      "mie": 751,
      "przy": 752,
      "cze": 753,
      "kt": 754,
      "we": 755,
      "ną": 756,
      "nia": 757,
      "si": 758,
      "ku": 759,
      "ała": 760,
      "my": 761,
      "cy": 762,
      "mu": 763,
      "któ": 764,
      "sze": 765,
      "ły": 766,
      "ru": 767,
      "co": 768,
      "ży": 769,
      "ar": 770,
      "bo": 771,
      "sa": 772,
      "ró": 773,
      "pie": 774,
      "jak": 775,
      "roz": 776,
      "lu": 777,
      "bi": 778,
      "pi": 779,
      "łu": 780,
      "bie": 781,
      "ść": 782,
      "wał": 783,
      "wia": 784,
      "cza": 785,
      "de": 786,
      "pra": 787,
      "tu": 788,
      "raz": 789,
      "ca": 790,
      "wszy": 791,
      "cho": 792,
      "ga": 793,
      "...": 794,
      "ba": 795,
      "zna": 796,
      "ju": 797,
      "spo": 798,
      "jest": 799,
      "pe": 800,
      "lo": 801,
      "du": 802,
      "nych": 803,
      "tak": 804,
      "rę": 805,
      "ze": 806,
      "pod": 807,
      "tem": 808,
      "jąc": 809,
      "sto": 810,
      "mnie": 811,
      "wię": 812,
      "Nie": 813,
      "nę": 814,
      "gdy": 815,
      "sza": 816,
      "zy": 817,
      "sie": 818,
      "mó": 819,
      "cha": 820,
      "nego": 821,
      "pro": 822,
      "sk": 823,
      "Po": 824,
      "ały": 825,
      "gi": 826,
      "be": 827,
      "ale": 828,
      "sob": 829,
      "ało": 830,
      "sy": 831,
      "jego": 832,
      "ski": 833,
      "su": 834,
      "nym": 835,
      "nej": 836,
      "czę": 837,
      "jed": 838,
      "me": 839,
      "pu": 840,
      "szcze": 841,
      "jej": 842,
      "tego": 843,
      "który": 844,
      "se": 845,
      "gło": 846,
      "ję": 847,
      "niej": 848,
      "już": 849,
      "lko": 850,
      "kiem": 851,
      "ąc": 852,
      "wszyst": 853,
      "powie": 854,
      "in": 855,
      "Na": 856,
      "łem": 857,
      "dla": 858,
      "ża": 859,
      "naj": 860,
      "nem": 861,
      "éj": 862,
      "Ja": 863,
      "czo": 864,
      "które": 865,
      "ska": 866,
      "dob": 867,
      "ąd": 868,
      "zo": 869,
      "pan": 870,
      "tylko": 871,
      "był": 872,
      "bę": 873,
      "ich": 874,
      "myś": 875,
      "gł": 876,
      "mię": 877,
      "bu": 878,
      "skie": 879,
      "on": 880,
      "kę": 881,
      "wać": 882,
      "było": 883,
      "wz": 884,
      "sło": 885,
      "cia": 886,
      "Pa": 887,
      "przed": 888,
      "wą": 889,
      "so": 890,
      "ności": 891,
      "rza": 892,
      "ście": 893,
      "ałem": 894,
      "niu": 895,
      "przez": 896,
      "bez": 897,
      "Je": 898,
      "rą": 899,
      "czu": 900,
      "trze": 901,
      "cu": 902,
      "zie": 903,
      "sobie": 904,
      "słu": 905,
      "ką": 906,
      "nął": 907,
      "dzo": 908,
      "trzy": 909,
      "dro": 910,
      "py": 911,
      "swo": 912,
      "wsze": 913,
      "pó": 914,
      "żo": 915,
      "tę": 916,
      "mówi": 917,
      "zu": 918,
      "mia": 919,
      "nio": 920,
      "bra": 921,
      "nu": 922,
      "ten": 923,
      "sko": 924,
      "dł": 925,
      "og": 926,
      "śmie": 927,
      "jeszcze": 928,
      "bar": 929,
      "ków": 930,
      "czą": 931,
      "niem": 932,
      "nad": 933,
      "lę": 934,
      "wła": 935,
      "cią": 936,
      "Za": 937,
      "sty": 938,
      "tych": 939,
      "są": 940,
      "fi": 941,
      "kł": 942,
      "tej": 943,
      "świa": 944,
      "two": 945,
      "wó": 946,
      "cię": 947,
      "praw": 948,
      "peł": 949,
      "nic": 950,
      "czas": 951,
      "ok": 952,
      "rzu": 953,
      "sła": 954,
      "dze": 955,
      "Ma": 956,
      "kła": 957,
      "chwi": 958,
      "Ta": 959,
      "śli": 960,
      "pier": 961,
      "im": 962,
      "wiel": 963,
      "rów": 964,
      "aby": 965,
      "może": 966,
      "twa": 967,
      "nią": 968,
      "dział": 969,
      "or": 970,
      "nim": 971,
      "wej": 972,
      "kró": 973,
      "sia": 974,
      "ste": 975,
      "miał": 976,
      "stro": 977,
      "tam": 978,
      "kich": 979,
      "pię": 980,
      "wego": 981,
      "Bo": 982,
      "Ale": 983,
      "gu": 984,
      "łe": 985,
      "tra": 986,
      "wała": 987,
      "tym": 988,
      "śmy": 989,
      "stra": 990,
      "cał": 991,
      "dę": 992,
      "będzie": 993,
      "al": 994,
      "ność": 995,
      "gie": 996,
      "Ch": 997,
      "ona": 998,
      "gó": 999,
      "mog": 1000,
      "To": 1001,
      "pew": 1002,
      "wych": 1003,
      "bli": 1004,
      "nię": 1005,
      "była": 1006,
      "mę": 1007,
      "łowie": 1008,
      "ser": 1009,
      "jedna": 1010,
      "szczę": 1011,
      "an": 1012,
      "sią": 1013,
      "jący": 1014,
      "wu": 1015,
      "dłu": 1016,
      "wet": 1017,
      "śnie": 1018,
      "trz": 1019,
      "wę": 1020,
      "wró": 1021,
      "chodzi": 1022,
      "er": 1023,
      "pani": 1024,
      "chy": 1025,
      "stę": 1026,
      "wem": 1027,
      "rem": 1028,
      "dzy": 1029,
      "być": 1030,
      "zi": 1031,
      "kto": 1032,
      "tą": 1033,
      "ji": 1034,
      "dą": 1035,
      "gdzie": 1036,
      "sły": 1037,
      "wią": 1038,
      "dru": 1039,
      "bardzo": 1040,
      "ani": 1041,
      "zda": 1042,
      "więc": 1043,
      "rzekł": 1044,
      "człowie": 1045,
      "lą": 1046,
      "nawet": 1047,
      "en": 1048,
      "dza": 1049,
      "tro": 1050,
      "sam": 1051,
      "stwo": 1052,
      "kiego": 1053,
      "gro": 1054,
      "kim": 1055,
      "oj": 1056,
      "niego": 1057,
      "świe": 1058,
      "cznie": 1059,
      "szą": 1060,
      "pła": 1061,
      "resz": 1062,
      "mło": 1063,
      "strze": 1064,
      "jące": 1065,
      "każ": 1066,
      "zło": 1067,
      "dał": 1068,
      "sku": 1069,
      "dni": 1070,
      "chu": 1071,
      "ran": 1072,
      "mar": 1073,
      "wszystko": 1074,
      "kiedy": 1075,
      "dać": 1076,
      "jo": 1077,
      "tał": 1078,
      "myśl": 1079,
      "robi": 1080,
      "óż": 1081,
      "cił": 1082,
      "szę": 1083,
      "jem": 1084,
      "Do": 1085,
      "jednak": 1086,
      "Czy": 1087,
      "Prze": 1088,
      "tru": 1089,
      "oczy": 1090,
      "nas": 1091,
      "kra": 1092,
      "szu": 1093,
      "towa": 1094,
      "Co": 1095,
      "gra": 1096,
      "Ka": 1097,
      "lub": 1098,
      "róż": 1099,
      "dź": 1100,
      "moż": 1101,
      "kro": 1102,
      "den": 1103,
      "war": 1104,
      "pow": 1105,
      "wol": 1106,
      "łą": 1107,
      "pad": 1108,
      "By": 1109,
      "dale": 1110,
      "fa": 1111,
      "lecz": 1112,
      "stał": 1113,
      "nich": 1114,
      "waż": 1115,
      "szedł": 1116,
      "rzą": 1117,
      "jako": 1118,
      "czem": 1119,
      "stwa": 1120,
      "kry": 1121,
      "sł": 1122,
      "bym": 1123,
      "zwy": 1124,
      "Le": 1125,
      "stu": 1126,
      "par": 1127,
      "poko": 1128,
      "nik": 1129,
      "chci": 1130,
      "też": 1131,
      "gę": 1132,
      "siebie": 1133,
      "teraz": 1134,
      "krzy": 1135,
      "rozu": 1136,
      "ciąg": 1137,
      "wio": 1138,
      "Wy": 1139,
      "tka": 1140,
      "miej": 1141,
      "pły": 1142,
      "tów": 1143,
      "skiego": 1144,
      "ej": 1145,
      "żą": 1146,
      "Gdy": 1147,
      "prowa": 1148,
      "musi": 1149,
      "tr": 1150,
      "rzę": 1151,
      "Wi": 1152,
      "wym": 1153,
      "liśmy": 1154,
      "dzą": 1155,
      "bro": 1156,
      "ścią": 1157,
      "ół": 1158,
      "ród": 1159,
      "cej": 1160,
      "czego": 1161,
      "lka": 1162,
      "mał": 1163,
      "Przy": 1164,
      "stą": 1165,
      "zosta": 1166,
      "ścia": 1167,
      "wiem": 1168,
      "Mo": 1169,
      "dem": 1170,
      "miło": 1171,
      "nęła": 1172,
      "ha": 1173,
      "ém": 1174,
      "czył": 1175,
      "jakie": 1176,
      "Tak": 1177,
      "chło": 1178,
      "pięk": 1179,
      "Mi": 1180,
      "żeby": 1181,
      "tnie": 1182,
      "miejs": 1183,
      "dził": 1184,
      "szo": 1185,
      "przyja": 1186,
      "Jak": 1187,
      "miesz": 1188,
      "mógł": 1189,
      "nów": 1190,
      "ciem": 1191,
      "Ro": 1192,
      "spra": 1193,
      "wali": 1194,
      "koń": 1195,
      "chwili": 1196,
      "iż": 1197,
      "zaś": 1198,
      "nam": 1199,
      "chę": 1200,
      "dzieć": 1201,
      "ws": 1202,
      "kocha": 1203,
      "ór": 1204,
      "daw": 1205,
      "która": 1206,
      "pół": 1207,
      "kobie": 1208,
      "oba": 1209,
      "Ko": 1210,
      "powia": 1211,
      "mniej": 1212,
      "podob": 1213,
      "wier": 1214,
      "wało": 1215,
      "nowi": 1216,
      "pę": 1217,
      "śmier": 1218,
      "nąć": 1219,
      "nale": 1220,
      "dzić": 1221,
      "świę": 1222,
      "odpowie": 1223,
      "cą": 1224,
      "Ty": 1225,
      "mil": 1226,
      "szych": 1227,
      "domu": 1228,
      "kaz": 1229,
      "ludzi": 1230,
      "czyć": 1231,
      "zawsze": 1232,
      "posta": 1233,
      "kar": 1234,
      "Wie": 1235,
      "dnie": 1236,
      "isto": 1237,
      "osta": 1238,
      "gnie": 1239,
      "wały": 1240,
      "których": 1241,
      "żył": 1242,
      "tki": 1243,
      "tek": 1244,
      "kami": 1245,
      "zno": 1246,
      "wra": 1247,
      "działa": 1248,
      "nić": 1249,
      "dzia": 1250,
      "sem": 1251,
      "zawo": 1252,
      "myśli": 1253,
      "ciu": 1254,
      "ój": 1255,
      "jakby": 1256,
      "żeli": 1257,
      "aż": 1258,
      "pana": 1259,
      "którego": 1260,
      "dli": 1261,
      "kach": 1262,
      "ter": 1263,
      "dnia": 1264,
      "spoko": 1265,
      "skich": 1266,
      "ców": 1267,
      "woli": 1268,
      "przeci": 1269,
      "jaki": 1270,
      "godzi": 1271,
      "Ju": 1272,
      "nemi": 1273,
      "potrze": 1274,
      "zd": 1275,
      "księ": 1276,
      "zdo": 1277,
      "mój": 1278,
      "scy": 1279,
      "eś": 1280,
      "gą": 1281,
      "czne": 1282,
      "usta": 1283,
      "win": 1284,
      "między": 1285,
      "Te": 1286,
      "kiej": 1287,
      "Od": 1288,
      "br": 1289,
      "nek": 1290,
      "coś": 1291,
      "dzień": 1292,
      "rzeczy": 1293,
      "cę": 1294,
      "uwa": 1295,
      "niż": 1296,
      "men": 1297,
      "szego": 1298,
      "nił": 1299,
      "wszystkie": 1300,
      "były": 1301,
      "nigdy": 1302,
      "tedy": 1303,
      "obo": 1304,
      "kre": 1305,
      "więcej": 1306,
      "Sta": 1307,
      "miała": 1308,
      "znaj": 1309,
      "można": 1310,
      "ód": 1311,
      "uczy": 1312,
      "gar": 1313,
      "świat": 1314,
      "skiej": 1315,
      "głę": 1316,
      "cały": 1317,
      "zupeł": 1318,
      "życia": 1319,
      "uro": 1320,
      "gdyby": 1321,
      "chem": 1322,
      "oko": 1323,
      "dobrze": 1324,
      "dwa": 1325,
      "sobą": 1326,
      "poz": 1327,
      "ksią": 1328,
      "razem": 1329,
      "szło": 1330,
      "Pan": 1331,
      "stęp": 1332,
      "więk": 1333,
      "drze": 1334,
      "Sa": 1335,
      "Ni": 1336,
      "włas": 1337,
      "wal": 1338,
      "samo": 1339,
      "pusz": 1340,
      "dząc": 1341,
      "star": 1342,
      "ziemi": 1343,
      "żyć": 1344,
      "lem": 1345,
      "dwie": 1346,
      "kon": 1347,
      "swego": 1348,
      "ur": 1349,
      "choć": 1350,
      "wania": 1351,
      "wił": 1352,
      "bla": 1353,
      "ób": 1354,
      "rzał": 1355,
      "przeciw": 1356,
      "sił": 1357,
      "życie": 1358,
      "chce": 1359,
      "zmie": 1360,
      "cier": 1361,
      "której": 1362,
      "wój": 1363,
      "dziej": 1364,
      "śród": 1365,
      "cić": 1366,
      "trzyma": 1367,
      "wło": 1368,
      "dwo": 1369,
      "kona": 1370,
      "potem": 1371,
      "albo": 1372,
      "drz": 1373,
      "szła": 1374,
      "czar": 1375,
      "kilka": 1376,
      "słowa": 1377,
      "moc": 1378,
      "reszcie": 1379,
      "panie": 1380,
      "mio": 1381,
      "nika": 1382,
      "Ra": 1383,
      "An": 1384,
      "dzę": 1385,
      "wszystkich": 1386,
      "gle": 1387,
      "żad": 1388,
      "dzię": 1389,
      "jeden": 1390,
      "szem": 1391,
      "chał": 1392,
      "ho": 1393,
      "rodzi": 1394,
      "szej": 1395,
      "którzy": 1396,
      "dr": 1397,
      "towarzy": 1398,
      "cji": 1399,
      "Lu": 1400,
      "nki": 1401,
      "cem": 1402,
      "miast": 1403,
      "tk": 1404,
      "try": 1405,
      "śpie": 1406,
      "człowiek": 1407,
      "ode": 1408,
      "znowu": 1409,
      "nku": 1410,
      "szko": 1411,
      "niec": 1412,
      "tar": 1413,
      "lnie": 1414,
      "smu": 1415,
      "óg": 1416,
      "stąpi": 1417,
      "pom": 1418,
      "lat": 1419,
      "II": 1420,
      "moje": 1421,
      "zam": 1422,
      "nością": 1423,
      "łał": 1424,
      "puści": 1425,
      "sób": 1426,
      "ge": 1427,
      "uśmie": 1428,
      "wca": 1429,
      "grze": 1430,
      "rzo": 1431,
      "począ": 1432,
      "zby": 1433,
      "chwy": 1434,
      "mam": 1435,
      "czasem": 1436,
      "god": 1437,
      "mówił": 1438,
      "wido": 1439,
      "szczy": 1440,
      "licz": 1441,
      "rabi": 1442,
      "czer": 1443,
      "fe": 1444,
      "!...": 1445,
      "jących": 1446,
      "dzieci": 1447,
      "mego": 1448,
      "szczęśli": 1449,
      "wski": 1450,
      "czasu": 1451,
      "którą": 1452,
      "lach": 1453,
      "laz": 1454,
      "gła": 1455,
      "tni": 1456,
      "patrz": 1457,
      "pli": 1458,
      "pło": 1459,
      "wanie": 1460,
      "for": 1461,
      "Lecz": 1462,
      "chciał": 1463,
      "tku": 1464,
      "wyda": 1465,
      "pozna": 1466,
      "pró": 1467,
      "powo": 1468,
      "szym": 1469,
      "każdy": 1470,
      "także": 1471,
      "Pi": 1472,
      "lan": 1473,
      "powiada": 1474,
      "którym": 1475,
      "prawie": 1476,
      "No": 1477,
      "sio": 1478,
      "rami": 1479,
      "tłu": 1480,
      "ską": 1481,
      "lek": 1482,
      "ego": 1483,
      "widzi": 1484,
      "obie": 1485,
      "spoj": 1486,
      "gru": 1487,
      "zapy": 1488,
      "trzeba": 1489,
      "jedy": 1490,
      "jestem": 1491,
      "ol": 1492,
      "jedno": 1493,
      "gna": 1494,
      "wiele": 1495,
      "au": 1496,
      "zrobi": 1497,
      "kło": 1498,
      "stała": 1499,
      "uczu": 1500,
      "kać": 1501,
      "kał": 1502,
      "dalej": 1503,
      "jéj": 1504,
      "spokoj": 1505,
      "ręce": 1506,
      "kości": 1507,
      "cięż": 1508,
      "pań": 1509,
      "świad": 1510,
      "swoje": 1511,
      "domo": 1512,
      "woj": 1513,
      "Mar": 1514,
      "taj": 1515,
      "pamię": 1516,
      "czny": 1517,
      "rzył": 1518,
      "tyle": 1519,
      "dło": 1520,
      "cych": 1521,
      "pisa": 1522,
      "zupełnie": 1523,
      "dziew": 1524,
      "Sz": 1525,
      "mą": 1526,
      "noc": 1527,
      "tąd": 1528,
      "ludz": 1529,
      "zdro": 1530,
      "cio": 1531,
      "strasz": 1532,
      "wam": 1533,
      "ofi": 1534,
      "dziś": 1535,
      "nami": 1536,
      "wnie": 1537,
      "kle": 1538,
      "ogro": 1539,
      "właśnie": 1540,
      "dów": 1541,
      "wany": 1542,
      "spa": 1543,
      "wić": 1544,
      "stało": 1545,
      "nosi": 1546,
      "cyi": 1547,
      "wszyscy": 1548,
      "długo": 1549,
      "czyna": 1550,
      "czej": 1551,
      "pis": 1552,
      "zwie": 1553,
      "pol": 1554,
      "nicy": 1555,
      "ciebie": 1556,
      "dość": 1557,
      "mimo": 1558,
      "kla": 1559,
      "człowieka": 1560,
      "prz": 1561,
      "póź": 1562,
      "pla": 1563,
      "bio": 1564,
      "oto": 1565,
      "roku": 1566,
      "tel": 1567,
      "Ba": 1568,
      "kr": 1569,
      "Wszy": 1570,
      "obe": 1571,
      "pokoju": 1572,
      "mieszka": 1573,
      "przyjacie": 1574,
      "chod": 1575,
      "piero": 1576,
      "śle": 1577,
      "drugi": 1578,
      "kol": 1579,
      "“.": 1580,
      "drzwi": 1581,
      "poło": 1582,
      "ludzie": 1583,
      "przecie": 1584,
      "brze": 1585,
      "żej": 1586,
      "dzenia": 1587,
      "dej": 1588,
      "mają": 1589,
      "wiek": 1590,
      "krót": 1591,
      "żę": 1592,
      "sposób": 1593,
      "pierwszy": 1594,
      "ląd": 1595,
      "niech": 1596,
      "przyj": 1597,
      "ia": 1598,
      "Jest": 1599,
      "ński": 1600,
      "wróci": 1601,
      "kom": 1602,
      "Niech": 1603,
      "razy": 1604,
      "szał": 1605,
      "łę": 1606,
      "niema": 1607,
      "zapa": 1608,
      "ner": 1609,
      "um": 1610,
      "dła": 1611,
      "jaką": 1612,
      "ucie": 1613,
      "prę": 1614,
      "drugie": 1615,
      "zale": 1616,
      "wro": 1617,
      "cja": 1618,
      "słoń": 1619,
      "Pod": 1620,
      "et": 1621,
      "rozumie": 1622,
      "mów": 1623,
      "chać": 1624,
      "por": 1625,
      "nka": 1626,
      "Że": 1627,
      "pia": 1628,
      "gdyż": 1629,
      "serce": 1630,
      "ią": 1631,
      "obra": 1632,
      "wości": 1633,
      "Bóg": 1634,
      "uj": 1635,
      "knął": 1636,
      "uli": 1637,
      "bywa": 1638,
      "czeń": 1639,
      "śla": 1640,
      "Da": 1641,
      "dziec": 1642,
      "głu": 1643,
      "odda": 1644,
      "głos": 1645,
      "byli": 1646,
      "szcz": 1647,
      "taki": 1648,
      "sen": 1649,
      "rękę": 1650,
      "pio": 1651,
      "Li": 1652,
      "stary": 1653,
      ").": 1654,
      "swej": 1655,
      "nocy": 1656,
      "nau": 1657,
      "łam": 1658,
      "mina": 1659,
      "żał": 1660,
      "Dla": 1661,
      "dra": 1662,
      "niał": 1663,
      "18": 1664,
      "was": 1665,
      "el": 1666,
      "głowę": 1667,
      "coraz": 1668,
      "umie": 1669,
      "lep": 1670,
      "tere": 1671,
      "cznych": 1672,
      "tó": 1673,
      "czenie": 1674,
      "wcale": 1675,
      "czki": 1676,
      "twar": 1677,
      "wyso": 1678,
      "mówić": 1679,
      "bardziej": 1680,
      "dała": 1681,
      "Tu": 1682,
      "szep": 1683,
      "skar": 1684,
      "dna": 1685,
      "jeżeli": 1686,
      "bezpie": 1687,
      "najmniej": 1688,
      "panu": 1689,
      "gał": 1690,
      "wyż": 1691,
      "tach": 1692,
      "il": 1693,
      "jcie": 1694,
      "równie": 1695,
      "dal": 1696,
      "Wię": 1697,
      "néj": 1698,
      "kolwiek": 1699,
      "rego": 1700,
      "pano": 1701,
      "wrócił": 1702,
      "serca": 1703,
      "nt": 1704,
      "czaj": 1705,
      "obu": 1706,
      "glą": 1707,
      "ile": 1708,
      "dar": 1709,
      "jeśli": 1710,
      "rok": 1711,
      "sztu": 1712,
      "czenia": 1713,
      "wne": 1714,
      "żu": 1715,
      "dosta": 1716,
      "natu": 1717,
      "bowiem": 1718,
      "twarz": 1719,
      "sami": 1720,
      "wszel": 1721,
      "dzieli": 1722,
      "mor": 1723,
      "twarzy": 1724,
      "zbli": 1725,
      "der": 1726,
      "tor": 1727,
      "rzekła": 1728,
      "patrzy": 1729,
      "całą": 1730,
      "kole": 1731,
      "moja": 1732,
      "wyra": 1733,
      "naz": 1734,
      "hu": 1735,
      "żenie": 1736,
      "dek": 1737,
      "chwilę": 1738,
      "jącego": 1739,
      "pyta": 1740,
      "nió": 1741,
      "kazał": 1742,
      "sów": 1743,
      "zawołał": 1744,
      "mogła": 1745,
      "wśród": 1746,
      "bą": 1747,
      "jas": 1748,
      "obec": 1749,
      "mną": 1750,
      "Al": 1751,
      "nach": 1752,
      "czał": 1753,
      "strony": 1754,
      "niósł": 1755,
      "gli": 1756,
      "skrzy": 1757,
      "dając": 1758,
      "powiedział": 1759,
      "gląd": 1760,
      "Mu": 1761,
      "śni": 1762,
      "nikt": 1763,
      "biera": 1764,
      "nagle": 1765,
      "czną": 1766,
      "wzią": 1767,
      "chłop": 1768,
      "tajem": 1769,
      "ruszy": 1770,
      "daje": 1771,
      "rod": 1772,
      "potę": 1773,
      "trochę": 1774,
      "dom": 1775,
      "zem": 1776,
      "Kie": 1777,
      "kowi": 1778,
      "kogo": 1779,
      "bły": 1780,
      "zgo": 1781,
      "cego": 1782,
      "lepie": 1783,
      "dowo": 1784,
      "poli": 1785,
      "duszy": 1786,
      "razu": 1787,
      "zaraz": 1788,
      "czci": 1789,
      "nadzie": 1790,
      "tém": 1791,
      "wraca": 1792,
      "męż": 1793,
      "zoba": 1794,
      "osob": 1795,
      "odpar": 1796,
      "dno": 1797,
      "sil": 1798,
      "boga": 1799,
      "swoich": 1800,
      "mienia": 1801,
      "żony": 1802,
      "szczęście": 1803,
      "wąt": 1804,
      "wska": 1805,
      "wieczo": 1806,
      "przej": 1807,
      "ber": 1808,
      "ądź": 1809,
      "Be": 1810,
      "sę": 1811,
      "wane": 1812,
      "mogę": 1813,
      "zbyt": 1814,
      "dwó": 1815,
      "mej": 1816,
      "glę": 1817,
      "szczegó": 1818,
      "brzy": 1819,
      "skoń": 1820,
      "sce": 1821,
      "szka": 1822,
      "wość": 1823,
      "wni": 1824,
      "rząd": 1825,
      "zja": 1826,
      "dowie": 1827,
      "jął": 1828,
      "pole": 1829,
      "wspo": 1830,
      "zaczą": 1831,
      "takie": 1832,
      "Pro": 1833,
      "lku": 1834,
      "jakiś": 1835,
      "ek": 1836,
      "znów": 1837,
      "swoją": 1838,
      "rado": 1839,
      "będę": 1840,
      "szli": 1841,
      "man": 1842,
      "Więc": 1843,
      "Wa": 1844,
      "konie": 1845,
      "wzglę": 1846,
      "“,": 1847,
      "resztą": 1848,
      "wtedy": 1849,
      "pewne": 1850,
      "gospo": 1851,
      "rzyć": 1852,
      "rzecz": 1853,
      "swe": 1854,
      "chodzą": 1855,
      "rzenia": 1856,
      "tery": 1857,
      "ówczas": 1858,
      "zaczę": 1859,
      "wałem": 1860,
      "którem": 1861,
      "tne": 1862,
      "łó": 1863,
      "skiem": 1864,
      "dopiero": 1865,
      "robo": 1866,
      "twie": 1867,
      "ina": 1868,
      "stanie": 1869,
      "rozma": 1870,
      "tała": 1871,
      "rozpa": 1872,
      "posia": 1873,
      "został": 1874,
      "pierwsze": 1875,
      "rozmo": 1876,
      "wano": 1877,
      "swych": 1878,
      "temu": 1879,
      "wdzię": 1880,
      "szyb": 1881,
      "drogi": 1882,
      "cór": 1883,
      "innych": 1884,
      "niéj": 1885,
      "wiąz": 1886,
      "wreszcie": 1887,
      "Pe": 1888,
      "przód": 1889,
      "wiąza": 1890,
      "pre": 1891,
      "sama": 1892,
      "powiedzieć": 1893,
      "cóż": 1894,
      "świecie": 1895,
      "wiał": 1896,
      "koło": 1897,
      "fu": 1898,
      "ocza": 1899,
      "lił": 1900,
      "będą": 1901,
      "We": 1902,
      "mat": 1903,
      "Kiedy": 1904,
      "niepo": 1905,
      "kilku": 1906,
      "rek": 1907,
      "oka": 1908,
      "zaj": 1909,
      "Wszyst": 1910,
      "kwia": 1911,
      "przekona": 1912,
      "jednego": 1913,
      "czka": 1914,
      "bło": 1915,
      "ostat": 1916,
      "pal": 1917,
      "naro": 1918,
      "śmierci": 1919,
      "ri": 1920,
      "one": 1921,
      "?...": 1922,
      "sprawie": 1923,
      "cki": 1924,
      "swój": 1925,
      "tan": 1926,
      "powi": 1927,
      "sposob": 1928,
      "cach": 1929,
      "głębo": 1930,
      "stry": 1931,
      "oni": 1932,
      "Fran": 1933,
      "słucha": 1934,
      "ude": 1935,
      "często": 1936,
      "czony": 1937,
      "Dzie": 1938,
      "dko": 1939,
      "zbro": 1940,
      "ciaż": 1941,
      "żenia": 1942,
      "swą": 1943,
      "szlach": 1944,
      "pozosta": 1945,
      "Sy": 1946,
      "króle": 1947,
      "Roz": 1948,
      "kład": 1949,
      "świata": 1950,
      "kój": 1951,
      "Pol": 1952,
      "bó": 1953,
      "szak": 1954,
      "niby": 1955,
      "czeka": 1956,
      "prawdzi": 1957,
      "masz": 1958,
      "On": 1959,
      "mieć": 1960,
      "Pra": 1961,
      "dobro": 1962,
      "puszcza": 1963,
      "Kto": 1964,
      "weso": 1965,
      "słów": 1966,
      "tny": 1967,
      "ple": 1968,
      "Du": 1969,
      "łnie": 1970,
      "żało": 1971,
      "....": 1972,
      "trafi": 1973,
      "chle": 1974,
      "Boże": 1975,
      "Boga": 1976,
      "cieka": 1977,
      "raj": 1978,
      "cznej": 1979,
      "tch": 1980,
      "woła": 1981,
      "żem": 1982,
      "ojca": 1983,
      "pój": 1984,
      "nęły": 1985,
      "Dzi": 1986,
      "nieważ": 1987,
      "miłości": 1988,
      "głosem": 1989,
      "czek": 1990,
      "lepiej": 1991,
      "ono": 1992,
      "czyła": 1993,
      "dow": 1994,
      "właści": 1995,
      "bry": 1996,
      "ral": 1997,
      "Był": 1998,
      "ist": 1999,
      "gły": 2000,
      "Cho": 2001,
      "tom": 2002,
      "znalaz": 2003,
      "Kró": 2004,
      "zabi": 2005,
      "tami": 2006,
      "Już": 2007,
      "jącą": 2008,
      "poe": 2009,
      "miało": 2010,
      "dziw": 2011,
      "zacho": 2012,
      "stępu": 2013,
      "wst": 2014,
      "stanowi": 2015,
      "koła": 2016,
      "ształ": 2017,
      "krę": 2018,
      "ojcie": 2019,
      "żar": 2020,
      "mieni": 2021,
      "rzuca": 2022,
      "gry": 2023,
      "miar": 2024,
      "pią": 2025,
      "Ten": 2026,
      "wód": 2027,
      "dwóch": 2028,
      "zim": 2029,
      "środ": 2030,
      "Naj": 2031,
      "przecież": 2032,
      "całe": 2033,
      "Ha": 2034,
      "My": 2035,
      "ier": 2036,
      "bła": 2037,
      "gorą": 2038,
      "obraz": 2039,
      "zaczął": 2040,
      "myślał": 2041,
      "cała": 2042,
      "spy": 2043,
      "Cze": 2044,
      "inne": 2045,
      "gów": 2046,
      "chi": 2047,
      "tać": 2048,
      "om": 2049,
      "padł": 2050,
      "nemu": 2051,
      "wielkie": 2052,
      "uży": 2053,
      "klę": 2054,
      "daleko": 2055,
      "Cóż": 2056,
      "lony": 2057,
      "mem": 2058,
      "należy": 2059,
      "intere": 2060,
      "komi": 2061,
      "skim": 2062,
      "stwie": 2063,
      "czyn": 2064,
      "stały": 2065,
      "pała": 2066,
      "szcza": 2067,
      "Może": 2068,
      "In": 2069,
      "hrabi": 2070,
      "głowy": 2071,
      "młody": 2072,
      "10": 2073,
      "tychmiast": 2074,
      "cznego": 2075,
      "byś": 2076,
      "czone": 2077,
      "nazy": 2078,
      "Mary": 2079,
      "żeń": 2080,
      "żyła": 2081,
      "pał": 2082,
      "miejsce": 2083,
      "15": 2084,
      "czyli": 2085,
      "zę": 2086,
      "list": 2087,
      "krze": 2088,
      "król": 2089,
      "wzię": 2090,
      "La": 2091,
      "Bi": 2092,
      "myśle": 2093,
      "kształ": 2094,
      "otwo": 2095,
      "wody": 2096,
      "tko": 2097,
      "nieco": 2098,
      "dne": 2099,
      "biał": 2100,
      "przyszło": 2101,
      "prawda": 2102,
      "wnę": 2103,
      "słusz": 2104,
      "wielki": 2105,
      "nowa": 2106,
      "mało": 2107,
      "razie": 2108,
      "odpowiedział": 2109,
      "bole": 2110,
      "ciła": 2111,
      "pierw": 2112,
      "później": 2113,
      "miłość": 2114,
      "głów": 2115,
      "dobry": 2116,
      "ojciec": 2117,
      "znajo": 2118,
      "Gdzie": 2119,
      "prag": 2120,
      "głową": 2121,
      "trzymał": 2122,
      "twier": 2123,
      "rach": 2124,
      "sma": 2125,
      "widział": 2126,
      "koro": 2127,
      "pomo": 2128,
      "ałam": 2129,
      "dali": 2130,
      "prawo": 2131,
      "Teraz": 2132,
      "kaza": 2133,
      "nienia": 2134,
      "jesteś": 2135,
      "cznym": 2136,
      "szero": 2137,
      "rnie": 2138,
      "goto": 2139,
      "góry": 2140,
      "dny": 2141,
      "niez": 2142,
      "nęło": 2143,
      "tera": 2144,
      "działem": 2145,
      "dziła": 2146,
      "rzenie": 2147,
      "dam": 2148,
      "opie": 2149,
      "chodził": 2150,
      "krew": 2151,
      "Cza": 2152,
      "niach": 2153,
      "wiadomo": 2154,
      "gwał": 2155,
      "spraw": 2156,
      "łego": 2157,
      "następ": 2158,
      "cami": 2159,
      "dają": 2160,
      "skła": 2161,
      "zapytał": 2162,
      "Ży": 2163,
      "ukry": 2164,
      "stara": 2165,
      "bia": 2166,
      "dach": 2167,
      "stosu": 2168,
      "groma": 2169,
      "kli": 2170,
      "żd": 2171,
      "ników": 2172,
      "cało": 2173,
      "dwu": 2174,
      "niejsze": 2175,
      "pry": 2176,
      "odparł": 2177,
      "chociaż": 2178,
      "miasta": 2179,
      "kosz": 2180,
      "now": 2181,
      "dzenie": 2182,
      "wszystkiem": 2183,
      "przedsta": 2184,
      "kąd": 2185,
      "wypad": 2186,
      "kobiety": 2187,
      "próż": 2188,
      "czna": 2189,
      "łów": 2190,
      "drogę": 2191,
      "War": 2192,
      "jakim": 2193,
      "tna": 2194,
      "Go": 2195,
      "stru": 2196,
      "Jeżeli": 2197,
      "lne": 2198,
      "di": 2199,
      "lny": 2200,
      "Bar": 2201,
      "fran": 2202,
      "nasz": 2203,
      "IE": 2204,
      "czerwo": 2205,
      "ziemię": 2206,
      "otwar": 2207,
      "zaję": 2208,
      "natychmiast": 2209,
      "per": 2210,
      "również": 2211,
      "zmar": 2212,
      "śmierć": 2213,
      "),": 2214,
      "Ci": 2215,
      "tutaj": 2216,
      "daj": 2217,
      "musiał": 2218,
      "praco": 2219,
      "Ar": 2220,
      "sząc": 2221,
      "mien": 2222,
      "niedo": 2223,
      "cyj": 2224,
      "rodza": 2225,
      "rak": 2226,
      "giem": 2227,
      "czasie": 2228,
      "mały": 2229,
      "uśmiech": 2230,
      "poczę": 2231,
      "niebie": 2232,
      "dzien": 2233,
      "jakiego": 2234,
      "histo": 2235,
      "brał": 2236,
      "nasze": 2237,
      "wiedział": 2238,
      "niebezpie": 2239,
      "źnie": 2240,
      "cząc": 2241,
      "rzucił": 2242,
      "cąc": 2243,
      "téj": 2244,
      "Ach": 2245,
      "jaka": 2246,
      "żołnie": 2247,
      "zmu": 2248,
      "miały": 2249,
      "królo": 2250,
      "głoś": 2251,
      "jednej": 2252,
      "swoim": 2253,
      "króla": 2254,
      "odez": 2255,
      "źli": 2256,
      "zamk": 2257,
      "jąca": 2258,
      "spostrze": 2259,
      "Pani": 2260,
      "mojej": 2261,
      "wiście": 2262,
      "pracy": 2263,
      "dego": 2264,
      "siły": 2265,
      "mieli": 2266,
      "gor": 2267,
      "szły": 2268,
      "gen": 2269,
      "życiu": 2270,
      "świet": 2271,
      "pomina": 2272,
      "miejscu": 2273,
      "prócz": 2274,
      "ażeby": 2275,
      "książę": 2276,
      "wyj": 2277,
      "języ": 2278,
      "prawa": 2279,
      "zdu": 2280,
      "wiać": 2281,
      "dosko": 2282,
      "skro": 2283,
      "ster": 2284,
      "przer": 2285,
      "żona": 2286,
      "powin": 2287,
      "gości": 2288,
      "usz": 2289,
      "He": 2290,
      "obro": 2291,
      "cya": 2292,
      "cym": 2293,
      "prawdę": 2294,
      "szybko": 2295,
      "trza": 2296,
      "lubi": 2297,
      "stać": 2298,
      "sach": 2299,
      "sław": 2300,
      "obok": 2301,
      "szuka": 2302,
      "Panie": 2303,
      "czyni": 2304,
      "ciąż": 2305,
      "stem": 2306,
      "krótce": 2307,
      "ciągle": 2308,
      "źni": 2309,
      "sprawiedli": 2310,
      "wszech": 2311,
      "prosi": 2312,
      "stwem": 2313,
      "wielką": 2314,
      "dlatego": 2315,
      "dziesię": 2316,
      "maga": 2317,
      "ti": 2318,
      "Re": 2319,
      "dłem": 2320,
      "zwycię": 2321,
      "fo": 2322,
      "moją": 2323,
      "mym": 2324,
      "kapi": 2325,
      "łeś": 2326,
      "błę": 2327,
      "piersi": 2328,
      "jącym": 2329,
      "che": 2330,
      "kowa": 2331,
      "parę": 2332,
      "czyz": 2333,
      "niebo": 2334,
      "12": 2335,
      "wyraz": 2336,
      "spodzie": 2337,
      "ić": 2338,
      "tóż": 2339,
      "matka": 2340,
      "wicz": 2341,
      "zdra": 2342,
      "jakieś": 2343,
      "pozo": 2344,
      "wór": 2345,
      "podo": 2346,
      "trą": 2347,
      "cer": 2348,
      "Oto": 2349,
      "dziedzi": 2350,
      "mogą": 2351,
      "miejsca": 2352,
      "lał": 2353,
      "tre": 2354,
      "dowa": 2355,
      "znale": 2356,
      "Mó": 2357,
      "komu": 2358,
      "któr": 2359,
      "rzała": 2360,
      "idzie": 2361,
      "swojej": 2362,
      "jechał": 2363,
      "jącej": 2364,
      "mienie": 2365,
      "jesz": 2366,
      "16": 2367,
      "niesie": 2368,
      "stępo": 2369,
      "wając": 2370,
      "wielu": 2371,
      "żywo": 2372,
      "Ze": 2373,
      "oczach": 2374,
      "połu": 2375,
      "Bog": 2376,
      "brać": 2377,
      "poru": 2378,
      "końcu": 2379,
      "17": 2380,
      "mień": 2381,
      "śnia": 2382,
      "bru": 2383,
      "tarza": 2384,
      "wówczas": 2385,
      "staro": 2386,
      "nęli": 2387,
      "dzwo": 2388,
      "rej": 2389,
      "woje": 2390,
      "czeniu": 2391,
      "ciół": 2392,
      "spie": 2393,
      "jąć": 2394,
      "gwia": 2395,
      "łatwo": 2396,
      "tyka": 2397,
      "Wła": 2398,
      "przera": 2399,
      "koniec": 2400,
      "znajdu": 2401,
      "bądź": 2402,
      "nimi": 2403,
      "siadł": 2404,
      "wil": 2405,
      "wiła": 2406,
      "niemi": 2407,
      "dle": 2408,
      "naszych": 2409,
      "zaba": 2410,
      "snął": 2411,
      "zwykle": 2412,
      "Ku": 2413,
      "Pio": 2414,
      "matki": 2415,
      "zwa": 2416,
      "czności": 2417,
      "kły": 2418,
      "wają": 2419,
      "rzeć": 2420,
      ".“": 2421,
      "rał": 2422,
      "Przez": 2423,
      "zio": 2424,
      "pomiędzy": 2425,
      "drodze": 2426,
      "Tam": 2427,
      "bec": 2428,
      "słowo": 2429,
      "Wo": 2430,
      "nowe": 2431,
      "tobie": 2432,
      "taką": 2433,
      "chmu": 2434,
      "mych": 2435,
      "swem": 2436,
      "mią": 2437,
      "leka": 2438,
      "he": 2439,
      "ńskiego": 2440,
      "poważ": 2441,
      "modli": 2442,
      "przyjaciół": 2443,
      "pił": 2444,
      "spotka": 2445,
      "19": 2446,
      "lud": 2447,
      "umy": 2448,
      "sięcy": 2449,
      "łóż": 2450,
      "znać": 2451,
      "umar": 2452,
      "temi": 2453,
      "dało": 2454,
      "ramiona": 2455,
      "niejszy": 2456,
      "służ": 2457,
      "jedną": 2458,
      "zwo": 2459,
      "nieba": 2460,
      "takim": 2461,
      "począł": 2462,
      "rzem": 2463,
      "Ce": 2464,
      "Tym": 2465,
      "Rze": 2466,
      "poda": 2467,
      "Spo": 2468,
      "zawie": 2469,
      "dziecko": 2470,
      "cję": 2471,
      "zni": 2472,
      "drob": 2473,
      "Sło": 2474,
      "kazu": 2475,
      "stan": 2476,
      "Jeśli": 2477,
      "św": 2478,
      "szek": 2479,
      "00": 2480,
      "miałem": 2481,
      "lone": 2482,
      "ust": 2483,
      "cierpli": 2484,
      "kwi": 2485,
      "tną": 2486,
      "zła": 2487,
      "!“": 2488,
      "ciała": 2489,
      "czkę": 2490,
      "wskiego": 2491,
      "wsty": 2492,
      "ręką": 2493,
      "stronę": 2494,
      "kan": 2495,
      "ństwo": 2496,
      "ństwa": 2497,
      "mówiąc": 2498,
      "kraju": 2499,
      "zm": 2500,
      "uważa": 2501,
      "Jezu": 2502,
      "niena": 2503,
      "każdym": 2504,
      "ostro": 2505,
      "chcę": 2506,
      "nieść": 2507,
      "proszę": 2508,
      "gami": 2509,
      "zdaje": 2510,
      "tości": 2511,
      "długi": 2512,
      "szczęścia": 2513,
      "mówiła": 2514,
      "sprze": 2515,
      "moich": 2516,
      "wraz": 2517,
      "nogi": 2518,
      "pić": 2519,
      "dziewczy": 2520,
      "łała": 2521,
      "drzewa": 2522,
      "zbie": 2523,
      "widać": 2524,
      "bój": 2525,
      "stop": 2526,
      "samego": 2527,
      "około": 2528,
      "chcesz": 2529,
      "13": 2530,
      "ule": 2531,
      "wieku": 2532,
      "syć": 2533,
      "Wszystko": 2534,
      "wciąż": 2535,
      "świ": 2536,
      "głębi": 2537,
      "olbrzy": 2538,
      "gór": 2539,
      "czuł": 2540,
      "ściu": 2541,
      "14": 2542,
      "byłem": 2543,
      "obja": 2544,
      "książ": 2545,
      "zer": 2546,
      "zapom": 2547,
      "arty": 2548,
      "wzru": 2549,
      "kobieta": 2550,
      "wienia": 2551,
      "trwo": 2552,
      "ban": 2553,
      "Bu": 2554,
      "strzy": 2555,
      "obej": 2556,
      "wpły": 2557,
      "syna": 2558,
      "Ga": 2559,
      "ron": 2560,
      "łek": 2561,
      "całej": 2562,
      "spe": 2563,
      "wan": 2564,
      "żegna": 2565,
      "cen": 2566,
      "rad": 2567,
      "dotąd": 2568,
      "let": 2569,
      "Ru": 2570,
      "zresztą": 2571,
      "oczu": 2572,
      "myśla": 2573,
      "speł": 2574,
      "pięć": 2575,
      "pada": 2576,
      "lata": 2577,
      "tkiem": 2578,
      "pocie": 2579,
      "cześnie": 2580,
      "usły": 2581,
      "sną": 2582,
      "korzy": 2583,
      "Trze": 2584,
      "potrzeb": 2585,
      "jednym": 2586,
      "Są": 2587,
      "Jo": 2588,
      "Dob": 2589,
      "ogó": 2590,
      "nków": 2591,
      "sercu": 2592,
      "Pary": 2593,
      "męża": 2594,
      "jakiej": 2595,
      "szył": 2596,
      "jedynie": 2597,
      "takiego": 2598,
      "naprzód": 2599,
      "trzymać": 2600,
      "niła": 2601,
      "powodu": 2602,
      "lić": 2603,
      "pienią": 2604,
      "jeżd": 2605,
      "Słu": 2606,
      "ofia": 2607,
      "chaj": 2608,
      "zapewne": 2609,
      "uda": 2610,
      "wzro": 2611,
      "znał": 2612,
      "spokojnie": 2613,
      "Gdyby": 2614,
      "dąc": 2615,
      "nien": 2616,
      "innego": 2617,
      "charak": 2618,
      "wziął": 2619,
      "potrzeba": 2620,
      "mogli": 2621,
      "lar": 2622,
      "oczyma": 2623,
      "tajemni": 2624,
      "gach": 2625,
      "zasa": 2626,
      "podczas": 2627,
      "biały": 2628,
      "nazwi": 2629,
      "twoje": 2630,
      "Warsza": 2631,
      "han": 2632,
      "ach": 2633,
      "emi": 2634,
      "nymi": 2635,
      "skoro": 2636,
      "nko": 2637,
      "takich": 2638,
      "opuści": 2639,
      "sier": 2640,
      "czność": 2641,
      "ręku": 2642,
      "zbu": 2643,
      "ponieważ": 2644,
      "publi": 2645,
      "rozle": 2646,
      "ił": 2647,
      "kała": 2648,
      "muje": 2649,
      "ocze": 2650,
      "zg": 2651,
      "ciągnął": 2652,
      "III": 2653,
      "chciała": 2654,
      "przyjem": 2655,
      "usza": 2656,
      "ktu": 2657,
      "pragnie": 2658,
      "ktoś": 2659,
      "długie": 2660,
      "nar": 2661,
      "ow": 2662,
      "chwila": 2663,
      "póki": 2664,
      "ziem": 2665,
      "west": 2666,
      "prowadzi": 2667,
      "zba": 2668,
      "sch": 2669,
      "wnętrz": 2670,
      "poza": 2671,
      "kola": 2672,
      "choro": 2673,
      "Me": 2674,
      "kty": 2675,
      "chrze": 2676,
      "chodzić": 2677,
      "wienie": 2678,
      "chyba": 2679,
      "nieu": 2680,
      "biegł": 2681,
      "brz": 2682,
      "swym": 2683,
      "Jan": 2684,
      "wiony": 2685,
      "rzyła": 2686,
      "pta": 2687,
      "cierpie": 2688,
      "krwi": 2689,
      "dziesią": 2690,
      "Oj": 2691,
      "len": 2692,
      "zdzi": 2693,
      "naszego": 2694,
      "Była": 2695,
      "siaj": 2696,
      "ciał": 2697,
      "wycho": 2698,
      "kościo": 2699,
      "żna": 2700,
      "głowie": 2701,
      "scho": 2702,
      "suk": 2703,
      "szar": 2704,
      "łko": 2705,
      "zię": 2706,
      "wyszedł": 2707,
      "będziesz": 2708,
      "przedmio": 2709,
      "har": 2710,
      "niony": 2711,
      "Fi": 2712,
      "chała": 2713,
      "liwie": 2714,
      "powa": 2715,
      "staje": 2716,
      "robić": 2717,
      "mamy": 2718,
      "sre": 2719,
      "Któ": 2720,
      "widzieć": 2721,
      "powro": 2722,
      "nicę": 2723,
      "fał": 2724,
      "części": 2725,
      "mała": 2726,
      "mogło": 2727,
      "Mie": 2728,
      "prost": 2729,
      "ogrom": 2730,
      "mist": 2731,
      "znalazł": 2732,
      "dre": 2733,
      "społe": 2734,
      "at": 2735,
      "okrę": 2736,
      "dawno": 2737,
      "prawdzie": 2738,
      "dowi": 2739,
      "ubra": 2740,
      "tow": 2741,
      "cicho": 2742,
      "wobec": 2743,
      "Bę": 2744,
      "tęsk": 2745,
      "licy": 2746,
      "najwięk": 2747,
      "stej": 2748,
      "Potem": 2749,
      "szczo": 2750,
      "De": 2751,
      "iść": 2752,
      "trud": 2753,
      "nieraz": 2754,
      "doj": 2755,
      "ck": 2756,
      "prosto": 2757,
      "ide": 2758,
      "niezna": 2759,
      "dosyć": 2760,
      "Kra": 2761,
      "wami": 2762,
      "dziel": 2763,
      "pól": 2764,
      "dja": 2765,
      "szony": 2766,
      "zamie": 2767,
      "zgi": 2768,
      "raczej": 2769,
      "znaczy": 2770,
      "kazy": 2771,
      "ciąga": 2772,
      "opowiada": 2773,
      "sąd": 2774,
      "znajdo": 2775,
      "widok": 2776,
      "dodał": 2777,
      "wiesz": 2778,
      "ren": 2779,
      "wierz": 2780,
      "ciel": 2781,
      "danie": 2782,
      "nienie": 2783,
      "górę": 2784,
      "Rzy": 2785,
      "bur": 2786,
      "powtó": 2787,
      "Tylko": 2788,
      "Nic": 2789,
      "gotowa": 2790,
      "stąpił": 2791,
      "szędzie": 2792,
      "skał": 2793,
      "ura": 2794,
      "sp": 2795,
      "inaczej": 2796,
      "czoraj": 2797,
      "kieru": 2798,
      "ogni": 2799,
      "zauwa": 2800,
      "ducha": 2801,
      "urzę": 2802,
      "widzę": 2803,
      "poży": 2804,
      "Chry": 2805,
      "mach": 2806,
      "lin": 2807,
      "kawał": 2808,
      "pienię": 2809,
      "Bie": 2810,
      "wach": 2811,
      "wspomnie": 2812,
      "zwyczaj": 2813,
      "tnych": 2814,
      "Au": 2815,
      "Czyż": 2816,
      "godziny": 2817,
      "niosła": 2818,
      "współ": 2819,
      "niezmie": 2820,
      "porząd": 2821,
      "ckiego": 2822,
      "wyobra": 2823,
      "celu": 2824,
      "wspani": 2825,
      "cenia": 2826,
      "prawdy": 2827,
      "mąd": 2828,
      "Przed": 2829,
      "drugiej": 2830,
      "przyję": 2831,
      "Cie": 2832,
      "twór": 2833,
      "tań": 2834,
      "ciało": 2835,
      "twój": 2836,
      "zaczyna": 2837,
      "niejszych": 2838,
      "uroczy": 2839,
      "Si": 2840,
      "mieniem": 2841,
      "rano": 2842,
      "piec": 2843,
      "łych": 2844,
      "mieniu": 2845,
      "giel": 2846,
      "sprawy": 2847,
      "konia": 2848,
      "waru": 2849,
      "boż": 2850,
      "liwe": 2851,
      "wybu": 2852,
      "słońce": 2853,
      "sny": 2854,
      "oboję": 2855,
      "jemy": 2856,
      "dzej": 2857,
      "wolno": 2858,
      "ul": 2859,
      "słońca": 2860,
      "panią": 2861,
      "odwie": 2862,
      "stron": 2863,
      "ruch": 2864,
      "minu": 2865,
      "sek": 2866,
      "zga": 2867,
      "krzyk": 2868,
      "więzie": 2869,
      "obli": 2870,
      "wrócić": 2871,
      "wsi": 2872,
      "podej": 2873,
      "wana": 2874,
      "jów": 2875,
      "prowadził": 2876,
      "szki": 2877,
      "przyby": 2878,
      "Jego": 2879,
      "ciągu": 2880,
      "wną": 2881,
      "syn": 2882,
      "zawi": 2883,
      "klu": 2884,
      "moim": 2885,
      "poświę": 2886,
      "łzy": 2887,
      "ton": 2888,
      "przyczy": 2889,
      "szyć": 2890,
      "panna": 2891,
      "Sie": 2892,
      "dokto": 2893,
      "źć": 2894,
      "dnio": 2895,
      "mru": 2896,
      "Se": 2897,
      "Było": 2898,
      "potęż": 2899,
      "dzał": 2900,
      "skó": 2901,
      "zach": 2902,
      "pozy": 2903,
      "pozwoli": 2904,
      "jał": 2905,
      "imię": 2906,
      "ulicy": 2907,
      "dzieje": 2908,
      "zaga": 2909,
      "bić": 2910,
      "ff": 2911,
      "rzec": 2912,
      "nieszczęśli": 2913,
      "zasłu": 2914,
      "odwa": 2915,
      "tymczasem": 2916,
      "zdawało": 2917,
      "potrafi": 2918,
      "podróż": 2919,
      "pisał": 2920,
      "papie": 2921,
      "powoli": 2922,
      "twy": 2923,
      "niesio": 2924,
      "naszej": 2925,
      "Powie": 2926,
      "tobą": 2927,
      "samej": 2928,
      "owo": 2929,
      "siąc": 2930,
      "Każ": 2931,
      "jeste": 2932,
      "tności": 2933,
      "usi": 2934,
      "dwi": 2935,
      "poszedł": 2936,
      "pieniądze": 2937,
      "żół": 2938,
      "wyja": 2939,
      "spi": 2940,
      "wkrótce": 2941,
      "rzuci": 2942,
      "część": 2943,
      "dzony": 2944,
      "dłuż": 2945,
      "postanowi": 2946,
      "muzy": 2947,
      "stoi": 2948,
      "para": 2949,
      "kolo": 2950,
      "nięte": 2951,
      "pil": 2952,
      "wszak": 2953,
      "źle": 2954,
      "pora": 2955,
      "przeszło": 2956,
      "równa": 2957,
      "liście": 2958,
      "czyta": 2959,
      "nikogo": 2960,
      "Cz": 2961,
      "oraz": 2962,
      "śre": 2963,
      "prowadzić": 2964,
      "dzisiaj": 2965,
      "szczu": 2966,
      "zatem": 2967,
      "suro": 2968,
      "is": 2969,
      "nione": 2970,
      "wiedzieć": 2971,
      "waj": 2972,
      "wese": 2973,
      "okro": 2974,
      "zgu": 2975,
      "zami": 2976,
      "dużo": 2977,
      "serde": 2978,
      "bił": 2979,
      "tur": 2980,
      "najlep": 2981,
      "ckie": 2982,
      "dną": 2983,
      "śmiał": 2984,
      "francu": 2985,
      "wszedł": 2986,
      "wéj": 2987,
      "żadnego": 2988,
      "okre": 2989,
      "taka": 2990,
      "krwa": 2991,
      "fan": 2992,
      "spoli": 2993,
      "ucz": 2994,
      "wer": 2995,
      "lenia": 2996,
      "jutrz": 2997,
      "mąż": 2998,
      "tość": 2999,
      "gdyś": 3000,
      "stych": 3001,
      "znik": 3002,
      "szlachet": 3003,
      "namię": 3004,
      "snu": 3005,
      "Bogu": 3006,
      "trzech": 3007,
      "przestrze": 3008,
      "księży": 3009,
      "padła": 3010,
      "jakąś": 3011,
      "choćby": 3012,
      "zapła": 3013,
      "stole": 3014,
      "wszystkiego": 3015,
      "nowo": 3016,
      "uśmiechem": 3017,
      "poję": 3018,
      "ńców": 3019,
      "hi": 3020,
      "zdy": 3021,
      "dług": 3022,
      "zde": 3023,
      "com": 3024,
      "pokry": 3025,
      "ręka": 3026,
      "cno": 3027,
      "glądał": 3028,
      "wielkiego": 3029,
      "sro": 3030,
      "szenia": 3031,
      "oby": 3032,
      "dami": 3033,
      "wiecz": 3034,
      "uważ": 3035,
      "zadowo": 3036,
      "ak": 3037,
      "samym": 3038,
      "jutro": 3039,
      "malo": 3040,
      "wili": 3041,
      "wien": 3042,
      "ręki": 3043,
      "duszę": 3044,
      "trudno": 3045,
      "lam": 3046,
      "mocno": 3047,
      "równo": 3048,
      "zek": 3049,
      "dziecię": 3050,
      "Ho": 3051,
      "odezwał": 3052,
      "wza": 3053,
      "dobre": 3054,
      "Pier": 3055,
      "bod": 3056,
      "muszę": 3057,
      "odpowiedzi": 3058,
      "stanął": 3059,
      "tkę": 3060,
      "Jó": 3061,
      "salo": 3062,
      "żała": 3063,
      "morze": 3064,
      "widząc": 3065,
      "nięty": 3066,
      "ubo": 3067,
      "leń": 3068,
      "pochy": 3069,
      "wyczaj": 3070,
      "rozwi": 3071,
      "niebezpieczeń": 3072,
      "NA": 3073,
      "waniu": 3074,
      "skę": 3075,
      "cony": 3076,
      "wyzna": 3077,
      "żone": 3078,
      "chcąc": 3079,
      "spę": 3080,
      "okrop": 3081,
      "cieli": 3082,
      "ryka": 3083,
      "światło": 3084,
      "tysięcy": 3085,
      "dania": 3086,
      "śmiertel": 3087,
      "rodzaju": 3088,
      "wiając": 3089,
      "dotk": 3090,
      "szczą": 3091,
      "zajutrz": 3092,
      "dobra": 3093,
      "pomnie": 3094,
      "mili": 3095,
      "wale": 3096,
      "tować": 3097,
      "gan": 3098,
      "niała": 3099,
      "Trzeba": 3100,
      "kwa": 3101,
      "tło": 3102,
      "wszędzie": 3103,
      "reli": 3104,
      "szukać": 3105,
      "miasto": 3106,
      "pomoc": 3107,
      "Hen": 3108,
      "ducho": 3109,
      "emu": 3110,
      "grz": 3111,
      "zrozu": 3112,
      "okru": 3113,
      "przyszedł": 3114,
      "rowi": 3115,
      "wprost": 3116,
      "Tymczasem": 3117,
      "cka": 3118,
      "prędzej": 3119,
      "istnie": 3120,
      "mek": 3121,
      "obowiąz": 3122,
      "Karo": 3123,
      "Zo": 3124,
      "dusz": 3125,
      "wczoraj": 3126,
      "her": 3127,
      "rąk": 3128,
      "dusza": 3129,
      "gdzieś": 3130,
      "gospoda": 3131,
      "kroć": 3132,
      "właszcza": 3133,
      "zrobić": 3134,
      "wątpli": 3135,
      "żoną": 3136,
      "krzyknął": 3137,
      "jechać": 3138,
      "stym": 3139,
      "łka": 3140,
      "jeź": 3141,
      "grani": 3142,
      "san": 3143,
      "lona": 3144,
      "błą": 3145,
      "rob": 3146,
      "Ry": 3147,
      "powiadał": 3148,
      "rać": 3149,
      "gać": 3150,
      "los": 3151,
      "brata": 3152,
      "history": 3153,
      "chłopa": 3154,
      "stoso": 3155,
      "wesoło": 3156,
      "hy": 3157,
      "20": 3158,
      "litera": 3159,
      "am": 3160,
      "czona": 3161,
      "nadz": 3162,
      "Musi": 3163,
      "myśleć": 3164,
      "ryce": 3165,
      "szla": 3166,
      "ponu": 3167,
      "patry": 3168,
      "przynajmniej": 3169,
      "ném": 3170,
      "Jeszcze": 3171,
      "lenie": 3172,
      "spytał": 3173,
      "rozmai": 3174,
      "dniu": 3175,
      "stw": 3176,
      "Chrystu": 3177,
      "nietylko": 3178,
      "siedzi": 3179,
      "zało": 3180,
      "czko": 3181,
      "Ksią": 3182,
      "arę": 3183,
      "początku": 3184,
      "Wiel": 3185,
      "zów": 3186,
      "Jedna": 3187,
      "ącą": 3188,
      "inny": 3189,
      "zaczęła": 3190,
      "żni": 3191,
      "nta": 3192,
      "widocznie": 3193,
      "żadnej": 3194,
      "podobna": 3195,
      "prędko": 3196,
      "zwierzę": 3197,
      "szere": 3198,
      "Jestem": 3199,
      "uczucia": 3200,
      "żyje": 3201,
      "zmy": 3202,
      "dziesz": 3203,
      "rował": 3204,
      "nauczy": 3205,
      "obia": 3206,
      "szczegól": 3207,
      "odzy": 3208,
      "czym": 3209,
      "gląda": 3210,
      "qu": 3211,
      "chów": 3212,
      "rzeczywi": 3213,
      "starego": 3214,
      "szto": 3215,
      "siła": 3216,
      "nó": 3217,
      "bisku": 3218,
      "Nad": 3219,
      "podniósł": 3220,
      "końca": 3221,
      "Zda": 3222,
      "zaledwie": 3223,
      "bieg": 3224,
      "byłoby": 3225,
      "jakich": 3226,
      "Jako": 3227,
      "brak": 3228,
      "ńskich": 3229,
      "gosła": 3230,
      "rucho": 3231,
      "nąwszy": 3232,
      "wielkim": 3233,
      "postać": 3234,
      "żeś": 3235,
      "wością": 3236,
      "słyszał": 3237,
      "ńcu": 3238,
      "niemal": 3239,
      "ota": 3240,
      "Zna": 3241,
      "kłem": 3242,
      "powiem": 3243,
      "włosy": 3244,
      "czoło": 3245,
      "zachwy": 3246,
      "nne": 3247,
      "dlaczego": 3248,
      "lika": 3249,
      "cje": 3250,
      "ruszył": 3251,
      "nadto": 3252,
      "niczem": 3253,
      "siedział": 3254,
      "nadzwyczaj": 3255,
      "mer": 3256,
      "zmia": 3257,
      "trzymy": 3258,
      "wysta": 3259,
      "cztery": 3260,
      "Krzy": 3261,
      "tysią": 3262,
      "wybo": 3263,
      "łaska": 3264,
      "nąłem": 3265,
      "logi": 3266,
      "nowy": 3267,
      "czaro": 3268,
      "trzeć": 3269,
      "okry": 3270,
      "patrząc": 3271,
      "kur": 3272,
      "względem": 3273,
      "mowa": 3274,
      "wielkiej": 3275,
      "ńskie": 3276,
      "jach": 3277,
      "okna": 3278,
      "swobod": 3279,
      "sna": 3280,
      "dziemy": 3281,
      "panem": 3282,
      "Ber": 3283,
      "szeni": 3284,
      "pola": 3285,
      "bija": 3286,
      "dokoła": 3287,
      "zwykł": 3288,
      "doświad": 3289,
      "Sam": 3290,
      "pokój": 3291,
      "oczeki": 3292,
      "trzą": 3293,
      "zawołała": 3294,
      "powiedziała": 3295,
      "stó": 3296,
      "kru": 3297,
      "kape": 3298,
      "polity": 3299,
      "Ona": 3300,
      "rzeń": 3301,
      "spojrzał": 3302,
      "westch": 3303,
      "słysz": 3304,
      "słod": 3305,
      "gani": 3306,
      "żyli": 3307,
      "zrozumie": 3308,
      "droga": 3309,
      "odkry": 3310,
      "pun": 3311,
      "niegdyś": 3312,
      "słysze": 3313,
      "nienawi": 3314,
      "posłu": 3315,
      "jeżdża": 3316,
      "czonych": 3317,
      "wemi": 3318,
      "wrażenie": 3319,
      "cone": 3320,
      "mowy": 3321,
      "zasta": 3322,
      "Świę": 3323,
      "mając": 3324,
      "nosił": 3325,
      "zamiast": 3326,
      "bel": 3327,
      "ostroż": 3328,
      "ktor": 3329,
      "pieniędzy": 3330,
      "Kon": 3331,
      "Praw": 3332,
      "chni": 3333,
      "przyjaciel": 3334,
      "Wtedy": 3335,
      "inni": 3336,
      "zdol": 3337,
      "mogłem": 3338,
      "ocho": 3339,
      "posiada": 3340,
      "rozko": 3341,
      "rzeniem": 3342,
      "rana": 3343,
      "rne": 3344,
      "Pie": 3345,
      "Zresztą": 3346,
      "nny": 3347,
      "mość": 3348,
      "najwyż": 3349,
      "podoba": 3350,
      "Ge": 3351,
      "pali": 3352,
      "podró": 3353,
      "wina": 3354,
      "Czem": 3355,
      "ogar": 3356,
      "wez": 3357,
      "żąda": 3358,
      "ludu": 3359,
      "ogie": 3360,
      "panowie": 3361,
      "wście": 3362,
      "czała": 3363,
      "skło": 3364,
      "rój": 3365,
      "zwłaszcza": 3366,
      "zobaczy": 3367,
      "głośno": 3368,
      "sali": 3369,
      "wieczór": 3370,
      "pisać": 3371,
      "Mój": 3372,
      "przyjaciela": 3373,
      "poznać": 3374,
      "Wszyscy": 3375,
      "świą": 3376,
      "groź": 3377,
      "zdoby": 3378,
      "hono": 3379,
      "boha": 3380,
      "ńca": 3381,
      "wzrok": 3382,
      "zwycza": 3383,
      "znak": 3384,
      "nij": 3385,
      "oświad": 3386,
      "wolna": 3387,
      "RO": 3388,
      "ratu": 3389,
      "zamku": 3390,
      "posa": 3391,
      "pospoli": 3392,
      "opar": 3393,
      "dzisz": 3394,
      "ment": 3395,
      "dzili": 3396,
      "spotk": 3397,
      "Mam": 3398,
      "doli": 3399,
      "stóp": 3400,
      "pory": 3401,
      "bierze": 3402,
      "XV": 3403,
      "bem": 3404,
      "us": 3405,
      "tnym": 3406,
      "odle": 3407,
      "noszą": 3408,
      "Czu": 3409,
      "szenie": 3410,
      "tygo": 3411,
      "rady": 3412,
      "wszelkie": 3413,
      "IA": 3414,
      "uwagę": 3415,
      "pewnego": 3416,
      "przysię": 3417,
      "Dobrze": 3418,
      "Król": 3419,
      "drogą": 3420,
      "przezna": 3421,
      "dźwię": 3422,
      "same": 3423,
      "stąpić": 3424,
      "dzać": 3425,
      "niejszą": 3426,
      "Ki": 3427,
      "cel": 3428,
      "pogo": 3429,
      "Mło": 3430,
      "éć": 3431,
      "mieście": 3432,
      "sied": 3433,
      "ostatni": 3434,
      "opa": 3435,
      "uf": 3436,
      "sar": 3437,
      "błęki": 3438,
      "wasz": 3439,
      "księcia": 3440,
      "poto": 3441,
      "poch": 3442,
      "niepoko": 3443,
      "mówią": 3444,
      "groz": 3445,
      "sym": 3446,
      "różne": 3447,
      "nato": 3448,
      "wny": 3449,
      "drzwia": 3450,
      "té": 3451,
      "całego": 3452,
      "Dy": 3453,
      "szedłem": 3454,
      "wróciła": 3455,
      "doskona": 3456,
      "tłuma": 3457,
      "wyciąg": 3458,
      "dawna": 3459,
      "nikiem": 3460,
      "wiary": 3461,
      "nowie": 3462,
      "łym": 3463,
      "wieczorem": 3464,
      "nkiem": 3465,
      "śmiało": 3466,
      "kup": 3467,
      "proś": 3468,
      "ścija": 3469,
      "ckich": 3470,
      "toli": 3471,
      "przede": 3472,
      "któremu": 3473,
      "wala": 3474,
      "zamia": 3475,
      "Wil": 3476,
      "morza": 3477,
      "przypomina": 3478,
      "mać": 3479,
      "liwy": 3480,
      "stego": 3481,
      "drugiego": 3482,
      "tanie": 3483,
      "ogień": 3484,
      "młodzie": 3485,
      "niewin": 3486,
      "wielka": 3487,
      "zarazem": 3488,
      "odrzekł": 3489,
      "bied": 3490,
      "sunął": 3491,
      "puścił": 3492,
      "została": 3493,
      "kiedyś": 3494,
      "czes": 3495,
      "brat": 3496,
      "kazała": 3497,
      "wierzy": 3498,
      "Sły": 3499,
      "skry": 3500,
      "łej": 3501,
      "siej": 3502,
      "czyło": 3503,
      "młodzień": 3504,
      "napo": 3505,
      "nagro": 3506,
      "powszech": 3507,
      "].": 3508,
      "cesa": 3509,
      "Pu": 3510,
      "Ne": 3511,
      "przytom": 3512,
      "Cy": 3513,
      "mini": 3514,
      "AN": 3515,
      "pomimo": 3516,
      "wzrokiem": 3517,
      "lon": 3518,
      "przeciwko": 3519,
      "prawi": 3520,
      "niemie": 3521,
      "niejsza": 3522,
      "mości": 3523,
      "kościoła": 3524,
      "gnął": 3525,
      "tnej": 3526,
      "uzna": 3527,
      "mon": 3528,
      "patrzył": 3529,
      "stronie": 3530,
      "wyją": 3531,
      "Proszę": 3532,
      "bliż": 3533,
      "sposobem": 3534,
      "urzą": 3535,
      "Ależ": 3536,
      "koście": 3537,
      "zbo": 3538,
      "pełni": 3539,
      "ufa": 3540,
      "Fa": 3541,
      "słem": 3542,
      "El": 3543,
      "jakaś": 3544,
      "niewy": 3545,
      "ad": 3546,
      "wprawdzie": 3547,
      "Ani": 3548,
      "nom": 3549,
      "cału": 3550,
      "wsta": 3551,
      "znie": 3552,
      "twe": 3553,
      "wydo": 3554,
      "samą": 3555,
      "okolicz": 3556,
      "gre": 3557,
      "człowiekiem": 3558,
      "uczynić": 3559,
      "wiej": 3560,
      "psu": 3561,
      "posła": 3562,
      "nareszcie": 3563,
      "drzew": 3564,
      "Bra": 3565,
      "rozum": 3566,
      "Otóż": 3567,
      "chodząc": 3568,
      "powietrze": 3569,
      "skra": 3570,
      "bał": 3571,
      "ozna": 3572,
      "podobne": 3573,
      "Oczy": 3574,
      "uczci": 3575,
      "Ła": 3576,
      "koni": 3577,
      "jakże": 3578,
      "radości": 3579,
      "opi": 3580,
      "według": 3581,
      "jakoś": 3582,
      "kraj": 3583,
      "nań": 3584,
      "ledwie": 3585,
      "chętnie": 3586,
      "ctwo": 3587,
      "znam": 3588,
      "różnych": 3589,
      "ryk": 3590,
      "ostate": 3591,
      "małżeń": 3592,
      "maty": 3593,
      "wielkich": 3594,
      "pewnie": 3595,
      "przykład": 3596,
      "dostrze": 3597,
      "Mon": 3598,
      "czyły": 3599,
      "takiej": 3600,
      "pomocy": 3601,
      "piękna": 3602,
      "poczci": 3603,
      "całym": 3604,
      "stąd": 3605,
      "jecha": 3606,
      "mówię": 3607,
      "przywi": 3608,
      "podobnie": 3609,
      "cyę": 3610,
      "ziemia": 3611,
      "cień": 3612,
      "będziemy": 3613,
      "Fe": 3614,
      "roni": 3615,
      "zrę": 3616,
      "Patrz": 3617,
      "lnych": 3618,
      "myślą": 3619,
      "potrzebu": 3620,
      "stety": 3621,
      "niami": 3622,
      "pożegna": 3623,
      "możesz": 3624,
      "służą": 3625,
      "Pola": 3626,
      "mogły": 3627,
      "głą": 3628,
      "każdego": 3629,
      "cenie": 3630,
      "spoczy": 3631,
      "skąd": 3632,
      "drugą": 3633,
      "ciele": 3634,
      "nowego": 3635,
      "rozmowy": 3636,
      "moral": 3637,
      "fun": 3638,
      "dry": 3639,
      "rowie": 3640,
      "prostu": 3641,
      "nkę": 3642,
      "spad": 3643,
      "Ob": 3644,
      "krą": 3645,
      "mował": 3646,
      "wspól": 3647,
      "lia": 3648,
      "wiatr": 3649,
      "dya": 3650,
      "więcéj": 3651,
      "żal": 3652,
      "żaden": 3653,
      "istocie": 3654,
      "Ser": 3655,
      "tuż": 3656,
      "byłby": 3657,
      "Sto": 3658,
      "czasów": 3659,
      "powinien": 3660,
      "zwraca": 3661,
      "rzały": 3662,
      "grzy": 3663,
      "widziałem": 3664,
      "Wszak": 3665,
      "las": 3666,
      "wione": 3667,
      "chrześcija": 3668,
      "25": 3669,
      "światła": 3670,
      "Ca": 3671,
      "mojego": 3672,
      "kapelu": 3673,
      "filo": 3674,
      "czemu": 3675,
      "Sza": 3676,
      "przeto": 3677,
      "Wło": 3678,
      "sprawę": 3679,
      "całkiem": 3680,
      "Lo": 3681,
      "listy": 3682,
      "rabia": 3683,
      "brzegu": 3684,
      "Jakże": 3685,
      "poprzed": 3686,
      "wyro": 3687,
      "próżno": 3688,
      "rzucić": 3689,
      "ille": 3690,
      "tałem": 3691,
      "Myś": 3692,
      "czoną": 3693,
      "So": 3694,
      "zrobił": 3695,
      "mężczyz": 3696,
      "broni": 3697,
      "kul": 3698,
      "rodziny": 3699,
      "zato": 3700,
      "dzone": 3701,
      "ks": 3702,
      "menta": 3703,
      "kochany": 3704,
      "cierpi": 3705,
      "tury": 3706,
      "krzyw": 3707,
      "stanow": 3708,
      "przypad": 3709,
      "kapła": 3710,
      "jakiegoś": 3711,
      "kroków": 3712,
      "tana": 3713,
      "okiem": 3714,
      "dawał": 3715,
      "ńczy": 3716,
      "wszystkim": 3717,
      "pusty": 3718,
      "pośpie": 3719,
      "przepa": 3720,
      "panny": 3721,
      "całem": 3722,
      "błogosła": 3723,
      "okie": 3724,
      "przychodzi": 3725,
      "wyżej": 3726,
      "dyna": 3727,
      "wanych": 3728,
      "Anto": 3729,
      "żelaz": 3730,
      "padek": 3731,
      "leni": 3732,
      "słowem": 3733,
      "Dlaczego": 3734,
      "sznie": 3735,
      "nadziei": 3736,
      "soby": 3737,
      "laty": 3738,
      "zazdro": 3739,
      "Aż": 3740,
      "okrzy": 3741,
      "pierwszej": 3742,
      "dzono": 3743,
      "nii": 3744,
      ".,": 3745,
      "twego": 3746,
      "pewno": 3747,
      "przyjdzie": 3748,
      "niczego": 3749,
      "lać": 3750,
      "zała": 3751,
      "tków": 3752,
      "zbliża": 3753,
      "woda": 3754,
      "pośród": 3755,
      "Or": 3756,
      "błaga": 3757,
      "duch": 3758,
      "pewien": 3759,
      "mawia": 3760,
      "hrabia": 3761,
      "wojsko": 3762,
      "ble": 3763,
      "Sze": 3764,
      "wrót": 3765,
      "ńskiej": 3766,
      "Ste": 3767,
      "zap": 3768,
      "godzin": 3769,
      "kół": 3770,
      "Pana": 3771,
      "mując": 3772,
      "Dziś": 3773,
      "nice": 3774,
      "szer": 3775,
      "tował": 3776,
      "cież": 3777,
      "pełne": 3778,
      "nica": 3779,
      "łagod": 3780,
      "byśmy": 3781,
      "wiała": 3782,
      "trzu": 3783,
      "następnie": 3784,
      "Niem": 3785,
      "natury": 3786,
      "narze": 3787,
      "mężczy": 3788,
      "zor": 3789,
      "pienia": 3790,
      "pomyśl": 3791,
      "wystar": 3792,
      "zmę": 3793,
      "przytem": 3794,
      "piękne": 3795,
      "bliz": 3796,
      "dka": 3797,
      "kłopo": 3798,
      "niewol": 3799,
      "środku": 3800,
      "pach": 3801,
      "wóz": 3802,
      "uło": 3803,
      "dki": 3804,
      "obywa": 3805,
      "th": 3806,
      "rzeź": 3807,
      "czekać": 3808,
      "ctwa": 3809,
      "wywo": 3810,
      "styn": 3811,
      "polu": 3812,
      "nkach": 3813,
      "pomocą": 3814,
      "zielo": 3815,
      "Mich": 3816,
      "kasz": 3817,
      "doskonale": 3818,
      "Nikt": 3819,
      "sława": 3820,
      "tnego": 3821,
      "naście": 3822,
      "powtarza": 3823,
      "tność": 3824,
      "każdej": 3825,
      "kor": 3826,
      "rozpo": 3827,
      "bawi": 3828,
      "znu": 3829,
      "tea": 3830,
      "ss": 3831,
      "RA": 3832,
      "pija": 3833,
      "Nigdy": 3834,
      "przewo": 3835,
      "słuchał": 3836,
      "dziesiąt": 3837,
      "ele": 3838,
      "nowych": 3839,
      "każe": 3840,
      "oł": 3841,
      "napa": 3842,
      "poj": 3843,
      "swojego": 3844,
      "małe": 3845,
      "DZ": 3846,
      "czono": 3847,
      "Wreszcie": 3848,
      "liła": 3849,
      "zra": 3850,
      "grun": 3851,
      "Józe": 3852,
      "utra": 3853,
      "uści": 3854,
      "osa": 3855,
      "pogar": 3856,
      "żąc": 3857,
      "zac": 3858,
      "niom": 3859,
      "wle": 3860,
      "musiała": 3861,
      "Choć": 3862,
      "nasza": 3863,
      "gina": 3864,
      "nicą": 3865,
      "mny": 3866,
      "prosił": 3867,
      "przeba": 3868,
      "skutek": 3869,
      "podzi": 3870,
      "poku": 3871,
      "wszakże": 3872,
      "wich": 3873,
      "jesteśmy": 3874,
      "filozo": 3875,
      "oku": 3876,
      "wykona": 3877,
      "łach": 3878,
      "wzajem": 3879,
      "gorz": 3880,
      "Tego": 3881,
      "wyr": 3882,
      "psy": 3883,
      "kobiet": 3884,
      "postępo": 3885,
      "bów": 3886,
      "Jeden": 3887,
      "twem": 3888,
      "stali": 3889,
      "ony": 3890,
      "Ludwi": 3891,
      "spokój": 3892,
      "tuje": 3893,
      "odrazu": 3894,
      "anio": 3895,
      "wysoko": 3896,
      "złego": 3897,
      "żyłem": 3898,
      "umiał": 3899,
      "osób": 3900,
      "Nagle": 3901,
      "budo": 3902,
      "słał": 3903,
      "wodę": 3904,
      "dziesięć": 3905,
      "królew": 3906,
      "mal": 3907,
      "nędz": 3908,
      "rozkaz": 3909,
      "dzisiej": 3910,
      "Bez": 3911,
      "Ol": 3912,
      "jaś": 3913,
      "drę": 3914,
      "zanim": 3915,
      "rała": 3916,
      "istotnie": 3917,
      "téż": 3918,
      "odpowiedziała": 3919,
      "poczy": 3920,
      "dzięki": 3921,
      "doda": 3922,
      "walki": 3923,
      "tytu": 3924,
      "hra": 3925,
      "mun": 3926,
      "11": 3927,
      "pen": 3928,
      "Gło": 3929,
      "bre": 3930,
      "weł": 3931,
      "lekko": 3932,
      "uprzej": 3933,
      "ST": 3934,
      "Ponieważ": 3935,
      "mier": 3936,
      "hand": 3937,
      "Hi": 3938,
      "tora": 3939,
      "ciemności": 3940,
      "podróży": 3941,
      "Pię": 3942,
      "zwrócił": 3943,
      "biegła": 3944,
      "połą": 3945,
      "rób": 3946,
      "drugim": 3947,
      "poczem": 3948,
      "żonę": 3949,
      "idą": 3950,
      "warzy": 3951,
      "dawniej": 3952,
      "oca": 3953,
      "kot": 3954,
      "lami": 3955,
      "roboty": 3956,
      "białe": 3957,
      "wyrzu": 3958,
      "nosząc": 3959,
      "pochwy": 3960,
      "sić": 3961,
      "ścić": 3962,
      "wów": 3963,
      "macie": 3964,
      "byle": 3965,
      "częście": 3966,
      "koły": 3967,
      "któréj": 3968,
      "Dzię": 3969,
      "biega": 3970,
      "sąsia": 3971,
      "natura": 3972,
      "czych": 3973,
      "bok": 3974,
      "ve": 3975,
      "szepnął": 3976,
      "lja": 3977,
      "dłużej": 3978,
      "brała": 3979,
      "rzeki": 3980,
      "próbo": 3981,
      "Stra": 3982,
      "SZ": 3983,
      "dzieścia": 3984,
      "dole": 3985,
      "żeniem": 3986,
      "emy": 3987,
      "dziecka": 3988,
      "cznem": 3989,
      "Bardzo": 3990,
      "szać": 3991,
      "gotów": 3992,
      "lej": 3993,
      "przygotowa": 3994,
      "srebr": 3995,
      "nieszczęście": 3996,
      "gałę": 3997,
      "czło": 3998,
      "sześć": 3999,
      "zapew": 4000,
      "nara": 4001,
      "stoj": 4002,
      "jeno": 4003,
      "czarne": 4004,
      "uwagi": 4005,
      "córki": 4006,
      "utwo": 4007,
      "sztuki": 4008,
      "wki": 4009,
      "twoja": 4010,
      "pem": 4011,
      "delika": 4012,
      "powiedz": 4013,
      "wnet": 4014,
      "nadzieję": 4015,
      "chory": 4016,
      "oży": 4017,
      "żon": 4018,
      "wieki": 4019,
      "stości": 4020,
      "pać": 4021,
      "ręko": 4022,
      "dostać": 4023,
      "złe": 4024,
      "lała": 4025,
      "lor": 4026,
      "pałacu": 4027,
      "głęboko": 4028,
      "ckiej": 4029,
      "kuję": 4030,
      "chleb": 4031,
      "kaj": 4032,
      "upły": 4033,
      "siłą": 4034,
      "wolę": 4035,
      "mocy": 4036,
      "fizy": 4037,
      "Kar": 4038,
      "przypom": 4039,
      "postaci": 4040,
      "dzier": 4041,
      "wyraźnie": 4042,
      "ksiądz": 4043,
      "gdybym": 4044,
      "prawy": 4045,
      "podło": 4046,
      "maj": 4047,
      "pamięci": 4048,
      "złota": 4049,
      "wzbu": 4050,
      "wnątrz": 4051,
      "24": 4052,
      "znaleźć": 4053,
      "niemu": 4054,
      "teli": 4055,
      "wstrę": 4056,
      "wewnętrz": 4057,
      "odem": 4058,
      "pch": 4059,
      "waniem": 4060,
      "syj": 4061,
      "oglą": 4062,
      "dzeniu": 4063,
      "30": 4064,
      "niejszym": 4065,
      "milczeniu": 4066,
      "niku": 4067,
      "dziewczyna": 4068,
      "rachu": 4069,
      "ogra": 4070,
      "kana": 4071,
      "wyraź": 4072,
      "abym": 4073,
      "dały": 4074,
      "chą": 4075,
      "pono": 4076,
      "leży": 4077,
      "KA": 4078,
      "znajduje": 4079,
      "set": 4080,
      "górze": 4081,
      "lnej": 4082,
      "prawdo": 4083,
      "nin": 4084,
      "pociąg": 4085,
      "znakomi": 4086,
      "chodu": 4087,
      "szam": 4088,
      "słyszeć": 4089,
      "pewnością": 4090,
      "niewia": 4091,
      "biego": 4092,
      "str": 4093,
      "dozna": 4094,
      "uczyni": 4095,
      "chleba": 4096,
      "niejszego": 4097,
      "Piotr": 4098,
      "kować": 4099,
      "wychodzi": 4100,
      "lną": 4101,
      "hała": 4102,
      "przyszła": 4103,
      "wojny": 4104,
      "tele": 4105,
      "wład": 4106,
      "owe": 4107,
      "dźmi": 4108,
      "państwa": 4109,
      "widziała": 4110,
      "bami": 4111,
      "nieszczę": 4112,
      "czką": 4113,
      "żały": 4114,
      "kowie": 4115,
      "twych": 4116,
      "wziąć": 4117,
      "ałe": 4118,
      "ostatnie": 4119,
      "ujrzał": 4120,
      "pog": 4121,
      "uci": 4122,
      "dba": 4123,
      "uczynił": 4124,
      "oce": 4125,
      "niecierpli": 4126,
      "fra": 4127,
      "tali": 4128,
      "źród": 4129,
      "chwilą": 4130,
      "wicza": 4131,
      "posą": 4132,
      "Czemu": 4133,
      "lip": 4134,
      "Her": 4135,
      "powierz": 4136,
      "stołu": 4137,
      "strzel": 4138,
      "uspoko": 4139,
      "rować": 4140,
      "powiedzia": 4141,
      "knie": 4142,
      "chcą": 4143,
      "śń": 4144,
      "poczu": 4145,
      "codzien": 4146,
      "IV": 4147,
      "powsta": 4148,
      "pieśni": 4149,
      "gospodar": 4150,
      "dziestu": 4151,
      "zebra": 4152,
      "zjawi": 4153,
      "godzinę": 4154,
      "zamy": 4155,
      "ludźmi": 4156,
      "Każdy": 4157,
      "najbardziej": 4158,
      "robił": 4159,
      "dobrego": 4160,
      "poznał": 4161,
      "niekiedy": 4162,
      "gnąć": 4163,
      "przybył": 4164,
      "młod": 4165,
      "czwar": 4166,
      "słuchać": 4167,
      "nóg": 4168,
      "profe": 4169,
      "żadnych": 4170,
      "rowa": 4171,
      "własnej": 4172,
      "skoczył": 4173,
      "pierwszego": 4174,
      "Szy": 4175,
      "niona": 4176,
      "Miał": 4177,
      "lasu": 4178,
      "angiel": 4179,
      "Zy": 4180,
      "Chło": 4181,
      "rzyło": 4182,
      "kuje": 4183,
      "Su": 4184,
      "mnó": 4185,
      "cof": 4186,
      "stów": 4187,
      "tura": 4188,
      "powietrzu": 4189,
      "naszym": 4190,
      "nową": 4191,
      "ustach": 4192,
      "del": 4193,
      "zuch": 4194,
      "osobi": 4195,
      "skać": 4196,
      "puścić": 4197,
      "skały": 4198,
      "żyły": 4199,
      "tęskno": 4200,
      "wrza": 4201,
      "dziewczę": 4202,
      "osła": 4203,
      "Nawet": 4204,
      "odpowiada": 4205,
      "cją": 4206,
      "stki": 4207,
      "cyą": 4208,
      "raca": 4209,
      "wnego": 4210,
      "żąd": 4211,
      "patrzeć": 4212,
      "pisy": 4213,
      "wizy": 4214,
      "nierucho": 4215,
      "czce": 4216,
      "wielko": 4217,
      "przyszłość": 4218,
      "Człowie": 4219,
      "stałem": 4220,
      "przywiąza": 4221,
      "ciela": 4222,
      "pomy": 4223,
      "zwolna": 4224,
      "wiązek": 4225,
      "ponad": 4226,
      "państwo": 4227,
      "dwadzieścia": 4228,
      "plo": 4229,
      "kazać": 4230,
      "przyro": 4231,
      "ustan": 4232,
      "uczuć": 4233,
      "jemnie": 4234,
      "szała": 4235,
      "braci": 4236,
      "wymaga": 4237,
      "Bądź": 4238,
      "dziesięciu": 4239,
      "Polski": 4240,
      "odź": 4241,
      "histor": 4242,
      "pozostał": 4243,
      "miłosier": 4244,
      "przerwał": 4245,
      "dziłem": 4246,
      "kieszeni": 4247,
      "uczucie": 4248,
      "owa": 4249,
      "wiono": 4250,
      "ener": 4251,
      "San": 4252,
      "ciężko": 4253,
      "kierunku": 4254,
      "czytać": 4255,
      "myślnie": 4256,
      "dół": 4257,
      "prosić": 4258,
      "zostanie": 4259,
      "Wiem": 4260,
      "zostać": 4261,
      "fanta": 4262,
      "pośre": 4263,
      "żek": 4264,
      "darem": 4265,
      "Kości": 4266,
      "Dru": 4267,
      "okno": 4268,
      "spostrzegł": 4269,
      "usiło": 4270,
      "pió": 4271,
      "któremi": 4272,
      "Ojcie": 4273,
      "Wszystkie": 4274,
      "nade": 4275,
      "myślę": 4276,
      "skrzydła": 4277,
      "łez": 4278,
      "Ojciec": 4279,
      "Hu": 4280,
      "23": 4281,
      "telu": 4282,
      "wodą": 4283,
      "nowej": 4284,
      "zał": 4285,
      "baro": 4286,
      "gwałtow": 4287,
      "fie": 4288,
      "gnia": 4289,
      "żeniu": 4290,
      "jno": 4291,
      "Jednak": 4292,
      "wnik": 4293,
      "religi": 4294,
      "wskim": 4295,
      "czegoś": 4296,
      "kara": 4297,
      "jusz": 4298,
      "możemy": 4299,
      "usu": 4300,
      "rzuciła": 4301,
      "ńskim": 4302,
      "młodo": 4303,
      "lnego": 4304,
      "wstrzy": 4305,
      "młodego": 4306,
      "zasło": 4307,
      "ludzkie": 4308,
      "dziwnie": 4309,
      "proce": 4310,
      "rzawszy": 4311,
      "doku": 4312,
      "urzędni": 4313,
      "sowi": 4314,
      "następu": 4315,
      "?“": 4316,
      "ściany": 4317,
      "wna": 4318,
      "zatrzymał": 4319,
      "prowadza": 4320,
      "rośli": 4321,
      "czów": 4322,
      "Skoro": 4323,
      "ory": 4324,
      "wierzyć": 4325,
      "innym": 4326,
      "czyż": 4327,
      "cichy": 4328,
      "obję": 4329,
      "Stary": 4330,
      "St": 4331,
      "możli": 4332,
      "zwi": 4333,
      "wiec": 4334,
      "panów": 4335,
      "rając": 4336,
      "polo": 4337,
      "jakiejś": 4338,
      "szone": 4339,
      "włó": 4340,
      "niki": 4341,
      "odga": 4342,
      "pogrze": 4343,
      "Jeste": 4344,
      "wiedzi": 4345,
      "kwiaty": 4346,
      "nięcia": 4347,
      "och": 4348,
      "sne": 4349,
      "śpi": 4350,
      "łzami": 4351,
      "jeść": 4352,
      "wid": 4353,
      "potrzebo": 4354,
      "godzinie": 4355,
      "dziewi": 4356,
      "organi": 4357,
      "ury": 4358,
      "mować": 4359,
      "zobaczyć": 4360,
      "rzony": 4361,
      "głosy": 4362,
      "dował": 4363,
      "eg": 4364,
      "pocho": 4365,
      "progu": 4366,
      "ober": 4367,
      "nazywa": 4368,
      "rzeczywiście": 4369,
      "oprócz": 4370,
      "stość": 4371,
      "miaste": 4372,
      "głowa": 4373,
      "gno": 4374,
      "sfe": 4375,
      "mięk": 4376,
      "siero": 4377,
      "loną": 4378,
      "wojo": 4379,
      "świąty": 4380,
      "nięta": 4381,
      "wiedziała": 4382,
      "jmy": 4383,
      "błyska": 4384,
      "zły": 4385,
      "dwaj": 4386,
      "ńska": 4387,
      "obło": 4388,
      "dokona": 4389,
      "rzałem": 4390,
      "dałem": 4391,
      "klaszto": 4392,
      "Dłu": 4393,
      "dopóki": 4394,
      "mary": 4395,
      "własne": 4396,
      "potém": 4397,
      "Ame": 4398,
      "tno": 4399,
      "zdrowie": 4400,
      "puszcze": 4401,
      "swojem": 4402,
      "pytanie": 4403,
      "będąc": 4404,
      "wstrzą": 4405,
      "deł": 4406,
      "zbiera": 4407,
      "łóma": 4408,
      "narodo": 4409,
      "podda": 4410,
      "towi": 4411,
      "Mówi": 4412,
      "oznaj": 4413,
      "leżą": 4414,
      "obecnie": 4415,
      "przykła": 4416,
      "charakte": 4417,
      "],": 4418,
      "CH": 4419,
      "Ot": 4420,
      "dłoń": 4421,
      "Księ": 4422,
      "wiod": 4423,
      "podzie": 4424,
      "niezmiernie": 4425,
      "nauki": 4426,
      "wielce": 4427,
      "gla": 4428,
      "kata": 4429,
      "żywszy": 4430,
      "dziło": 4431,
      "dzieła": 4432,
      "fla": 4433,
      "ńcy": 4434,
      "Euro": 4435,
      "wasze": 4436,
      "kory": 4437,
      "zaprze": 4438,
      "mieszkania": 4439,
      "głe": 4440,
      "słychać": 4441,
      "pewną": 4442,
      "ciej": 4443,
      "trzeci": 4444,
      "pioru": 4445,
      "życiem": 4446,
      "pocz": 4447,
      "Mor": 4448,
      "twarzą": 4449,
      "wiedząc": 4450,
      "łki": 4451,
      "patrzał": 4452,
      "ludziom": 4453,
      "rozpaczy": 4454,
      "naprawdę": 4455,
      "pomyślał": 4456,
      "net": 4457,
      "wódz": 4458,
      "oczami": 4459,
      "minut": 4460,
      "zanie": 4461,
      "pełnia": 4462,
      "kłam": 4463,
      "son": 4464,
      "ukła": 4465,
      "odej": 4466,
      "oz": 4467,
      "krwią": 4468,
      "poprze": 4469,
      "naraz": 4470,
      "koniecznie": 4471,
      "spać": 4472,
      "Stani": 4473,
      "oś": 4474,
      "rozkosz": 4475,
      "Di": 4476,
      "święty": 4477,
      "szale": 4478,
      "dowód": 4479,
      "jony": 4480,
      "umarł": 4481,
      "ńce": 4482,
      "głup": 4483,
      "Alek": 4484,
      "rozmowę": 4485,
      "fy": 4486,
      "preze": 4487,
      "zamiar": 4488,
      "rzej": 4489,
      "fal": 4490,
      "podsta": 4491,
      "otacza": 4492,
      "lina": 4493,
      "czekał": 4494,
      "nnych": 4495,
      "wnia": 4496,
      "kta": 4497,
      "nazwisko": 4498,
      "cye": 4499,
      "krza": 4500,
      "ana": 4501,
      "ot": 4502,
      "godnie": 4503,
      "miesią": 4504,
      "sługi": 4505,
      "sercem": 4506,
      "piękny": 4507,
      "Czar": 4508,
      "zdawał": 4509,
      "Mał": 4510,
      "zimie": 4511,
      "opusz": 4512,
      "pierwszym": 4513,
      "iła": 4514,
      "czały": 4515,
      "niespo": 4516,
      "kochał": 4517,
      "odpowiedź": 4518,
      "gała": 4519,
      "poety": 4520,
      "bywał": 4521,
      "pów": 4522,
      "kały": 4523,
      "zadu": 4524,
      "szuki": 4525,
      "widzisz": 4526,
      "Angli": 4527,
      "sznu": 4528,
      "ramię": 4529,
      "wyłą": 4530,
      "wieczora": 4531,
      "owych": 4532,
      "gwałto": 4533,
      "ojczyz": 4534,
      "posu": 4535,
      "prawia": 4536,
      "okoli": 4537,
      "naszą": 4538,
      "strachu": 4539,
      "kun": 4540,
      "rzyły": 4541,
      "tysiąc": 4542,
      "płynie": 4543,
      "ognia": 4544,
      "broń": 4545,
      "zapomnie": 4546,
      "22": 4547,
      "osoby": 4548,
      "szty": 4549,
      "wedle": 4550,
      "ssa": 4551,
      "CZ": 4552,
      "zawiera": 4553,
      "przedtem": 4554,
      "Mimo": 4555,
      "przyzna": 4556,
      "Kla": 4557,
      "wołał": 4558,
      "tłóma": 4559,
      "twą": 4560,
      "wygląd": 4561,
      "roze": 4562,
      "pomi": 4563,
      "chodziło": 4564,
      "zą": 4565,
      "szpi": 4566,
      "różo": 4567,
      "Augu": 4568,
      "jemu": 4569,
      "RZ": 4570,
      "nikomu": 4571,
      "chodziła": 4572,
      "mna": 4573,
      "mistrz": 4574,
      "przeczu": 4575,
      "kam": 4576,
      "obró": 4577,
      "weź": 4578,
      "dokła": 4579,
      "Miło": 4580,
      "zgroma": 4581,
      "udał": 4582,
      "pewnym": 4583,
      "dwor": 4584,
      "mro": 4585,
      "syła": 4586,
      "nieskoń": 4587,
      "nieo": 4588,
      "ssy": 4589,
      "owego": 4590,
      "leci": 4591,
      "poga": 4592,
      "czeniem": 4593,
      "jona": 4594,
      "stare": 4595,
      "pary": 4596,
      "czel": 4597,
      "zabra": 4598,
      "Two": 4599,
      "chorą": 4600,
      "Świa": 4601,
      "słone": 4602,
      "ukocha": 4603,
      "gener": 4604,
      "pobli": 4605,
      "drżą": 4606,
      "ilo": 4607,
      "zakoń": 4608,
      "związ": 4609,
      "pamięć": 4610,
      "radość": 4611,
      "okoliczności": 4612,
      "plu": 4613,
      "poja": 4614,
      "przeszko": 4615,
      "dźwi": 4616,
      "kocham": 4617,
      "kował": 4618,
      "każdem": 4619,
      "trzymała": 4620,
      "zł": 4621,
      "szta": 4622,
      "Kry": 4623,
      "wyszła": 4624,
      "staj": 4625,
      "pamięta": 4626,
      "Jana": 4627,
      "Paryża": 4628,
      "gieł": 4629,
      "winy": 4630,
      "czonego": 4631,
      "dotych": 4632,
      "Zdaje": 4633,
      "lada": 4634,
      "nąc": 4635,
      "duży": 4636,
      "natural": 4637,
      "Mę": 4638,
      "kony": 4639,
      "Wol": 4640,
      "świeci": 4641,
      "sprawa": 4642,
      "znajdzie": 4643,
      "nosić": 4644,
      "wolnie": 4645,
      "właściwie": 4646,
      "Spoj": 4647,
      "zdoła": 4648,
      "kwie": 4649,
      "profeso": 4650,
      "wymi": 4651,
      "dzieści": 4652,
      "epo": 4653,
      "Idź": 4654,
      "zwykły": 4655,
      "mogąc": 4656,
      "przecha": 4657,
      "świętego": 4658,
      "rękami": 4659,
      "należało": 4660,
      "far": 4661,
      "powstrzy": 4662,
      "jasno": 4663,
      "izby": 4664,
      "jakimś": 4665,
      "północ": 4666,
      "obfi": 4667,
      "jedzie": 4668,
      "słabo": 4669,
      "gniew": 4670,
      "staran": 4671,
      "piękną": 4672,
      "rozpacz": 4673,
      "owi": 4674,
      "XX": 4675,
      "matkę": 4676,
      "kość": 4677,
      "pki": 4678,
      "niały": 4679,
      "wybuch": 4680,
      "widzia": 4681,
      "kieli": 4682,
      "ost": 4683,
      "stanu": 4684,
      "rzeczą": 4685,
      "staru": 4686,
      "ciężar": 4687,
      "poczęła": 4688,
      "dować": 4689,
      "oszczę": 4690,
      "waną": 4691,
      "Zie": 4692,
      "dniach": 4693,
      "młoda": 4694,
      "bytu": 4695,
      "jesie": 4696,
      "śmiech": 4697,
      "czący": 4698,
      "ruchu": 4699,
      "Gra": 4700,
      "własną": 4701,
      "bieda": 4702,
      "cichu": 4703,
      "zauważył": 4704,
      "chcieli": 4705,
      "tłum": 4706,
      "OW": 4707,
      "sji": 4708,
      "Następ": 4709,
      "czter": 4710,
      "Chciał": 4711,
      "powrotem": 4712,
      "łańcu": 4713,
      "strach": 4714,
      "społeczeń": 4715,
      "Któż": 4716,
      "dziły": 4717,
      "siu": 4718,
      "czać": 4719,
      "ramionami": 4720,
      "ból": 4721,
      "ostrze": 4722,
      "szczerze": 4723,
      "fabry": 4724,
      "głosu": 4725,
      "podobny": 4726,
      "Mil": 4727,
      "odczu": 4728,
      "bior": 4729,
      "zada": 4730,
      "Pamię": 4731,
      "Andrze": 4732,
      "doro": 4733,
      "wiadomości": 4734,
      "Przecież": 4735,
      "zny": 4736,
      "Kocha": 4737,
      "rzekłem": 4738,
      "nieniem": 4739,
      "zostało": 4740,
      "zbliżył": 4741,
      "byt": 4742,
      "spokoju": 4743,
      "don": 4744,
      "bek": 4745,
      "twoich": 4746,
      "bki": 4747,
      "począć": 4748,
      "Cha": 4749,
      "czegó": 4750,
      "dzona": 4751,
      "Gu": 4752,
      "zaufa": 4753,
      "upad": 4754,
      "26": 4755,
      "uspo": 4756,
      "ofiar": 4757,
      "Tro": 4758,
      "domy": 4759,
      "przedewszystkiem": 4760,
      "moi": 4761,
      "poboż": 4762,
      "sypi": 4763,
      "poszła": 4764,
      "Wia": 4765,
      "otworzył": 4766,
      "kolei": 4767,
      "Jaki": 4768,
      "tarz": 4769,
      "narodu": 4770,
      "żać": 4771,
      "krotnie": 4772,
      "wspom": 4773,
      "dziwa": 4774,
      "dworu": 4775,
      "gier": 4776,
      "sekre": 4777,
      "pełen": 4778,
      "wcze": 4779,
      "mater": 4780,
      "Ile": 4781,
      "lega": 4782,
      "Osta": 4783,
      "czytał": 4784,
      "kochać": 4785,
      "snęła": 4786,
      "tarzy": 4787,
      "les": 4788,
      "papier": 4789,
      "okrą": 4790,
      "probo": 4791,
      "smo": 4792,
      "lowi": 4793,
      "kryty": 4794,
      "książki": 4795,
      "udział": 4796,
      "snąć": 4797,
      "ostatnich": 4798,
      "lesie": 4799,
      "odu": 4800,
      "spokojny": 4801,
      "pułko": 4802,
      "wydaje": 4803,
      "odzie": 4804,
      "towarzysz": 4805,
      "przyci": 4806,
      "okra": 4807,
      "wydał": 4808,
      "dły": 4809,
      "pamią": 4810,
      "Aby": 4811,
      "ciałem": 4812,
      "skała": 4813,
      "wpół": 4814,
      "leżał": 4815,
      "wskiej": 4816,
      "zdą": 4817,
      "Jakie": 4818,
      "śpiewa": 4819,
      "wolu": 4820,
      "dworze": 4821,
      "lji": 4822,
      "lały": 4823,
      "pisze": 4824,
      "siach": 4825,
      "pracu": 4826,
      "mojem": 4827,
      "stoli": 4828,
      "litości": 4829,
      "żebym": 4830,
      "dokąd": 4831,
      "łaski": 4832,
      "pewna": 4833,
      "Franci": 4834,
      "arcy": 4835,
      "Szu": 4836,
      "powrócił": 4837,
      "tały": 4838,
      "«.": 4839,
      "rękach": 4840,
      "znę": 4841,
      "boku": 4842,
      "owej": 4843,
      "twej": 4844,
      "twoją": 4845,
      "Zyg": 4846,
      "Człowiek": 4847,
      "wodzie": 4848,
      "każda": 4849,
      "Powiedz": 4850,
      "pragnął": 4851,
      "Zdawało": 4852,
      "ogo": 4853,
      "Dlatego": 4854,
      "przyszłości": 4855,
      "cisza": 4856,
      "nina": 4857,
      "pytał": 4858,
      "skrę": 4859,
      "lnym": 4860,
      "wygna": 4861,
      "regu": 4862,
      "lot": 4863,
      "dawnych": 4864,
      "nowicie": 4865,
      "postanowił": 4866,
      "fur": 4867,
      "chając": 4868,
      "czasy": 4869,
      "ofice": 4870,
      "powieści": 4871,
      "zaszczy": 4872,
      "miarę": 4873,
      "dostał": 4874,
      "uwol": 4875,
      "kome": 4876,
      "Albo": 4877,
      "bert": 4878,
      "wieniem": 4879,
      "mógłby": 4880,
      "zakon": 4881,
      "blask": 4882,
      "nazajutrz": 4883,
      "Mnie": 4884,
      "jednem": 4885,
      "tryum": 4886,
      "duchu": 4887,
      "Gi": 4888,
      "mana": 4889,
      "cześć": 4890,
      "otwie": 4891,
      "przedsię": 4892,
      "herba": 4893,
      "cztere": 4894,
      "ciszy": 4895,
      "wszelkich": 4896,
      "mił": 4897,
      "traf": 4898,
      "prakty": 4899,
      "27": 4900,
      "działo": 4901,
      "potwo": 4902,
      "doktór": 4903,
      "car": 4904,
      "lepi": 4905,
      "szk": 4906,
      "wyma": 4907,
      "gały": 4908,
      "oboje": 4909,
      "zji": 4910,
      "Por": 4911,
      "pozba": 4912,
      "dokładnie": 4913,
      "min": 4914,
      "szemi": 4915,
      "musie": 4916,
      "Pó": 4917,
      "rezy": 4918,
      "śladu": 4919,
      "wiona": 4920,
      "siostry": 4921,
      "ciężkie": 4922,
      "silnie": 4923,
      "glądając": 4924,
      "miesza": 4925,
      "odde": 4926,
      "tli": 4927,
      "skiemu": 4928,
      "party": 4929,
      "oskar": 4930,
      "mówili": 4931,
      "strzał": 4932,
      "va": 4933,
      "Zło": 4934,
      "tle": 4935,
      "zać": 4936,
      "?!": 4937,
      "twojej": 4938,
      "ściach": 4939,
      "pust": 4940,
      "przykro": 4941,
      "franków": 4942,
      "opła": 4943,
      "gospody": 4944,
      "mentu": 4945,
      "wspomina": 4946,
      "Ed": 4947,
      "leś": 4948,
      "usiadł": 4949,
      "swobo": 4950,
      "płyną": 4951,
      "pierwszych": 4952,
      "kłó": 4953,
      "młodzi": 4954,
      "dobrą": 4955,
      "wycie": 4956,
      "Trzy": 4957,
      "otrzyma": 4958,
      "czynić": 4959,
      "natch": 4960,
      "széj": 4961,
      "cili": 4962,
      "rzadko": 4963,
      "tysiące": 4964,
      "wojska": 4965,
      "damy": 4966,
      "niać": 4967,
      "it": 4968,
      "obiad": 4969,
      "Dro": 4970,
      "każde": 4971,
      "zapro": 4972,
      "któż": 4973,
      "Rozu": 4974,
      "siedzą": 4975,
      "jezio": 4976,
      "Jakto": 4977,
      "Raz": 4978,
      "ckim": 4979,
      "siedli": 4980,
      "ślady": 4981,
      "klą": 4982,
      "wstał": 4983,
      "jednakże": 4984,
      "szukał": 4985,
      "chciałem": 4986,
      "spojrzenie": 4987,
      "krokiem": 4988,
      "żki": 4989,
      "miejsco": 4990,
      "niebio": 4991,
      "szyła": 4992,
      "pływa": 4993,
      "wiło": 4994,
      "nionych": 4995,
      "widy": 4996,
      "robotni": 4997,
      "porę": 4998,
      "mogi": 4999,
      "Tru": 5000,
      "sej": 5001,
      "szlachci": 5002,
      "stół": 5003,
      "Matka": 5004,
      "odbi": 5005,
      "córka": 5006,
      "zaw": 5007,
      "Polsce": 5008,
      "wień": 5009,
      "wysła": 5010,
      "nasi": 5011,
      "żyw": 5012,
      "mić": 5013,
      "krai": 5014,
      "słycha": 5015,
      "wpa": 5016,
      "zdania": 5017,
      "łóżka": 5018,
      "oczywiście": 5019,
      "Książę": 5020,
      "chaty": 5021,
      "śmiechem": 5022,
      "okaz": 5023,
      "coby": 5024,
      "muszą": 5025,
      "słuszność": 5026,
      "Warszawie": 5027,
      "Wal": 5028,
      "niając": 5029,
      "zaro": 5030,
      "wracał": 5031,
      "wymie": 5032,
      "szacu": 5033,
      "swa": 5034,
      "czyłem": 5035,
      "Tur": 5036,
      "dnych": 5037,
      "umiera": 5038,
      "jechali": 5039,
      "oddać": 5040,
      "znacznie": 5041,
      "lni": 5042,
      "złoto": 5043,
      "poprostu": 5044,
      "czonym": 5045,
      "wieść": 5046,
      "ryi": 5047,
      "kwiatów": 5048,
      "fałszy": 5049,
      "wiar": 5050,
      "śmiesz": 5051,
      "Nazajutrz": 5052,
      "forma": 5053,
      "zako": 5054,
      "szano": 5055,
      "chmur": 5056,
      "wypadku": 5057,
      "pą": 5058,
      "28": 5059,
      "tonem": 5060,
      "wiado": 5061,
      "hrabiego": 5062,
      "małą": 5063,
      "lla": 5064,
      "szyder": 5065,
      "lec": 5066,
      "wygląda": 5067,
      "żyło": 5068,
      "żono": 5069,
      "szyję": 5070,
      "szczęśliwy": 5071,
      "szkoły": 5072,
      "słyszy": 5073,
      "pewny": 5074,
      "Gre": 5075,
      "krok": 5076,
      "kier": 5077,
      "Ludzie": 5078,
      "głem": 5079,
      "uszy": 5080,
      "wogó": 5081,
      "sędzi": 5082,
      "kali": 5083,
      "Flo": 5084,
      "gabi": 5085,
      "pozwala": 5086,
      "rzone": 5087,
      "zwło": 5088,
      "rzym": 5089,
      "nioną": 5090,
      "vi": 5091,
      "baj": 5092,
      "chałem": 5093,
      "druga": 5094,
      "nieznajo": 5095,
      "rozumiał": 5096,
      "zapytała": 5097,
      "wogóle": 5098,
      "wen": 5099,
      "cina": 5100,
      "ami": 5101,
      "hań": 5102,
      "dzeniem": 5103,
      "milczenie": 5104,
      "łąd": 5105,
      "gory": 5106,
      "Hele": 5107,
      "dowci": 5108,
      "paty": 5109,
      "tale": 5110,
      "chwyta": 5111,
      "przypuszcza": 5112,
      "tylu": 5113,
      "zara": 5114,
      "pera": 5115,
      "lii": 5116,
      "czonej": 5117,
      "lonych": 5118,
      "bliżej": 5119,
      "nięcie": 5120,
      "Gro": 5121,
      "chwil": 5122,
      "ojczy": 5123,
      "maszy": 5124,
      "niosły": 5125,
      "cicha": 5126,
      "siłę": 5127,
      "lubie": 5128,
      "lemen": 5129,
      "młodości": 5130,
      "pilno": 5131,
      "ab": 5132,
      "dym": 5133,
      "komo": 5134,
      "wybi": 5135,
      "straszli": 5136,
      "kuzy": 5137,
      "samych": 5138,
      "przenik": 5139,
      "ścił": 5140,
      "zarówno": 5141,
      "czące": 5142,
      "godzina": 5143,
      "kapitan": 5144,
      "fry": 5145,
      "doktora": 5146,
      "ulicę": 5147,
      "powtórzył": 5148,
      "rozbi": 5149,
      "Py": 5150,
      "Woj": 5151,
      "porządku": 5152,
      "poma": 5153,
      "mianowicie": 5154,
      "miano": 5155,
      "ROZ": 5156,
      "winien": 5157,
      "siadła": 5158,
      "wilgo": 5159,
      "wybra": 5160,
      "żając": 5161,
      "AR": 5162,
      "figu": 5163,
      "Paryżu": 5164,
      "wpadł": 5165,
      "przewodni": 5166,
      "Per": 5167,
      "bach": 5168,
      "córkę": 5169,
      "zrozumiał": 5170,
      "doty": 5171,
      "lna": 5172,
      "cona": 5173,
      "śmiercią": 5174,
      "zawar": 5175,
      "zuje": 5176,
      "jednocześnie": 5177,
      "Zale": 5178,
      "małem": 5179,
      "władzy": 5180,
      "Warszawy": 5181,
      "jan": 5182,
      "odparła": 5183,
      "mniéj": 5184,
      "częściej": 5185,
      "zamiesz": 5186,
      "Prawda": 5187,
      "życz": 5188,
      "swemi": 5189,
      "stytu": 5190,
      "nóż": 5191,
      "gwiazdy": 5192,
      "szeroko": 5193,
      "uto": 5194,
      "indy": 5195,
      "pieśń": 5196,
      "stąpiła": 5197,
      "jakiem": 5198,
      "miony": 5199,
      "powróci": 5200,
      "Dopiero": 5201,
      "dziwne": 5202,
      "czytel": 5203,
      "wiedzą": 5204,
      "zary": 5205,
      "pej": 5206,
      "ław": 5207,
      "niesłycha": 5208,
      "każdą": 5209,
      "czém": 5210,
      "albowiem": 5211,
      "dłoni": 5212,
      "potrzeby": 5213,
      "jasne": 5214,
      "powta": 5215,
      "czterech": 5216,
      "radością": 5217,
      "czku": 5218,
      "Myśl": 5219,
      "Mów": 5220,
      "pięciu": 5221,
      "wyle": 5222,
      "chęć": 5223,
      "chłopca": 5224,
      "zyi": 5225,
      "przery": 5226,
      "mują": 5227,
      "Rzeczy": 5228,
      "trzę": 5229,
      "przyczyny": 5230,
      "róża": 5231,
      "język": 5232,
      "łód": 5233,
      "większą": 5234,
      "sno": 5235,
      "kając": 5236,
      "miłością": 5237,
      "dnego": 5238,
      "dano": 5239,
      "nor": 5240,
      "tką": 5241,
      "jęła": 5242,
      "chłopak": 5243,
      "Wkrótce": 5244,
      "”.": 5245,
      "wzgó": 5246,
      "majątek": 5247,
      "dzieło": 5248,
      "źre": 5249,
      "res": 5250,
      "mężczyzna": 5251,
      "Ró": 5252,
      "drzewo": 5253,
      "ogrodu": 5254,
      "Ża": 5255,
      "stawia": 5256,
      "Bro": 5257,
      "skach": 5258,
      "czoła": 5259,
      "starych": 5260,
      "białych": 5261,
      "pobliżu": 5262,
      "czuje": 5263,
      "pierś": 5264,
      "żołnierzy": 5265,
      "dan": 5266,
      "namio": 5267,
      "udało": 5268,
      "SK": 5269,
      "jum": 5270,
      "lie": 5271,
      "jać": 5272,
      "roman": 5273,
      "ódł": 5274,
      "okolicy": 5275,
      "rany": 5276,
      "tymi": 5277,
      "kary": 5278,
      "wól": 5279,
      "ojcu": 5280,
      "wieków": 5281,
      "Mag": 5282,
      "łku": 5283,
      "prowin": 5284,
      "Pozna": 5285,
      "czuła": 5286,
      "późno": 5287,
      "gwar": 5288,
      "ler": 5289,
      "koszu": 5290,
      "przedstawia": 5291,
      "uni": 5292,
      "ucze": 5293,
      "pór": 5294,
      "towarzystwie": 5295,
      "29": 5296,
      "zdanie": 5297,
      "chwycił": 5298,
      "czuję": 5299,
      "ogród": 5300,
      "istoty": 5301,
      "czasach": 5302,
      "jam": 5303,
      "północy": 5304,
      "powiadać": 5305,
      "przyjaciele": 5306,
      "tou": 5307,
      "tecznie": 5308,
      "przesta": 5309,
      "nios": 5310,
      "trosk": 5311,
      "małżon": 5312,
      "zar": 5313,
      "głupi": 5314,
      "ke": 5315,
      "zakła": 5316,
      "zostały": 5317,
      "blisko": 5318,
      "chłopiec": 5319,
      "pojedy": 5320,
      "stek": 5321,
      "np": 5322,
      "gwałtownie": 5323,
      "wtrą": 5324,
      "droż": 5325,
      "śro": 5326,
      ".)": 5327,
      "Wtem": 5328,
      "kazuje": 5329,
      "rodziców": 5330,
      "wrze": 5331,
      "czyk": 5332,
      "IAŁ": 5333,
      "wytwo": 5334,
      "Wz": 5335,
      "skrom": 5336,
      "szemu": 5337,
      "komen": 5338,
      "dodała": 5339,
      "miły": 5340,
      "żeni": 5341,
      "oddał": 5342,
      "wnio": 5343,
      "rozumiem": 5344,
      "Właśnie": 5345,
      "kroki": 5346,
      "poły": 5347,
      "Francu": 5348,
      "grafi": 5349,
      "oli": 5350,
      "najpięk": 5351,
      "stanowczo": 5352,
      "rych": 5353,
      "Panna": 5354,
      "waha": 5355,
      "auto": 5356,
      "mówisz": 5357,
      "złu": 5358,
      "czemś": 5359,
      "kolana": 5360,
      "Króle": 5361,
      "spytała": 5362,
      "sprzeda": 5363,
      "księż": 5364,
      "nosiła": 5365,
      "kobietę": 5366,
      "unik": 5367,
      "łóżku": 5368,
      "Wale": 5369,
      "Twa": 5370,
      "latach": 5371,
      "tua": 5372,
      "kura": 5373,
      "pierwo": 5374,
      "chód": 5375,
      "LE": 5376,
      "czach": 5377,
      "pié": 5378,
      "szele": 5379,
      "Har": 5380,
      "upa": 5381,
      "niedź": 5382,
      "porówna": 5383,
      "wcy": 5384,
      "mnóstwo": 5385,
      "Han": 5386,
      "ubogi": 5387,
      "obser": 5388,
      "pieszczo": 5389,
      "gni": 5390,
      "rodzin": 5391,
      "południo": 5392,
      "wieści": 5393,
      "przeszedł": 5394,
      "mieszcza": 5395,
      "Kor": 5396,
      "chodziły": 5397,
      "towarzysza": 5398,
      "krótko": 5399,
      "kawale": 5400,
      "podnie": 5401,
      "pas": 5402,
      "ojco": 5403,
      "nieustan": 5404,
      "gię": 5405,
      "widzenia": 5406,
      "przyjął": 5407,
      "bracia": 5408,
      "znajdował": 5409,
      "drewnia": 5410,
      "odo": 5411,
      "gniewu": 5412,
      "kowe": 5413,
      "kując": 5414,
      "abyś": 5415,
      "Mog": 5416,
      "sęp": 5417,
      "cokolwiek": 5418,
      "zarzu": 5419,
      "słowach": 5420,
      "złote": 5421,
      "naród": 5422,
      "Kobie": 5423,
      "niepodobna": 5424,
      "Grze": 5425,
      "Chrystusa": 5426,
      "fol": 5427,
      "położył": 5428,
      "Czego": 5429,
      "wola": 5430,
      "wiały": 5431,
      "cudow": 5432,
      "ptak": 5433,
      "kamien": 5434,
      "przygoto": 5435,
      "ruchem": 5436,
      "Zosta": 5437,
      "wców": 5438,
      "Jej": 5439,
      "psa": 5440,
      "Karol": 5441,
      "płó": 5442,
      "tenczas": 5443,
      "Anie": 5444,
      "rzch": 5445,
      "wzięła": 5446,
      "LI": 5447,
      "idź": 5448,
      "loka": 5449,
      "własnego": 5450,
      "młodych": 5451,
      "zrozumieć": 5452,
      "rodzaj": 5453,
      "religij": 5454,
      "boleści": 5455,
      "DZIAŁ": 5456,
      "powinna": 5457,
      "zechce": 5458,
      "Czer": 5459,
      "wiecznie": 5460,
      "dotychczas": 5461,
      "widu": 5462,
      "gne": 5463,
      "Można": 5464,
      "kamień": 5465,
      "ly": 5466,
      "nogami": 5467,
      "gnę": 5468,
      "Cię": 5469,
      "ciłem": 5470,
      "morder": 5471,
      "księdza": 5472,
      "pogrą": 5473,
      "czyste": 5474,
      "dnym": 5475,
      "potwier": 5476,
      "wiadomość": 5477,
      "dusze": 5478,
      "strę": 5479,
      "Masz": 5480,
      "Aleksan": 5481,
      "stosunki": 5482,
      "stopnia": 5483,
      "jedwa": 5484,
      "najlepiej": 5485,
      "buj": 5486,
      "nerwo": 5487,
      "lta": 5488,
      "żonych": 5489,
      "wiarę": 5490,
      "wanego": 5491,
      "40": 5492,
      "wyrazem": 5493,
      "grzbie": 5494,
      "spotyka": 5495,
      "policz": 5496,
      "doń": 5497,
      "złośli": 5498,
      "rada": 5499,
      "rycer": 5500,
      "pozwo": 5501,
      "000": 5502,
      "towarzystwa": 5503,
      "wysił": 5504,
      "kościele": 5505,
      "szepnęła": 5506,
      "błyskawi": 5507,
      "zia": 5508,
      "świadomo": 5509,
      "zując": 5510,
      "chodź": 5511,
      "tany": 5512,
      "słusznie": 5513,
      "wrażenia": 5514,
      "fer": 5515,
      "wolność": 5516,
      "Kazimie": 5517,
      "wor": 5518,
      "dwoma": 5519,
      "podwó": 5520,
      "zbrodni": 5521,
      "Zaraz": 5522,
      "ROZDZIAŁ": 5523,
      "malu": 5524,
      "ukło": 5525,
      "samem": 5526,
      "gabine": 5527,
      "pania": 5528,
      "PO": 5529,
      "chęci": 5530,
      "wpad": 5531,
      "bynajmniej": 5532,
      "tydzień": 5533,
      "cznością": 5534,
      "rali": 5535,
      "nakoniec": 5536,
      "przyzwo": 5537,
      "gorąco": 5538,
      "wyjść": 5539,
      "miesięcy": 5540,
      "Jezus": 5541,
      "zywał": 5542,
      "daléj": 5543,
      "Niechaj": 5544,
      "biedny": 5545,
      "Chodź": 5546,
      "ściem": 5547,
      "drzwiach": 5548,
      "wytr": 5549,
      "ojcze": 5550,
      "mądro": 5551,
      "naprzeciw": 5552,
      "służyć": 5553,
      "uśmiechnął": 5554,
      "pami": 5555,
      "czeć": 5556,
      "rząt": 5557,
      "rya": 5558,
      "skaza": 5559,
      "wzdłuż": 5560,
      "świado": 5561,
      "powraca": 5562,
      "pokła": 5563,
      "poczyna": 5564,
      "krzyż": 5565,
      "pojęcia": 5566,
      "ograni": 5567,
      "rozsąd": 5568,
      "głości": 5569,
      "zęby": 5570,
      "instyn": 5571,
      "oder": 5572,
      "dziela": 5573,
      "dnej": 5574,
      "ludzkich": 5575,
      "pójdzie": 5576,
      "Wówczas": 5577,
      "nai": 5578,
      "piersiach": 5579,
      "gam": 5580,
      "zwycięz": 5581,
      "staroży": 5582,
      "przysz": 5583,
      "Czę": 5584,
      "twarze": 5585,
      "Będzie": 5586,
      "có": 5587,
      "grać": 5588,
      "bramy": 5589,
      "innej": 5590,
      "zawa": 5591,
      "zmieni": 5592,
      "zobaczył": 5593,
      "upo": 5594,
      "∗∗": 5595,
      "więzienia": 5596,
      "rzeniu": 5597,
      "dziewczyny": 5598,
      "drzwiami": 5599,
      "obaj": 5600,
      "wzdy": 5601,
      "rom": 5602,
      "ostry": 5603,
      "związa": 5604,
      "gody": 5605,
      "byłaby": 5606,
      "idąc": 5607,
      "starał": 5608,
      "przyjąć": 5609,
      "proje": 5610,
      "podobno": 5611,
      "kształt": 5612,
      "świetle": 5613,
      "!..": 5614,
      "praca": 5615,
      "charakter": 5616,
      "Dale": 5617,
      "siedziała": 5618,
      "ofiary": 5619,
      "draż": 5620,
      "tela": 5621,
      "bohater": 5622,
      "widzial": 5623,
      "czni": 5624,
      "bal": 5625,
      "wyczer": 5626,
      "myślała": 5627,
      "łatwie": 5628,
      "Niema": 5629,
      "jakoby": 5630,
      "stępuje": 5631,
      "szlache": 5632,
      "Daj": 5633,
      "ryn": 5634,
      "Pięk": 5635,
      "rzowi": 5636,
      "swemu": 5637,
      "odz": 5638,
      "wek": 5639,
      "obecności": 5640,
      "przeby": 5641,
      "bierał": 5642,
      "inną": 5643,
      "Włady": 5644,
      "źń": 5645,
      "nat": 5646,
      "Zygmu": 5647,
      "katoli": 5648,
      "Michał": 5649,
      "wiły": 5650,
      "wyna": 5651,
      "nos": 5652,
      "zle": 5653,
      "czywszy": 5654,
      "dowiedzieć": 5655,
      "zaczęły": 5656,
      "kogoś": 5657,
      "wysu": 5658,
      "ktora": 5659,
      "meta": 5660,
      "opano": 5661,
      "powiedziałem": 5662,
      "osią": 5663,
      "het": 5664,
      "słyszałem": 5665,
      "stwu": 5666,
      "plan": 5667,
      "ńską": 5668,
      "obawy": 5669,
      "nastu": 5670,
      "podobie": 5671,
      "dol": 5672,
      "podobnego": 5673,
      "rym": 5674,
      "pójść": 5675,
      "najbliż": 5676,
      "liści": 5677,
      "ON": 5678,
      "ślub": 5679,
      "Pój": 5680,
      "miesiąc": 5681,
      "matery": 5682,
      "pisu": 5683,
      "kuchni": 5684,
      "uprze": 5685,
      "całkowi": 5686,
      "świeżo": 5687,
      "Dziew": 5688,
      "Bal": 5689,
      "biegły": 5690,
      "intereso": 5691,
      "czysz": 5692,
      "ucho": 5693,
      "mk": 5694,
      "milczał": 5695,
      "lubił": 5696,
      "śmia": 5697,
      "wników": 5698,
      "zaci": 5699,
      "zakry": 5700,
      "cać": 5701,
      "ogło": 5702,
      "schy": 5703,
      "nigdzie": 5704,
      "uderza": 5705,
      "Henryk": 5706,
      "Kre": 5707,
      "ciwszy": 5708,
      "rolę": 5709,
      "wschod": 5710,
      "postano": 5711,
      "niz": 5712,
      "pru": 5713,
      "Wido": 5714,
      "serdecznie": 5715,
      "przeszka": 5716,
      "zaczęli": 5717,
      "dniem": 5718,
      "dama": 5719,
      "mowę": 5720,
      "fakt": 5721,
      "olbrzymie": 5722,
      "polski": 5723,
      "zapomniał": 5724,
      "energi": 5725,
      "pocału": 5726,
      "wieś": 5727,
      "artysty": 5728,
      "dzonych": 5729,
      "wałam": 5730,
      "ostatniej": 5731,
      "system": 5732,
      "godne": 5733,
      "narzę": 5734,
      "ciemno": 5735,
      "zwoli": 5736,
      "napeł": 5737,
      "rewolu": 5738,
      "dzki": 5739,
      "brzę": 5740,
      "czéj": 5741,
      "rozmawia": 5742,
      "pewnej": 5743,
      "klasy": 5744,
      "pomó": 5745,
      "gość": 5746,
      "ojcem": 5747,
      "Były": 5748,
      "okien": 5749,
      "pies": 5750,
      "wyry": 5751,
      "nader": 5752,
      "Wśród": 5753,
      "ważnie": 5754,
      "Tra": 5755,
      "otrzymał": 5756,
      "wyba": 5757,
      "opuścił": 5758,
      "oświe": 5759,
      "starszy": 5760,
      "zapomina": 5761,
      "zapał": 5762,
      "mija": 5763,
      "stka": 5764,
      "bom": 5765,
      "odwagi": 5766,
      "wypadek": 5767,
      "dzała": 5768,
      "starannie": 5769,
      "ściśle": 5770,
      "dłonie": 5771,
      "Och": 5772,
      "uch": 5773,
      "Wró": 5774,
      "liczne": 5775,
      "jąco": 5776,
      "bólu": 5777,
      "dwoje": 5778,
      "zimno": 5779,
      "zamknię": 5780,
      "biony": 5781,
      "wyciąga": 5782,
      "rosyj": 5783,
      "ług": 5784,
      "prawił": 5785,
      "marszał": 5786,
      "wanym": 5787,
      "pięknie": 5788,
      "nazwiska": 5789,
      "gałęzi": 5790,
      "morzu": 5791,
      "królowa": 5792,
      "matką": 5793,
      "Anio": 5794,
      "przekonać": 5795,
      "wnych": 5796,
      "Rzu": 5797,
      "głąb": 5798,
      "wartości": 5799,
      "21": 5800,
      "Zoba": 5801,
      "sał": 5802,
      "latar": 5803,
      "śnią": 5804,
      "ary": 5805,
      "szałem": 5806,
      "piękności": 5807,
      "owszem": 5808,
      "piel": 5809,
      "Chce": 5810,
      "biegu": 5811,
      "myślił": 5812,
      "własnych": 5813,
      "małego": 5814,
      "należą": 5815,
      "zro": 5816,
      "50": 5817,
      "obszer": 5818,
      "Bisku": 5819,
      "sub": 5820,
      "”,": 5821,
      "składa": 5822,
      "przeszłości": 5823,
      "miu": 5824,
      "bienia": 5825,
      "lono": 5826,
      "starej": 5827,
      "spotkał": 5828,
      "przemy": 5829,
      "ukazał": 5830,
      "Chi": 5831,
      "bierać": 5832,
      "leniem": 5833,
      "niechaj": 5834,
      "łami": 5835,
      "poszuki": 5836,
      "grał": 5837,
      "myślałem": 5838,
      "int": 5839,
      "twoim": 5840,
      "przyjść": 5841,
      "Pierwszy": 5842,
      "Paweł": 5843,
      "Wę": 5844,
      "mruknął": 5845,
      "odło": 5846,
      "ucha": 5847,
      "starzec": 5848,
      "wspó": 5849,
      "jakgdyby": 5850,
      "pienie": 5851,
      "gip": 5852,
      "mieszkanie": 5853,
      "gwi": 5854,
      "brzeg": 5855,
      "sąsie": 5856,
      "trów": 5857,
      "otwarte": 5858,
      "liwość": 5859,
      "niebezpieczeństwo": 5860,
      "rzeli": 5861,
      "śmiejąc": 5862,
      "rzucając": 5863,
      "dostoj": 5864,
      "pień": 5865,
      "czarnych": 5866,
      "wino": 5867,
      "żne": 5868,
      "des": 5869,
      "lazł": 5870,
      "cowi": 5871,
      "........": 5872,
      "marmu": 5873,
      "musieli": 5874,
      "wybrze": 5875,
      "twarza": 5876,
      "gwiazd": 5877,
      "ruszyć": 5878,
      "miła": 5879,
      "obda": 5880,
      "zewnętrz": 5881,
      "kawałek": 5882,
      "duszą": 5883,
      "Następnie": 5884,
      "spojrzenia": 5885,
      "jami": 5886,
      "skle": 5887,
      "Tę": 5888,
      "powstał": 5889,
      "święta": 5890,
      "blu": 5891,
      "lekar": 5892,
      "ztąd": 5893,
      "zwróci": 5894,
      "wściekło": 5895,
      "odemnie": 5896,
      "pur": 5897,
      "zatrzyma": 5898,
      "czap": 5899,
      "Podob": 5900,
      "gatu": 5901,
      "wątpliwości": 5902,
      "pierwsza": 5903,
      "względu": 5904,
      "cono": 5905,
      "podał": 5906,
      "mes": 5907,
      "ojczyzny": 5908,
      "cieniu": 5909,
      "pędził": 5910,
      "nkami": 5911,
      "widzieli": 5912,
      "opo": 5913,
      "many": 5914,
      "tw": 5915,
      "codzień": 5916,
      "zwró": 5917,
      "obycza": 5918,
      "blady": 5919,
      "Eu": 5920,
      "nabo": 5921,
      "mocą": 5922,
      "pysz": 5923,
      "obi": 5924,
      "przeciwnie": 5925,
      "forte": 5926,
      "ośmie": 5927,
      "znaczenie": 5928,
      "nce": 5929,
      "podniosła": 5930,
      "śmiała": 5931,
      "majątku": 5932,
      "utrzymy": 5933,
      "prawić": 5934,
      "cznik": 5935,
      "nogach": 5936,
      "drugich": 5937,
      "trwa": 5938,
      "rozwo": 5939,
      "Muszę": 5940,
      "usposobie": 5941,
      "przymie": 5942,
      "zej": 5943,
      "bab": 5944,
      "robię": 5945,
      "izbie": 5946,
      "rozwa": 5947,
      "prote": 5948,
      "anie": 5949,
      "niów": 5950,
      "duże": 5951,
      "zry": 5952,
      "domów": 5953,
      "pina": 5954,
      "grobo": 5955,
      "pobu": 5956,
      "tkach": 5957,
      "puste": 5958,
      "Win": 5959,
      "wyk": 5960,
      "Żeby": 5961,
      "fale": 5962,
      "Jerzy": 5963,
      "niedawno": 5964,
      "odtąd": 5965,
      "towarzyszy": 5966,
      "wołać": 5967,
      "chach": 5968,
      "jar": 5969,
      "paro": 5970,
      "matce": 5971,
      "wskich": 5972,
      "podobnych": 5973,
      "Syl": 5974,
      "kroku": 5975,
      "czele": 5976,
      "rozkazy": 5977,
      "sków": 5978,
      "wzgar": 5979,
      "strą": 5980,
      "przyjacielem": 5981,
      "Takie": 5982,
      "Słowa": 5983,
      "kamienia": 5984,
      "wiecze": 5985,
      "tarł": 5986,
      "tal": 5987,
      "tkami": 5988,
      "kapelusz": 5989,
      "autor": 5990,
      "Skąd": 5991,
      "plem": 5992,
      "różno": 5993,
      "szając": 5994,
      "teligen": 5995,
      "napróżno": 5996,
      "opowiadał": 5997,
      "Ję": 5998,
      "czuć": 5999,
      "plą": 6000,
      "ludzkiej": 6001,
      "posęp": 6002,
      "włosów": 6003,
      "Józef": 6004,
      "białą": 6005,
      "niewoli": 6006,
      "syi": 6007,
      "fortu": 6008,
      "umrzeć": 6009,
      "fre": 6010,
      "ziar": 6011,
      "królem": 6012,
      "fon": 6013,
      "Panu": 6014,
      "rozkoszy": 6015,
      "straż": 6016,
      "tnem": 6017,
      "uję": 6018,
      "pusto": 6019,
      "aty": 6020,
      "pode": 6021,
      "chwilo": 6022,
      "pójdę": 6023,
      "Byłem": 6024,
      "wspaniały": 6025,
      "ogrodzie": 6026,
      "wolności": 6027,
      "ostrożnie": 6028,
      "piła": 6029,
      "Jedno": 6030,
      "tchła": 6031,
      "łatwiej": 6032,
      "zabrał": 6033,
      "potrzebne": 6034,
      "cudzo": 6035,
      "usłyszał": 6036,
      "posto": 6037,
      "skarb": 6038,
      "złą": 6039,
      "nictwa": 6040,
      "zadr": 6041,
      "wszem": 6042,
      "rodu": 6043,
      "najwięcej": 6044,
      "biało": 6045,
      "uła": 6046,
      "dyre": 6047,
      "bor": 6048,
      "orze": 6049,
      "prowadziła": 6050,
      "kula": 6051,
      "uważał": 6052,
      "Łu": 6053,
      "przyszły": 6054,
      "Ben": 6055,
      "musimy": 6056,
      "święt": 6057,
      "oświet": 6058,
      "gaze": 6059,
      "gdym": 6060,
      "prześla": 6061,
      "czarny": 6062,
      "stracił": 6063,
      "źniej": 6064,
      "przestrzeni": 6065,
      "polskich": 6066,
      "walka": 6067,
      "obrazy": 6068,
      "Towarzy": 6069,
      "słuchaj": 6070,
      "deszcz": 6071,
      "wnicy": 6072,
      "światem": 6073,
      "blasku": 6074,
      "moty": 6075,
      "Chociaż": 6076,
      "szona": 6077,
      "zawoła": 6078,
      "nką": 6079,
      "królowej": 6080,
      "żalu": 6081,
      "aniżeli": 6082,
      "zdaleka": 6083,
      "lom": 6084,
      "nada": 6085,
      "olbrzymi": 6086,
      "dzając": 6087,
      "ową": 6088,
      "zwracając": 6089,
      "stanęła": 6090,
      "Bole": 6091,
      "siostra": 6092,
      "odzna": 6093,
      "poran": 6094,
      "istnieje": 6095,
      "oddawna": 6096,
      "Coś": 6097,
      "twę": 6098,
      "wemu": 6099,
      "służby": 6100,
      "kamieni": 6101,
      "sse": 6102,
      "zbi": 6103,
      "czących": 6104,
      "niespodzia": 6105,
      "kościół": 6106,
      "mala": 6107,
      "sądzę": 6108,
      "czyny": 6109,
      "niosło": 6110,
      "lając": 6111,
      "młode": 6112,
      "ślad": 6113,
      "!!": 6114,
      "ng": 6115,
      "duje": 6116,
      "dobrym": 6117,
      "długą": 6118,
      "Zawsze": 6119,
      "lewo": 6120,
      "czynił": 6121,
      "przestra": 6122,
      "zma": 6123,
      "wiemy": 6124,
      "pracować": 6125,
      "straszne": 6126,
      "iem": 6127,
      "rzało": 6128,
      "głęb": 6129,
      "wierzę": 6130,
      "35": 6131,
      "możliwe": 6132,
      "uszu": 6133,
      "niebawem": 6134,
      "szono": 6135,
      "gając": 6136,
      "ryba": 6137,
      "miona": 6138,
      "inteligen": 6139,
      "Taki": 6140,
      "przyzwoi": 6141,
      "ponie": 6142,
      "żadna": 6143,
      "cierpienia": 6144,
      "piekie": 6145,
      "przyjaźni": 6146,
      "Hol": 6147,
      "GO": 6148,
      "dwór": 6149,
      "zatrzy": 6150,
      "weszła": 6151,
      "jowi": 6152,
      "wnika": 6153,
      "wyciągnął": 6154,
      "poeta": 6155,
      "czając": 6156,
      "opuszcza": 6157,
      "formy": 6158,
      "otchła": 6159,
      "zatru": 6160,
      "emną": 6161,
      "Jam": 6162,
      "przeję": 6163,
      "NI": 6164,
      "Pru": 6165,
      "drogie": 6166,
      "proro": 6167,
      "wpływem": 6168,
      "śmiechu": 6169,
      "Podczas": 6170,
      "pozór": 6171,
      "naprzykład": 6172,
      "conych": 6173,
      "portre": 6174,
      "stawał": 6175,
      "char": 6176,
      "lki": 6177,
      "otu": 6178,
      "złotych": 6179,
      "nieprze": 6180,
      "radę": 6181,
      "maleń": 6182,
      "awan": 6183,
      "mły": 6184,
      "onów": 6185,
      "działy": 6186,
      "natomiast": 6187,
      "wisi": 6188,
      "zgoła": 6189,
      "gospodarz": 6190,
      "lonym": 6191,
      "większe": 6192,
      "ścież": 6193,
      "dzeń": 6194,
      "gji": 6195,
      "mówiłem": 6196,
      "napisa": 6197,
      "południe": 6198,
      "wierzcho": 6199,
      "poważnie": 6200,
      "synów": 6201,
      "Przyj": 6202,
      "cyga": 6203,
      "spusz": 6204,
      "coną": 6205,
      "cką": 6206,
      "daleka": 6207,
      "silny": 6208,
      "pierwszą": 6209,
      "nieśmiertel": 6210,
      "łaci": 6211,
      "szliśmy": 6212,
      "całował": 6213,
      "naty": 6214,
      "stano": 6215,
      "bronić": 6216,
      "resztę": 6217,
      "kwe": 6218,
      "pr": 6219,
      "spojrzeniem": 6220,
      "Ri": 6221,
      "Fry": 6222,
      "wzy": 6223,
      "spojrzała": 6224,
      "Gdybym": 6225,
      "interes": 6226,
      "szyi": 6227,
      "niejszej": 6228,
      "powinno": 6229,
      "lonego": 6230,
      "ud": 6231,
      "małej": 6232,
      "zagra": 6233,
      "lowa": 6234,
      "synem": 6235,
      "domem": 6236,
      "strasznie": 6237,
      "prowadzą": 6238,
      "smutek": 6239,
      "zmusi": 6240,
      "uwiel": 6241,
      "bun": 6242,
      "wolny": 6243,
      "zdawała": 6244,
      "iło": 6245,
      "Jesteś": 6246,
      "swéj": 6247,
      "Mikoła": 6248,
      "ram": 6249,
      "porze": 6250,
      "bieli": 6251,
      "piony": 6252,
      "Czasem": 6253,
      "odezwała": 6254,
      "sprawiedliwości": 6255,
      "mowała": 6256,
      "uderzył": 6257,
      "Zu": 6258,
      "dzieliśmy": 6259,
      "cając": 6260,
      "oddział": 6261,
      "soli": 6262,
      "Bru": 6263,
      "rubli": 6264,
      "obowiązek": 6265,
      "niałem": 6266,
      "gma": 6267,
      "odby": 6268,
      "Nareszcie": 6269,
      "dostar": 6270,
      "pracę": 6271,
      "osie": 6272,
      "odła": 6273,
      "ogniem": 6274,
      "stwier": 6275,
      "żela": 6276,
      "przyzwycza": 6277,
      "wiedzy": 6278,
      "utrzyma": 6279,
      "przeklę": 6280,
      "wiu": 6281,
      "rowe": 6282,
      "sypial": 6283,
      "zamek": 6284,
      "pomaga": 6285,
      "stkę": 6286,
      "znalazła": 6287,
      "Serce": 6288,
      "naczel": 6289,
      "Wsze": 6290,
      "nna": 6291,
      "nędzy": 6292,
      "stroju": 6293,
      "tri": 6294,
      "liny": 6295,
      "nocą": 6296,
      "większa": 6297,
      "chodzili": 6298,
      "smutku": 6299,
      "mieści": 6300,
      "niewiele": 6301,
      "schro": 6302,
      "kano": 6303,
      "wyłącznie": 6304,
      "wykła": 6305,
      "ludzkości": 6306,
      "kiemi": 6307,
      "ślu": 6308,
      "budy": 6309,
      "czeni": 6310,
      "przytu": 6311,
      "głodu": 6312,
      "Moja": 6313,
      "gorzej": 6314,
      "zbio": 6315,
      "bada": 6316,
      "Sę": 6317,
      "zama": 6318,
      "Char": 6319,
      "zbrodnia": 6320,
      "Twarz": 6321,
      "rząc": 6322,
      "lite": 6323,
      "wędro": 6324,
      "święto": 6325,
      "margra": 6326,
      "roli": 6327,
      "dawne": 6328,
      "polskiego": 6329,
      "błyszczą": 6330,
      "współczu": 6331,
      "«,": 6332,
      "ramieniu": 6333,
      "umysł": 6334,
      "rozkazu": 6335,
      "chami": 6336,
      "CE": 6337,
      "pięknej": 6338,
      "manie": 6339,
      "godny": 6340,
      "burza": 6341,
      "niętą": 6342,
      "Ciebie": 6343,
      "kolu": 6344,
      "Dziękuję": 6345,
      "siąść": 6346,
      "Kur": 6347,
      "biła": 6348,
      "Mię": 6349,
      "pozostać": 6350,
      "znasz": 6351,
      "nał": 6352,
      "Dan": 6353,
      "czegóż": 6354,
      "liwości": 6355,
      "Tyś": 6356,
      "Marya": 6357,
      "gnęła": 6358,
      "bier": 6359,
      "namiętności": 6360,
      "zje": 6361,
      "paru": 6362,
      "ścian": 6363,
      "Marci": 6364,
      "niestety": 6365,
      "miną": 6366,
      "zdołał": 6367,
      "rumie": 6368,
      "cnoty": 6369,
      "młodzieniec": 6370,
      "czole": 6371,
      "tes": 6372,
      "Pre": 6373,
      "kcie": 6374,
      "biskup": 6375,
      "zepsu": 6376,
      "Pewnego": 6377,
      "stolicy": 6378,
      "wzo": 6379,
      "rozumu": 6380,
      "mistrza": 6381,
      "mawiał": 6382,
      "podzię": 6383,
      "żadne": 6384,
      "czało": 6385,
      "choroby": 6386,
      "chmury": 6387,
      "oddali": 6388,
      "dowy": 6389,
      "sklepie": 6390,
      "mury": 6391,
      "dzoną": 6392,
      "Par": 6393,
      "dobrej": 6394,
      "uchy": 6395,
      "monar": 6396,
      "nastąpi": 6397,
      "krzyża": 6398,
      "mian": 6399,
      "osło": 6400,
      "kończył": 6401,
      "myślisz": 6402,
      "długich": 6403,
      "wcześnie": 6404,
      "odpowiedzieć": 6405,
      "niusz": 6406,
      "zdecy": 6407,
      "płacz": 6408,
      "niesz": 6409,
      "księżyc": 6410,
      "pytać": 6411,
      "Rzymu": 6412,
      "klucz": 6413,
      "oświadczył": 6414,
      "bywają": 6415,
      "wnu": 6416,
      "płynął": 6417,
      "sur": 6418,
      "dzieckiem": 6419,
      "starym": 6420,
      "Wiesz": 6421,
      "kowych": 6422,
      "pełną": 6423,
      "ucieka": 6424,
      "talen": 6425,
      "dora": 6426,
      "Chy": 6427,
      "Saint": 6428,
      "rozło": 6429,
      "ver": 6430,
      "owym": 6431,
      "mężo": 6432,
      "dum": 6433,
      "oddy": 6434,
      "Słuchaj": 6435,
      "zwal": 6436,
      "Nim": 6437,
      "człowiekowi": 6438,
      "punkt": 6439,
      "łaskę": 6440,
      "łąka": 6441,
      "szcząc": 6442,
      "powietrza": 6443,
      "dyi": 6444,
      "towarzystwo": 6445,
      "jedyny": 6446,
      "Dzień": 6447,
      "okreś": 6448,
      "wszystki": 6449,
      "przesu": 6450,
      "nan": 6451,
      "napisał": 6452,
      "jakkolwiek": 6453,
      "Zapewne": 6454,
      "mle": 6455,
      "wioną": 6456,
      "języka": 6457,
      "Śmier": 6458,
      "wycię": 6459,
      "powiadała": 6460,
      "jechała": 6461,
      "remu": 6462,
      "Rober": 6463,
      "prosta": 6464,
      "rzucał": 6465,
      "Anna": 6466,
      "prawdziwie": 6467,
      "wspomnienie": 6468,
      "kałem": 6469,
      "bije": 6470,
      "snem": 6471,
      "rozsze": 6472,
      "ciep": 6473,
      "kwiat": 6474,
      "statku": 6475,
      "Jezusa": 6476,
      "parta": 6477,
      "ziemią": 6478,
      "nowym": 6479,
      "przyjacielu": 6480,
      "kate": 6481,
      "jaśnie": 6482,
      "wrę": 6483,
      "milkł": 6484,
      "wysoki": 6485,
      "żebyś": 6486,
      "słońcu": 6487,
      "młodej": 6488,
      "stosunku": 6489,
      "Hej": 6490,
      "róg": 6491,
      "słowy": 6492,
      "kowo": 6493,
      "ld": 6494,
      "tacy": 6495,
      "dobrodziej": 6496,
      "cesarza": 6497,
      "biała": 6498,
      "burzy": 6499,
      "czarną": 6500,
      "Car": 6501,
      "drobne": 6502,
      "dowiedział": 6503,
      "oże": 6504,
      "wyzy": 6505,
      "non": 6506,
      "wskie": 6507,
      "śniegu": 6508,
      "takiem": 6509,
      "ut": 6510,
      "mowi": 6511,
      "czerwie": 6512,
      "listów": 6513,
      "Bogiem": 6514,
      "Iza": 6515,
      "zadzi": 6516,
      "cesar": 6517,
      "Lon": 6518,
      "Gil": 6519,
      "niono": 6520,
      "ville": 6521,
      "księżni": 6522,
      "niezawo": 6523,
      "rzad": 6524,
      "ciły": 6525,
      "orę": 6526,
      "trop": 6527,
      "lonej": 6528,
      "zdrowia": 6529,
      "rozumieć": 6530,
      "Dok": 6531,
      "mieszkańców": 6532,
      "równi": 6533,
      "tce": 6534,
      "kącie": 6535,
      "Nale": 6536,
      "popeł": 6537,
      "żołnierz": 6538,
      "tter": 6539,
      "czam": 6540,
      "ali": 6541,
      "Widzę": 6542,
      "rozry": 6543,
      "fle": 6544,
      "grzesz": 6545,
      "wanej": 6546,
      "przecho": 6547,
      "stając": 6548,
      "chwile": 6549,
      "własnym": 6550,
      "zależ": 6551,
      "Im": 6552,
      "krzyknęła": 6553,
      "dziéj": 6554,
      "decy": 6555,
      "potom": 6556,
      "dzio": 6557,
      "umyślnie": 6558,
      "grobu": 6559,
      "goni": 6560,
      "wstyd": 6561,
      "naturalnie": 6562,
      "szczęśliwie": 6563,
      "glądać": 6564,
      "Oczywiście": 6565,
      "rozmowa": 6566,
      "dziwnego": 6567,
      "królowi": 6568,
      "Dr": 6569,
      "bne": 6570,
      "Małgo": 6571,
      "Dwa": 6572,
      "uważnie": 6573,
      "bina": 6574,
      "małych": 6575,
      "woź": 6576,
      "szpa": 6577,
      "ruje": 6578,
      "innemi": 6579,
      "dzają": 6580,
      "waszych": 6581,
      "doby": 6582,
      "gom": 6583,
      "ciemne": 6584,
      "pełna": 6585,
      "kiedykolwiek": 6586,
      "odszedł": 6587,
      "znoś": 6588,
      "brzu": 6589,
      "Piotra": 6590,
      "skru": 6591,
      "bodaj": 6592,
      "znaleźli": 6593,
      "piętna": 6594,
      "krzesła": 6595,
      "kowski": 6596,
      "uzy": 6597,
      "muję": 6598,
      "Cały": 6599,
      "bracie": 6600,
      "wejść": 6601,
      "starą": 6602,
      "roba": 6603,
      "wieży": 6604,
      "rny": 6605,
      "żynie": 6606,
      "usprawiedli": 6607,
      "siada": 6608,
      "tygodni": 6609,
      "Nor": 6610,
      "wewnątrz": 6611,
      "purpu": 6612,
      "szość": 6613,
      "dokład": 6614,
      "cieszy": 6615,
      "miłu": 6616,
      "niezwykł": 6617,
      "sądu": 6618,
      "sztor": 6619,
      "przestrzeń": 6620,
      "niespokoj": 6621,
      "ściami": 6622,
      "wymo": 6623,
      "bią": 6624,
      "gada": 6625,
      "posłusz": 6626,
      "zdala": 6627,
      "oknie": 6628,
      "Kapi": 6629,
      "umiesz": 6630,
      "smutny": 6631,
      "ciach": 6632,
      "nictwo": 6633,
      "szereg": 6634,
      "IX": 6635,
      "polskiej": 6636,
      "dzielić": 6637,
      "Winne": 6638,
      "przesa": 6639,
      "pięknych": 6640,
      "księżna": 6641,
      "zkąd": 6642,
      "gowie": 6643,
      "mówiono": 6644,
      "jusza": 6645,
      "mężczyzn": 6646,
      "praszam": 6647,
      "losu": 6648,
      "trzymając": 6649,
      "każdemu": 6650,
      "byłam": 6651,
      "zachod": 6652,
      "sel": 6653,
      "wyrazy": 6654,
      "wyła": 6655,
      "przyznać": 6656,
      "sytua": 6657,
      "bogi": 6658,
      "kiero": 6659,
      "mel": 6660,
      "przekonania": 6661,
      "ostatecznie": 6662,
      "starca": 6663,
      "honor": 6664,
      "wyrzekł": 6665,
      "wieśnia": 6666,
      "pasa": 6667,
      "cywili": 6668,
      "prawdopodobnie": 6669,
      "kop": 6670,
      "ostatniego": 6671,
      "pek": 6672,
      "codziennie": 6673,
      "rozległ": 6674,
      "wierzył": 6675,
      "Długo": 6676,
      "Nu": 6677,
      "słuchi": 6678,
      "ogromne": 6679,
      "Widzisz": 6680,
      "salonu": 6681,
      "naczy": 6682,
      "woły": 6683,
      "wątpliwie": 6684,
      "bogów": 6685,
      "dowany": 6686,
      "cle": 6687,
      "patrzyła": 6688,
      "sumienia": 6689,
      "dziewię": 6690,
      "zega": 6691,
      "wyglądał": 6692,
      "żonego": 6693,
      "żebra": 6694,
      "murzy": 6695,
      "Francji": 6696,
      "aresz": 6697,
      "zki": 6698,
      "zerwał": 6699,
      "daremnie": 6700,
      "ata": 6701,
      "prywa": 6702,
      "musisz": 6703,
      "Winnetou": 6704,
      "wskutek": 6705,
      "mur": 6706,
      "opieku": 6707,
      "placu": 6708,
      "pytania": 6709,
      "Rzecz": 6710,
      "dwudziestu": 6711,
      "twi": 6712,
      "jesta": 6713,
      "dawać": 6714,
      "dziu": 6715,
      "mno": 6716,
      "Lub": 6717,
      "Old": 6718,
      "dlań": 6719,
      "obchodzi": 6720,
      "święte": 6721,
      "statek": 6722,
      "trybu": 6723,
      "straszny": 6724,
      "okrzyk": 6725,
      "Izra": 6726,
      "lich": 6727,
      "kupić": 6728,
      "Andrzej": 6729,
      "stam": 6730,
      "dobrych": 6731,
      "postrze": 6732,
      "głych": 6733,
      "okręt": 6734,
      "otwiera": 6735,
      "precz": 6736,
      "przyrze": 6737,
      "Konstan": 6738,
      "rozwiąza": 6739,
      "sukie": 6740,
      "modlitwy": 6741,
      "bej": 6742,
      "pewnych": 6743,
      "królu": 6744,
      "nabożeń": 6745,
      "tania": 6746,
      ",“": 6747,
      "33": 6748,
      "pokazy": 6749,
      "cofa": 6750,
      "czom": 6751,
      "trady": 6752,
      "Który": 6753,
      "łom": 6754,
      "niedźwie": 6755,
      "kędy": 6756,
      "czaso": 6757,
      "niebezpieczeństwa": 6758,
      "ger": 6759,
      "interesu": 6760,
      "przedmiot": 6761,
      "Pła": 6762,
      "rzeczywistości": 6763,
      "Zno": 6764,
      "Pomimo": 6765,
      "zią": 6766,
      "czen": 6767,
      "spotkać": 6768,
      "upadł": 6769,
      "Tem": 6770,
      "pełno": 6771,
      "płakać": 6772,
      "śniej": 6773,
      "szkę": 6774,
      "pożąda": 6775,
      "RE": 6776,
      "wałę": 6777,
      "Natura": 6778,
      "śmiać": 6779,
      "trem": 6780,
      "trudności": 6781,
      "stoją": 6782,
      "rki": 6783,
      "dźwięk": 6784,
      "cku": 6785,
      "nogę": 6786,
      "zrazu": 6787,
      "południa": 6788,
      "ubó": 6789,
      "wychy": 6790,
      "gorączko": 6791,
      "sądzi": 6792,
      "złoty": 6793,
      "rękoma": 6794,
      "dowe": 6795,
      "wpływ": 6796,
      "powinni": 6797,
      "jesteście": 6798,
      "tało": 6799,
      "szczęściem": 6800,
      "orygina": 6801,
      "siedząc": 6802,
      "środek": 6803,
      "For": 6804,
      "zdrów": 6805,
      "Często": 6806,
      "rozpoczę": 6807,
      "walił": 6808,
      "niektóre": 6809,
      "odwrócił": 6810,
      "chodzę": 6811,
      "jedyna": 6812,
      "wiedziałem": 6813,
      "wroga": 6814,
      "udać": 6815,
      "nieszczęścia": 6816,
      "Niestety": 6817,
      "zmienia": 6818,
      "wyrze": 6819,
      "pokazać": 6820,
      "żeć": 6821,
      "wykształ": 6822,
      "śpią": 6823,
      "uko": 6824,
      "pospie": 6825,
      "nnego": 6826,
      "wita": 6827,
      "ministra": 6828,
      "lato": 6829,
      "rot": 6830,
      "Oni": 6831,
      "wnym": 6832,
      "szkla": 6833,
      "gene": 6834,
      "skami": 6835,
      "jaśni": 6836,
      "uczuł": 6837,
      "ryzo": 6838,
      "artyku": 6839,
      "pouf": 6840,
      "księżyca": 6841,
      "os": 6842,
      "słowie": 6843,
      "przyjemność": 6844,
      "miecz": 6845,
      "Jakób": 6846,
      "gałą": 6847,
      "skiéj": 6848,
      "sprzę": 6849,
      "wań": 6850,
      "brakło": 6851,
      "oblicze": 6852,
      "mencie": 6853,
      "kowy": 6854,
      "budzi": 6855,
      "Boży": 6856,
      "warto": 6857,
      "trwał": 6858,
      "tworzy": 6859,
      "zabija": 6860,
      "najgor": 6861,
      "przykry": 6862,
      "szonym": 6863,
      "rysu": 6864,
      "rychło": 6865,
      "zapomnia": 6866,
      "dosię": 6867,
      "Pró": 6868,
      "myśląc": 6869,
      "przybywa": 6870,
      "prześli": 6871,
      "que": 6872,
      "młodzieńca": 6873,
      "strzela": 6874,
      "jały": 6875,
      "omy": 6876,
      "Oba": 6877,
      "Uj": 6878,
      "cich": 6879,
      "obcy": 6880,
      "podług": 6881,
      "biedna": 6882,
      "Rę": 6883,
      "podnosi": 6884,
      "głębie": 6885,
      "żywota": 6886,
      "lik": 6887,
      "litość": 6888,
      "słody": 6889,
      "złoci": 6890,
      "filozofi": 6891,
      "domyśla": 6892,
      "czerwone": 6893,
      "Fra": 6894,
      "reda": 6895,
      "sieni": 6896,
      "trwogi": 6897,
      "dor": 6898,
      "imieniu": 6899,
      "winie": 6900,
      "stłu": 6901,
      "potrzą": 6902,
      "doszedł": 6903,
      "rozpro": 6904,
      "żonym": 6905,
      "wszelkiego": 6906,
      "przę": 6907,
      "wartość": 6908,
      "Być": 6909,
      "faj": 6910,
      "patrywał": 6911,
      "żądał": 6912,
      "chciało": 6913,
      "palce": 6914,
      "źnia": 6915,
      "Jakby": 6916,
      "Wielki": 6917,
      "obrzy": 6918,
      "tala": 6919,
      "towe": 6920,
      "krzyki": 6921,
      "rozmyśla": 6922,
      "blada": 6923,
      "niesienia": 6924,
      "sukni": 6925,
      "nnej": 6926,
      "południu": 6927,
      "ałą": 6928,
      "boja": 6929,
      "niespodzie": 6930,
      "rowy": 6931,
      "chra": 6932,
      "tył": 6933,
      "cmenta": 6934,
      "zagro": 6935,
      "wszelki": 6936,
      "dobie": 6937,
      "wagi": 6938,
      "Ger": 6939,
      "piasku": 6940,
      "przyjemności": 6941,
      "ąż": 6942,
      "Julja": 6943,
      "Hrabia": 6944,
      "schod": 6945,
      "lasy": 6946,
      "ukra": 6947,
      "karcz": 6948,
      "liczyć": 6949,
      "Jadwi": 6950,
      "charakteru": 6951,
      "elegan": 6952,
      "wysokości": 6953,
      "szku": 6954,
      "skając": 6955,
      "patrzą": 6956,
      "powoła": 6957,
      "ogóle": 6958,
      "młodą": 6959,
      "45": 6960,
      "rozporzą": 6961,
      "brew": 6962,
      "kapitana": 6963,
      "kwit": 6964,
      "mami": 6965,
      "tując": 6966,
      "żan": 6967,
      "adwo": 6968,
      "płu": 6969,
      "pili": 6970,
      "któryby": 6971,
      "spły": 6972,
      "niewidzial": 6973,
      "przyniósł": 6974,
      "gają": 6975,
      "ćwi": 6976,
      "cznemi": 6977,
      "Mak": 6978,
      "niżej": 6979,
      "marzenia": 6980,
      "hrabina": 6981,
      "grobie": 6982,
      "umysłu": 6983,
      "szawszy": 6984,
      "wiam": 6985,
      "silne": 6986,
      "darmo": 6987,
      "bór": 6988,
      "zabrać": 6989,
      "położenie": 6990,
      "popę": 6991,
      "posiadał": 6992,
      "dola": 6993,
      "kowej": 6994,
      "zgra": 6995,
      "tus": 6996,
      "tegoż": 6997,
      "toż": 6998,
      "mojéj": 6999,
      "wasza": 7000,
      "zachę": 7001,
      "mama": 7002,
      "mieszkał": 7003,
      "ludzkiego": 7004,
      "odpoczy": 7005,
      "płacze": 7006,
      "Owszem": 7007,
      "koniu": 7008,
      "ozdo": 7009,
      "zasła": 7010,
      "łości": 7011,
      "pannę": 7012,
      "hel": 7013,
      "wiatru": 7014,
      "kardyna": 7015,
      "Pow": 7016,
      "sławy": 7017,
      "folwar": 7018,
      "wątpienia": 7019,
      "60": 7020,
      "kłe": 7021,
      "świątyni": 7022,
      "Dar": 7023,
      "lów": 7024,
      "jenia": 7025,
      "nieboszczy": 7026,
      "ara": 7027,
      "szczególnie": 7028,
      "zostawił": 7029,
      "stanowisko": 7030,
      "klejno": 7031,
      "zdolności": 7032,
      "Zaledwie": 7033,
      "pane": 7034,
      "gdybyś": 7035,
      "Tar": 7036,
      "władzę": 7037,
      "żywio": 7038,
      "inna": 7039,
      "lubię": 7040,
      "tajemnicy": 7041,
      "potrzebuje": 7042,
      "czają": 7043,
      "trawy": 7044,
      "Don": 7045,
      "wszela": 7046,
      "Znowu": 7047,
      "rol": 7048,
      "musiało": 7049,
      "rozmowie": 7050,
      "kadem": 7051,
      "nionego": 7052,
      "środka": 7053,
      "ulicz": 7054,
      "rusza": 7055,
      "lubo": 7056,
      "Będę": 7057,
      "uczuciem": 7058,
      "trzecie": 7059,
      "słyszę": 7060,
      "nionym": 7061,
      "zdobyć": 7062,
      "mężem": 7063,
      "zazwyczaj": 7064,
      "sługa": 7065,
      "doprawdy": 7066,
      "trzydzieści": 7067,
      "małym": 7068,
      "cko": 7069,
      "zabić": 7070,
      "tnia": 7071,
      "weźmie": 7072,
      "31": 7073,
      "Katarzy": 7074,
      "chcecie": 7075,
      "dresz": 7076,
      "promienie": 7077,
      "śnieg": 7078,
      "szkie": 7079,
      "wyrazu": 7080,
      "utk": 7081,
      "Życie": 7082,
      "pany": 7083,
      "niepokój": 7084,
      "gało": 7085,
      "głównie": 7086,
      "boju": 7087,
      "dowych": 7088,
      "łodzi": 7089,
      "szeń": 7090,
      "dziwny": 7091,
      "spół": 7092,
      "zamknął": 7093,
      "wno": 7094,
      "tór": 7095,
      "pobie": 7096,
      "człowieku": 7097,
      "utrzy": 7098,
      "rzeczach": 7099,
      "koza": 7100,
      "parł": 7101,
      "Widzi": 7102,
      "śmiały": 7103,
      "szały": 7104,
      "bara": 7105,
      "niosą": 7106,
      "znaczenia": 7107,
      "byłbym": 7108,
      "gościa": 7109,
      "spotkanie": 7110,
      "utrzymać": 7111,
      "Cała": 7112,
      "większy": 7113,
      "uzbro": 7114,
      "niało": 7115,
      "głuchy": 7116,
      "MA": 7117,
      "siostrze": 7118,
      "wodzi": 7119,
      "wisko": 7120,
      "żny": 7121,
      "strój": 7122,
      "niesiono": 7123,
      "Kościo": 7124,
      "Filip": 7125,
      "rzecze": 7126,
      "skutkiem": 7127,
      "ulu": 7128,
      "Stanisław": 7129,
      "papiero": 7130,
      "Fer": 7131,
      "kono": 7132,
      "opuścić": 7133,
      "chó": 7134,
      "dia": 7135,
      "godności": 7136,
      "zmiesza": 7137,
      "zeń": 7138,
      "książkę": 7139,
      "Ver": 7140,
      "waliśmy": 7141,
      "pyty": 7142,
      "wojnę": 7143,
      "jone": 7144,
      "koł": 7145,
      "Rzymie": 7146,
      "lepiéj": 7147,
      "człek": 7148,
      "szeniem": 7149,
      "wydała": 7150,
      "niektórych": 7151,
      "indziej": 7152,
      "czarno": 7153,
      "cienie": 7154,
      "spło": 7155,
      "zewnątrz": 7156,
      "wiercia": 7157,
      "pozwolił": 7158,
      "skre": 7159,
      "brwi": 7160,
      "wielkiem": 7161,
      "czynienia": 7162,
      "kłę": 7163,
      "pieczę": 7164,
      "wznosi": 7165,
      "mentów": 7166,
      "przod": 7167,
      "pochod": 7168,
      "żka": 7169,
      "lady": 7170,
      "czysty": 7171,
      "Chcę": 7172,
      "waszej": 7173,
      "wiedzieli": 7174,
      "pracą": 7175,
      "grzech": 7176,
      "jutrze": 7177,
      "nikczem": 7178,
      "maja": 7179,
      "sekun": 7180,
      "świętej": 7181,
      "dowcip": 7182,
      "przeło": 7183,
      "wiecie": 7184,
      "przysta": 7185,
      "podle": 7186,
      "wargi": 7187,
      "sprawiedliwość": 7188,
      "treści": 7189,
      "Widziałem": 7190,
      "czynią": 7191,
      "Rzym": 7192,
      "Francyi": 7193,
      "Maryi": 7194,
      "obywatel": 7195,
      "czniej": 7196,
      "szczem": 7197,
      "teo": 7198,
      "biorąc": 7199,
      "pokoi": 7200,
      "poszli": 7201,
      "zwro": 7202,
      "listu": 7203,
      "podnosząc": 7204,
      "grób": 7205,
      "drą": 7206,
      "wersy": 7207,
      "swobodnie": 7208,
      "naci": 7209,
      "cek": 7210,
      "land": 7211,
      "TA": 7212,
      "pilnie": 7213,
      "loty": 7214,
      "towania": 7215,
      "bała": 7216,
      "boi": 7217,
      "ziono": 7218,
      "schodach": 7219,
      "Wan": 7220,
      "wydać": 7221,
      "nną": 7222,
      "łeb": 7223,
      "JA": 7224,
      "Przeci": 7225,
      "walczyć": 7226,
      "wspomnienia": 7227,
      "szklan": 7228,
      "smutne": 7229,
      "obiedzie": 7230,
      "szczył": 7231,
      "ału": 7232,
      "liwszy": 7233,
      "boli": 7234,
      "usiłu": 7235,
      "spał": 7236,
      "rosną": 7237,
      "sposobności": 7238,
      "34": 7239,
      "Isto": 7240,
      "dran": 7241,
      "szczenia": 7242,
      "prawdą": 7243,
      "lim": 7244,
      "polskie": 7245,
      "wuje": 7246,
      "zjawił": 7247,
      "podwój": 7248,
      "Hisz": 7249,
      "zacze": 7250,
      "obozu": 7251,
      "skom": 7252,
      "ilość": 7253,
      "Bur": 7254,
      "zastana": 7255,
      "Gdzież": 7256,
      "czując": 7257,
      "milczenia": 7258,
      "jedyną": 7259,
      "bogaty": 7260,
      "rety": 7261,
      "ścianie": 7262,
      "Macie": 7263,
      "płakała": 7264,
      "wszelką": 7265,
      "skończył": 7266,
      "karabi": 7267,
      "innem": 7268,
      "nieustannie": 7269,
      "wracać": 7270,
      "gospodyni": 7271,
      "zostali": 7272,
      "37": 7273,
      "cudzoziem": 7274,
      "miec": 7275,
      "zasy": 7276,
      "przejść": 7277,
      "Kilka": 7278,
      "cerem": 7279,
      "krzyżo": 7280,
      "słowami": 7281,
      "przypomniał": 7282,
      "zgrzy": 7283,
      "największą": 7284,
      "zatrzymać": 7285,
      "świade": 7286,
      "będziecie": 7287,
      "blaskiem": 7288,
      "tują": 7289,
      "granic": 7290,
      "ryj": 7291,
      "wielkości": 7292,
      "Miłość": 7293,
      "śnię": 7294,
      "pragnę": 7295,
      "wypeł": 7296,
      "niemy": 7297,
      "obecność": 7298,
      "knąć": 7299,
      "oble": 7300,
      "wysokie": 7301,
      "miary": 7302,
      "Gar": 7303,
      "zegar": 7304,
      "całkowicie": 7305,
      "Znaj": 7306,
      "ohy": 7307,
      "bnie": 7308,
      "przynosi": 7309,
      "zanu": 7310,
      "powtarzał": 7311,
      "nasta": 7312,
      "nędza": 7313,
      "złożył": 7314,
      "obłąka": 7315,
      "Czas": 7316,
      "zaklę": 7317,
      "puść": 7318,
      "Ksiądz": 7319,
      "zai": 7320,
      "czysto": 7321,
      "szeptał": 7322,
      "charaktery": 7323,
      "otwarcie": 7324,
      "żywe": 7325,
      "skali": 7326,
      "żałob": 7327,
      "wychodzą": 7328,
      "obcych": 7329,
      "szowi": 7330,
      "leżała": 7331,
      "chciałbym": 7332,
      "zapałem": 7333,
      "nadzieja": 7334,
      "celi": 7335,
      "Rów": 7336,
      "czasami": 7337,
      "wodza": 7338,
      "Słońce": 7339,
      "czułem": 7340,
      "rządu": 7341,
      "wolą": 7342,
      "męczeń": 7343,
      "skóry": 7344,
      "seł": 7345,
      "jało": 7346,
      "siedzieć": 7347,
      "pracował": 7348,
      "ela": 7349,
      "sympaty": 7350,
      "stamtąd": 7351,
      "kamienie": 7352,
      "odpowiadał": 7353,
      "Mia": 7354,
      "Gru": 7355,
      "spoty": 7356,
      "padły": 7357,
      "gwiazda": 7358,
      "sal": 7359,
      "gim": 7360,
      "służbę": 7361,
      "rzona": 7362,
      "zależy": 7363,
      "mundu": 7364,
      "klasztor": 7365,
      "cudo": 7366,
      "muzyka": 7367,
      "odrę": 7368,
      "jeźdź": 7369,
      "mgła": 7370,
      "straży": 7371,
      "tniej": 7372,
      "dawnego": 7373,
      "ciągnęła": 7374,
      "pokazał": 7375,
      "gruncie": 7376,
      "związku": 7377,
      "adre": 7378,
      "majesta": 7379,
      "ciło": 7380,
      "studen": 7381,
      "Noc": 7382,
      "dziwił": 7383,
      "zamierza": 7384,
      "bny": 7385,
      "wierny": 7386,
      "córką": 7387,
      "żołnierze": 7388,
      "nty": 7389,
      "36": 7390,
      "powieść": 7391,
      "pierście": 7392,
      "zwierząt": 7393,
      "ukryć": 7394,
      "filozof": 7395,
      "umiała": 7396,
      "błąd": 7397,
      "Jutro": 7398,
      "głębokie": 7399,
      "gniewem": 7400,
      "nało": 7401,
      "Strze": 7402,
      "bezpośre": 7403,
      "kobietą": 7404,
      "ostatnim": 7405,
      "zamor": 7406,
      "potrzebował": 7407,
      "obrazić": 7408,
      "wago": 7409,
      "teczne": 7410,
      "zrobiła": 7411,
      "pospolitej": 7412,
      "wsza": 7413,
      "skrze": 7414,
      "zbroj": 7415,
      "LA": 7416,
      "tory": 7417,
      "kłu": 7418,
      "sądzić": 7419,
      "powiadam": 7420,
      "sarz": 7421,
      "uka": 7422,
      "pożar": 7423,
      "wiają": 7424,
      "robią": 7425,
      "możnaby": 7426,
      "zagad": 7427,
      "piękność": 7428,
      "kwesty": 7429,
      "odmien": 7430,
      "wchodzi": 7431,
      "gęst": 7432,
      "Jednakże": 7433,
      "Rozumie": 7434,
      "każę": 7435,
      "sposobność": 7436,
      "przymio": 7437,
      "kanie": 7438,
      "węd": 7439,
      "przyjaźń": 7440,
      "powrotu": 7441,
      "mono": 7442,
      "siedem": 7443,
      "Trudno": 7444,
      "trudem": 7445,
      "walce": 7446,
      "wkę": 7447,
      "wolne": 7448,
      "wydawał": 7449,
      "prawę": 7450,
      "nieśli": 7451,
      "minę": 7452,
      "chwały": 7453,
      "nieza": 7454,
      "niedaleko": 7455,
      "świeże": 7456,
      "wka": 7457,
      "znany": 7458,
      "prawdziwy": 7459,
      "wyrok": 7460,
      "synu": 7461,
      "napi": 7462,
      "zmiany": 7463,
      "baron": 7464,
      "kilkanaście": 7465,
      "sprzeci": 7466,
      "cud": 7467,
      "NIE": 7468,
      "waża": 7469,
      "ing": 7470,
      "żonej": 7471,
      "spada": 7472,
      "Dalej": 7473,
      "musiałem": 7474,
      "oty": 7475,
      "lekce": 7476,
      "snych": 7477,
      "mani": 7478,
      "wracając": 7479,
      "wawszy": 7480,
      "dziera": 7481,
      "sztuka": 7482,
      "wiska": 7483,
      "sir": 7484,
      "łałem": 7485,
      "grom": 7486,
      "żywot": 7487,
      "zya": 7488,
      "braku": 7489,
      "celem": 7490,
      "najmniéj": 7491,
      "przypadkiem": 7492,
      "żywy": 7493,
      "Chwi": 7494,
      "pełnym": 7495,
      "drudzy": 7496,
      "zwierzęta": 7497,
      "lecie": 7498,
      "pione": 7499,
      "wytłuma": 7500,
      "es": 7501,
      "lili": 7502,
      "nogą": 7503,
      "stojąc": 7504,
      "Fo": 7505,
      "wnej": 7506,
      "zgodzi": 7507,
      "niły": 7508,
      "pacie": 7509,
      "gwa": 7510,
      "żywa": 7511,
      "hotelu": 7512,
      "ciężki": 7513,
      "Lan": 7514,
      "złem": 7515,
      "prawdziwe": 7516,
      "przeć": 7517,
      "dzonego": 7518,
      "stokra": 7519,
      "tragi": 7520,
      "zata": 7521,
      "odrzekła": 7522,
      "nuje": 7523,
      "piąc": 7524,
      "klasztoru": 7525,
      "kuli": 7526,
      "stale": 7527,
      "szoną": 7528,
      "sędzia": 7529,
      "gruby": 7530,
      "wypę": 7531,
      "kwest": 7532,
      "promieni": 7533,
      "nionej": 7534,
      "świętych": 7535,
      "zamknięte": 7536,
      "szwa": 7537,
      "pozwal": 7538,
      "tyś": 7539,
      "duchem": 7540,
      "naśla": 7541,
      "ns": 7542,
      "biur": 7543,
      "miany": 7544,
      "wionych": 7545,
      "przypomnie": 7546,
      "światłem": 7547,
      "listo": 7548,
      "past": 7549,
      "ogląd": 7550,
      "znajomych": 7551,
      "ludzki": 7552,
      "ll": 7553,
      "Ludwika": 7554,
      "dnich": 7555,
      "blizko": 7556,
      "ceni": 7557,
      "Sha": 7558,
      "mosfe": 7559,
      "podnieść": 7560,
      "wersyte": 7561,
      "pamiętam": 7562,
      "sposobu": 7563,
      "port": 7564,
      "menty": 7565,
      "chłopcy": 7566,
      "generał": 7567,
      "majo": 7568,
      "papieru": 7569,
      "jadł": 7570,
      "bili": 7571,
      "książe": 7572,
      "wnętrza": 7573,
      "wolnym": 7574,
      "jeździe": 7575,
      "Janek": 7576,
      "Ur": 7577,
      "wypa": 7578,
      "sześciu": 7579,
      "serc": 7580,
      "nienawiść": 7581,
      "óz": 7582,
      "towych": 7583,
      ".”": 7584,
      "snę": 7585,
      "zabiera": 7586,
      "bierz": 7587,
      "Świat": 7588,
      "pot": 7589,
      "Polska": 7590,
      "cien": 7591,
      "rozsta": 7592,
      "Tyle": 7593,
      "Śpie": 7594,
      "Teodo": 7595,
      "Zbli": 7596,
      "kiwał": 7597,
      "Alla": 7598,
      "beł": 7599,
      "dziećmi": 7600,
      "kapli": 7601,
      "ktry": 7602,
      "chwilach": 7603,
      "Star": 7604,
      "blo": 7605,
      "knęła": 7606,
      "wojna": 7607,
      "środków": 7608,
      "padło": 7609,
      "pragnienie": 7610,
      "rną": 7611,
      "tłumu": 7612,
      "wielo": 7613,
      "ambi": 7614,
      "czkami": 7615,
      "gr": 7616,
      "rysy": 7617,
      "imienia": 7618,
      "powagą": 7619,
      "żołnierza": 7620,
      "ine": 7621,
      "nda": 7622,
      "nieprzyjaciół": 7623,
      "nota": 7624,
      "dowej": 7625,
      "38": 7626,
      "som": 7627,
      "ktem": 7628,
      "rozstrzy": 7629,
      "nasy": 7630,
      "przyjechał": 7631,
      "głość": 7632,
      "lności": 7633,
      "uciekać": 7634,
      "zemsty": 7635,
      "przymu": 7636,
      "Ode": 7637,
      "towarzysze": 7638,
      "mane": 7639,
      "potrafił": 7640,
      "pańskie": 7641,
      "Marja": 7642,
      "zulta": 7643,
      "Egip": 7644,
      "zabił": 7645,
      "Wzią": 7646,
      "ciągnąć": 7647,
      "ruszyła": 7648,
      "grozi": 7649,
      "wtenczas": 7650,
      "fotelu": 7651,
      "pielgrzy": 7652,
      "unika": 7653,
      "Oprócz": 7654,
      "ołta": 7655,
      "Młody": 7656,
      "własny": 7657,
      "Między": 7658,
      "48": 7659,
      "występ": 7660,
      "stają": 7661,
      "uważać": 7662,
      "zabój": 7663,
      "zimna": 7664,
      "otrzy": 7665,
      "rzucać": 7666,
      "dziki": 7667,
      "niebios": 7668,
      "łonie": 7669,
      "prosiła": 7670,
      "bliź": 7671,
      "miny": 7672,
      "wiosen": 7673,
      "obwi": 7674,
      "ciche": 7675,
      "odgłos": 7676,
      "Głos": 7677,
      "39": 7678,
      "żbie": 7679,
      "zapach": 7680,
      "śniadanie": 7681,
      "czkach": 7682,
      "Jaka": 7683,
      "lekka": 7684,
      "żyją": 7685,
      "ros": 7686,
      "słyszała": 7687,
      "naby": 7688,
      "połowie": 7689,
      "owie": 7690,
      "Papie": 7691,
      "samemu": 7692,
      "noś": 7693,
      "mięsza": 7694,
      "kończy": 7695,
      "szukając": 7696,
      "bladł": 7697,
      "puszczał": 7698,
      "złotem": 7699,
      "Tere": 7700,
      "strzę": 7701,
      "złości": 7702,
      "innymi": 7703,
      "ruchy": 7704,
      "zrobiło": 7705,
      "Tobie": 7706,
      "rka": 7707,
      "zdało": 7708,
      "kwadran": 7709,
      "zmienił": 7710,
      "rui": 7711,
      "cielem": 7712,
      "kury": 7713,
      "pozostały": 7714,
      "jener": 7715,
      "napis": 7716,
      "chału": 7717,
      "umieję": 7718,
      "położeniu": 7719,
      "walić": 7720,
      "harmo": 7721,
      "grosza": 7722,
      "VI": 7723,
      "czął": 7724,
      "wokoło": 7725,
      "najdroż": 7726,
      "okazy": 7727,
      "kazało": 7728,
      "poprzednio": 7729,
      "dziem": 7730,
      "wyło": 7731,
      "żonie": 7732,
      "porwał": 7733,
      "Szko": 7734,
      "chorego": 7735,
      "lica": 7736,
      "płacić": 7737,
      "truci": 7738,
      "dasz": 7739,
      "białego": 7740,
      "puściła": 7741,
      "Zosia": 7742,
      "znalazłem": 7743,
      "liwa": 7744,
      "cenę": 7745,
      "gardło": 7746,
      "przeważnie": 7747,
      "miałam": 7748,
      "wzruszenia": 7749,
      "zamyś": 7750,
      "obojętnie": 7751,
      "ii": 7752,
      "zwia": 7753,
      "wykrzyknął": 7754,
      "styna": 7755,
      "Edwar": 7756,
      "opowiedział": 7757,
      "nawy": 7758,
      "przestał": 7759,
      "piera": 7760,
      "Szwe": 7761,
      "stosunków": 7762,
      "umarła": 7763,
      "życio": 7764,
      "stopy": 7765,
      "pycha": 7766,
      "nauczyciel": 7767,
      "stanowią": 7768,
      "TE": 7769,
      "zgry": 7770,
      "miejscach": 7771,
      "grube": 7772,
      "niny": 7773,
      "oddech": 7774,
      "licznych": 7775,
      "czynności": 7776,
      "miesiące": 7777,
      "Sama": 7778,
      "niejako": 7779,
      "szó": 7780,
      "reszty": 7781,
      "Powia": 7782,
      "rzać": 7783,
      "wskazując": 7784,
      "dnik": 7785,
      "rodzina": 7786,
      "wieczoru": 7787,
      "płaszcz": 7788,
      "lepszego": 7789,
      "atmosfe": 7790,
      "zarę": 7791,
      "łok": 7792,
      "Naturalnie": 7793,
      "marzeń": 7794,
      "szczegóły": 7795,
      "Chyba": 7796,
      "nnym": 7797,
      "czynu": 7798,
      "prawej": 7799,
      "niedzie": 7800,
      "większej": 7801,
      "spodziewać": 7802,
      "Lud": 7803,
      "biorą": 7804,
      "duka": 7805,
      "Ludwik": 7806,
      "pały": 7807,
      "jedne": 7808,
      "skarby": 7809,
      "Kan": 7810,
      "okazał": 7811,
      "dany": 7812,
      "przypuszcze": 7813,
      "równy": 7814,
      "ÓR": 7815,
      "prowadzono": 7816,
      "Wer": 7817,
      "kapry": 7818,
      "nadzieje": 7819,
      "spodziewał": 7820,
      "społeczeństwa": 7821,
      "przyczyną": 7822,
      "Hale": 7823,
      "dzikie": 7824,
      "sunęła": 7825,
      "szczęśliwa": 7826,
      "wskazał": 7827,
      "dnąć": 7828,
      "czami": 7829,
      "zajął": 7830,
      "wyspy": 7831,
      "Napole": 7832,
      "niepoję": 7833,
      "pięćdziesiąt": 7834,
      "dnią": 7835,
      "tejże": 7836,
      "papiery": 7837,
      "DO": 7838,
      "marzy": 7839,
      "najpierw": 7840,
      "łagodnie": 7841,
      "Wyso": 7842,
      "szedłszy": 7843,
      "atoli": 7844,
      "ńcem": 7845,
      "karty": 7846,
      "arystokra": 7847,
      "dzam": 7848,
      "muzyki": 7849,
      "opowiadać": 7850,
      "dziawszy": 7851,
      "ofiarę": 7852,
      "Londy": 7853,
      "tnik": 7854,
      "zastoso": 7855,
      "gdzież": 7856,
      "zwrócić": 7857,
      "sja": 7858,
      "słaby": 7859,
      "bezpieczeń": 7860,
      "długim": 7861,
      "jeziora": 7862,
      "punktu": 7863,
      "barwy": 7864,
      "pisma": 7865,
      "boleść": 7866,
      "wzra": 7867,
      "zostaje": 7868,
      "towała": 7869,
      "zawdzię": 7870,
      "Duch": 7871,
      "zachować": 7872,
      "Sła": 7873,
      "powieki": 7874,
      "wyjścia": 7875,
      "piér": 7876,
      "wscho": 7877,
      "nd": 7878,
      "ózł": 7879,
      "ir": 7880,
      "umiem": 7881,
      "błyszcz": 7882,
      "nienawiści": 7883,
      "towy": 7884,
      "wodo": 7885,
      "jedni": 7886,
      "bohate": 7887,
      "szpie": 7888,
      "wiało": 7889,
      "obowiązki": 7890,
      "rozmaitych": 7891,
      "miasteczka": 7892,
      "Sal": 7893,
      "salonie": 7894,
      "Głu": 7895,
      "Nieba": 7896,
      "uciekł": 7897,
      "kiewicz": 7898,
      "bitwy": 7899,
      "zabawy": 7900,
      "wstę": 7901,
      "sprawach": 7902,
      "ló": 7903,
      "zapomnieć": 7904,
      "linie": 7905,
      "wiara": 7906,
      "nieznoś": 7907,
      "paste": 7908,
      "Miała": 7909,
      "euro": 7910,
      "porozumie": 7911,
      "Smu": 7912,
      "Moje": 7913,
      "niewątpliwie": 7914,
      "remi": 7915,
      "mir": 7916,
      "At": 7917,
      "nikami": 7918,
      "Byli": 7919,
      "sso": 7920,
      "sądził": 7921,
      "ostatnią": 7922,
      "mowie": 7923,
      "ret": 7924,
      "Dom": 7925,
      "nieprawda": 7926,
      "przele": 7927,
      "Dzieci": 7928,
      "KO": 7929,
      "przygo": 7930,
      "nieprzyjaciel": 7931,
      "pul": 7932,
      "podobną": 7933,
      "kochała": 7934,
      "żeśmy": 7935,
      "szaty": 7936,
      "Syn": 7937,
      "opatrz": 7938,
      "zali": 7939,
      "Weź": 7940,
      "żeg": 7941,
      "graf": 7942,
      "lski": 7943,
      "wstą": 7944,
      "szczer": 7945,
      "ojców": 7946,
      "tona": 7947,
      "chowa": 7948,
      "jab": 7949,
      "gania": 7950,
      "obyczaj": 7951,
      "kuch": 7952,
      "płoną": 7953,
      "otworzyć": 7954,
      "pojąć": 7955,
      "słab": 7956,
      "roi": 7957,
      "ley": 7958,
      "głosie": 7959,
      "białym": 7960,
      "tonie": 7961,
      "dźcie": 7962,
      "prawem": 7963,
      "początek": 7964,
      "archi": 7965,
      "piej": 7966,
      "szlachcic": 7967,
      "wprzód": 7968,
      "odetch": 7969,
      "zapra": 7970,
      "słuchała": 7971,
      "Ojcze": 7972,
      "powód": 7973,
      "fali": 7974,
      "Joh": 7975,
      "ład": 7976,
      "tchó": 7977,
      "onie": 7978,
      "zawzię": 7979,
      "Dzięki": 7980,
      "osłu": 7981,
      "znaki": 7982,
      "ładnie": 7983,
      "tnością": 7984,
      "nazywał": 7985,
      "trwało": 7986,
      ".[": 7987,
      "zazna": 7988,
      "rozmaite": 7989,
      "odległości": 7990,
      "niło": 7991,
      "lasów": 7992,
      "tajemnicę": 7993,
      "męczar": 7994,
      "pisane": 7995,
      "Patrzy": 7996,
      "pręd": 7997,
      "głód": 7998,
      "westchnął": 7999,
      "europej": 8000,
      "lżej": 8001,
      "osobie": 8002,
      "starości": 8003,
      "nacie": 8004,
      "nili": 8005,
      "pewność": 8006,
      "przó": 8007,
      "stanowiska": 8008,
      "Jakoż": 8009,
      "jaski": 8010,
      "równocześnie": 8011,
      "RZE": 8012,
      "ffen": 8013,
      "daję": 8014,
      "trakto": 8015,
      "zajęty": 8016,
      "korzyść": 8017,
      "naukę": 8018,
      "sceny": 8019,
      "WI": 8020,
      "wypada": 8021,
      "śpiew": 8022,
      "zwłoki": 8023,
      "możności": 8024,
      "Eli": 8025,
      "bol": 8026,
      "Zaczę": 8027,
      "załat": 8028,
      "napowrót": 8029,
      "Hal": 8030,
      "glądała": 8031,
      "Sobie": 8032,
      "dymu": 8033,
      "ciężarem": 8034,
      "dodać": 8035,
      "niezawodnie": 8036,
      "przemówił": 8037,
      "znajdują": 8038,
      "stopniu": 8039,
      "sbur": 8040,
      "uja": 8041,
      "chro": 8042,
      "dzali": 8043,
      "pozostało": 8044,
      "mgły": 8045,
      "bione": 8046,
      "plecy": 8047,
      "ciekawość": 8048,
      "specja": 8049,
      "ino": 8050,
      "dozor": 8051,
      "oficer": 8052,
      "minie": 8053,
      "ptaki": 8054,
      "służy": 8055,
      "kochanka": 8056,
      "Jedy": 8057,
      "zwiercia": 8058,
      "wiłem": 8059,
      "zaszło": 8060,
      "bul": 8061,
      "białej": 8062,
      "liwym": 8063,
      "niebieskie": 8064,
      "spó": 8065,
      "zająć": 8066,
      "lepsze": 8067,
      "dziewczynę": 8068,
      "zmniej": 8069,
      "szczególniej": 8070,
      "byście": 8071,
      "wydało": 8072,
      "przechodzi": 8073,
      "PIE": 8074,
      "lęk": 8075,
      "Szczę": 8076,
      "wyjątko": 8077,
      "pota": 8078,
      "książek": 8079,
      "zakre": 8080,
      "lana": 8081,
      "szkoda": 8082,
      "posie": 8083,
      "zanadto": 8084,
      "wice": 8085,
      "usłysze": 8086,
      "wci": 8087,
      "Skan": 8088,
      "Bel": 8089,
      "wywie": 8090,
      "rowała": 8091,
      "żer": 8092,
      "...“": 8093,
      "Mosk": 8094,
      "ośle": 8095,
      "rezulta": 8096,
      "oknem": 8097,
      "dołu": 8098,
      "Wprawdzie": 8099,
      "odwiedzi": 8100,
      "Tade": 8101,
      "jała": 8102,
      "wieniu": 8103,
      "okrętu": 8104,
      "pojechał": 8105,
      "ledwo": 8106,
      "jaskra": 8107,
      "krako": 8108,
      "odpowiedzial": 8109,
      "piał": 8110,
      "dzeni": 8111,
      "małżeństwo": 8112,
      "biu": 8113,
      "jakichś": 8114,
      "dzały": 8115,
      "połowę": 8116,
      "cesarz": 8117,
      "Ara": 8118,
      "sługę": 8119,
      "reszta": 8120,
      "czekając": 8121,
      "XVI": 8122,
      "tron": 8123,
      "pobiegł": 8124,
      "gon": 8125,
      "szmer": 8126,
      "trzeź": 8127,
      "70": 8128,
      "równowa": 8129,
      "wybiera": 8130,
      "Chrystus": 8131,
      "sług": 8132,
      "próbował": 8133,
      "gabinetu": 8134,
      "tyłu": 8135,
      "dziano": 8136,
      "widzimy": 8137,
      "zręcznie": 8138,
      "kochana": 8139,
      "Fili": 8140,
      "przódy": 8141,
      "ssi": 8142,
      "trując": 8143,
      "stanąć": 8144,
      "tamtej": 8145,
      "ape": 8146,
      "czarnej": 8147,
      "zną": 8148,
      "losy": 8149,
      "Słucha": 8150,
      "gali": 8151,
      "epi": 8152,
      "wyprosto": 8153,
      "przeraźli": 8154,
      "Wszakże": 8155,
      "ustawi": 8156,
      "zniknął": 8157,
      "przekle": 8158,
      "lewej": 8159,
      "duchy": 8160,
      "górach": 8161,
      "anna": 8162,
      "mara": 8163,
      "ryt": 8164,
      "186": 8165,
      "odro": 8166,
      "kają": 8167,
      "bronią": 8168,
      "boję": 8169,
      "testa": 8170,
      "mógłbym": 8171,
      "zadowolony": 8172,
      "Henryka": 8173,
      "mgnie": 8174,
      "ukazała": 8175,
      "poem": 8176,
      "mniema": 8177,
      "lekarz": 8178,
      "Elżbie": 8179,
      "wieństwo": 8180,
      "jadal": 8181,
      "świeży": 8182,
      "powrócić": 8183,
      "wcześniej": 8184,
      "stre": 8185,
      "płynęła": 8186,
      "podać": 8187,
      "towej": 8188,
      "głej": 8189,
      "szanow": 8190,
      "ben": 8191,
      "tobli": 8192,
      "mroku": 8193,
      "wyobraźni": 8194,
      "smę": 8195,
      "osoba": 8196,
      "spry": 8197,
      "ńczo": 8198,
      "ryby": 8199,
      "grzechy": 8200,
      "troski": 8201,
      "wani": 8202,
      "strzały": 8203,
      "log": 8204,
      "zel": 8205,
      "pobytu": 8206,
      "przeszła": 8207,
      "dzonym": 8208,
      "burz": 8209,
      "Mówił": 8210,
      "wkońcu": 8211,
      "dawała": 8212,
      "Śmierć": 8213,
      "wojnie": 8214,
      "ocie": 8215,
      "źródła": 8216,
      "pismo": 8217,
      "pośrodku": 8218,
      "czołem": 8219,
      "Tłu": 8220,
      "mimowoli": 8221,
      "pragnęła": 8222,
      "ame": 8223,
      "Naro": 8224,
      "służył": 8225,
      "wrogów": 8226,
      "obrony": 8227,
      "wbrew": 8228,
      "zaczęło": 8229,
      "wdzięczność": 8230,
      "szerokie": 8231,
      "biły": 8232,
      "powozu": 8233,
      "wzgórza": 8234,
      "Br": 8235,
      "Tr": 8236,
      "niezbyt": 8237,
      "drogo": 8238,
      "Adam": 8239,
      "wyszli": 8240,
      "zdziwiony": 8241,
      "obowiązku": 8242,
      "32": 8243,
      "przepę": 8244,
      "bać": 8245,
      "połowy": 8246,
      "Kościół": 8247,
      "dzieł": 8248,
      "sień": 8249,
      "zastał": 8250,
      "Cor": 8251,
      "indywidu": 8252,
      "Gran": 8253,
      "produ": 8254,
      "Widząc": 8255,
      "brzegiem": 8256,
      "łódź": 8257,
      "nadzieją": 8258,
      "pak": 8259,
      "wrócę": 8260,
      "jasny": 8261,
      "pnia": 8262,
      "dzież": 8263,
      "szonych": 8264,
      "słońcem": 8265,
      "wską": 8266,
      "part": 8267,
      "mężów": 8268,
      "opowiadania": 8269,
      "pochodzi": 8270,
      "lancho": 8271,
      "zasady": 8272,
      "SKI": 8273,
      "podu": 8274,
      "bratem": 8275,
      "wując": 8276,
      "stką": 8277,
      "biło": 8278,
      "Dość": 8279,
      "hoj": 8280,
      "zacie": 8281,
      "wytę": 8282,
      "wyglą": 8283,
      "pozostała": 8284,
      "suchy": 8285,
      "ustami": 8286,
      "prawą": 8287,
      "obejrzał": 8288,
      "nazwać": 8289,
      "ważne": 8290,
      "pozostaje": 8291,
      "bóg": 8292,
      "nać": 8293,
      "cjan": 8294,
      "zginął": 8295,
      "dalece": 8296,
      "długiej": 8297,
      "giego": 8298,
      "uczyć": 8299,
      "puszczy": 8300,
      "wcie": 8301,
      "Kali": 8302,
      "kazując": 8303,
      "ośm": 8304,
      "lus": 8305,
      "wszystkiemi": 8306,
      "powóz": 8307,
      "jen": 8308,
      "znane": 8309,
      "bronił": 8310,
      "ME": 8311,
      "liwą": 8312,
      "zakłopo": 8313,
      "rósł": 8314,
      "Cu": 8315,
      "sile": 8316,
      "pierał": 8317,
      "Wac": 8318,
      "robotę": 8319,
      "swojéj": 8320,
      "głosów": 8321,
      "Myśli": 8322,
      "imieniem": 8323,
      "łza": 8324,
      "ogromnie": 8325,
      "napewno": 8326,
      "tara": 8327,
      "padnie": 8328,
      "zakrę": 8329,
      "świate": 8330,
      "kobiecie": 8331,
      "kat": 8332,
      "mięsa": 8333,
      "karto": 8334,
      "porusza": 8335,
      "przybra": 8336,
      "dzikich": 8337,
      "Marek": 8338,
      "całych": 8339,
      "przekonany": 8340,
      "warunkach": 8341,
      "kale": 8342,
      "wynagro": 8343,
      "wzięli": 8344,
      "goście": 8345,
      "Wspo": 8346,
      "kolej": 8347,
      "zasługi": 8348,
      "dyj": 8349,
      "bawić": 8350,
      "rządek": 8351,
      "przeszłość": 8352,
      "uniwersyte": 8353,
      "poła": 8354,
      "uniesie": 8355,
      "Skar": 8356,
      "schwy": 8357,
      "dzierża": 8358,
      "opiekę": 8359,
      "instru": 8360,
      "młodym": 8361,
      "łóżko": 8362,
      "pł": 8363,
      "Święty": 8364,
      "idę": 8365,
      "izde": 8366,
      "rodzice": 8367,
      "Indja": 8368,
      "smaku": 8369,
      "wzajemnie": 8370,
      "buty": 8371,
      "bezwzglę": 8372,
      "Raff": 8373,
      "ubranie": 8374,
      "cierpiał": 8375,
      "hał": 8376,
      "zwól": 8377,
      "złość": 8378,
      "wart": 8379,
      "brałem": 8380,
      "szlachty": 8381,
      "zowie": 8382,
      "kobier": 8383,
      "ginie": 8384,
      "więzieniu": 8385,
      "rozpoczyna": 8386,
      "metrów": 8387,
      "obowiąza": 8388,
      "tygodnie": 8389,
      "Helena": 8390,
      "mieliśmy": 8391,
      "najmniejszego": 8392,
      "ogniu": 8393,
      "anty": 8394,
      "skórę": 8395,
      "podszedł": 8396,
      "bardziéj": 8397,
      "siedm": 8398,
      "chodzącego": 8399,
      "żywi": 8400,
      "Hor": 8401,
      "nięto": 8402,
      "wskazów": 8403,
      "środki": 8404,
      "».": 8405,
      "najprzód": 8406,
      "usługi": 8407,
      "wyjechał": 8408,
      "ogromny": 8409,
      "mową": 8410,
      "Które": 8411,
      "mile": 8412,
      "dową": 8413,
      "rozmawiać": 8414,
      "widno": 8415,
      "obrazu": 8416,
      "szum": 8417,
      "ulicach": 8418,
      "uwię": 8419,
      "użyć": 8420,
      "dzem": 8421,
      "jednę": 8422,
      "wypadki": 8423,
      "konsu": 8424,
      "snej": 8425,
      "bié": 8426,
      "fir": 8427,
      "rus": 8428,
      "Wieczo": 8429,
      "osobiście": 8430,
      "skorzy": 8431,
      "ludzka": 8432,
      "skończy": 8433,
      "niepotrzeb": 8434,
      "inżynie": 8435,
      "skale": 8436,
      "Pło": 8437,
      "wsz": 8438,
      "którymi": 8439,
      "zwróciła": 8440,
      "walkę": 8441,
      "dary": 8442,
      "piecho": 8443,
      "turze": 8444,
      "męki": 8445,
      "Tutaj": 8446,
      "rozpoczął": 8447,
      "wesoły": 8448,
      "wspania": 8449,
      "zdaniem": 8450,
      "skutku": 8451,
      "Później": 8452,
      "odra": 8453,
      "płakał": 8454,
      "honoru": 8455,
      "byliśmy": 8456,
      "ostatnia": 8457,
      "ux": 8458,
      "Nieraz": 8459,
      "Kobieta": 8460,
      "Małgorza": 8461,
      "mieniła": 8462,
      "upoko": 8463,
      "postęp": 8464,
      "przyto": 8465,
      "poznania": 8466,
      "stosunek": 8467,
      "biskupa": 8468,
      "RY": 8469,
      "krótki": 8470,
      "Istotnie": 8471,
      "49": 8472,
      "trwała": 8473,
      "czekaj": 8474,
      "językiem": 8475,
      "stępował": 8476,
      "pięknego": 8477,
      "usa": 8478,
      "bibli": 8479,
      "nadej": 8480,
      "przepaść": 8481,
      "Lwo": 8482,
      "abyśmy": 8483,
      "ogniska": 8484,
      "sti": 8485,
      "siód": 8486,
      "mni": 8487,
      "zw": 8488,
      "pat": 8489,
      "uczyniła": 8490,
      "Chłop": 8491,
      "nieśmiało": 8492,
      "tamten": 8493,
      "potęgi": 8494,
      "nięciem": 8495,
      "medy": 8496,
      "młodość": 8497,
      "rycerz": 8498,
      "wicher": 8499,
      "żby": 8500,
      "rzucili": 8501,
      "Shatter": 8502,
      "Am": 8503,
      "zabie": 8504,
      "łowi": 8505,
      "prawdziwą": 8506,
      "ex": 8507,
      "któw": 8508,
      "brzmiał": 8509,
      "Juli": 8510,
      "lność": 8511,
      "wionym": 8512,
      "zajmował": 8513,
      "języku": 8514,
      "próbu": 8515,
      "uczył": 8516,
      "zdej": 8517,
      "spoglądał": 8518,
      "Feli": 8519,
      "schody": 8520,
      "wir": 8521,
      "znają": 8522,
      "warunki": 8523,
      "Jakó": 8524,
      "puszczając": 8525,
      "płomień": 8526,
      "zasię": 8527,
      "rozwar": 8528,
      "Rzekł": 8529,
      "milczą": 8530,
      "zajęcia": 8531,
      "cela": 8532,
      "kupił": 8533,
      "zdolny": 8534,
      "lda": 8535,
      "żadnym": 8536,
      "krzywdy": 8537,
      "śpiewać": 8538,
      "działać": 8539,
      "mocniej": 8540,
      "czarna": 8541,
      "treść": 8542,
      "usiłował": 8543,
      "znikł": 8544,
      "uroczystość": 8545,
      "złożyć": 8546,
      "widzą": 8547,
      "rogu": 8548,
      "zdraj": 8549,
      "Staro": 8550,
      "Hel": 8551,
      "należał": 8552,
      "Mógł": 8553,
      "sprawia": 8554,
      "przybyły": 8555,
      "prosty": 8556,
      "guje": 8557,
      "głym": 8558,
      "oddale": 8559,
      "rewol": 8560,
      "przykładem": 8561,
      "cemy": 8562,
      "palą": 8563,
      "resta": 8564,
      "zielone": 8565,
      "gospodarza": 8566,
      "oparł": 8567,
      "zachowy": 8568,
      "TY": 8569,
      "Miałem": 8570,
      "lista": 8571,
      "sumienie": 8572,
      "bka": 8573,
      "nakry": 8574,
      "formie": 8575,
      "zajmo": 8576,
      "przeraża": 8577,
      "Alfre": 8578,
      "siedzieli": 8579,
      "ciągnie": 8580,
      "Przede": 8581,
      "Krakowie": 8582,
      "Stefan": 8583,
      "śka": 8584,
      "bienie": 8585,
      "ochotę": 8586,
      "memu": 8587,
      "poczęły": 8588,
      "aksami": 8589,
      "wykwin": 8590,
      "Obie": 8591,
      "wyży": 8592,
      "jąwszy": 8593,
      "weszli": 8594,
      "rar": 8595,
      "dzonej": 8596,
      "Widocznie": 8597,
      "wiwszy": 8598,
      "matu": 8599,
      "stronach": 8600,
      "wprzódy": 8601,
      "niają": 8602,
      "robiła": 8603,
      "pustyni": 8604,
      "intry": 8605,
      "powtór": 8606,
      "humo": 8607,
      "dobę": 8608,
      "nus": 8609,
      "dziwna": 8610,
      "istota": 8611,
      "Znam": 8612,
      "handlo": 8613,
      "bramę": 8614,
      "cep": 8615,
      "mieszkaniu": 8616,
      "Poło": 8617,
      "dzieja": 8618,
      "wiązał": 8619,
      "podar": 8620,
      "ukoń": 8621,
      "ciągną": 8622,
      "Mamy": 8623,
      "Mości": 8624,
      "lekarza": 8625,
      "docho": 8626,
      "sąsied": 8627,
      "zazdrości": 8628,
      "kore": 8629,
      "miss": 8630,
      "powierzcho": 8631,
      "wyrzą": 8632,
      "towany": 8633,
      "przybyli": 8634,
      "fantasty": 8635,
      "żnie": 8636,
      "rusz": 8637,
      "wagę": 8638,
      "mędr": 8639,
      "tłumy": 8640,
      "przebie": 8641,
      "przyszli": 8642,
      "szach": 8643,
      "użyte": 8644,
      "fli": 8645,
      "ństwem": 8646,
      "fala": 8647,
      "Obok": 8648,
      "cierpieć": 8649,
      "podniesio": 8650,
      "najważ": 8651,
      "świecą": 8652,
      "sypialni": 8653,
      "niektórzy": 8654,
      "przykre": 8655,
      "świętą": 8656,
      "klo": 8657,
      "oszu": 8658,
      "owdzie": 8659,
      "rozsy": 8660,
      "tyczy": 8661,
      "słowi": 8662,
      "ofiarą": 8663,
      "ryso": 8664,
      "smutnie": 8665,
      "posy": 8666,
      "55": 8667,
      "przywile": 8668,
      "pokar": 8669,
      "szczero": 8670,
      "odwagę": 8671,
      "jek": 8672,
      "młodzieży": 8673,
      "rzyli": 8674,
      "autora": 8675,
      "wozu": 8676,
      "odejść": 8677,
      "bandy": 8678,
      "wysy": 8679,
      "kolanach": 8680,
      "odważ": 8681,
      "tutej": 8682,
      "cale": 8683,
      "podą": 8684,
      "pański": 8685,
      "wisz": 8686,
      "ścianę": 8687,
      "piór": 8688,
      "szkodli": 8689,
      "pamiętał": 8690,
      "zawsty": 8691,
      "kule": 8692,
      "Ab": 8693,
      "melancho": 8694,
      "śnić": 8695,
      "liwością": 8696,
      "profesor": 8697,
      "naszem": 8698,
      "legen": 8699,
      "temat": 8700,
      "wieczor": 8701,
      "Ban": 8702,
      "parcie": 8703,
      "zostawić": 8704,
      "smutno": 8705,
      "powstrzymać": 8706,
      "niosłem": 8707,
      "powinie": 8708,
      "wuja": 8709,
      "dzielił": 8710,
      "Twój": 8711,
      "czekała": 8712,
      "najlepsze": 8713,
      "Cicho": 8714,
      "Kościoła": 8715,
      "jednéj": 8716,
      "tłoma": 8717,
      "wyga": 8718,
      "Fryde": 8719,
      "kową": 8720,
      "posi": 8721,
      "krześle": 8722,
      "ludzką": 8723,
      "CI": 8724,
      "znieść": 8725,
      "głęboki": 8726,
      "najczęściej": 8727,
      "Żo": 8728,
      "Kro": 8729,
      "niewie": 8730,
      "mózgu": 8731,
      "dotyka": 8732,
      "przeja": 8733,
      "ety": 8734,
      "cuda": 8735,
      "silniej": 8736,
      "Karola": 8737,
      "DA": 8738,
      "przyle": 8739,
      "wyraża": 8740,
      "jeżdżał": 8741,
      "wspomnień": 8742,
      "46": 8743,
      "Lor": 8744,
      "byłeś": 8745,
      "jednemu": 8746,
      "butel": 8747,
      "stanowił": 8748,
      "karę": 8749,
      "jede": 8750,
      "rozwoju": 8751,
      "miewa": 8752,
      "Ktoś": 8753,
      "chwa": 8754,
      "krzesło": 8755,
      "anioł": 8756,
      "niętych": 8757,
      "trafię": 8758,
      "zmem": 8759,
      "barzy": 8760,
      "drabi": 8761,
      "portu": 8762,
      "ramion": 8763,
      "kora": 8764,
      "dzkę": 8765,
      "głosi": 8766,
      "wioski": 8767,
      "nauka": 8768,
      "dziewczynka": 8769,
      "skute": 8770,
      "kancle": 8771,
      "abso": 8772,
      "pin": 8773,
      "ozwał": 8774,
      "spoglądając": 8775,
      "berta": 8776,
      "czarodziej": 8777,
      "Przyja": 8778,
      "narodów": 8779,
      "poczęli": 8780,
      "stopnio": 8781,
      "małżeństwa": 8782,
      "ciemnych": 8783,
      "oblicza": 8784,
      "łąki": 8785,
      "wziąwszy": 8786,
      "wygra": 8787,
      "przysią": 8788,
      "ciął": 8789,
      "spadł": 8790,
      "zaja": 8791,
      "cichym": 8792,
      "czymy": 8793,
      "sięga": 8794,
      "płynęły": 8795,
      "trój": 8796,
      "dera": 8797,
      "Bło": 8798,
      "postawił": 8799,
      "niedosta": 8800,
      "stróż": 8801,
      "Tom": 8802,
      "biednego": 8803,
      "WA": 8804,
      "czysta": 8805,
      "zmo": 8806,
      "nosem": 8807,
      "wdzięczności": 8808,
      "zabezpie": 8809,
      "Czerwo": 8810,
      "bron": 8811,
      "wstręt": 8812,
      "ochoty": 8813,
      "!”": 8814,
      "sprawo": 8815,
      "Dick": 8816,
      "zapytać": 8817,
      "ratunku": 8818,
      "dyplo": 8819,
      "przerwała": 8820,
      "przychy": 8821,
      "obronie": 8822,
      "Polaków": 8823,
      "dlę": 8824,
      "twojego": 8825,
      "telnie": 8826,
      "drobnych": 8827,
      "targ": 8828,
      "tt": 8829,
      "plac": 8830,
      "onu": 8831,
      "parku": 8832,
      "orga": 8833,
      "wstydu": 8834,
      "niedługo": 8835,
      "ganku": 8836,
      "czerwony": 8837,
      "postępu": 8838,
      "upadku": 8839,
      "rośnie": 8840,
      "spojrzeć": 8841,
      "kontra": 8842,
      "August": 8843,
      "letni": 8844,
      "nował": 8845,
      "kąt": 8846,
      "rumień": 8847,
      "rozgnie": 8848,
      "bacz": 8849,
      "wiernych": 8850,
      "wyobrazić": 8851,
      "siano": 8852,
      "zmienić": 8853,
      "działania": 8854,
      "80": 8855,
      "snym": 8856,
      "możność": 8857,
      "wypła": 8858,
      "biedne": 8859,
      "Taka": 8860,
      "zajmu": 8861,
      "Nakoniec": 8862,
      "grzechu": 8863,
      "łody": 8864,
      "Niemiec": 8865,
      "prośby": 8866,
      "swobody": 8867,
      "zaniepoko": 8868,
      "przywy": 8869,
      "dźwięki": 8870,
      "zmuszony": 8871,
      "potężny": 8872,
      "rozkoszą": 8873,
      "Pen": 8874,
      "dawnej": 8875,
      "zimny": 8876,
      "Sia": 8877,
      "Mod": 8878,
      "Stąd": 8879,
      "ironi": 8880,
      "upodoba": 8881,
      "pokojów": 8882,
      "rowych": 8883,
      "nności": 8884,
      "dowania": 8885,
      "czystą": 8886,
      "dłonią": 8887,
      "źródło": 8888,
      "pnie": 8889,
      "rzemio": 8890,
      "horyzo": 8891,
      "Mer": 8892,
      "Rad": 8893,
      "surowo": 8894,
      "Widział": 8895,
      "zdawały": 8896,
      "ciężką": 8897,
      "mrok": 8898,
      "rzono": 8899,
      "myślenia": 8900,
      "sąsiedz": 8901,
      "hor": 8902,
      "zago": 8903,
      "mali": 8904,
      "hisz": 8905,
      "VII": 8906,
      "pomie": 8907,
      "bawił": 8908,
      "całować": 8909,
      "ląc": 8910,
      "uprzejmie": 8911,
      "Władysław": 8912,
      "tronu": 8913,
      "Wiele": 8914,
      "rozer": 8915,
      "namy": 8916,
      "wynik": 8917,
      "wszelkiej": 8918,
      "wydar": 8919,
      "straszna": 8920,
      "Bożego": 8921,
      "poczuł": 8922,
      "matko": 8923,
      "chały": 8924,
      "przypa": 8925,
      "traci": 8926,
      "cik": 8927,
      "głowami": 8928,
      "pewności": 8929,
      "parte": 8930,
      "nes": 8931,
      "brzyd": 8932,
      "świadkiem": 8933,
      "nico": 8934,
      "cienia": 8935,
      "cieniem": 8936,
      "czwo": 8937,
      "głego": 8938,
      "PI": 8939,
      "krajo": 8940,
      "stemi": 8941,
      "dobi": 8942,
      "wołała": 8943,
      "spon": 8944,
      "guber": 8945,
      "jakiemi": 8946,
      "zajmuje": 8947,
      "foto": 8948,
      "płaszczy": 8949,
      "obecnych": 8950,
      "doliny": 8951,
      "snęły": 8952,
      "Szczęście": 8953,
      "ture": 8954,
      "Niechże": 8955,
      "preten": 8956,
      "powrocie": 8957,
      "rzuciwszy": 8958,
      "pce": 8959,
      "trwogą": 8960,
      "kało": 8961,
      "mający": 8962,
      "rozkazał": 8963,
      "Mal": 8964,
      "doświadczenia": 8965,
      "światu": 8966,
      "płaczem": 8967,
      "teatru": 8968,
      "ciotka": 8969,
      "najzupeł": 8970,
      "światy": 8971,
      "ham": 8972,
      "skłonił": 8973,
      "emnie": 8974,
      "jedwab": 8975,
      "naju": 8976,
      "Poczem": 8977,
      "sławę": 8978,
      "rum": 8979,
      "bile": 8980,
      "Lau": 8981,
      "literatury": 8982,
      "palcami": 8983,
      "cywiliza": 8984,
      "zawiado": 8985,
      "zdarza": 8986,
      "Bernar": 8987,
      "pacho": 8988,
      "Rodzi": 8989,
      "tuj": 8990,
      "instytu": 8991,
      "brylan": 8992,
      "gałęzie": 8993,
      "chacie": 8994,
      "wąz": 8995,
      "jednostaj": 8996,
      "szczyć": 8997,
      "podział": 8998,
      "postacie": 8999,
      "policji": 9000,
      "nicki": 9001,
      "dziad": 9002,
      "zastrze": 9003,
      "ruma": 9004,
      "wracała": 9005,
      "wybrał": 9006,
      "Chciałem": 9007,
      "chłopów": 9008,
      "pióro": 9009,
      "wyprawy": 9010,
      "!«": 9011,
      "pozwól": 9012,
      "wicy": 9013,
      "oprzeć": 9014,
      "uciec": 9015,
      "pozdro": 9016,
      "głupie": 9017,
      "organiza": 9018,
      "fata": 9019,
      "Arta": 9020,
      "podobieństwo": 9021,
      "cios": 9022,
      "roześ": 9023,
      "wykony": 9024,
      "van": 9025,
      "lepszy": 9026,
      "przystoj": 9027,
      "dzwon": 9028,
      "Dnia": 9029,
      "Ojca": 9030,
      "członków": 9031,
      "miłosierdzia": 9032,
      "istot": 9033,
      "zimną": 9034,
      "nosa": 9035,
      "Drugi": 9036,
      "47": 9037,
      "Gó": 9038,
      "rzom": 9039,
      "panną": 9040,
      "NE": 9041,
      "niezbę": 9042,
      "zacznie": 9043,
      "prezen": 9044,
      "niemniej": 9045,
      "ciemną": 9046,
      "stępy": 9047,
      "oglądać": 9048,
      "io": 9049,
      "dniami": 9050,
      "roztrop": 9051,
      "wszą": 9052,
      "wysi": 9053,
      "winna": 9054,
      "miłe": 9055,
      "Stał": 9056,
      "krewnych": 9057,
      "ameryka": 9058,
      "Abra": 9059,
      "Mate": 9060,
      "Krakowa": 9061,
      "cofnął": 9062,
      "migo": 9063,
      "najprędzej": 9064,
      "wolał": 9065,
      "Julia": 9066,
      "inten": 9067,
      "żącą": 9068,
      "musiały": 9069,
      "mii": 9070,
      "meto": 9071,
      "pamiętaj": 9072,
      "winę": 9073,
      "nowski": 9074,
      "biorę": 9075,
      "robotników": 9076,
      "Krzyża": 9077,
      "lli": 9078,
      "sztan": 9079,
      "otwier": 9080,
      "niespodzianie": 9081,
      "ilu": 9082,
      "ścianach": 9083,
      "cierpień": 9084,
      "dojść": 9085,
      "nazywają": 9086,
      "wém": 9087,
      "mężczyźni": 9088,
      "żaru": 9089,
      "napad": 9090,
      "lego": 9091,
      "Panny": 9092,
      "rosły": 9093,
      "Zanim": 9094,
      "wydawało": 9095,
      "ujrzy": 9096,
      "Zygmunt": 9097,
      "zębami": 9098,
      "wiodą": 9099,
      "złych": 9100,
      "kap": 9101,
      "kują": 9102,
      "oczom": 9103,
      "żnych": 9104,
      "wykrzy": 9105,
      "znaczeniu": 9106,
      "ubrany": 9107,
      "czary": 9108,
      "Gospo": 9109,
      "rzeka": 9110,
      "zadanie": 9111,
      "Niemcy": 9112,
      "maryna": 9113,
      "Wro": 9114,
      "szczenie": 9115,
      "tędy": 9116,
      "męz": 9117,
      "Ryszar": 9118,
      "GA": 9119,
      "słe": 9120,
      "kilko": 9121,
      "śnienia": 9122,
      "łatwością": 9123,
      "lane": 9124,
      "sowe": 9125,
      "Przypom": 9126,
      "spła": 9127,
      "chwilami": 9128,
      "znała": 9129,
      "proste": 9130,
      "daleki": 9131,
      "położenia": 9132,
      "znajdowała": 9133,
      "nieprzyjaciela": 9134,
      "własność": 9135,
      "Wilhel": 9136,
      "hr": 9137,
      "tent": 9138,
      "zwię": 9139,
      "dowody": 9140,
      "okazało": 9141,
      "Mel": 9142,
      "galo": 9143,
      "dziewczą": 9144,
      "gotowe": 9145,
      "wspaniało": 9146,
      "wsząd": 9147,
      "ryki": 9148,
      "handlu": 9149,
      "kupi": 9150,
      "szczyt": 9151,
      "pałac": 9152,
      "tytuł": 9153,
      "kołnie": 9154,
      "rowej": 9155,
      "rzekę": 9156,
      "zdarzyło": 9157,
      "pamiętać": 9158,
      "umysło": 9159,
      "Niebo": 9160,
      "twym": 9161,
      "poci": 9162,
      "trudnością": 9163,
      "?..": 9164,
      "duma": 9165,
      "torów": 9166,
      "Pom": 9167,
      "godną": 9168,
      "korzyst": 9169,
      "SCE": 9170,
      "jącem": 9171,
      "zwyczaju": 9172,
      "pędzi": 9173,
      "milczący": 9174,
      "zdję": 9175,
      "XVIII": 9176,
      "wzrostu": 9177,
      "powiedzenia": 9178,
      "siady": 9179,
      "prezy": 9180,
      "conym": 9181,
      "wybor": 9182,
      "spóź": 9183,
      "skiemi": 9184,
      "smak": 9185,
      "kosztow": 9186,
      "dzało": 9187,
      "tygod": 9188,
      "królów": 9189,
      "rodzinę": 9190,
      "kapita": 9191,
      "powiedzi": 9192,
      "acz": 9193,
      "związek": 9194,
      "pomyśleć": 9195,
      "sądzisz": 9196,
      "istotę": 9197,
      "czuj": 9198,
      "możny": 9199,
      "prąd": 9200,
      "wzroku": 9201,
      "szkodzi": 9202,
      "służba": 9203,
      "dziewczęta": 9204,
      "ekono": 9205,
      "waszego": 9206,
      "czeli": 9207,
      "ujrzałem": 9208,
      "zastęp": 9209,
      "góra": 9210,
      "Beau": 9211,
      "kłada": 9212,
      "Odtąd": 9213,
      "zamiaru": 9214,
      "budził": 9215,
      "brzegi": 9216,
      "Wene": 9217,
      "francuz": 9218,
      "Chcesz": 9219,
      "nieod": 9220,
      "chłopców": 9221,
      "Fre": 9222,
      "ap": 9223,
      "istnienia": 9224,
      "doktor": 9225,
      "wesele": 9226,
      "cierpią": 9227,
      "Lin": 9228,
      "glo": 9229,
      "propozy": 9230,
      "sztuce": 9231,
      "czapkę": 9232,
      "palcem": 9233,
      "wspólnego": 9234,
      "Europy": 9235,
      "liły": 9236,
      "mecha": 9237,
      "era": 9238,
      "przeciąg": 9239,
      "przyło": 9240,
      "mone": 9241,
      "znika": 9242,
      "przyku": 9243,
      "znajomy": 9244,
      "Pły": 9245,
      "warsza": 9246,
      "pomoże": 9247,
      "Mist": 9248,
      "piekła": 9249,
      "hoł": 9250,
      "Jakiś": 9251,
      "człe": 9252,
      "mow": 9253,
      "niam": 9254,
      "wprowa": 9255,
      "pociechy": 9256,
      "śnił": 9257,
      "potrzebuję": 9258,
      "niemożli": 9259,
      "uś": 9260,
      "dnicy": 9261,
      "jaśniejszy": 9262,
      "Twoje": 9263,
      "ole": 9264,
      "Jezui": 9265,
      "woń": 9266,
      "zaszczyt": 9267,
      "Syna": 9268,
      "wtrącił": 9269,
      "Artagna": 9270,
      "dziękuję": 9271,
      "smutkiem": 9272,
      "młodzież": 9273,
      "korzyści": 9274,
      "dostrzegł": 9275,
      "odzia": 9276,
      "zacząłem": 9277,
      "powierzchni": 9278,
      "MI": 9279,
      "niebu": 9280,
      "uśmiechu": 9281,
      "spostrzegła": 9282,
      "lito": 9283,
      "powsze": 9284,
      "conego": 9285,
      "dźmy": 9286,
      "misty": 9287,
      "wymy": 9288,
      "przywie": 9289,
      "podstęp": 9290,
      "przyłą": 9291,
      "stworzył": 9292,
      "blade": 9293,
      "Stefa": 9294,
      "wyci": 9295,
      "sprawą": 9296,
      "grzecznie": 9297,
      "kręcił": 9298,
      "ceniu": 9299,
      "patrzyć": 9300,
      "wystarcza": 9301,
      "Stru": 9302,
      "szości": 9303,
      "leżały": 9304,
      "rozrzu": 9305,
      "losem": 9306,
      "rona": 9307,
      "arm": 9308,
      "dumą": 9309,
      "wypadków": 9310,
      "absolu": 9311,
      "pociąga": 9312,
      "pierwszem": 9313,
      "Franciszka": 9314,
      "żkę": 9315,
      "tane": 9316,
      "opieki": 9317,
      "Moj": 9318,
      "czela": 9319,
      "słysząc": 9320,
      "wery": 9321,
      "przestęp": 9322,
      "obrę": 9323,
      "krzyczał": 9324,
      "wyglądała": 9325,
      "haf": 9326,
      "suknię": 9327,
      "Całe": 9328,
      "zacię": 9329,
      "dalszym": 9330,
      "obrazów": 9331,
      "tchu": 9332,
      "żną": 9333,
      "grafikę": 9334,
      "szme": 9335,
      "ktoby": 9336,
      "uwagą": 9337,
      "sztur": 9338,
      "jedziemy": 9339,
      "powra": 9340,
      "Widać": 9341,
      "mogłaby": 9342,
      "radośnie": 9343,
      "koszy": 9344,
      "Panowie": 9345,
      "orst": 9346,
      "pamiątkę": 9347,
      "Matki": 9348,
      "pytała": 9349,
      "Ham": 9350,
      "hrabio": 9351,
      "Bla": 9352,
      "kowało": 9353,
      "Sen": 9354,
      "cjona": 9355,
      "pannie": 9356,
      "widokiem": 9357,
      "ya": 9358,
      "skwa": 9359,
      "słabe": 9360,
      "pracowni": 9361,
      "prowadzili": 9362,
      "Ofi": 9363,
      "dodatku": 9364,
      "nieniu": 9365,
      "deszczu": 9366,
      "dobroci": 9367,
      "Toma": 9368,
      "poglą": 9369,
      "panował": 9370,
      "pominam": 9371,
      "wkoło": 9372,
      "chociażby": 9373,
      "zdem": 9374,
      "znali": 9375,
      "barbarzy": 9376,
      "przecię": 9377,
      "godność": 9378,
      "szczęśliwą": 9379,
      "obiadu": 9380,
      "dzian": 9381,
      "ciemność": 9382,
      "Kazimierz": 9383,
      "stworzenia": 9384,
      "przyjacio": 9385,
      "Peter": 9386,
      "Hrabi": 9387,
      "mści": 9388,
      "opowiedzieć": 9389,
      "wuj": 9390,
      "czterdzieści": 9391,
      "ukazy": 9392,
      "ryb": 9393,
      "choroba": 9394,
      "pochwycił": 9395,
      "dawny": 9396,
      "dji": 9397,
      "licha": 9398,
      "dadzą": 9399,
      "Che": 9400,
      "urok": 9401,
      "rozwija": 9402,
      "jda": 9403,
      "przynieść": 9404,
      "krąg": 9405,
      "pierwia": 9406,
      "elektry": 9407,
      "gód": 9408,
      "wskaza": 9409,
      "poni": 9410,
      "wyjeżdża": 9411,
      "polega": 9412,
      "pułkownik": 9413,
      "ołtarza": 9414,
      "tęsknoty": 9415,
      "rozumiesz": 9416,
      "trafił": 9417,
      "Hm": 9418,
      "con": 9419,
      "żach": 9420,
      "płynąć": 9421,
      "grunt": 9422,
      "Kapitan": 9423,
      "romanty": 9424,
      "lis": 9425,
      "Ledwie": 9426,
      "murów": 9427,
      "bity": 9428,
      "tamtąd": 9429,
      "ciemnej": 9430,
      "Wiadomo": 9431,
      "uszczęśli": 9432,
      "wystarczy": 9433,
      "brały": 9434,
      "dostanie": 9435,
      "nagrodę": 9436,
      "pka": 9437,
      "rozłą": 9438,
      "nieszczęśliwy": 9439,
      "jęk": 9440,
      "wyższe": 9441,
      "XIV": 9442,
      "ryo": 9443,
      "położyć": 9444,
      "ujął": 9445,
      "kamie": 9446,
      "jedynym": 9447,
      "ucieczki": 9448,
      "radzi": 9449,
      "pracowi": 9450,
      "Mieszka": 9451,
      "SCENA": 9452,
      "tz": 9453,
      "uroczyście": 9454,
      "wność": 9455,
      "wiom": 9456,
      "pojęcie": 9457,
      "zamiary": 9458,
      "synowie": 9459,
      "puszczę": 9460,
      "przedemną": 9461,
      "niosę": 9462,
      "rozmawiał": 9463,
      "szeroki": 9464,
      "pióra": 9465,
      "vo": 9466,
      "szkole": 9467,
      "wieni": 9468,
      "ciepło": 9469,
      "dliwie": 9470,
      "Królowa": 9471,
      "Wej": 9472,
      "posłał": 9473,
      "tatu": 9474,
      "patrzała": 9475,
      "szlachta": 9476,
      "żywego": 9477,
      "Józefa": 9478,
      "róże": 9479,
      "wrócili": 9480,
      "Robert": 9481,
      "podejrza": 9482,
      "kupiec": 9483,
      "Micha": 9484,
      "wrażeń": 9485,
      "przedmioty": 9486,
      "niewiadomo": 9487,
      "Antoni": 9488,
      "VIII": 9489,
      "pobła": 9490,
      "ładu": 9491,
      "dachu": 9492,
      "poczciwy": 9493,
      "zdjął": 9494,
      "szyli": 9495,
      "kreśli": 9496,
      "sztukę": 9497,
      "czącą": 9498,
      "mężczyzny": 9499,
      "nadal": 9500,
      "legi": 9501,
      "Mac": 9502,
      "gotować": 9503,
      "bywało": 9504,
      "trupa": 9505,
      "lekki": 9506,
      "macierzy": 9507,
      "tnika": 9508,
      "wychodził": 9509,
      "Mickie": 9510,
      "giej": 9511,
      "uśmiechając": 9512,
      "powierzch": 9513,
      "zbój": 9514,
      "szeptem": 9515,
      "Pozwól": 9516,
      "palcach": 9517,
      "wyjątkiem": 9518,
      "Wraca": 9519,
      "scha": 9520,
      "stanęli": 9521,
      "skrzydeł": 9522,
      "królewski": 9523,
      "wtó": 9524,
      "gent": 9525,
      "Zamiast": 9526,
      "drapie": 9527,
      ".»": 9528,
      "zrobię": 9529,
      "zatrzymy": 9530,
      "zamę": 9531,
      "okazać": 9532,
      "fin": 9533,
      "dalszych": 9534,
      "róz": 9535,
      "kawaler": 9536,
      "nność": 9537,
      "wiosny": 9538,
      "Komi": 9539,
      "dziwną": 9540,
      "spor": 9541,
      "sędzie": 9542,
      "gołę": 9543,
      "stawić": 9544,
      "brali": 9545,
      "panowania": 9546,
      "Paryż": 9547,
      "die": 9548,
      "paź": 9549,
      "osza": 9550,
      "niepokoju": 9551,
      "białem": 9552,
      "długa": 9553,
      "chcemy": 9554,
      "drobia": 9555,
      "niedzielę": 9556,
      "fron": 9557,
      "stolet": 9558,
      "prefe": 9559,
      "służący": 9560,
      "opisa": 9561,
      "dzielnie": 9562,
      "niezli": 9563,
      "Obec": 9564,
      "skró": 9565,
      "kwitną": 9566,
      "zwierzy": 9567,
      "Czuł": 9568,
      "Con": 9569,
      "Rzeczypospolitej": 9570,
      "nęliśmy": 9571,
      "Wobec": 9572,
      "panienka": 9573,
      "obce": 9574,
      "ujrzała": 9575,
      "Ws": 9576,
      "powrót": 9577,
      "most": 9578,
      "przybli": 9579,
      "ote": 9580,
      "potrafię": 9581,
      "rozpę": 9582,
      "piśmie": 9583,
      "tworzą": 9584,
      "powiadają": 9585,
      "Cieka": 9586,
      "rozy": 9587,
      "Jaś": 9588,
      "naga": 9589,
      "suknie": 9590,
      "mądrości": 9591,
      "czynów": 9592,
      "przyrzą": 9593,
      "wzruszony": 9594,
      "potrzebie": 9595,
      "dzieciom": 9596,
      "pochylił": 9597,
      "szeregu": 9598,
      "łosko": 9599,
      "mawiać": 9600,
      "sać": 9601,
      "śpiewał": 9602,
      "189": 9603,
      "pochleb": 9604,
      "lij": 9605,
      "wający": 9606,
      "nera": 9607,
      "inter": 9608,
      "najmniejszej": 9609,
      "grzmo": 9610,
      "wychowa": 9611,
      "wzór": 9612,
      "Wasza": 9613,
      "opera": 9614,
      "snego": 9615,
      "wieczne": 9616,
      "czyń": 9617,
      "conej": 9618,
      "nazna": 9619,
      "noce": 9620,
      "Mało": 9621,
[...]
