{
  "version": "1.0",
  "truncation": null,
  "padding": null,
  "added_tokens": [
    {
      "id": 0,
      "content": "<UNK>",
      "single_word": false,
      "lstrip": false,
      "rstrip": false,
      "normalized": false,
      "special": true
    },
    {
      "id": 1,
      "content": "<BOS>",
      "single_word": false,
      "lstrip": false,
      "rstrip": false,
      "normalized": false,
      "special": true
    },
    {
      "id": 2,
      "content": "<PAD>",
      "single_word": false,
      "lstrip": false,
      "rstrip": false,
      "normalized": false,
      "special": true
    },
    {
      "id": 3,
      "content": "<EOS>",
      "single_word": false,
      "lstrip": false,
      "rstrip": false,
      "normalized": false,
      "special": true
    }
  ],
  "normalizer": {
    "type": "NFKC"
  },
  "pre_tokenizer": {
    "type": "Metaspace",
    "replacement": "▁",
    "prepend_scheme": "always",
    "split": true
  },
  "post_processor": {
    "type": "TemplateProcessing",
    "single": [
      {
        "SpecialToken": {
          "id": "<BOS>",
          "type_id": 0
        }
      },
      {
        "Sequence": {
          "id": "A",
          "type_id": 0
        }
      },
      {
        "SpecialToken": {
          "id": "<EOS>",
          "type_id": 0
        }
      }
    ],
    "pair": [
      {
        "SpecialToken": {
          "id": "<BOS>",
          "type_id": 0
        }
      },
      {
        "Sequence": {
          "id": "A",
          "type_id": 0
        }
      },
      {
        "SpecialToken": {
          "id": "<EOS>",
          "type_id": 0
        }
      },
      {
        "SpecialToken": {
          "id": "<BOS>",
          "type_id": 1
        }
      },
      {
        "Sequence": {
          "id": "B",
          "type_id": 1
        }
      },
      {
        "SpecialToken": {
          "id": "<EOS>",
          "type_id": 1
        }
      }
    ],
    "special_tokens": {
      "<BOS>": {
        "id": "<BOS>",
        "ids": [
          1
        ],
        "tokens": [
          "<BOS>"
        ]
      },
      "<EOS>": {
        "id": "<EOS>",
        "ids": [
          3
        ],
        "tokens": [
          "<EOS>"
        ]
      }
    }
  },
  "decoder": {
    "type": "Metaspace",
    "replacement": "▁",
    "prepend_scheme": "always",
    "split": true
  },
  "model": {
    "type": "BPE",
    "dropout": 0.1,
    "unk_token": "<UNK>",
    "continuing_subword_prefix": null,
    "end_of_word_suffix": null,
    "fuse_unk": true,
    "byte_fallback": false,
    "ignore_merges": false,
    "vocab": {
      "<UNK>": 0,
      "<BOS>": 1,
      "<PAD>": 2,
      "<EOS>": 3,
      "\t": 4,
      "\n": 5,
      "\u000b": 6,
      "\f": 7,
      "\r": 8,
      " ": 9,
      "!": 10,
      "\"": 11,
      "#": 12,
      "$": 13,
      "%": 14,
      "&": 15,
      "'": 16,
      "(": 17,
      ")": 18,
      "*": 19,
      "+": 20,
      ",": 21,
      "-": 22,
      ".": 23,
      "/": 24,
      "0": 25,
      "1": 26,
      "2": 27,
      "3": 28,
      "4": 29,
      "5": 30,
      "6": 31,
      "7": 32,
      "8": 33,
      "9": 34,
      ":": 35,
      ";": 36,
      "<": 37,
      "=": 38,
      ">": 39,
      "?": 40,
      "@": 41,
      "A": 42,
      "B": 43,
      "C": 44,
      "D": 45,
      "E": 46,
      "F": 47,
      "G": 48,
      "H": 49,
      "I": 50,
      "J": 51,
      "K": 52,
      "L": 53,
      "M": 54,
      "N": 55,
      "O": 56,
      "P": 57,
      "Q": 58,
      "R": 59,
      "S": 60,
      "T": 61,
      "U": 62,
      "V": 63,
      "W": 64,
      "X": 65,
      "Y": 66,
      "Z": 67,
      "[": 68,
      "\\": 69,
      "]": 70,
      "^": 71,
      "_": 72,
      "`": 73,
      "a": 74,
      "b": 75,
      "c": 76,
      "d": 77,
      "e": 78,
      "f": 79,
      "g": 80,
      "h": 81,
      "i": 82,
      "j": 83,
      "k": 84,
      "l": 85,
      "m": 86,
      "n": 87,
      "o": 88,
      "p": 89,
      "q": 90,
      "r": 91,
      "s": 92,
      "t": 93,
      "u": 94,
      "v": 95,
      "w": 96,
      "x": 97,
      "y": 98,
      "z": 99,
      "{": 100,
      "|": 101,
      "}": 102,
      "~": 103,
      "": 104,
      "": 105,
      "": 106,
      "": 107,
      "": 108,
      "": 109,
      "": 110,
      "": 111,
      "": 112,
      "": 113,
      "": 114,
      "": 115,
      "": 116,
      "": 117,
      "": 118,
      "": 119,
      "": 120,
      "": 121,
      "": 122,
      "": 123,
      "": 124,
      "¡": 125,
      "¢": 126,
      "£": 127,
      "¤": 128,
      "¥": 129,
      "¦": 130,
      "§": 131,
      "«": 132,
      "¬": 133,
      "­": 134,
      "®": 135,
      "°": 136,
      "±": 137,
      "¶": 138,
      "·": 139,
      "»": 140,
      "¿": 141,
      "À": 142,
      "Á": 143,
      "Â": 144,
      "Ã": 145,
      "Ä": 146,
      "Å": 147,
      "Æ": 148,
      "Ç": 149,
      "È": 150,
      "É": 151,
      "Ë": 152,
      "Í": 153,
      "Î": 154,
      "Ñ": 155,
      "Ò": 156,
      "Ó": 157,
      "Ô": 158,
      "Ö": 159,
      "×": 160,
      "Ø": 161,
      "Ú": 162,
      "Ü": 163,
      "Ý": 164,
      "Þ": 165,
      "ß": 166,
      "à": 167,
      "á": 168,
      "â": 169,
      "ã": 170,
      "ä": 171,
      "å": 172,
      "æ": 173,
      "ç": 174,
      "è": 175,
      "é": 176,
      "ê": 177,
      "ë": 178,
      "ì": 179,
      "í": 180,
      "î": 181,
      "ï": 182,
      "ð": 183,
      "ñ": 184,
      "ò": 185,
      "ó": 186,
      "ô": 187,
      "õ": 188,
      "ö": 189,
      "÷": 190,
      "ø": 191,
      "ù": 192,
      "ú": 193,
      "û": 194,
      "ü": 195,
      "ý": 196,
      "þ": 197,
      "ÿ": 198,
      "Ā": 199,
      "ā": 200,
      "Ă": 201,
      "ă": 202,
      "Ą": 203,
      "ą": 204,
      "Ć": 205,
      "ć": 206,
      "ċ": 207,
      "Č": 208,
      "č": 209,
      "Ď": 210,
      "ď": 211,
      "Đ": 212,
      "đ": 213,
      "Ē": 214,
      "ē": 215,
      "ĕ": 216,
      "ė": 217,
      "Ę": 218,
      "ę": 219,
      "ě": 220,
      "ğ": 221,
      "Ġ": 222,
      "ġ": 223,
      "Ħ": 224,
      "ħ": 225,
      "ī": 226,
      "İ": 227,
      "ı": 228,
      "ķ": 229,
      "Ĺ": 230,
      "ĺ": 231,
      "ļ": 232,
      "Ľ": 233,
      "ľ": 234,
      "Ł": 235,
      "ł": 236,
      "Ń": 237,
      "ń": 238,
      "ņ": 239,
      "ň": 240,
      "Ō": 241,
      "ō": 242,
      "ŏ": 243,
      "ő": 244,
      "œ": 245,
      "ŕ": 246,
      "Ř": 247,
      "ř": 248,
      "Ś": 249,
      "ś": 250,
      "Ŝ": 251,
      "Ş": 252,
      "ş": 253,
      "Š": 254,
      "š": 255,
      "ţ": 256,
      "Ť": 257,
      "ť": 258,
      "ŧ": 259,
      "ū": 260,
      "ŭ": 261,
      "ů": 262,
      "ű": 263,
      "ų": 264,
      "Ź": 265,
      "ź": 266,
      "Ż": 267,
      "ż": 268,
      "Ž": 269,
      "ž": 270,
      "Ə": 271,
      "ơ": 272,
      "ư": 273,
      "ǎ": 274,
      "ǐ": 275,
      "ǒ": 276,
      "ǔ": 277,
      "Ș": 278,
      "ș": 279,
      "ț": 280,
      "ȩ": 281,
      "ə": 282,
      "ɛ": 283,
      "ɪ": 284,
      "ʒ": 285,
      "ʻ": 286,
      "ʼ": 287,
      "ʿ": 288,
      "ˇ": 289,
      "ˈ": 290,
      "ː": 291,
      "́": 292,
      "̃": 293,
      "̄": 294,
      "̆": 295,
      "̇": 296,
      "̈": 297,
      "̊": 298,
      "̋": 299,
      "̕": 300,
      "̧": 301,
      "̨": 302,
      "̯": 303,
      "̵": 304,
      "̶": 305,
      "͡": 306,
      "Ά": 307,
      "Α": 308,
      "Β": 309,
      "Γ": 310,
      "Δ": 311,
      "Ε": 312,
      "Η": 313,
      "Θ": 314,
      "Ι": 315,
      "Κ": 316,
      "Λ": 317,
      "Μ": 318,
      "Ν": 319,
      "Ο": 320,
      "Π": 321,
      "Ρ": 322,
      "Σ": 323,
      "Τ": 324,
      "Υ": 325,
      "Φ": 326,
      "Χ": 327,
      "Ω": 328,
      "ά": 329,
      "έ": 330,
      "ή": 331,
      "ί": 332,
      "α": 333,
      "β": 334,
      "γ": 335,
      "δ": 336,
      "ε": 337,
      "ζ": 338,
      "η": 339,
      "θ": 340,
      "ι": 341,
      "κ": 342,
      "λ": 343,
      "μ": 344,
      "ν": 345,
      "ξ": 346,
      "ο": 347,
      "π": 348,
      "ρ": 349,
      "ς": 350,
      "σ": 351,
      "τ": 352,
      "υ": 353,
      "φ": 354,
      "χ": 355,
      "ψ": 356,
      "ω": 357,
      "ό": 358,
      "ύ": 359,
      "ώ": 360,
      "Є": 361,
      "І": 362,
      "Ј": 363,
      "А": 364,
      "Б": 365,
      "В": 366,
      "Г": 367,
      "Д": 368,
      "Е": 369,
      "Ж": 370,
      "З": 371,
      "И": 372,
      "Й": 373,
      "К": 374,
      "Л": 375,
      "М": 376,
      "Н": 377,
      "О": 378,
      "П": 379,
      "Р": 380,
      "С": 381,
      "Т": 382,
      "У": 383,
      "Ф": 384,
      "Х": 385,
      "Ц": 386,
      "Ч": 387,
      "Ш": 388,
      "Э": 389,
      "Ю": 390,
      "Я": 391,
      "а": 392,
      "б": 393,
      "в": 394,
      "г": 395,
      "д": 396,
      "е": 397,
      "ж": 398,
      "з": 399,
      "и": 400,
      "й": 401,
      "к": 402,
      "л": 403,
      "м": 404,
      "н": 405,
      "о": 406,
      "п": 407,
      "р": 408,
      "с": 409,
      "т": 410,
      "у": 411,
      "ф": 412,
      "х": 413,
      "ц": 414,
      "ч": 415,
      "ш": 416,
      "щ": 417,
      "ъ": 418,
      "ы": 419,
      "ь": 420,
      "э": 421,
      "ю": 422,
      "я": 423,
      "ё": 424,
      "є": 425,
      "і": 426,
      "ї": 427,
      "ј": 428,
      "ћ": 429,
      "ў": 430,
      "ӧ": 431,
      "Ա": 432,
      "ա": 433,
      "ե": 434,
      "ի": 435,
      "կ": 436,
      "յ": 437,
      "ն": 438,
      "ո": 439,
      "ս": 440,
      "տ": 441,
      "ր": 442,
      "ւ": 443,
      "ְ": 444,
      "ִ": 445,
      "ַ": 446,
      "ָ": 447,
      "ּ": 448,
      "א": 449,
      "ב": 450,
      "ג": 451,
      "ד": 452,
      "ה": 453,
      "ו": 454,
      "ז": 455,
      "ח": 456,
      "ט": 457,
      "י": 458,
      "כ": 459,
      "ל": 460,
      "ם": 461,
      "מ": 462,
      "ן": 463,
      "נ": 464,
      "ס": 465,
      "ע": 466,
      "פ": 467,
      "צ": 468,
      "ק": 469,
      "ר": 470,
      "ש": 471,
      "ת": 472,
      "ء": 473,
      "أ": 474,
      "ا": 475,
      "ب": 476,
      "ة": 477,
      "ت": 478,
      "ج": 479,
      "ح": 480,
      "خ": 481,
      "د": 482,
      "ر": 483,
      "ز": 484,
      "س": 485,
      "ش": 486,
      "ص": 487,
      "ط": 488,
      "ظ": 489,
      "ع": 490,
      "غ": 491,
      "ف": 492,
      "ق": 493,
      "ك": 494,
      "ل": 495,
      "م": 496,
      "ن": 497,
      "ه": 498,
      "و": 499,
      "ى": 500,
      "ي": 501,
      "َ": 502,
      "ُ": 503,
      "ک": 504,
      "ڰ": 505,
      "ڿ": 506,
      "ی": 507,
      "ۜ": 508,
      "ۣ": 509,
      "क": 510,
      "ग": 511,
      "त": 512,
      "द": 513,
      "न": 514,
      "प": 515,
      "म": 516,
      "र": 517,
      "ल": 518,
      "व": 519,
      "स": 520,
      "ह": 521,
      "ा": 522,
      "ि": 523,
      "ी": 524,
      "ु": 525,
      "े": 526,
      "ै": 527,
      "्": 528,
      "ঔ": 529,
      "থ": 530,
      "ৣ": 531,
      "ก": 532,
      "น": 533,
      "ร": 534,
      "ะ": 535,
      "ั": 536,
      "า": 537,
      "ิ": 538,
      "་": 539,
      "ა": 540,
      "ბ": 541,
      "გ": 542,
      "დ": 543,
      "ე": 544,
      "ვ": 545,
      "თ": 546,
      "ი": 547,
      "კ": 548,
      "ლ": 549,
      "მ": 550,
      "ნ": 551,
      "ო": 552,
      "რ": 553,
      "ს": 554,
      "ტ": 555,
      "უ": 556,
      "ქ": 557,
      "ღ": 558,
      "შ": 559,
      "ძ": 560,
      "ხ": 561,
      "ᶒ": 562,
      "ḗ": 563,
      "ḥ": 564,
      "ṣ": 565,
      "ṭ": 566,
      "ạ": 567,
      "ả": 568,
      "ầ": 569,
      "ế": 570,
      "ễ": 571,
      "ệ": 572,
      "ị": 573,
      "ồ": 574,
      "ộ": 575,
      "ở": 576,
      "ἀ": 577,
      "Ἀ": 578,
      "ἐ": 579,
      "ῦ": 580,
      "​": 581,
      "‌": 582,
      "‍": 583,
      "‎": 584,
      "‏": 585,
      "‐": 586,
      "‒": 587,
      "–": 588,
      "—": 589,
      "―": 590,
      "‘": 591,
      "’": 592,
      "‚": 593,
      "‛": 594,
      "“": 595,
      "”": 596,
      "„": 597,
      "‟": 598,
      "†": 599,
      "•": 600,
      "‬": 601,
      "‭": 602,
      "‰": 603,
      "′": 604,
      "‹": 605,
      "›": 606,
      "⁄": 607,
      "⁠": 608,
      "⁣": 609,
      "€": 610,
      "⃣": 611,
      "↑": 612,
      "→": 613,
      "↓": 614,
      "⇒": 615,
      "⇔": 616,
      "⇨": 617,
      "∆": 618,
      "−": 619,
      "∗": 620,
      "∙": 621,
      "√": 622,
      "∞": 623,
      "∼": 624,
      "≈": 625,
      "≠": 626,
      "≤": 627,
      "≥": 628,
      "⋅": 629,
      "⋆": 630,
      "⋰": 631,
      "⏩": 632,
      "─": 633,
      "═": 634,
      "▁": 635,
      "█": 636,
      "░": 637,
      "■": 638,
      "□": 639,
      "▪": 640,
      "▲": 641,
      "▶": 642,
      "►": 643,
      "▻": 644,
      "▼": 645,
      "◊": 646,
      "○": 647,
      "●": 648,
      "◕": 649,
      "◦": 650,
      "☀": 651,
      "★": 652,
      "☆": 653,
      "☑": 654,
      "☕": 655,
      "☝": 656,
      "☞": 657,
      "☠": 658,
      "☹": 659,
      "☺": 660,
      "☻": 661,
      "☼": 662,
      "♀": 663,
      "♂": 664,
      "♔": 665,
      "♠": 666,
      "♡": 667,
      "♣": 668,
      "♥": 669,
      "♦": 670,
      "♪": 671,
      "♫": 672,
      "♬": 673,
      "⚘": 674,
      "⚜": 675,
      "⚡": 676,
      "⚽": 677,
      "✂": 678,
      "✅": 679,
      "✈": 680,
      "✉": 681,
      "✊": 682,
      "✌": 683,
      "✓": 684,
      "✔": 685,
      "✠": 686,
      "✦": 687,
      "✧": 688,
      "✨": 689,
      "✫": 690,
      "✮": 691,
      "✰": 692,
      "✴": 693,
      "✶": 694,
      "✽": 695,
      "✿": 696,
      "❀": 697,
      "❃": 698,
      "❄": 699,
      "❅": 700,
      "❆": 701,
      "❋": 702,
      "❌": 703,
      "❓": 704,
      "❗": 705,
      "❣": 706,
      "❤": 707,
      "❥": 708,
      "➕": 709,
      "➖": 710,
      "➡": 711,
      "➢": 712,
      "➤": 713,
      "➱": 714,
      "➲": 715,
      "⠀": 716,
      "⦁": 717,
      "⬅": 718,
      "⬇": 719,
      "⭐": 720,
      "、": 721,
      "。": 722,
      "い": 723,
      "お": 724,
      "し": 725,
      "す": 726,
      "な": 727,
      "の": 728,
      "は": 729,
      "ま": 730,
      "ん": 731,
      "゚": 732,
      "カ": 733,
      "ク": 734,
      "シ": 735,
      "ス": 736,
      "ッ": 737,
      "ツ": 738,
      "ト": 739,
      "ラ": 740,
      "リ": 741,
      "ル": 742,
      "ン": 743,
      "・": 744,
      "ー": 745,
      "一": 746,
      "三": 747,
      "上": 748,
      "不": 749,
      "中": 750,
      "主": 751,
      "了": 752,
      "二": 753,
      "亞": 754,
      "人": 755,
      "你": 756,
      "公": 757,
      "南": 758,
      "台": 759,
      "国": 760,
      "國": 761,
      "在": 762,
      "大": 763,
      "天": 764,
      "太": 765,
      "女": 766,
      "好": 767,
      "子": 768,
      "學": 769,
      "安": 770,
      "家": 771,
      "寺": 772,
      "小": 773,
      "山": 774,
      "年": 775,
      "心": 776,
      "我": 777,
      "教": 778,
      "文": 779,
      "新": 780,
      "日": 781,
      "明": 782,
      "春": 783,
      "是": 784,
      "月": 785,
      "有": 786,
      "本": 787,
      "李": 788,
      "林": 789,
      "格": 790,
      "水": 791,
      "洲": 792,
      "海": 793,
      "王": 794,
      "生": 795,
      "白": 796,
      "的": 797,
      "神": 798,
      "自": 799,
      "花": 800,
      "茶": 801,
      "落": 802,
      "行": 803,
      "西": 804,
      "要": 805,
      "迷": 806,
      "道": 807,
      "部": 808,
      "金": 809,
      "馬": 810,
      "사": 811,
      "이": 812,
      "장": 813,
      "": 814,
      "": 815,
      "": 816,
      "": 817,
      "": 818,
      "": 819,
      "️": 820,
      "﻿": 821,
      "￼": 822,
      "�": 823,
      "🇵": 824,
      "🌈": 825,
      "🌞": 826,
      "🌟": 827,
      "🌱": 828,
      "🌲": 829,
      "🌳": 830,
      "🌷": 831,
      "🌸": 832,
      "🌹": 833,
      "🌺": 834,
      "🌻": 835,
      "🌼": 836,
      "🌿": 837,
      "🍀": 838,
      "🍁": 839,
      "🍂": 840,
      "🍃": 841,
      "🍆": 842,
      "🍊": 843,
      "🍪": 844,
      "🍵": 845,
      "🍹": 846,
      "🎁": 847,
      "🎂": 848,
      "🎄": 849,
      "🎅": 850,
      "🎉": 851,
      "🎧": 852,
      "🎯": 853,
      "🎶": 854,
      "🏖": 855,
      "🏻": 856,
      "🏼": 857,
      "🏽": 858,
      "🐝": 859,
      "🐣": 860,
      "🐱": 861,
      "🐶": 862,
      "🐾": 863,
      "👀": 864,
      "👇": 865,
      "👈": 866,
      "👉": 867,
      "👊": 868,
      "👋": 869,
      "👌": 870,
      "👍": 871,
      "👎": 872,
      "👏": 873,
      "👧": 874,
      "👩": 875,
      "👶": 876,
      "👽": 877,
      "👿": 878,
      "💋": 879,
      "💏": 880,
      "💓": 881,
      "💔": 882,
      "💕": 883,
      "💖": 884,
      "💗": 885,
      "💘": 886,
      "💙": 887,
      "💚": 888,
      "💛": 889,
      "💜": 890,
      "💝": 891,
      "💞": 892,
      "💥": 893,
      "💦": 894,
      "💧": 895,
      "💩": 896,
      "💪": 897,
      "📌": 898,
      "📖": 899,
      "📚": 900,
      "📱": 901,
      "🔥": 902,
      "🔴": 903,
      "🖤": 904,
      "😀": 905,
      "😁": 906,
      "😂": 907,
      "😃": 908,
      "😄": 909,
      "😅": 910,
      "😆": 911,
      "😇": 912,
      "😈": 913,
      "😉": 914,
      "😊": 915,
      "😋": 916,
      "😌": 917,
      "😍": 918,
      "😎": 919,
      "😏": 920,
      "😐": 921,
      "😑": 922,
      "😒": 923,
      "😓": 924,
      "😔": 925,
      "😕": 926,
      "😖": 927,
      "😗": 928,
      "😘": 929,
      "😙": 930,
      "😚": 931,
      "😛": 932,
      "😜": 933,
      "😝": 934,
      "😞": 935,
      "😟": 936,
      "😠": 937,
      "😡": 938,
      "😢": 939,
      "😣": 940,
      "😤": 941,
      "😥": 942,
      "😦": 943,
      "😨": 944,
      "😩": 945,
      "😪": 946,
      "😫": 947,
      "😬": 948,
      "😭": 949,
      "😮": 950,
      "😯": 951,
      "😰": 952,
      "😱": 953,
      "😲": 954,
      "😳": 955,
      "😵": 956,
      "😶": 957,
      "😻": 958,
      "😼": 959,
      "🙁": 960,
      "🙂": 961,
      "🙃": 962,
      "🙄": 963,
      "🙈": 964,
      "🙉": 965,
      "🙊": 966,
      "🙋": 967,
      "🙌": 968,
      "🙏": 969,
      "🚛": 970,
      "🚲": 971,
      "🤍": 972,
      "🤔": 973,
      "🤗": 974,
      "🤞": 975,
      "🤢": 976,
      "🤣": 977,
      "🤤": 978,
      "🤦": 979,
      "🤨": 980,
      "🤩": 981,
      "🤪": 982,
      "🤫": 983,
      "🤬": 984,
      "🤭": 985,
      "🤮": 986,
      "🤯": 987,
      "🤰": 988,
      "🤷": 989,
      "🥰": 990,
      "🥱": 991,
      "🥲": 992,
      "🥳": 993,
      "🥴": 994,
      "🥵": 995,
      "🥶": 996,
      "🥹": 997,
      "🥺": 998,
      "🦋": 999,
      "🦷": 1000,
      "🧐": 1001,
      "🧡": 1002,
      "🫣": 1003,
      "ie": 1004,
      "▁p": 1005,
      "▁w": 1006,
      "▁s": 1007,
      "▁n": 1008,
      "▁z": 1009,
      "cz": 1010,
      "▁t": 1011,
      "▁d": 1012,
      "ow": 1013,
      "ch": 1014,
      "▁m": 1015,
      "rz": 1016,
      "ra": 1017,
      "st": 1018,
      "ia": 1019,
      "▁o": 1020,
      "▁j": 1021,
      "sz": 1022,
      "▁k": 1023,
      "nie": 1024,
      "▁na": 1025,
      "▁i": 1026,
      "ię": 1027,
      "ro": 1028,
      "dz": 1029,
      "▁po": 1030,
      "le": 1031,
      "ak": 1032,
      "▁b": 1033,
      "am": 1034,
      "an": 1035,
      "go": 1036,
      "rze": 1037,
      "▁do": 1038,
      "▁nie": 1039,
      "ne": 1040,
      "li": 1041,
      "ar": 1042,
      "▁je": 1043,
      "na": 1044,
      "ny": 1045,
      "ni": 1046,
      "▁się": 1047,
      "ka": 1048,
      "że": 1049,
      "▁za": 1050,
      "ła": 1051,
      "ci": 1052,
      "re": 1053,
      "ki": 1054,
      "ów": 1055,
      "▁a": 1056,
      "▁wy": 1057,
      "ko": 1058,
      "la": 1059,
      "czy": 1060,
      "▁u": 1061,
      "▁c": 1062,
      "em": 1063,
      "rzy": 1064,
      "▁to": 1065,
      "ty": 1066,
      "ło": 1067,
      "en": 1068,
      "ją": 1069,
      "ry": 1070,
      "wa": 1071,
      "je": 1072,
      "ta": 1073,
      "▁mo": 1074,
      "da": 1075,
      "▁ko": 1076,
      "▁prze": 1077,
      "te": 1078,
      "▁jak": 1079,
      "ym": 1080,
      "▁P": 1081,
      "dzie": 1082,
      "oś": 1083,
      ".\n": 1084,
      "owa": 1085,
      "▁te": 1086,
      "cie": 1087,
      "▁jest": 1088,
      "cze": 1089,
      "ku": 1090,
      "po": 1091,
      "ce": 1092,
      "▁g": 1093,
      "▁ro": 1094,
      "▁że": 1095,
      "▁od": 1096,
      "▁W": 1097,
      "dy": 1098,
      "to": 1099,
      "tó": 1100,
      "sta": 1101,
      "wi": 1102,
      "lu": 1103,
      "wo": 1104,
      "cj": 1105,
      "ych": 1106,
      "▁ma": 1107,
      "..": 1108,
      "▁któ": 1109,
      "ob": 1110,
      "dzi": 1111,
      "▁tak": 1112,
      "kie": 1113,
      "tu": 1114,
      "er": 1115,
      "▁by": 1116,
      "wie": 1117,
      "▁przy": 1118,
      "▁N": 1119,
      "my": 1120,
      "nia": 1121,
      "ży": 1122,
      "ły": 1123,
      "▁ch": 1124,
      "cy": 1125,
      "▁S": 1126,
      "raz": 1127,
      "ru": 1128,
      "as": 1129,
      "sze": 1130,
      "▁dz": 1131,
      "▁f": 1132,
      "lo": 1133,
      "mi": 1134,
      "__": 1135,
      "łam": 1136,
      "no": 1137,
      "▁C": 1138,
      "▁J": 1139,
      "▁T": 1140,
      "▁M": 1141,
      "▁cz": 1142,
      "by": 1143,
      "owie": 1144,
      "▁sz": 1145,
      "▁czy": 1146,
      "szy": 1147,
      "▁pro": 1148,
      "▁wie": 1149,
      "nych": 1150,
      "pi": 1151,
      "ma": 1152,
      "▁pod": 1153,
      "owe": 1154,
      "ró": 1155,
      "owan": 1156,
      "du": 1157,
      "łu": 1158,
      "pa": 1159,
      "▁D": 1160,
      "▁mi": 1161,
      "de": 1162,
      "▁ś": 1163,
      "▁A": 1164,
      "▁co": 1165,
      "pra": 1166,
      "wia": 1167,
      "▁K": 1168,
      "mie": 1169,
      "▁ni": 1170,
      "▁ale": 1171,
      "or": 1172,
      "ną": 1173,
      "ości": 1174,
      "ja": 1175,
      "▁ty": 1176,
      "bi": 1177,
      "▁-": 1178,
      "si": 1179,
      "▁in": 1180,
      "▁Z": 1181,
      "ca": 1182,
      "bie": 1183,
      "▁dla": 1184,
      "zy": 1185,
      "ek": 1186,
      "cia": 1187,
      "▁roz": 1188,
      "▁B": 1189,
      "▁(": 1190,
      "ami": 1191,
      "▁1": 1192,
      "▁pra": 1193,
      "▁Po": 1194,
      "▁O": 1195,
      "ania": 1196,
      "ba": 1197,
      "▁st": 1198,
      "▁naj": 1199,
      "ga": 1200,
      "pie": 1201,
      "▁ze": 1202,
      "we": 1203,
      "▁mie": 1204,
      "niej": 1205,
      "uż": 1206,
      "▁dzie": 1207,
      "al": 1208,
      "▁ob": 1209,
      "mu": 1210,
      "cji": 1211,
      "wy": 1212,
      "▁lu": 1213,
      "▁jed": 1214,
      "za": 1215,
      "▁bo": 1216,
      "owi": 1217,
      "nym": 1218,
      "▁spo": 1219,
      "ję": 1220,
      "▁2": 1221,
      "nego": 1222,
      "▁ka": 1223,
      "▁są": 1224,
      "il": 1225,
      "▁bar": 1226,
      "ści": 1227,
      "mo": 1228,
      "ez": 1229,
      "ani": 1230,
      "dzo": 1231,
      "▁które": 1232,
      "▁tym": 1233,
      "ość": 1234,
      "owo": 1235,
      "▁le": 1236,
      "pe": 1237,
      "▁go": 1238,
      "gi": 1239,
      "nej": 1240,
      "▁e": 1241,
      "____": 1242,
      "jąc": 1243,
      "on": 1244,
      "lko": 1245,
      "▁R": 1246,
      "pu": 1247,
      "▁Na": 1248,
      "sa": 1249,
      "▁może": 1250,
      "▁zna": 1251,
      "praw": 1252,
      "▁bę": 1253,
      "su": 1254,
      "▁wię": 1255,
      "ować": 1256,
      "▁wi": 1257,
      "cza": 1258,
      "szyst": 1259,
      "▁przez": 1260,
      "...": 1261,
      "▁re": 1262,
      "bo": 1263,
      "▁I": 1264,
      "rów": 1265,
      "▁który": 1266,
      "▁sie": 1267,
      "ść": 1268,
      "sy": 1269,
      "owy": 1270,
      "ane": 1271,
      "ski": 1272,
      "enia": 1273,
      "▁mnie": 1274,
      "▁Je": 1275,
      "▁pa": 1276,
      "▁sam": 1277,
      "▁tego": 1278,
      "▁ku": 1279,
      "▁mu": 1280,
      "▁czas": 1281,
      "▁pie": 1282,
      "▁tylko": 1283,
      "▁Nie": 1284,
      "łe": 1285,
      "▁już": 1286,
      "▁wszyst": 1287,
      "amy": 1288,
      "ności": 1289,
      "▁dob": 1290,
      "▁\"": 1291,
      "ków": 1292,
      "sza": 1293,
      "cho": 1294,
      "sto": 1295,
      "▁swo": 1296,
      "▁h": 1297,
      "ście": 1298,
      "kę": 1299,
      "do": 1300,
      "śli": 1301,
      "▁bardzo": 1302,
      "skie": 1303,
      "▁sk": 1304,
      "▁ra": 1305,
      "▁pe": 1306,
      "▁bez": 1307,
      "▁sob": 1308,
      "▁la": 1309,
      "dni": 1310,
      "im": 1311,
      "szcze": 1312,
      "gl": 1313,
      "m,": 1314,
      "▁G": 1315,
      "▁też": 1316,
      "▁poz": 1317,
      "ter": 1318,
      "men": 1319,
      "ć,": 1320,
      "ką": 1321,
      "▁sta": 1322,
      "rza": 1323,
      "nak": 1324,
      "cha": 1325,
      "art": 1326,
      "łą": 1327,
      "rę": 1328,
      "cja": 1329,
      "ana": 1330,
      "▁cie": 1331,
      "▁li": 1332,
      "ża": 1333,
      "▁moż": 1334,
      "dzia": 1335,
      "▁L": 1336,
      "rzą": 1337,
      "tów": 1338,
      "osta": 1339,
      "łem": 1340,
      "owych": 1341,
      "▁mia": 1342,
      "fi": 1343,
      "▁ja": 1344,
      "tem": 1345,
      "▁sp": 1346,
      "gu": 1347,
      "▁da": 1348,
      "▁–": 1349,
      "▁wo": 1350,
      "nie,": 1351,
      "▁ży": 1352,
      "▁będzie": 1353,
      "tycz": 1354,
      "▁os": 1355,
      "zu": 1356,
      "▁raz": 1357,
      "▁oraz": 1358,
      "ład": 1359,
      "jem": 1360,
      "▁kon": 1361,
      "sty": 1362,
      "mia": 1363,
      "powie": 1364,
      "▁lub": 1365,
      "dę": 1366,
      "▁mam": 1367,
      "▁sobie": 1368,
      "▁wła": 1369,
      "▁cho": 1370,
      "bu": 1371,
      "sią": 1372,
      "sp": 1373,
      "▁produ": 1374,
      "sia": 1375,
      "▁ca": 1376,
      "in": 1377,
      "bra": 1378,
      "dze": 1379,
      "?\n": 1380,
      "ół": 1381,
      "czo": 1382,
      "rw": 1383,
      "nu": 1384,
      "▁pi": 1385,
      "tk": 1386,
      "▁20": 1387,
      "stę": 1388,
      "▁powie": 1389,
      "ska": 1390,
      "nę": 1391,
      "róż": 1392,
      "dza": 1393,
      "ste": 1394,
      "▁Jak": 1395,
      "cią": 1396,
      "czą": 1397,
      "owane": 1398,
      "niem": 1399,
      "▁zd": 1400,
      "sie": 1401,
      "▁ta": 1402,
      "czę": 1403,
      "un": 1404,
      "▁mog": 1405,
      "▁każ": 1406,
      "▁kie": 1407,
      "śmy": 1408,
      "io": 1409,
      "wet": 1410,
      "▁Za": 1411,
      "glą": 1412,
      "▁zak": 1413,
      "ór": 1414,
      "gra": 1415,
      "cu": 1416,
      "zna": 1417,
      "me": 1418,
      "▁de": 1419,
      "▁przed": 1420,
      "niu": 1421,
      "▁jeszcze": 1422,
      "js": 1423,
      "dziej": 1424,
      "▁być": 1425,
      "▁F": 1426,
      "▁cze": 1427,
      "▁pot": 1428,
      "▁jakie": 1429,
      "▁su": 1430,
      "▁tu": 1431,
      "ki,": 1432,
      "ój": 1433,
      "▁można": 1434,
      "▁my": 1435,
      "kiem": 1436,
      "▁tem": 1437,
      "▁ce": 1438,
      "▁jednak": 1439,
      "▁produk": 1440,
      "ona": 1441,
      "ięk": 1442,
      "ób": 1443,
      "▁ok": 1444,
      "rak": 1445,
      "▁ten": 1446,
      "lej": 1447,
      "ność": 1448,
      "▁wz": 1449,
      "szym": 1450,
      "▁pew": 1451,
      "▁znaj": 1452,
      "ne,": 1453,
      "ch,": 1454,
      "▁bu": 1455,
      "▁uży": 1456,
      "▁U": 1457,
      "ć.": 1458,
      "jące": 1459,
      "wią": 1460,
      "▁zosta": 1461,
      "tego": 1462,
      "▁ich": 1463,
      "rą": 1464,
      "gie": 1465,
      "▁war": 1466,
      "owania": 1467,
      "▁rów": 1468,
      "▁takie": 1469,
      "▁no": 1470,
      "szych": 1471,
      "▁było": 1472,
      "▁sto": 1473,
      "nie.": 1474,
      "▁jej": 1475,
      "▁wa": 1476,
      "▁kil": 1477,
      "co": 1478,
      "ble": 1479,
      "▁ba": 1480,
      "▁og": 1481,
      "▁dzi": 1482,
      "▁To": 1483,
      "stęp": 1484,
      "spo": 1485,
      "cje": 1486,
      "▁„": 1487,
      "▁nawet": 1488,
      "▁we": 1489,
      "▁H": 1490,
      "owej": 1491,
      "▁zro": 1492,
      "ich": 1493,
      "lę": 1494,
      "szą": 1495,
      "ii": 1496,
      "śnie": 1497,
      "▁jego": 1498,
      "▁czę": 1499,
      "cyj": 1500,
      "▁roku": 1501,
      "▁róż": 1502,
      "▁sy": 1503,
      "▁Mo": 1504,
      "▁miejs": 1505,
      "lep": 1506,
      "▁więc": 1507,
      "▁me": 1508,
      "sko": 1509,
      "ran": 1510,
      "ny,": 1511,
      "dą": 1512,
      "▁odpowie": 1513,
      "cznie": 1514,
      "▁kom": 1515,
      "▁także": 1516,
      "▁Do": 1517,
      "dź": 1518,
      "rowa": 1519,
      "owym": 1520,
      "00": 1521,
      "▁E": 1522,
      "▁Wy": 1523,
      "▁3": 1524,
      "▁tej": 1525,
      "tek": 1526,
      "nik": 1527,
      "▁Ch": 1528,
      "▁zam": 1529,
      "▁gdy": 1530,
      "▁ak": 1531,
      "nika": 1532,
      "▁równie": 1533,
      "nię": 1534,
      "ól": 1535,
      "os": 1536,
      "________": 1537,
      "owanie": 1538,
      "ch.": 1539,
      "ów,": 1540,
      "ze": 1541,
      "oba": 1542,
      "▁wyko": 1543,
      "pad": 1544,
      "▁sm": 1545,
      "stu": 1546,
      "czne": 1547,
      "so": 1548,
      "liw": 1549,
      "at": 1550,
      "yta": 1551,
      "wiet": 1552,
      "▁spraw": 1553,
      "lar": 1554,
      "cję": 1555,
      "tor": 1556,
      "owego": 1557,
      "kład": 1558,
      "lam": 1559,
      "czu": 1560,
      "▁się,": 1561,
      "▁swoje": 1562,
      "czas": 1563,
      "▁pierw": 1564,
      "▁rze": 1565,
      "pis": 1566,
      "▁nas": 1567,
      "ony": 1568,
      "one": 1569,
      "▁wyda": 1570,
      "▁również": 1571,
      "m.": 1572,
      "▁spos": 1573,
      ").": 1574,
      "▁gł": 1575,
      "▁op": 1576,
      "any": 1577,
      "ent": 1578,
      "liśmy": 1579,
      "dzą": 1580,
      "rzę": 1581,
      "▁coś": 1582,
      "cej": 1583,
      "▁świa": 1584,
      "▁pre": 1585,
      "tni": 1586,
      "prze": 1587,
      "iu": 1588,
      "▁teraz": 1589,
      "▁samo": 1590,
      "▁tam": 1591,
      "▁ek": 1592,
      "▁ła": 1593,
      "rzu": 1594,
      "▁wybra": 1595,
      "▁stro": 1596,
      "▁powi": 1597,
      "czenia": 1598,
      "dzenia": 1599,
      "▁uwa": 1600,
      "for": 1601,
      "▁ser": 1602,
      "▁dru": 1603,
      "▁aby": 1604,
      "▁słu": 1605,
      "▁Dz": 1606,
      "ej": 1607,
      "ju": 1608,
      "▁jaki": 1609,
      "tyw": 1610,
      "owia": 1611,
      "ięki": 1612,
      "ciu": 1613,
      "▁dzia": 1614,
      "▁rodzi": 1615,
      "▁zw": 1616,
      "▁kiedy": 1617,
      "▁był": 1618,
      "rem": 1619,
      "dzy": 1620,
      "▁zrobi": 1621,
      "dnie": 1622,
      "ową": 1623,
      "▁dłu": 1624,
      "▁zaw": 1625,
      "bli": 1626,
      "cą": 1627,
      "▁nad": 1628,
      "▁doda": 1629,
      "arty": 1630,
      "kt": 1631,
      "se": 1632,
      "▁mode": 1633,
      "▁lat": 1634,
      "▁al": 1635,
      "ki.": 1636,
      "up": 1637,
      "▁dziec": 1638,
      "▁szy": 1639,
      "▁19": 1640,
      "gląda": 1641,
      "aniu": 1642,
      "▁wszystki": 1643,
      "▁oka": 1644,
      "szę": 1645,
      "▁gra": 1646,
      "▁Prze": 1647,
      "▁moje": 1648,
      "tnie": 1649,
      "▁pow": 1650,
      "▁która": 1651,
      "ówi": 1652,
      "▁Ma": 1653,
      "lan": 1654,
      "ka,": 1655,
      "▁201": 1656,
      "yba": 1657,
      "fon": 1658,
      "▁ksią": 1659,
      "▁du": 1660,
      "▁proble": 1661,
      "▁tele": 1662,
      "▁urzą": 1663,
      "jemy": 1664,
      "▁trze": 1665,
      "ji": 1666,
      "trzy": 1667,
      "▁wszystko": 1668,
      "▁wło": 1669,
      "sk": 1670,
      "ł,": 1671,
      "▁fi": 1672,
      "wię": 1673,
      "na,": 1674,
      "się": 1675,
      "czywi": 1676,
      "▁fa": 1677,
      "),": 1678,
      "▁osob": 1679,
      "rod": 1680,
      "wać": 1681,
      "▁tro": 1682,
      "▁ry": 1683,
      "▁praw": 1684,
      "peł": 1685,
      "chę": 1686,
      "res": 1687,
      "▁wiele": 1688,
      "▁fil": 1689,
      "ów.": 1690,
      "▁duż": 1691,
      "▁domu": 1692,
      "▁dro": 1693,
      "▁żeby": 1694,
      "▁gdzie": 1695,
      "bym": 1696,
      "▁robi": 1697,
      "▁Ko": 1698,
      "▁au": 1699,
      "▁tra": 1700,
      "▁fo": 1701,
      "▁zale": 1702,
      "▁kilka": 1703,
      "Na": 1704,
      "▁tych": 1705,
      "unk": 1706,
      "gę": 1707,
      "▁5": 1708,
      "▁,": 1709,
      "▁bardziej": 1710,
      "czyć": 1711,
      ".\nW": 1712,
      "▁sko": 1713,
      "▁pu": 1714,
      ".\nP": 1715,
      "▁dobrze": 1716,
      "▁jestem": 1717,
      "tki": 1718,
      "ńst": 1719,
      "skiego": 1720,
      "nymi": 1721,
      "▁to,": 1722,
      "ec": 1723,
      "▁jako": 1724,
      "biera": 1725,
      "tka": 1726,
      "waż": 1727,
      "▁najlep": 1728,
      "szcza": 1729,
      "szej": 1730,
      "▁wsp": 1731,
      "Nie": 1732,
      "▁Co": 1733,
      "nku": 1734,
      "anych": 1735,
      "▁ele": 1736,
      "▁miesz": 1737,
      "▁więk": 1738,
      "cę": 1739,
      "▁Bo": 1740,
      "▁zap": 1741,
      "▁warto": 1742,
      "sł": 1743,
      "war": 1744,
      "▁nic": 1745,
      "▁ci": 1746,
      "▁niż": 1747,
      "▁smart": 1748,
      "▁dzieci": 1749,
      "ny.": 1750,
      "▁potrze": 1751,
      "▁koń": 1752,
      "cen": 1753,
      "uje": 1754,
      "▁lo": 1755,
      "ral": 1756,
      "rud": 1757,
      "▁niez": 1758,
      "k,": 1759,
      "szego": 1760,
      "▁pracy": 1761,
      "▁była": 1762,
      "▁kolo": 1763,
      "!\n": 1764,
      "▁więcej": 1765,
      "▁Pol": 1766,
      "▁pomo": 1767,
      "▁osta": 1768,
      "▁Ale": 1769,
      "taj": 1770,
      "▁4": 1771,
      "dzić": 1772,
      "t.": 1773,
      "tku": 1774,
      "ng": 1775,
      "nki": 1776,
      "▁szko": 1777,
      "▁zawsze": 1778,
      "bar": 1779,
      "▁mają": 1780,
      "fer": 1781,
      "stan": 1782,
      "▁jeśli": 1783,
      "▁nich": 1784,
      "▁chce": 1785,
      "el": 1786,
      "dem": 1787,
      "▁Czy": 1788,
      "▁szyb": 1789,
      "▁stan": 1790,
      "▁zda": 1791,
      "▁spra": 1792,
      "ha": 1793,
      "▁chyba": 1794,
      "szu": 1795,
      "wyk": 1796,
      "wczy": 1797,
      "▁siebie": 1798,
      "t,": 1799,
      "▁pole": 1800,
      "słu": 1801,
      "▁hi": 1802,
      "▁książ": 1803,
      "▁ga": 1804,
      "▁ją": 1805,
      "▁zn": 1806,
      "skiej": 1807,
      "od": 1808,
      "▁Od": 1809,
      "piej": 1810,
      "▁dy": 1811,
      "▁Ja": 1812,
      ".\nJ": 1813,
      "▁powin": 1814,
      "two": 1815,
      "amię": 1816,
      "▁osób": 1817,
      "▁im": 1818,
      "▁powo": 1819,
      "p.": 1820,
      "▁mę": 1821,
      "▁kobie": 1822,
      "▁—": 1823,
      "▁mówi": 1824,
      ":\n": 1825,
      "got": 1826,
      "▁właśnie": 1827,
      "▁Ka": 1828,
      "czej": 1829,
      "▁ż": 1830,
      "zie": 1831,
      "▁sposób": 1832,
      "ne.": 1833,
      "tra": 1834,
      "cznych": 1835,
      "ród": 1836,
      "jący": 1837,
      "▁lek": 1838,
      "stem": 1839,
      "▁nam": 1840,
      "▁szcze": 1841,
      "▁zmie": 1842,
      "staw": 1843,
      "wiąz": 1844,
      "kami": 1845,
      "cić": 1846,
      "▁zapa": 1847,
      "żej": 1848,
      "ckie": 1849,
      "nek": 1850,
      "▁kupi": 1851,
      "nością": 1852,
      "ty,": 1853,
      "tę": 1854,
      "▁znajdzie": 1855,
      "fek": 1856,
      "om": 1857,
      "tą": 1858,
      "▁on": 1859,
      "py": 1860,
      "▁Te": 1861,
      "▁Cz": 1862,
      "▁opi": 1863,
      "▁czasu": 1864,
      "chodzi": 1865,
      "▁bi": 1866,
      "▁Mi": 1867,
      "rg": 1868,
      "wki": 1869,
      ".\nC": 1870,
      "▁albo": 1871,
      "um": 1872,
      "▁którym": 1873,
      "▁mar": 1874,
      "łości": 1875,
      "▁kolej": 1876,
      "▁wp": 1877,
      ".\nT": 1878,
      "▁trzeba": 1879,
      "▁nale": 1880,
      "▁wszystkie": 1881,
      "tel": 1882,
      "tach": 1883,
      "jących": 1884,
      "aka": 1885,
      ".\nM": 1886,
      "▁ża": 1887,
      "▁poja": 1888,
      ",\n": 1889,
      "▁nau": 1890,
      "czywiście": 1891,
      "▁mię": 1892,
      "ene": 1893,
      "zd": 1894,
      "▁chcia": 1895,
      "kach": 1896,
      "ował": 1897,
      "▁posia": 1898,
      "▁musi": 1899,
      "mal": 1900,
      "▁Pod": 1901,
      "▁sa": 1902,
      "▁Spraw": 1903,
      "owany": 1904,
      "▁wybrać": 1905,
      "▁cią": 1906,
      "▁Re": 1907,
      "▁two": 1908,
      "pular": 1909,
      "▁zdję": 1910,
      "▁nim": 1911,
      "▁Jed": 1912,
      "sku": 1913,
      "▁działa": 1914,
      "▁pas": 1915,
      "łowie": 1916,
      "▁mogą": 1917,
      "▁sku": 1918,
      "▁Jeśli": 1919,
      "▁cię": 1920,
      "wania": 1921,
      "▁arty": 1922,
      "łym": 1923,
      "prawdę": 1924,
      "▁słucha": 1925,
      "▁spe": 1926,
      "tera": 1927,
      "naj": 1928,
      "łam,": 1929,
      "▁Ro": 1930,
      "▁włas": 1931,
      "kry": 1932,
      "▁Ś": 1933,
      "▁Przy": 1934,
      "ka.": 1935,
      "tro": 1936,
      "ła,": 1937,
      "▁taki": 1938,
      "▁cia": 1939,
      "czenie": 1940,
      "owni": 1941,
      "nić": 1942,
      "▁każde": 1943,
      "▁których": 1944,
      "lą": 1945,
      "czego": 1946,
      "▁wielu": 1947,
      "▁podczas": 1948,
      "▁myś": 1949,
      "▁Dla": 1950,
      "tr": 1951,
      "▁:": 1952,
      "▁wą": 1953,
      "▁pol": 1954,
      "▁będą": 1955,
      "▁Pro": 1956,
      "▁wiem": 1957,
      "▁trochę": 1958,
      "▁si": 1959,
      "tami": 1960,
      "▁Tak": 1961,
      "▁często": 1962,
      "rzysta": 1963,
      "maga": 1964,
      "dział": 1965,
      "▁Wie": 1966,
      "pew": 1967,
      "▁bra": 1968,
      "cie,": 1969,
      "ur": 1970,
      "▁jedno": 1971,
      "▁przypad": 1972,
      "▁gru": 1973,
      "nią": 1974,
      "bardziej": 1975,
      "▁dom": 1976,
      "▁so": 1977,
      "▁per": 1978,
      "dzę": 1979,
      "star": 1980,
      "▁rodza": 1981,
      "▁powiet": 1982,
      "strze": 1983,
      "chu": 1984,
      "god": 1985,
      "tak": 1986,
      "▁ide": 1987,
      "▁innych": 1988,
      "ców": 1989,
      "mniej": 1990,
      "▁wygląda": 1991,
      "▁stu": 1992,
      "chy": 1993,
      "fe": 1994,
      "gól": 1995,
      "kła": 1996,
      "wał": 1997,
      "▁chwi": 1998,
      "nia,": 1999,
      "▁pły": 2000,
      "▁pomy": 2001,
      "▁okre": 2002,
      "▁kto": 2003,
      "lika": 2004,
      "▁6": 2005,
      "▁ru": 2006,
      "wój": 2007,
      "dać": 2008,
      ".\nD": 2009,
      "ku,": 2010,
      "▁In": 2011,
      "den": 2012,
      "któ": 2013,
      "▁dzięki": 2014,
      "ale": 2015,
      "▁czym": 2016,
      "▁zło": 2017,
      "▁wybo": 2018,
      "wier": 2019,
      "▁star": 2020,
      "czny": 2021,
      "▁chodzi": 2022,
      "gdy": 2023,
      "▁an": 2024,
      "▁zach": 2025,
      "glę": 2026,
      "▁stra": 2027,
      "dar": 2028,
      "powia": 2029,
      "▁użytk": 2030,
      "▁lep": 2031,
      "▁temu": 2032,
      "try": 2033,
      "▁mieć": 2034,
      "▁peł": 2035,
      "▁Wi": 2036,
      "para": 2037,
      "rt": 2038,
      "▁cieka": 2039,
      "▁Jest": 2040,
      "am,": 2041,
      "dia": 2042,
      "liwości": 2043,
      "▁funk": 2044,
      "logi": 2045,
      "▁kla": 2046,
      "tua": 2047,
      ".\nA": 2048,
      "▁trzy": 2049,
      "▁uwagę": 2050,
      "cji,": 2051,
      "na.": 2052,
      "▁począ": 2053,
      "▁świe": 2054,
      "▁oczy": 2055,
      "kre": 2056,
      "▁telefon": 2057,
      "▁dostęp": 2058,
      "stety": 2059,
      "tych": 2060,
      "▁Naj": 2061,
      "▁naprawdę": 2062,
      "▁wra": 2063,
      "▁kar": 2064,
      "▁niej": 2065,
      "▁czego": 2066,
      "▁ofer": 2067,
      "▁mamy": 2068,
      "▁bie": 2069,
      "forma": 2070,
      "pro": 2071,
      "▁dlatego": 2072,
      "▁prez": 2073,
      "▁X": 2074,
      "▁Sz": 2075,
      "▁życia": 2076,
      "wala": 2077,
      "skich": 2078,
      "▁oko": 2079,
      "▁dużo": 2080,
      "▁skó": 2081,
      "bia": 2082,
      "▁najbardziej": 2083,
      "▁sty": 2084,
      "tedy": 2085,
      "▁ani": 2086,
      "▁zdr": 2087,
      "ce,": 2088,
      "▁świet": 2089,
      "▁Pa": 2090,
      "▁zde": 2091,
      "▁dobre": 2092,
      "▁gło": 2093,
      "ri": 2094,
      "czes": 2095,
      "niejsze": 2096,
      "chni": 2097,
      "sz,": 2098,
      "▁mło": 2099,
      "toś": 2100,
      "dzenie": 2101,
      "▁zie": 2102,
      "óź": 2103,
      "\nC": 2104,
      "rom": 2105,
      "bę": 2106,
      "▁wiel": 2107,
      "szta": 2108,
      "nąć": 2109,
      "le,": 2110,
      "ud": 2111,
      "▁for": 2112,
      "▁rę": 2113,
      "liza": 2114,
      "raj": 2115,
      "▁cy": 2116,
      "▁Sprawdź": 2117,
      "▁razem": 2118,
      "▁prostu": 2119,
      "▁wia": 2120,
      "▁waż": 2121,
      "owana": 2122,
      "łego": 2123,
      "▁posta": 2124,
      "▁.": 2125,
      "▁pamię": 2126,
      "▁pyta": 2127,
      "▁inte": 2128,
      "cznej": 2129,
      "▁produkty": 2130,
      "▁efek": 2131,
      "▁kole": 2132,
      "▁sł": 2133,
      "▁moc": 2134,
      "log": 2135,
      "▁dobry": 2136,
      "▁związ": 2137,
      "▁pięk": 2138,
      "▁artyku": 2139,
      "▁ostatni": 2140,
      "▁kos": 2141,
      "ą,": 2142,
      "oby": 2143,
      "▁Ci": 2144,
      "▁sło": 2145,
      "▁pół": 2146,
      "▁dosta": 2147,
      "ta,": 2148,
      "▁szu": 2149,
      "cki": 2150,
      "rób": 2151,
      "trze": 2152,
      "▁czyli": 2153,
      "▁ideal": 2154,
      "▁posiada": 2155,
      "my,": 2156,
      "ód": 2157,
      "cyd": 2158,
      "stor": 2159,
      "cji.": 2160,
      "cjal": 2161,
      "▁para": 2162,
      "▁r": 2163,
      "▁trud": 2164,
      "▁sze": 2165,
      "▁kró": 2166,
      "cznego": 2167,
      "▁problem": 2168,
      "gląd": 2169,
      "▁ponie": 2170,
      "▁konie": 2171,
      "▁one": 2172,
      "▁wszystkim": 2173,
      "▁czu": 2174,
      "tury": 2175,
      "duje": 2176,
      "sła": 2177,
      "ers": 2178,
      "▁dziewczy": 2179,
      "cją": 2180,
      "▁wzglę": 2181,
      "▁były": 2182,
      "częście": 2183,
      "żą": 2184,
      "▁zaba": 2185,
      "dziel": 2186,
      "▁ludzi": 2187,
      "▁każdy": 2188,
      "teria": 2189,
      "pisane": 2190,
      "zji": 2191,
      "li,": 2192,
      "▁godzi": 2193,
      "▁ju": 2194,
      "łość": 2195,
      "wanie": 2196,
      "pisa": 2197,
      "c,": 2198,
      ".\nZ": 2199,
      "▁śmie": 2200,
      "▁człowie": 2201,
      "▁niego": 2202,
      "▁jedy": 2203,
      "▁mniej": 2204,
      "▁zad": 2205,
      "ge": 2206,
      "▁ktoś": 2207,
      "▁uro": 2208,
      "żyć": 2209,
      "żu": 2210,
      "i,": 2211,
      "stą": 2212,
      "▁tym,": 2213,
      "ł.": 2214,
      "▁wyso": 2215,
      "czki": 2216,
      "tar": 2217,
      "▁jeden": 2218,
      "▁No": 2219,
      "tery": 2220,
      "!!": 2221,
      "łabym": 2222,
      "▁par": 2223,
      "zo": 2224,
      "▁inter": 2225,
      "cześ": 2226,
      "▁eksp": 2227,
      "▁szybko": 2228,
      "▁właści": 2229,
      "▁powietrza": 2230,
      "▁pora": 2231,
      "tal": 2232,
      "▁dzień": 2233,
      "▁należy": 2234,
      "▁głów": 2235,
      "▁sytua": 2236,
      "trz": 2237,
      "cam": 2238,
      "▁informa": 2239,
      "▁pan": 2240,
      "▁podob": 2241,
      "▁żad": 2242,
      "▁której": 2243,
      "▁zapew": 2244,
      "kro": 2245,
      "gł": 2246,
      "▁jeste": 2247,
      "▁którzy": 2248,
      "▁Ar": 2249,
      "▁popular": 2250,
      "▁dwa": 2251,
      "\nJ": 2252,
      "▁zapo": 2253,
      "wić": 2254,
      "byt": 2255,
      ".\n-": 2256,
      "▁coraz": 2257,
      "▁choć": 2258,
      "▁10": 2259,
      "▁drugie": 2260,
      "▁Two": 2261,
      "▁przygot": 2262,
      "dzien": 2263,
      "▁zar": 2264,
      "owe,": 2265,
      "stra": 2266,
      "rek": 2267,
      "rwa": 2268,
      "dł": 2269,
      "liz": 2270,
      "▁dni": 2271,
      "he": 2272,
      "tw": 2273,
      "per": 2274,
      "▁takich": 2275,
      "śla": 2276,
      "szcz": 2277,
      "świa": 2278,
      "zuje": 2279,
      "▁obec": 2280,
      "ple": 2281,
      "▁wtedy": 2282,
      "▁spa": 2283,
      "dowane": 2284,
      "\".": 2285,
      "▁świat": 2286,
      "▁Mar": 2287,
      "▁odpowiedni": 2288,
      "sor": 2289,
      "▁mogę": 2290,
      "▁aż": 2291,
      "▁War": 2292,
      "▁ona": 2293,
      ".\nNie": 2294,
      "▁kilku": 2295,
      "▁umie": 2296,
      "tam": 2297,
      "▁se": 2298,
      "ser": 2299,
      "▁Może": 2300,
      "sów": 2301,
      "ków,": 2302,
      "piero": 2303,
      "▁Ż": 2304,
      "tycznie": 2305,
      "emu": 2306,
      "▁pla": 2307,
      "▁7": 2308,
      "che": 2309,
      "▁kre": 2310,
      "trzyma": 2311,
      "prasz": 2312,
      "▁życie": 2313,
      "wykle": 2314,
      "▁prak": 2315,
      "ciw": 2316,
      "▁między": 2317,
      "▁V": 2318,
      "▁inne": 2319,
      "▁sprzę": 2320,
      "▁czasie": 2321,
      "ami,": 2322,
      "nia.": 2323,
      "▁zu": 2324,
      "▁np.": 2325,
      "▁15": 2326,
      "rum": 2327,
      "▁dw": 2328,
      "▁miałam": 2329,
      "lak": 2330,
      "nd": 2331,
      "i.": 2332,
      "ytat": 2333,
      "▁potem": 2334,
      "▁kosme": 2335,
      "▁pozwala": 2336,
      "tania": 2337,
      "▁dobra": 2338,
      "▁temat": 2339,
      "▁Ty": 2340,
      "▁rzeczy": 2341,
      "skona": 2342,
      "▁ozna": 2343,
      "s.": 2344,
      "stana": 2345,
      "▁nada": 2346,
      "▁stanie": 2347,
      "▁masz": 2348,
      "dzieć": 2349,
      "nic": 2350,
      "gro": 2351,
      "onych": 2352,
      "▁sama": 2353,
      "▁pozosta": 2354,
      "▁potra": 2355,
      "________________": 2356,
      "mina": 2357,
      "skim": 2358,
      "▁Le": 2359,
      "ytat:\n": 2360,
      "k.": 2361,
      "więk": 2362,
      "s,": 2363,
      "▁smartf": 2364,
      "tural": 2365,
      "▁uda": 2366,
      "cznym": 2367,
      "▁Cie": 2368,
      "▁cha": 2369,
      "ło,": 2370,
      "sem": 2371,
      "śni": 2372,
      "wycza": 2373,
      "▁poli": 2374,
      "zn": 2375,
      "▁sza": 2376,
      "stanawia": 2377,
      "di": 2378,
      "▁naz": 2379,
      "wiel": 2380,
      "stawie": 2381,
      "▁twa": 2382,
      "prowa": 2383,
      "▁dość": 2384,
      "ję,": 2385,
      "▁pom": 2386,
      "óż": 2387,
      "pl": 2388,
      "scy": 2389,
      "▁elemen": 2390,
      "laz": 2391,
      "stwo": 2392,
      "▁znajdziesz": 2393,
      "▁kro": 2394,
      "▁perf": 2395,
      "łej": 2396,
      "__________________": 2397,
      "daw": 2398,
      "dłu": 2399,
      "kar": 2400,
      "▁be": 2401,
      "ti": 2402,
      "miast": 2403,
      "▁tyle": 2404,
      "rgani": 2405,
      "▁fak": 2406,
      "▁8": 2407,
      "nad": 2408,
      "owała": 2409,
      "łat": 2410,
      "resu": 2411,
      "▁zdecyd": 2412,
      "▁naszym": 2413,
      "▁znale": 2414,
      "ku.": 2415,
      "komen": 2416,
      "▁histor": 2417,
      "liwe": 2418,
      "czną": 2419,
      "▁urządzenia": 2420,
      "▁wpły": 2421,
      "▁póź": 2422,
      "▁obraz": 2423,
      "▁kra": 2424,
      "▁nigdy": 2425,
      "▁Ni": 2426,
      "cem": 2427,
      "gle": 2428,
      "....": 2429,
      "▁zakup": 2430,
      "▁chło": 2431,
      "kol": 2432,
      "gna": 2433,
      "siaj": 2434,
      "fa": 2435,
      "świet": 2436,
      "▁poka": 2437,
      "▁swoim": 2438,
      "\nW": 2439,
      "▁py": 2440,
      "▁Dzięki": 2441,
      "Napisane": 2442,
      "▁dziś": 2443,
      "tora": 2444,
      "ytat:\nNapisane": 2445,
      "pełnie": 2446,
      "▁lepiej": 2447,
      "▁środ": 2448,
      "cześniej": 2449,
      "▁zrobić": 2450,
      "▁blo": 2451,
      "▁codzien": 2452,
      "czyna": 2453,
      "gar": 2454,
      "▁jakieś": 2455,
      ".\nO": 2456,
      "\",": 2457,
      "20": 2458,
      "ien": 2459,
      "▁pewno": 2460,
      "gą": 2461,
      "mawia": 2462,
      "be": 2463,
      "owu": 2464,
      "▁mieszka": 2465,
      "▁By": 2466,
      "ren": 2467,
      "▁wszystkich": 2468,
      "▁długo": 2469,
      "▁apara": 2470,
      "▁tutaj": 2471,
      "▁cen": 2472,
      "\nP": 2473,
      "ń,": 2474,
      "pada": 2475,
      "▁ile": 2476,
      "ciaż": 2477,
      "▁muzy": 2478,
      "▁skła": 2479,
      "ho": 2480,
      "▁nadzie": 2481,
      "▁jakiś": 2482,
      "▁producen": 2483,
      "▁miejsca": 2484,
      "▁będę": 2485,
      "u.": 2486,
      "żeli": 2487,
      "ul": 2488,
      "▁prowa": 2489,
      "owałam": 2490,
      "czka": 2491,
      "dów": 2492,
      "▁współ": 2493,
      "ke": 2494,
      "tuje": 2495,
      "ten": 2496,
      "▁dnia": 2497,
      "▁tę": 2498,
      "▁poko": 2499,
      "▁interne": 2500,
      "anego": 2501,
      "▁cięż": 2502,
      "cie.": 2503,
      "stępu": 2504,
      "▁wsze": 2505,
      "▁kompu": 2506,
      "▁jakości": 2507,
      "▁różnych": 2508,
      "stos": 2509,
      "▁minu": 2510,
      "▁film": 2511,
      "▁czyta": 2512,
      "owaniu": 2513,
      "wiera": 2514,
      "▁wspo": 2515,
      "▁swoją": 2516,
      "stwa": 2517,
      "▁tego,": 2518,
      "jącym": 2519,
      "ans": 2520,
      "▁Bar": 2521,
      "czna": 2522,
      "gry": 2523,
      "rócić": 2524,
      "▁organi": 2525,
      "▁łą": 2526,
      "aki": 2527,
      "ner": 2528,
      "▁pozna": 2529,
      "pera": 2530,
      "cież": 2531,
      "▁pozio": 2532,
      "ńczy": 2533,
      "stro": 2534,
      "▁daw": 2535,
      "kę,": 2536,
      "▁wypo": 2537,
      "▁osoby": 2538,
      "mar": 2539,
      "komendowane": 2540,
      "łę": 2541,
      "pia": 2542,
      ">>": 2543,
      "▁zmia": 2544,
      "ce.": 2545,
      "da,": 2546,
      "▁którego": 2547,
      "łaś": 2548,
      "▁miał": 2549,
      ".\nS": 2550,
      "▁tłu": 2551,
      "▁Ra": 2552,
      "czni": 2553,
      "dy,": 2554,
      "▁pozy": 2555,
      "bór": 2556,
      "▁moim": 2557,
      "▁porów": 2558,
      "now": 2559,
      "w.": 2560,
      "pre": 2561,
      "pod": 2562,
      "nka": 2563,
      "dym": 2564,
      "▁it": 2565,
      "▁bli": 2566,
      "▁przypadku": 2567,
      "stru": 2568,
      "\nM": 2569,
      "damy": 2570,
      "cych": 2571,
      "śród": 2572,
      "▁ład": 2573,
      "▁bud": 2574,
      "\nD": 2575,
      "▁cały": 2576,
      "owanych": 2577,
      "▁faj": 2578,
      "▁Ł": 2579,
      "jąca": 2580,
      "kiej": 2581,
      "zi": 2582,
      "roni": 2583,
      "ano": 2584,
      "▁wol": 2585,
      "▁możesz": 2586,
      "ków.": 2587,
      "▁poprze": 2588,
      "▁em": 2589,
      "twa": 2590,
      "▁zoba": 2591,
      "dek": 2592,
      "onal": 2593,
      "▁dodatk": 2594,
      "▁nowo": 2595,
      "\nA": 2596,
      "▁raczej": 2597,
      "▁kosz": 2598,
      "▁możemy": 2599,
      "▁początku": 2600,
      "<<": 2601,
      "żenie": 2602,
      "▁zain": 2603,
      "ta.": 2604,
      "ly": 2605,
      "ństwa": 2606,
      "--": 2607,
      "▁mój": 2608,
      "▁charak": 2609,
      "ry,": 2610,
      "▁ki": 2611,
      "▁taka": 2612,
      "▁200": 2613,
      "▁przeciw": 2614,
      "▁swoich": 2615,
      "▁szuka": 2616,
      "▁pewnością": 2617,
      "▁przyjem": 2618,
      "▁ję": 2619,
      "szko": 2620,
      "▁razie": 2621,
      "ń.": 2622,
      "▁cu": 2623,
      "wod": 2624,
      "▁Li": 2625,
      "łych": 2626,
      "west": 2627,
      "▁zapach": 2628,
      "▁fir": 2629,
      "tne": 2630,
      "n,": 2631,
      "ty.": 2632,
      "▁obie": 2633,
      "▁bezpie": 2634,
      "▁szczegól": 2635,
      "li.": 2636,
      "▁potrzeb": 2637,
      "▁rynku": 2638,
      "▁został": 2639,
      "▁prac": 2640,
      "owią": 2641,
      "▁Pie": 2642,
      "▁momen": 2643,
      "▁zaku": 2644,
      "tan": 2645,
      "przy": 2646,
      "▁dziecko": 2647,
      "raż": 2648,
      "łów": 2649,
      "ły,": 2650,
      "je,": 2651,
      "ją,": 2652,
      "jesz": 2653,
      "mnia": 2654,
      "ek,": 2655,
      "IE": 2656,
      "▁Wa": 2657,
      "ształ": 2658,
      "▁strony": 2659,
      "▁zamie": 2660,
      "ura": 2661,
      "nych,": 2662,
      "▁dokład": 2663,
      "u,": 2664,
      "ła.": 2665,
      "▁mó": 2666,
      "▁przyja": 2667,
      "▁ar": 2668,
      "nk": 2669,
      "▁Pols": 2670,
      "▁Jednak": 2671,
      "▁dowie": 2672,
      "tów.": 2673,
      "▁miejsce": 2674,
      "▁ranki": 2675,
      "▁takiego": 2676,
      "▁doskona": 2677,
      "▁il": 2678,
      "świad": 2679,
      "▁bia": 2680,
      "▁ź": 2681,
      "cenia": 2682,
      "ówno": 2683,
      "▁zim": 2684,
      "▁wal": 2685,
      "▁zbyt": 2686,
      "cy,": 2687,
      "rii": 2688,
      "o.": 2689,
      "▁specjal": 2690,
      "▁...": 2691,
      "óle": 2692,
      "▁kupić": 2693,
      "▁same": 2694,
      "▁wykon": 2695,
      "▁później": 2696,
      "wyczaj": 2697,
      "wiąza": 2698,
      "▁ap": 2699,
      "▁natural": 2700,
      "▁Cho": 2701,
      "tomiast": 2702,
      "tyku": 2703,
      "▁typu": 2704,
      "▁włosy": 2705,
      "▁tre": 2706,
      "źć": 2707,
      "▁18": 2708,
      "▁pisa": 2709,
      "▁jaką": 2710,
      "▁którą": 2711,
      "▁miesią": 2712,
      "▁wcześniej": 2713,
      "▁czasem": 2714,
      "ami.": 2715,
      "szka": 2716,
      "ią": 2717,
      "▁stos": 2718,
      "ok": 2719,
      "▁dopiero": 2720,
      "▁przysz": 2721,
      "▁nor": 2722,
      "redni": 2723,
      "tować": 2724,
      "lepiej": 2725,
      "c.": 2726,
      "stnie": 2727,
      "▁rozpo": 2728,
      "owych.": 2729,
      "▁cał": 2730,
      "ścia": 2731,
      "uro": 2732,
      "▁zaj": 2733,
      "ąd": 2734,
      "anym": 2735,
      "owy,": 2736,
      "▁części": 2737,
      "▁zwie": 2738,
      "ck": 2739,
      "▁kry": 2740,
      "chodzą": 2741,
      "mę": 2742,
      "▁eksper": 2743,
      "▁ne": 2744,
      "▁miała": 2745,
      "owarzy": 2746,
      "leg": 2747,
      "kolwie": 2748,
      "jcie": 2749,
      "lubi": 2750,
      "▁sprze": 2751,
      "▁zdjęcia": 2752,
      "▁sen": 2753,
      "<<U": 2754,
      "▁ludzie": 2755,
      "▁9": 2756,
      "liwość": 2757,
      "▁większ": 2758,
      "▁plan": 2759,
      "▁at": 2760,
      "▁ponieważ": 2761,
      "▁materia": 2762,
      "▁Mam": 2763,
      "▁języ": 2764,
      "min": 2765,
      "▁samocho": 2766,
      "▁parame": 2767,
      "dom": 2768,
      "▁końcu": 2769,
      "▁smartfon": 2770,
      "▁Ta": 2771,
      "”.": 2772,
      "▁swojej": 2773,
      "tu,": 2774,
      "▁względu": 2775,
      "la,": 2776,
      "▁urządze": 2777,
      "▁przede": 2778,
      "owych,": 2779,
      "czone": 2780,
      "▁decy": 2781,
      "menta": 2782,
      "stawia": 2783,
      "rząd": 2784,
      "kon": 2785,
      "em,": 2786,
      "ster": 2787,
      "tów,": 2788,
      "iedy": 2789,
      "cię": 2790,
      "▁każdego": 2791,
      "...\n": 2792,
      "lni": 2793,
      "▁Lu": 2794,
      "▁skute": 2795,
      "▁pierwszy": 2796,
      "ło.": 2797,
      "▁Kup": 2798,
      "lub": 2799,
      "tual": 2800,
      "▁podoba": 2801,
      "▁oczywiście": 2802,
      "ciąg": 2803,
      "▁dź": 2804,
      "róci": 2805,
      "▁tak,": 2806,
      "lić": 2807,
      "▁każdym": 2808,
      "nosi": 2809,
      "ve": 2810,
      "▁nasze": 2811,
      "▁ł": 2812,
      "▁mieszk": 2813,
      "▁połą": 2814,
      "starczy": 2815,
      "tura": 2816,
      "nem": 2817,
      "lnie": 2818,
      "wę": 2819,
      "▁lubi": 2820,
      "powiadamy": 2821,
      "stawi": 2822,
      "omi": 2823,
      "▁Cene": 2824,
      "▁razy": 2825,
      "▁regu": 2826,
      "▁gro": 2827,
      "▁bym": 2828,
      "lik": 2829,
      "▁pła": 2830,
      "der": 2831,
      "▁Roz": 2832,
      "▁jednym": 2833,
      "por": 2834,
      "grani": 2835,
      "▁nieco": 2836,
      "▁czeka": 2837,
      "mart": 2838,
      "łania": 2839,
      "▁Rekomendowane": 2840,
      ".\nJe": 2841,
      "▁komu": 2842,
      "rze,": 2843,
      "\nT": 2844,
      "kolwiek": 2845,
      "gan": 2846,
      "▁ponad": 2847,
      "▁przykład": 2848,
      "▁niektó": 2849,
      "▁prezen": 2850,
      "▁zasa": 2851,
      "▁niestety": 2852,
      "tu.": 2853,
      "▁wymaga": 2854,
      "▁następ": 2855,
      "bud": 2856,
      "▁kam": 2857,
      "▁takim": 2858,
      "▁trak": 2859,
      "man": 2860,
      "▁odpowiednie": 2861,
      "▁prawdzi": 2862,
      "▁stop": 2863,
      "sych": 2864,
      "▁moja": 2865,
      "stanowi": 2866,
      "▁gó": 2867,
      "▁auto": 2868,
      "▁czar": 2869,
      "▁Wo": 2870,
      "▁chę": 2871,
      "lem": 2872,
      "▁zarówno": 2873,
      "robi": 2874,
      "▁kur": 2875,
      "rzenia": 2876,
      "▁musia": 2877,
      "ot": 2878,
      "▁kieru": 2879,
      "łeś": 2880,
      "▁trwa": 2881,
      "mi.": 2882,
      "▁ciep": 2883,
      "▁spotka": 2884,
      "j,": 2885,
      "▁system": 2886,
      "▁tez": 2887,
      "▁ogrom": 2888,
      "▁prawie": 2889,
      "▁mojej": 2890,
      "▁znalaz": 2891,
      "▁miejscu": 2892,
      "pozy": 2893,
      "szyscy": 2894,
      "tek,": 2895,
      "▁skle": 2896,
      "owe.": 2897,
      "▁Jakie": 2898,
      "▁dzisiaj": 2899,
      "▁smak": 2900,
      "żczy": 2901,
      "ron": 2902,
      "lek": 2903,
      ".\nPo": 2904,
      "▁kosmety": 2905,
      "ński": 2906,
      "▁wydaj": 2907,
      "▁leka": 2908,
      "cale": 2909,
      "▁życiu": 2910,
      "▁lata": 2911,
      "cześnie": 2912,
      "▁obu": 2913,
      "ństwo": 2914,
      "ą.": 2915,
      "▁licz": 2916,
      "▁kolor": 2917,
      "ni,": 2918,
      "resz": 2919,
      "▁My": 2920,
      "czności": 2921,
      "▁Wszyst": 2922,
      "▁elekt": 2923,
      "żenia": 2924,
      "▁woj": 2925,
      "▁Ob": 2926,
      "▁drugi": 2927,
      "rp": 2928,
      "mi,": 2929,
      "\nw": 2930,
      "▁Mu": 2931,
      "▁tema": 2932,
      "muje": 2933,
      "▁Pi": 2934,
      "towa": 2935,
      "▁sztu": 2936,
      "▁juz": 2937,
      "ę,": 2938,
      "▁wieku": 2939,
      "▁wymie": 2940,
      "▁potrafi": 2941,
      "▁zau": 2942,
      "▁latach": 2943,
      "▁swojego": 2944,
      "▁wszel": 2945,
      "▁ogóle": 2946,
      "▁gar": 2947,
      "duk": 2948,
      "kowi": 2949,
      "▁podstaw": 2950,
      "szyć": 2951,
      "▁dalej": 2952,
      "▁jakoś": 2953,
      "▁przyj": 2954,
      "▁sposob": 2955,
      "raca": 2956,
      "▁Dzi": 2957,
      "wal": 2958,
      "ską": 2959,
      "▁oznacza": 2960,
      "▁katego": 2961,
      "▁wody": 2962,
      "moż": 2963,
      "▁znaleźć": 2964,
      "▁poszu": 2965,
      "▁Dzie": 2966,
      "stąpi": 2967,
      "jącego": 2968,
      "▁społe": 2969,
      "▁ekra": 2970,
      "▁brak": 2971,
      "▁pojawia": 2972,
      "▁śmier": 2973,
      "kich": 2974,
      "nien": 2975,
      "▁wido": 2976,
      "▁moni": 2977,
      "▁jakby": 2978,
      "▁dop": 2979,
      "kuje": 2980,
      "▁Sam": 2981,
      "lenie": 2982,
      "▁powsta": 2983,
      "▁Ba": 2984,
      "▁jaka": 2985,
      "▁autor": 2986,
      "sam": 2987,
      "kiego": 2988,
      "mnie": 2989,
      "▁pier": 2990,
      "wam": 2991,
      "kim": 2992,
      "czyta": 2993,
      "łaszcza": 2994,
      "▁poni": 2995,
      "ngu": 2996,
      ".\nK": 2997,
      "ną,": 2998,
      "▁wąt": 2999,
      "▁wska": 3000,
      "▁klasy": 3001,
      "togra": 3002,
      "▁dziecka": 3003,
      "rzyć": 3004,
      "ania,": 3005,
      "bez": 3006,
      "obra": 3007,
      "▁tygo": 3008,
      "wat": 3009,
      "▁wyposa": 3010,
      "wą": 3011,
      "▁pracu": 3012,
      "▁Jaki": 3013,
      "▁jas": 3014,
      "▁Artyku": 3015,
      "▁pry": 3016,
      "▁zako": 3017,
      "▁wiem,": 3018,
      "▁nowe": 3019,
      "▁zaczyna": 3020,
      "▁model": 3021,
      "goś": 3022,
      "▁stosu": 3023,
      "nych.": 3024,
      "▁łat": 3025,
      "ciąż": 3026,
      "▁ką": 3027,
      "▁poza": 3028,
      "wają": 3029,
      "▁wybiera": 3030,
      "▁boha": 3031,
      "cjon": 3032,
      "▁Gdy": 3033,
      "kę.": 3034,
      "▁poda": 3035,
      "▁tek": 3036,
      "▁kiedyś": 3037,
      "▁artykule": 3038,
      "sły": 3039,
      "▁rozwiąza": 3040,
      "▁nasz": 3041,
      "▁Bardzo": 3042,
      "hi": 3043,
      "▁napisa": 3044,
      "ościa": 3045,
      "▁wyj": 3046,
      "▁sły": 3047,
      "▁poś": 3048,
      "▁perfu": 3049,
      "▁wykona": 3050,
      "▁chociaż": 3051,
      "tyczne": 3052,
      "▁progra": 3053,
      "wen": 3054,
      "▁spoko": 3055,
      "▁kul": 3056,
      "▁dwó": 3057,
      "▁pewnie": 3058,
      "ca,": 3059,
      "▁rodzaju": 3060,
      "nio": 3061,
      "▁delika": 3062,
      "No": 3063,
      "rew": 3064,
      "nach": 3065,
      "▁zaczę": 3066,
      "▁Artykuły": 3067,
      "▁proce": 3068,
      "szczy": 3069,
      "rzo": 3070,
      "▁wyją": 3071,
      "▁jakim": 3072,
      "▁mimo": 3073,
      "19": 3074,
      "▁dwie": 3075,
      "▁powodu": 3076,
      "▁jakość": 3077,
      "wane": 3078,
      "▁pani": 3079,
      "▁część": 3080,
      "▁;": 3081,
      "fika": 3082,
      "▁mojego": 3083,
      "ry.": 3084,
      "rzyst": 3085,
      "leż": 3086,
      "▁r.": 3087,
      "▁wcale": 3088,
      "▁nią": 3089,
      "zja": 3090,
      "szczę": 3091,
      "▁mężczy": 3092,
      "▁rozm": 3093,
      "▁ho": 3094,
      "fia": 3095,
      "▁Smart": 3096,
      "▁stwo": 3097,
      "▁Twoje": 3098,
      "▁Są": 3099,
      "▁została": 3100,
      "▁ulubi": 3101,
      "▁De": 3102,
      "RL": 3103,
      "▁jedynie": 3104,
      "▁twarzy": 3105,
      "▁malu": 3106,
      "▁:)": 3107,
      "▁doświad": 3108,
      "▁grze": 3109,
      "▁zwrócić": 3110,
      "▁eksperckie": 3111,
      "▁chłop": 3112,
      "▁wymia": 3113,
      "▁pomie": 3114,
      "niki": 3115,
      "owiem": 3116,
      "▁psych": 3117,
      "▁wybór": 3118,
      "sił": 3119,
      "▁słuchawki": 3120,
      "tej": 3121,
      "l,": 3122,
      "nt": 3123,
      "jecha": 3124,
      "▁100": 3125,
      "kam": 3126,
      "▁czer": 3127,
      "ność,": 3128,
      "▁naszych": 3129,
      "▁rozu": 3130,
      "czoraj": 3131,
      "nego,": 3132,
      "▁Kiedy": 3133,
      "▁myśli": 3134,
      "gnie": 3135,
      "▁ć": 3136,
      "▁kup": 3137,
      "▁słuchaw": 3138,
      "▁Sprawdź,": 3139,
      "praszamy": 3140,
      "▁Każ": 3141,
      "▁die": 3142,
      "bior": 3143,
      "▁zgo": 3144,
      "▁dwóch": 3145,
      "▁Da": 3146,
      "szenia": 3147,
      "▁korzysta": 3148,
      "▁przyda": 3149,
      "▁ha": 3150,
      "▁am": 3151,
      "śmie": 3152,
      "▁tą": 3153,
      "▁Al": 3154,
      "dne": 3155,
      "▁spę": 3156,
      "d.": 3157,
      "\npo": 3158,
      "niejszych": 3159,
      "▁pielę": 3160,
      "▁30": 3161,
      "dam": 3162,
      "▁zależy": 3163,
      "▁ubra": 3164,
      "▁oczyszcza": 3165,
      "▁dziw": 3166,
      "II": 3167,
      "▁chcesz": 3168,
      "lne": 3169,
      "▁najlepiej": 3170,
      "row": 3171,
      "nii": 3172,
      "▁podej": 3173,
      "niają": 3174,
      ".\nNa": 3175,
      "▁przecież": 3176,
      "▁super": 3177,
      "dania": 3178,
      "▁zamia": 3179,
      "▁okaza": 3180,
      "▁sek": 3181,
      "▁zupełnie": 3182,
      "▁Was": 3183,
      "nętrz": 3184,
      "▁<<U": 3185,
      "▁telewi": 3186,
      "czyn": 3187,
      "▁muszę": 3188,
      "▁ot": 3189,
      "▁stanowi": 3190,
      "▁Cię": 3191,
      "lenia": 3192,
      "▁towarzy": 3193,
      "▁wśród": 3194,
      "▁jednej": 3195,
      "▁szczęście": 3196,
      "▁ucze": 3197,
      "▁naszego": 3198,
      "▁produkt": 3199,
      "wali": 3200,
      "▁warun": 3201,
      "tna": 3202,
      "▁potrzebu": 3203,
      "fo": 3204,
      "dził": 3205,
      "▁Pra": 3206,
      "▁usta": 3207,
      "▁znak": 3208,
      "▁sła": 3209,
      "▁najwięk": 3210,
      "kra": 3211,
      "▁kategorii": 3212,
      "gen": 3213,
      "jak": 3214,
      "spi": 3215,
      "syw": 3216,
      "\nCytat:\nNapisane": 3217,
      "▁powinien": 3218,
      ".\nJa": 3219,
      "▁mało": 3220,
      "▁Dlatego": 3221,
      "▁13": 3222,
      "▁przej": 3223,
      "▁świę": 3224,
      "▁dzien": 3225,
      "▁proje": 3226,
      "▁swój": 3227,
      "struk": 3228,
      "▁pomocą": 3229,
      "domo": 3230,
      "”,": 3231,
      "ciel": 3232,
      "▁dlaczego": 3233,
      "kom": 3234,
      "chno": 3235,
      "▁kwest": 3236,
      "▁zawiera": 3237,
      "teres": 3238,
      "▁byłam": 3239,
      "jącej": 3240,
      "śnia": 3241,
      ".\nB": 3242,
      "▁sumie": 3243,
      "▁usu": 3244,
      "\nJa": 3245,
      "▁Tu": 3246,
      "kiem,": 3247,
      "owy.": 3248,
      "jęcia": 3249,
      ".\nTo": 3250,
      "▁wygod": 3251,
      "lę,": 3252,
      "▁stara": 3253,
      "zje": 3254,
      "naczej": 3255,
      "▁internet": 3256,
      "▁14": 3257,
      "▁Zoba": 3258,
      "czony": 3259,
      "▁powa": 3260,
      "▁około": 3261,
      "▁zastanawia": 3262,
      "tym": 3263,
      "n.": 3264,
      "▁publi": 3265,
      "cer": 3266,
      "▁interesu": 3267,
      "jącą": 3268,
      "kona": 3269,
      "▁wspól": 3270,
      "▁isto": 3271,
      "dzielcz": 3272,
      "zumie": 3273,
      "▁koniec": 3274,
      "\nz": 3275,
      "▁każdej": 3276,
      "▁normal": 3277,
      "ol": 3278,
      "▁okoli": 3279,
      "▁pytanie": 3280,
      "ut": 3281,
      "▁wers": 3282,
      "▁modeli": 3283,
      "tyka": 3284,
      "▁Pe": 3285,
      "▁pierwsze": 3286,
      "▁strasz": 3287,
      "zję": 3288,
      "▁obecnie": 3289,
      "▁lubię": 3290,
      "▁samym": 3291,
      "▁Me": 3292,
      "▁różne": 3293,
      "▁najważ": 3294,
      "żo": 3295,
      "cach": 3296,
      "▁najlepsze": 3297,
      "siej": 3298,
      "chi": 3299,
      "▁razu": 3300,
      "▁mógł": 3301,
      "▁Ze": 3302,
      "▁12": 3303,
      "▁organiz": 3304,
      "▁drugiej": 3305,
      "▁16": 3306,
      "▁Ciebie": 3307,
      "ing": 3308,
      "wil": 3309,
      "▁rad": 3310,
      "▁niepo": 3311,
      "▁prezent": 3312,
      "tkowo": 3313,
      "▁wyja": 3314,
      "▁przypo": 3315,
      "▁ćwi": 3316,
      "nął": 3317,
      "▁ciebie": 3318,
      "▁nimi": 3319,
      "▁chcę": 3320,
      "ra,": 3321,
      "ką,": 3322,
      "mio": 3323,
      "▁sobą": 3324,
      "cep": 3325,
      "▁Ceneo.": 3326,
      "▁witami": 3327,
      "▁książki": 3328,
      "▁różni": 3329,
      "▁mas": 3330,
      "kość": 3331,
      "▁kontak": 3332,
      "▁Polsce": 3333,
      "▁istnie": 3334,
      "kow": 3335,
      "RL>>": 3336,
      "▁wart": 3337,
      "▁aktyw": 3338,
      "czeniu": 3339,
      "▁zatem": 3340,
      "vi": 3341,
      "żd": 3342,
      "częściej": 3343,
      "▁fotogra": 3344,
      "▁rok": 3345,
      "▁krzy": 3346,
      "ją.": 3347,
      "bezpie": 3348,
      "▁komple": 3349,
      "▁Pan": 3350,
      "len": 3351,
      "▁uzy": 3352,
      "pły": 3353,
      "obie": 3354,
      "▁widzia": 3355,
      "wych": 3356,
      "wy,": 3357,
      "??": 3358,
      "ły.": 3359,
      "▁zł": 3360,
      "łem,": 3361,
      "▁aplika": 3362,
      "żan": 3363,
      "pon": 3364,
      "▁trzyma": 3365,
      "pto": 3366,
      "▁zało": 3367,
      "grze": 3368,
      "▁daje": 3369,
      "bię": 3370,
      "▁Przed": 3371,
      "czek": 3372,
      "▁Ku": 3373,
      "owanym": 3374,
      "▁ły": 3375,
      "najmniej": 3376,
      "▁pojawi": 3377,
      "zno": 3378,
      "żna": 3379,
      "▁fizy": 3380,
      "▁jedna": 3381,
      "▁atrak": 3382,
      "wego": 3383,
      "wa,": 3384,
      "anej": 3385,
      "▁rozmia": 3386,
      "▁czyn": 3387,
      "▁jesteś": 3388,
      "▁pozwo": 3389,
      "▁och": 3390,
      "▁sprawdzi": 3391,
      "▁uczu": 3392,
      "▁trafi": 3393,
      "▁końca": 3394,
      "wem": 3395,
      "y,": 3396,
      "dniej": 3397,
      "szczenia": 3398,
      "▁rozumie": 3399,
      "▁twoje": 3400,
      "sji": 3401,
      "owania.": 3402,
      "tru": 3403,
      "ńskiego": 3404,
      "rach": 3405,
      "▁powiedzia": 3406,
      "▁sez": 3407,
      "▁osób,": 3408,
      "▁kuch": 3409,
      "czne,": 3410,
      "▁got": 3411,
      "tory": 3412,
      "wej": 3413,
      "roz": 3414,
      "cy.": 3415,
      "▁dokładnie": 3416,
      "dług": 3417,
      "▁niezwykle": 3418,
      "▁pytania": 3419,
      "▁takiej": 3420,
      "wym": 3421,
      "▁naszej": 3422,
      "▁robić": 3423,
      "▁ad": 3424,
      "▁opinie": 3425,
      "▁face": 3426,
      "▁wyboru": 3427,
      "▁zainteres": 3428,
      "akija": 3429,
      "owej,": 3430,
      "ować,": 3431,
      "▁zada": 3432,
      "▁Dob": 3433,
      "▁inaczej": 3434,
      "wielbia": 3435,
      "nym,": 3436,
      "▁kli": 3437,
      "▁mocno": 3438,
      "zależ": 3439,
      "▁Tym": 3440,
      "▁mą": 3441,
      "▁bla": 3442,
      "▁pró": 3443,
      "▁typ": 3444,
      "powiada": 3445,
      "\n__________________": 3446,
      "tny": 3447,
      "▁far": 3448,
      "▁Au": 3449,
      "▁włosów": 3450,
      "zwyczaj": 3451,
      "ni.": 3452,
      "fony": 3453,
      "10": 3454,
      "▁dostępne": 3455,
      "bieg": 3456,
      "kuję": 3457,
      "▁wę": 3458,
      "▁zy": 3459,
      "▁celu": 3460,
      "▁tytu": 3461,
      "▁fan": 3462,
      "mach": 3463,
      "▁charaktery": 3464,
      "▁zwłaszcza": 3465,
      "▁choro": 3466,
      "▁ter": 3467,
      "▁gdyby": 3468,
      "▁okreś": 3469,
      "▁moich": 3470,
      "▁modele": 3471,
      "▁rodzaj": 3472,
      "▁rozwi": 3473,
      "▁wraz": 3474,
      "▁taką": 3475,
      "prawia": 3476,
      "▁kuchni": 3477,
      "▁wyra": 3478,
      "▁fry": 3479,
      "▁lecz": 3480,
      "▁ostatnio": 3481,
      "ręcz": 3482,
      "▁okazji": 3483,
      "▁sil": 3484,
      "▁szero": 3485,
      "▁nikt": 3486,
      "▁zwyk": 3487,
      "▁olej": 3488,
      "pełnia": 3489,
      "▁Zobacz": 3490,
      "▁możliwości": 3491,
      "ką.": 3492,
      "dli": 3493,
      "mow": 3494,
      "onie": 3495,
      "ździe": 3496,
      "▁studia": 3497,
      "▁mini": 3498,
      "ością": 3499,
      "dy.": 3500,
      "trów": 3501,
      "▁sport": 3502,
      "▁wszyscy": 3503,
      "▁znajdu": 3504,
      "let": 3505,
      "▁czemu": 3506,
      "▁wydaje": 3507,
      "ności.": 3508,
      "▁ścia": 3509,
      "▁innymi": 3510,
      "▁zastos": 3511,
      "rzenie": 3512,
      "▁obowią": 3513,
      "dowa": 3514,
      "▁zapro": 3515,
      "ier": 3516,
      "▁Zapraszamy": 3517,
      "▁dopas": 3518,
      "ryka": 3519,
      "▁sporo": 3520,
      "▁tygodni": 3521,
      "▁nu": 3522,
      "cent": 3523,
      "ium": 3524,
      "ować.": 3525,
      "▁innego": 3526,
      "▁całą": 3527,
      "▁polecam": 3528,
      "cego": 3529,
      "cym": 3530,
      "\nS": 3531,
      "wierdzi": 3532,
      "▁obsłu": 3533,
      "ss": 3534,
      "cjonal": 3535,
      "wyż": 3536,
      "▁biu": 3537,
      "ko,": 3538,
      "ciem": 3539,
      "▁tempera": 3540,
      "▁odci": 3541,
      "rwi": 3542,
      "pierw": 3543,
      "▁kształ": 3544,
      "▁'": 3545,
      "▁najlepszych": 3546,
      "▁popraw": 3547,
      "▁oto": 3548,
      "▁nadal": 3549,
      "szczo": 3550,
      "▁obja": 3551,
      "▁<<URL>>": 3552,
      "▁znajom": 3553,
      "▁ab": 3554,
      "lin": 3555,
      "▁Oczywiście": 3556,
      "ania.": 3557,
      "▁zaczą": 3558,
      "ment": 3559,
      ".\nI": 3560,
      "▁gdyż": 3561,
      "▁Spo": 3562,
      "nios": 3563,
      "▁szczę": 3564,
      "no,": 3565,
      "wiam": 3566,
      "▁zmieni": 3567,
      "tyk": 3568,
      "▁An": 3569,
      "▁?": 3570,
      "▁oba": 3571,
      "▁ocze": 3572,
      "▁(w": 3573,
      "iem": 3574,
      "▁techno": 3575,
      "zne": 3576,
      "ks": 3577,
      "giel": 3578,
      "▁pomysł": 3579,
      "▁ciem": 3580,
      "▁Szu": 3581,
      "▁part": 3582,
      "pach": 3583,
      "▁We": 3584,
      "and": 3585,
      "pę": 3586,
      "du,": 3587,
      "szedł": 3588,
      "\nZ": 3589,
      "▁łatwo": 3590,
      "sym": 3591,
      "▁wybrać?": 3592,
      "▁obej": 3593,
      "cesor": 3594,
      "▁Czas": 3595,
      "▁zabaw": 3596,
      "▁por": 3597,
      "▁ranking": 3598,
      "▁iż": 3599,
      "wnętrz": 3600,
      "▁zmienia": 3601,
      "▁wciąż": 3602,
      "▁przezna": 3603,
      "▁pię": 3604,
      "▁emo": 3605,
      "ot.": 3606,
      "rych": 3607,
      "spół": 3608,
      "wu": 3609,
      "▁punk": 3610,
      "ności,": 3611,
      "czył": 3612,
      "możli": 3613,
      "▁dzisiej": 3614,
      "▁pę": 3615,
      "▁zadowo": 3616,
      "myś": 3617,
      "▁przestrze": 3618,
      "▁sprawia": 3619,
      "▁Słu": 3620,
      "▁bowiem": 3621,
      "▁wystarczy": 3622,
      "▁szczególnie": 3623,
      "sti": 3624,
      "▁pogo": 3625,
      "▁wyborem": 3626,
      "▁powinna": 3627,
      "▁odży": 3628,
      "łow": 3629,
      "go,": 3630,
      "▁Ca": 3631,
      "▁mak": 3632,
      "▁[": 3633,
      "owymi": 3634,
      "znok": 3635,
      "wiej": 3636,
      "▁trady": 3637,
      "dro": 3638,
      "niem.": 3639,
      "▁doro": 3640,
      "▁forum": 3641,
      "▁opowie": 3642,
      "▁Warsza": 3643,
      "▁gu": 3644,
      "▁szk": 3645,
      "▁gi": 3646,
      "owej.": 3647,
      "gina": 3648,
      "▁Teraz": 3649,
      "▁wrze": 3650,
      "▁danych": 3651,
      "▁maja": 3652,
      "▁większość": 3653,
      "ski,": 3654,
      "\nO": 3655,
      "tyczą": 3656,
      "▁pomaga": 3657,
      "▁głównie": 3658,
      "▁ple": 3659,
      "▁La": 3660,
      "ci,": 3661,
      "wór": 3662,
      "▁prób": 3663,
      "r.": 3664,
      "ca.": 3665,
      "piera": 3666,
      "▁nadzieję,": 3667,
      "knię": 3668,
      "▁ska": 3669,
      "le.": 3670,
      "▁ban": 3671,
      "▁Ceneo.pl": 3672,
      "▁gry": 3673,
      "▁zaraz": 3674,
      "▁Jeżeli": 3675,
      "ary": 3676,
      "▁zre": 3677,
      "▁poczu": 3678,
      "ców,": 3679,
      "▁znajduje": 3680,
      "▁pracę": 3681,
      ".\nMo": 3682,
      "▁salo": 3683,
      "▁wielo": 3684,
      "▁pielęgna": 3685,
      "ę.": 3686,
      "podob": 3687,
      "▁rek": 3688,
      "▁jedną": 3689,
      "▁sym": 3690,
      "▁miasta": 3691,
      "▁dotyczą": 3692,
      "▁księ": 3693,
      "▁rzu": 3694,
      "▁papie": 3695,
      "sięcy": 3696,
      "em.": 3697,
      "▁znacznie": 3698,
      "du.": 3699,
      "▁składni": 3700,
      "iędzy": 3701,
      "łka": 3702,
      "▁zauwa": 3703,
      "▁spokoj": 3704,
      "▁zależ": 3705,
      "▁musisz": 3706,
      "kać": 3707,
      "▁Kon": 3708,
      "kowa": 3709,
      "▁wiadomo": 3710,
      "▁stronie": 3711,
      "▁jednocześnie": 3712,
      "ciąga": 3713,
      "dzieć,": 3714,
      "▁Sta": 3715,
      "▁komfor": 3716,
      "dzone": 3717,
      "▁konkre": 3718,
      "▁zdoby": 3719,
      "dnia": 3720,
      "prac": 3721,
      "oo": 3722,
      "las": 3723,
      "ną.": 3724,
      "kowe": 3725,
      "▁stylu": 3726,
      "▁rozwo": 3727,
      "ber": 3728,
      "▁17": 3729,
      "▁25": 3730,
      "▁ok.": 3731,
      "▁propozy": 3732,
      "▁nauczy": 3733,
      "cje,": 3734,
      "▁miejsc": 3735,
      "wała": 3736,
      "ot.:": 3737,
      "stów": 3738,
      "▁się.": 3739,
      "▁table": 3740,
      "▁Sk": 3741,
      "▁paznok": 3742,
      "\nna": 3743,
      "▁głę": 3744,
      "\nK": 3745,
      "▁eg": 3746,
      "▁ogląda": 3747,
      "▁robo": 3748,
      "▁słowa": 3749,
      "▁będziesz": 3750,
      "▁was": 3751,
      "ler": 3752,
      "wan": 3753,
      "kowane": 3754,
      "▁rzecz": 3755,
      "▁prawda": 3756,
      "rót": 3757,
      "▁lapto": 3758,
      "nej,": 3759,
      "▁urządzenie": 3760,
      "kości": 3761,
      "▁seria": 3762,
      "▁pią": 3763,
      "cyjne": 3764,
      "▁chcą": 3765,
      "▁wyłą": 3766,
      "l.": 3767,
      "▁uli": 3768,
      "gło": 3769,
      "▁ekranu": 3770,
      "▁Jo": 3771,
      "▁sklep": 3772,
      "przewod": 3773,
      "▁zielo": 3774,
      "▁wykorzy": 3775,
      "▁Pierw": 3776,
      "▁drze": 3777,
      "▁wnę": 3778,
      "▁wyświet": 3779,
      "ników": 3780,
      "▁Niestety": 3781,
      "rami": 3782,
      "dzie,": 3783,
      "▁kwia": 3784,
      "rój": 3785,
      "d,": 3786,
      "▁Euro": 3787,
      "▁efekt": 3788,
      "▁pia": 3789,
      "łam.": 3790,
      "▁poważ": 3791,
      "▁natomiast": 3792,
      "gn": 3793,
      "▁uważ": 3794,
      "▁zaś": 3795,
      "▁głoś": 3796,
      "▁50": 3797,
      "LI": 3798,
      "▁plu": 3799,
      "▁samego": 3800,
      "żone": 3801,
      "▁trudno": 3802,
      "rócz": 3803,
      "lny": 3804,
      "czność": 3805,
      "▁jest,": 3806,
      "▁rea": 3807,
      "\nnie": 3808,
      "▁So": 3809,
      "▁osobi": 3810,
      "▁wysz": 3811,
      "▁Be": 3812,
      "▁wątp": 3813,
      "▁klu": 3814,
      "▁nowych": 3815,
      "▁możliwość": 3816,
      "rysty": 3817,
      "▁duże": 3818,
      "▁ucie": 3819,
      "ścić": 3820,
      "▁)": 3821,
      "▁ograni": 3822,
      "łon": 3823,
      "stości": 3824,
      "▁noc": 3825,
      "ek.": 3826,
      "▁nowoczes": 3827,
      "niejszy": 3828,
      "▁zobaczy": 3829,
      "th": 3830,
      "▁Sa": 3831,
      "▁widzę": 3832,
      "\n-": 3833,
      "niw": 3834,
      "▁ludz": 3835,
      "▁ode": 3836,
      "nuje": 3837,
      "ii,": 3838,
      "▁Warto": 3839,
      "▁sprzeda": 3840,
      "pisy": 3841,
      "▁sch": 3842,
      "▁niezbę": 3843,
      "jemni": 3844,
      "▁try": 3845,
      "▁innym": 3846,
      "bywa": 3847,
      "jęt": 3848,
      "▁nowego": 3849,
      "▁roku.": 3850,
      "▁komenta": 3851,
      "▁zmy": 3852,
      "▁makija": 3853,
      "▁mówią": 3854,
      "▁książe": 3855,
      "▁wczoraj": 3856,
      "ową,": 3857,
      "▁boga": 3858,
      "▁domu,": 3859,
      "krę": 3860,
      "kłada": 3861,
      "cjach": 3862,
      "▁wyobra": 3863,
      "▁matera": 3864,
      "oł": 3865,
      "▁zao": 3866,
      "▁dam": 3867,
      "▁podło": 3868,
      "jed": 3869,
      "▁użytkowni": 3870,
      "▁mle": 3871,
      "▁moze": 3872,
      "▁Sy": 3873,
      "▁ogól": 3874,
      "▁komór": 3875,
      "▁zostały": 3876,
      "?\n-": 3877,
      "▁jesteśmy": 3878,
      "\no": 3879,
      "▁jednego": 3880,
      "wy.": 3881,
      "▁przesz": 3882,
      "▁całkiem": 3883,
      "usz": 3884,
      "▁czytel": 3885,
      "▁wyd": 3886,
      "▁poch": 3887,
      "▁jakich": 3888,
      "▁ener": 3889,
      "▁wygląd": 3890,
      "▁pomi": 3891,
      "lig": 3892,
      "▁rozdzielcz": 3893,
      "kaza": 3894,
      "▁owo": 3895,
      "nej.": 3896,
      "▁znowu": 3897,
      "▁litera": 3898,
      "giem": 3899,
      "▁sprawdza": 3900,
      "▁11": 3901,
      "▁problemu": 3902,
      "▁Mia": 3903,
      "ić": 3904,
      "▁uczy": 3905,
      "▁Szuka": 3906,
      "▁podzie": 3907,
      "szenie": 3908,
      "▁atrakcyj": 3909,
      "▁kraju": 3910,
      "▁stycz": 3911,
      "lach": 3912,
      "pisu": 3913,
      "▁powierz": 3914,
      "lew": 3915,
      "▁postanowi": 3916,
      "noś": 3917,
      "▁zawo": 3918,
      "▁Fo": 3919,
      "▁buty": 3920,
      "tują": 3921,
      "▁zdecydowanie": 3922,
      "▁zabra": 3923,
      "▁wizy": 3924,
      "sić": 3925,
      "▁świecie": 3926,
      "▁zestaw": 3927,
      "▁meto": 3928,
      "lacji": 3929,
      "▁oj": 3930,
      "gii": 3931,
      "▁uko": 3932,
      "▁niewiel": 3933,
      "us": 3934,
      "▁wios": 3935,
      "óg": 3936,
      "▁kobiety": 3937,
      "▁zwykle": 3938,
      "par": 3939,
      "sja": 3940,
      "▁produktów": 3941,
      "▁powinny": 3942,
      "▁osią": 3943,
      "sek": 3944,
      "▁umożli": 3945,
      "la.": 3946,
      "▁inten": 3947,
      "▁krem": 3948,
      "▁Ros": 3949,
      "bio": 3950,
      "czy,": 3951,
      "cenie": 3952,
      "▁pory": 3953,
      "▁PO": 3954,
      "▁szpi": 3955,
      "▁trakcie": 3956,
      "▁odkry": 3957,
      "nam": 3958,
      ".\nZa": 3959,
      "tur": 3960,
      "ra.": 3961,
      "▁opo": 3962,
      "▁budy": 3963,
      "▁gospo": 3964,
      "kój": 3965,
      "▁zni": 3966,
      "zda": 3967,
      "▁bater": 3968,
      "▁klo": 3969,
      "▁ws": 3970,
      "▁Można": 3971,
      "▁czegoś": 3972,
      "▁łazie": 3973,
      "▁skrzy": 3974,
      "▁długi": 3975,
      "ździer": 3976,
      "▁Słucha": 3977,
      "▁miłości": 3978,
      "▁pierwszym": 3979,
      "▁wzro": 3980,
      "▁Ga": 3981,
      "iękuję": 3982,
      "pię": 3983,
      "mów": 3984,
      "▁powinno": 3985,
      "powiedzi": 3986,
      "▁Y": 3987,
      "mier": 3988,
      "▁śro": 3989,
      "▁grani": 3990,
      ",5": 3991,
      "▁kocha": 3992,
      "▁pamięta": 3993,
      "▁wraże": 3994,
      "rzystać": 3995,
      "▁czerw": 3996,
      "▁pl": 3997,
      "▁smartfona": 3998,
      "▁pis": 3999,
      "▁widać": 4000,
      "▁zachwy": 4001,
      "22": 4002,
      "▁or": 4003,
      "▁m.": 4004,
      "symal": 4005,
      "▁Ten": 4006,
      "▁krót": 4007,
      "▁Fran": 4008,
      "anim": 4009,
      "▁nawil": 4010,
      "▁zależności": 4011,
      "▁średni": 4012,
      "wałam": 4013,
      "▁kontro": 4014,
      "▁Wam": 4015,
      "ach": 4016,
      "AN": 4017,
      "popular": 4018,
      "wsze": 4019,
      "▁pal": 4020,
      "▁mat": 4021,
      "▁bezprzewod": 4022,
      "▁polec": 4023,
      "▁gdzieś": 4024,
      "▁sub": 4025,
      "▁krę": 4026,
      "▁0": 4027,
      "▁listo": 4028,
      "owaliśmy": 4029,
      "▁utrzy": 4030,
      "▁grafi": 4031,
      "ądź": 4032,
      "▁bio": 4033,
      "nami": 4034,
      "ir": 4035,
      "▁niedo": 4036,
      "▁powinni": 4037,
      "▁klima": 4038,
      "▁komi": 4039,
      "tem,": 4040,
      "owego.": 4041,
      "▁zasko": 4042,
      "▁odpowiedzi": 4043,
      "▁małe": 4044,
      "torów": 4045,
      "▁obiek": 4046,
      "▁wprowa": 4047,
      "aa": 4048,
      "▁kas": 4049,
      "prez": 4050,
      "▁spod": 4051,
      "▁przynajmniej": 4052,
      "▁cud": 4053,
      "▁Mie": 4054,
      "nij": 4055,
      "rze.": 4056,
      "▁paździer": 4057,
      "▁St": 4058,
      "▁poświę": 4059,
      "▁urodzi": 4060,
      "▁bizne": 4061,
      "▁praktycznie": 4062,
      "▁smartfony": 4063,
      "czym": 4064,
      "▁posz": 4065,
      "▁poniż": 4066,
      "▁drz": 4067,
      "▁199": 4068,
      "▁her": 4069,
      "je.": 4070,
      "----": 4071,
      "▁poradni": 4072,
      "in.": 4073,
      "kiem.": 4074,
      "▁proste": 4075,
      "dr": 4076,
      "iaomi": 4077,
      "ują": 4078,
      "▁całe": 4079,
      "ger": 4080,
      "starcza": 4081,
      "Je": 4082,
      "łoby": 4083,
      "▁uwielbia": 4084,
      "▁Jego": 4085,
      "nego.": 4086,
      "▁przeczyta": 4087,
      "▁widzi": 4088,
      "logii": 4089,
      "cja,": 4090,
      "▁postaci": 4091,
      "▁skoro": 4092,
      "▁zadowolo": 4093,
      "▁lip": 4094,
      "▁koch": 4095,
      "▁bezpiecze": 4096,
      "rygina": 4097,
      "▁loka": 4098,
      "szczenie": 4099,
      "▁kwa": 4100,
      "▁gaz": 4101,
      "▁telefonów": 4102,
      "▁Wszystko": 4103,
      "▁ukry": 4104,
      "▁Xiaomi": 4105,
      "owali": 4106,
      "widł": 4107,
      "ńskiej": 4108,
      "▁możliwe": 4109,
      "▁akcesor": 4110,
      "▁wyg": 4111,
      "\nza": 4112,
      "▁bezp": 4113,
      "urat": 4114,
      "▁włos": 4115,
      "ciej": 4116,
      "▁pozytyw": 4117,
      "▁prawo": 4118,
      "▁czerwo": 4119,
      "sc": 4120,
      "▁pracy,": 4121,
      "▁specy": 4122,
      "łącz": 4123,
      "▁przepis": 4124,
      "tualnie": 4125,
      "▁odda": 4126,
      "▁udało": 4127,
      "▁chciał": 4128,
      "lien": 4129,
      "▁rozmawia": 4130,
      "▁chwili": 4131,
      "▁domu.": 4132,
      "wany": 4133,
      "▁w\n": 4134,
      "Po": 4135,
      "ownie": 4136,
      "▁ułat": 4137,
      "czne.": 4138,
      "▁siebie.": 4139,
      "▁informacje": 4140,
      "▁obser": 4141,
      "tnych": 4142,
      "▁suk": 4143,
      "▁powy": 4144,
      "▁chwilę": 4145,
      "▁ważne": 4146,
      "▁głu": 4147,
      "▁wej": 4148,
      "▁sio": 4149,
      "▁II": 4150,
      "cję,": 4151,
      "▁sposoby": 4152,
      "▁opak": 4153,
      "ców.": 4154,
      "▁idzie": 4155,
      "▁odpowiedniego": 4156,
      "▁lam": 4157,
      "▁Jestem": 4158,
      "▁skończy": 4159,
      "obec": 4160,
      "▁poło": 4161,
      "dra": 4162,
      "bry": 4163,
      "▁miło": 4164,
      "▁Fa": 4165,
      "ciół": 4166,
      "▁opu": 4167,
      "▁wątpliwości": 4168,
      "▁wiedzia": 4169,
      "▁inny": 4170,
      "▁wręcz": 4171,
      "▁tran": 4172,
      "▁eko": 4173,
      "sli": 4174,
      "▁Go": 4175,
      "reb": 4176,
      "▁l": 4177,
      "▁znajdziemy": 4178,
      "znaj": 4179,
      "▁poszuki": 4180,
      "▁kości": 4181,
      "▁obowiąz": 4182,
      "▁opowia": 4183,
      "▁tz": 4184,
      "▁dźwię": 4185,
      "óki": 4186,
      "▁Słuchawki": 4187,
      "▁profe": 4188,
      "niku": 4189,
      "tom": 4190,
      "▁drew": 4191,
      "▁akurat": 4192,
      "▁rodzin": 4193,
      "sło": 4194,
      "▁obo": 4195,
      "▁wróci": 4196,
      "▁komputer": 4197,
      "▁wieczo": 4198,
      "▁najmniej": 4199,
      "ga,": 4200,
      "▁ciąży": 4201,
      "▁Hi": 4202,
      "\nB": 4203,
      "dio": 4204,
      "sj": 4205,
      "▁zanie": 4206,
      "▁zja": 4207,
      "praszam": 4208,
      "▁bły": 4209,
      "▁anty": 4210,
      "▁Podpowiadamy": 4211,
      "▁łatwiej": 4212,
      "▁opie": 4213,
      "▁cór": 4214,
      "▁całym": 4215,
      "▁korzyst": 4216,
      "▁wyż": 4217,
      "▁mogła": 4218,
      "▁uważa": 4219,
      "nienia": 4220,
      "zer": 4221,
      "▁zakupi": 4222,
      "▁pomó": 4223,
      "▁dziewczyny": 4224,
      "▁umy": 4225,
      "▁porząd": 4226,
      "▁doku": 4227,
      ".\nAle": 4228,
      "owości": 4229,
      "▁Każdy": 4230,
      "rzad": 4231,
      "rudnia": 4232,
      "▁Doda": 4233,
      "ownik": 4234,
      "ność.": 4235,
      "▁niemow": 4236,
      "zio": 4237,
      "▁standar": 4238,
      "▁wspania": 4239,
      "▁wypad": 4240,
      "aną": 4241,
      "▁najlepszy": 4242,
      "▁rzeczywi": 4243,
      "rzej": 4244,
      "▁działania": 4245,
      "tyki": 4246,
      "▁Du": 4247,
      "▁zespo": 4248,
      "▁niedzie": 4249,
      "▁oczeki": 4250,
      "nowa": 4251,
      "▁kogoś": 4252,
      "▁przesta": 4253,
      "▁treni": 4254,
      "▁konku": 4255,
      "▁fotografi": 4256,
      "niach": 4257,
      "▁dwo": 4258,
      "▁wiec": 4259,
      "\nNie": 4260,
      "▁oni": 4261,
      "▁Już": 4262,
      "▁oferty": 4263,
      "▁wyk": 4264,
      "czar": 4265,
      "▁roku,": 4266,
      "▁Bi": 4267,
      "▁wyróż": 4268,
      "▁dal": 4269,
      "▁serii": 4270,
      "▁najczęściej": 4271,
      "▁Bu": 4272,
      "▁dia": 4273,
      "my.": 4274,
      "21": 4275,
      "szki": 4276,
      "spek": 4277,
      "▁wskaz": 4278,
      "▁pomoc": 4279,
      ".\nCo": 4280,
      "▁słod": 4281,
      "et": 4282,
      "▁dowo": 4283,
      "▁angiel": 4284,
      "lnych": 4285,
      "czkę": 4286,
      "▁poziomie": 4287,
      "▁kawał": 4288,
      "▁gorą": 4289,
      "▁wszelkie": 4290,
      "▁nowy": 4291,
      "▁gene": 4292,
      "▁żadnych": 4293,
      "▁Dziś": 4294,
      "▁Jez": 4295,
      "owaniem": 4296,
      "▁sierp": 4297,
      "▁dłuż": 4298,
      "owano": 4299,
      "nó": 4300,
      "▁ilość": 4301,
      "resztą": 4302,
      "▁według": 4303,
      "▁niemal": 4304,
      "samowi": 4305,
      "▁kart": 4306,
      "▁Bez": 4307,
      "łó": 4308,
      "dow": 4309,
      "▁pój": 4310,
      "▁mal": 4311,
      "AM": 4312,
      "▁jeżeli": 4313,
      "▁Tylko": 4314,
      "▁odpowiada": 4315,
      "owanej": 4316,
      "listy": 4317,
      "▁przeprowa": 4318,
      "rzeć": 4319,
      "▁ciągu": 4320,
      "szech": 4321,
      "▁sprawdzą": 4322,
      "▁świetnie": 4323,
      "▁dużą": 4324,
      "ckiego": 4325,
      "▁sobo": 4326,
      "dzień": 4327,
      "▁orygina": 4328,
      "zdy": 4329,
      "?\nC": 4330,
      "▁lekko": 4331,
      "▁czasami": 4332,
      ".\nR": 4333,
      "▁perfum": 4334,
      "by,": 4335,
      "▁przyczy": 4336,
      "▁i\n": 4337,
      "▁intensyw": 4338,
      "cieli": 4339,
      "▁poniedział": 4340,
      "▁poprzez": 4341,
      "▁myśla": 4342,
      "▁byli": 4343,
      "asa": 4344,
      "▁Osta": 4345,
      "deł": 4346,
      "▁Polski": 4347,
      "▁przyzna": 4348,
      "wka": 4349,
      "▁egz": 4350,
      "wana": 4351,
      "▁będziemy": 4352,
      "▁cena": 4353,
      "▁krwi": 4354,
      "is": 4355,
      "▁zamiast": 4356,
      "▁dra": 4357,
      "▁Pole": 4358,
      "▁waka": 4359,
      "▁ekran": 4360,
      "świe": 4361,
      "▁brz": 4362,
      "siąż": 4363,
      "owiedz": 4364,
      "▁chętnie": 4365,
      "▁inspi": 4366,
      "tore": 4367,
      "óz": 4368,
      "▁przedmio": 4369,
      "▁kolejne": 4370,
      "▁wiesz,": 4371,
      "▁człowiek": 4372,
      "▁kim": 4373,
      "▁świata": 4374,
      "▁całkowi": 4375,
      "ówczas": 4376,
      "wa.": 4377,
      "▁samej": 4378,
      "▁niech": 4379,
      "▁złotych": 4380,
      "sci": 4381,
      "kurza": 4382,
      "▁kwiet": 4383,
      "bać": 4384,
      "sa,": 4385,
      "▁projek": 4386,
      "▁pełni": 4387,
      "▁Czę": 4388,
      "▁moją": 4389,
      "gi,": 4390,
      "▁rośli": 4391,
      "▁nieu": 4392,
      "czeń": 4393,
      "ięc": 4394,
      "bel": 4395,
      "▁wyjątk": 4396,
      "▁wysy": 4397,
      "▁wych": 4398,
      "▁ciężko": 4399,
      "?\nT": 4400,
      "jo": 4401,
      "▁klien": 4402,
      "▁jakiej": 4403,
      "▁bedzie": 4404,
      "▁każda": 4405,
      "▁brzu": 4406,
      "▁zdaniem": 4407,
      "▁odwie": 4408,
      "kier": 4409,
      "zują": 4410,
      "▁nazy": 4411,
      "bą": 4412,
      "▁Ce": 4413,
      "sza,": 4414,
      "▁wyp": 4415,
      "ou": 4416,
      "▁kupu": 4417,
      "biega": 4418,
      "▁zazwyczaj": 4419,
      "▁płyn": 4420,
      "▁ow": 4421,
      "wszy": 4422,
      "▁lepsze": 4423,
      "▁odpowiednio": 4424,
      "▁promo": 4425,
      "▁tajemni": 4426,
      "tnia": 4427,
      "▁dobrze,": 4428,
      "▁dwu": 4429,
      "▁czwar": 4430,
      "kse": 4431,
      "▁perfumy": 4432,
      "szo": 4433,
      "▁przeką": 4434,
      "▁500": 4435,
      "▁zamknię": 4436,
      "▁wywo": 4437,
      "ponu": 4438,
      "▁ślub": 4439,
      "ower": 4440,
      "▁wielko": 4441,
      "▁ogro": 4442,
      "▁doj": 4443,
      ".\n__________________": 4444,
      "pią": 4445,
      "▁zdrowie": 4446,
      "▁Natomiast": 4447,
      "▁proszę": 4448,
      "▁tru": 4449,
      "▁historii": 4450,
      "lu,": 4451,
      "▁uzna": 4452,
      "▁ciągle": 4453,
      "▁Ju": 4454,
      "▁ciąg": 4455,
      "turę": 4456,
      ".\nU": 4457,
      "syj": 4458,
      "owaną": 4459,
      "▁koleżan": 4460,
      "▁ocho": 4461,
      "▁względem": 4462,
      "▁odczu": 4463,
      "▁komfort": 4464,
      "▁blogu": 4465,
      "tacji": 4466,
      "▁pisze": 4467,
      "▁kana": 4468,
      "stym": 4469,
      "▁najnow": 4470,
      "▁marca": 4471,
      "orów": 4472,
      "zm": 4473,
      "mam": 4474,
      "dzie.": 4475,
      "\ni": 4476,
      "▁oce": 4477,
      "▁źród": 4478,
      "terów": 4479,
      "▁obro": 4480,
      "cyjny": 4481,
      "▁Ży": 4482,
      "▁przyjaciół": 4483,
      "wamy": 4484,
      "▁wykony": 4485,
      "▁doskonale": 4486,
      "▁lak": 4487,
      "▁jesie": 4488,
      "▁posiadają": 4489,
      "▁zrozumie": 4490,
      "▁dysku": 4491,
      "▁pach": 4492,
      "▁skóry": 4493,
      "ię,": 4494,
      "▁lutego": 4495,
      "czona": 4496,
      "▁Nawet": 4497,
      "jmy": 4498,
      "ian": 4499,
      "▁cenie": 4500,
      "▁przeży": 4501,
      "nomi": 4502,
      "▁długie": 4503,
      "eli": 4504,
      "racji": 4505,
      "▁regular": 4506,
      "▁bądź": 4507,
      "▁wil": 4508,
      "▁elegan": 4509,
      "▁wyglą": 4510,
      "▁psycho": 4511,
      "cieka": 4512,
      "▁spotk": 4513,
      "nym.": 4514,
      "▁minut": 4515,
      "▁niewie": 4516,
      "jest": 4517,
      "gólnie": 4518,
      "▁wzią": 4519,
      "▁przewo": 4520,
      "▁Aby": 4521,
      "▁wychodzi": 4522,
      "▁dar": 4523,
      "▁świad": 4524,
      "▁gospodar": 4525,
      "ligent": 4526,
      "dach": 4527,
      "▁zab": 4528,
      "owego,": 4529,
      "nięcia": 4530,
      "▁techni": 4531,
      "▁Podczas": 4532,
      "które": 4533,
      "bliż": 4534,
      "niu.": 4535,
      "owa,": 4536,
      "▁recen": 4537,
      "zyj": 4538,
      "bija": 4539,
      "▁skład": 4540,
      "kach.": 4541,
      "▁otwar": 4542,
      "czem": 4543,
      "▁pomiędzy": 4544,
      "▁spowo": 4545,
      "▁Pani": 4546,
      "owało": 4547,
      "▁gór": 4548,
      "▁sma": 4549,
      "\nI": 4550,
      "ść,": 4551,
      "▁wier": 4552,
      "▁wraca": 4553,
      "▁resz": 4554,
      "▁macie": 4555,
      "▁określa": 4556,
      "▁Choć": 4557,
      "▁lektury": 4558,
      "lat": 4559,
      "▁herba": 4560,
      "▁umożliwia": 4561,
      "cka": 4562,
      ".\nJak": 4563,
      "▁poziom": 4564,
      "▁wam": 4565,
      "▁poje": 4566,
      "dzeniem": 4567,
      "▁podkre": 4568,
      "stw": 4569,
      "▁okazję": 4570,
      "▁Smartfony": 4571,
      "▁cos": 4572,
      "▁bro": 4573,
      "▁ster": 4574,
      "▁fe": 4575,
      "▁sytuacji": 4576,
      "▁podróż": 4577,
      "▁otrzyma": 4578,
      "ST": 4579,
      "▁Zastanawia": 4580,
      "iar": 4581,
      "▁Dlaczego": 4582,
      "róży": 4583,
      "źni": 4584,
      "▁smu": 4585,
      "-1": 4586,
      "▁pierwszej": 4587,
      "▁wese": 4588,
      "jeżd": 4589,
      "ciera": 4590,
      "▁niesamowi": 4591,
      "▁niemie": 4592,
      "▁kap": 4593,
      "pienia": 4594,
      "nęła": 4595,
      "▁soli": 4596,
      "▁musimy": 4597,
      "▁października": 4598,
      "ć?": 4599,
      "▁zdo": 4600,
      "▁elektry": 4601,
      "kowy": 4602,
      "▁wyz": 4603,
      "cił": 4604,
      "wości": 4605,
      "▁urządzeń": 4606,
      "strzy": 4607,
      "tniej": 4608,
      "▁zauważy": 4609,
      "owania,": 4610,
      "anki": 4611,
      "▁popra": 4612,
      "▁drob": 4613,
      "▁Op": 4614,
      "OW": 4615,
      "▁wyraz": 4616,
      "niesie": 4617,
      "▁24": 4618,
      "▁m.in.": 4619,
      "emi": 4620,
      "pełni": 4621,
      "matycz": 4622,
      "kola": 4623,
      "ska,": 4624,
      "▁US": 4625,
      "▁powieści": 4626,
      "▁muszą": 4627,
      "▁związku": 4628,
      "\nprze": 4629,
      "▁stronę": 4630,
      "▁skórę": 4631,
      "▁powiedzieć": 4632,
      "▁Wła": 4633,
      "▁zdrowia": 4634,
      "▁obia": 4635,
      "▁drzwi": 4636,
      "▁(nie": 4637,
      "▁tłuma": 4638,
      "waran": 4639,
      "▁świą": 4640,
      "▁czuje": 4641,
      "▁życia.": 4642,
      "▁Se": 4643,
      "▁zdjęć": 4644,
      "lizacji": 4645,
      "▁Szcze": 4646,
      "▁idealny": 4647,
      "▁czerwca": 4648,
      "dzam": 4649,
      "▁Pu": 4650,
      "▁mną": 4651,
      "lama": 4652,
      "▁podstawie": 4653,
      "widu": 4654,
      "▁ochro": 4655,
      "▁rozwiąz": 4656,
      "▁(po": 4657,
      "▁mnó": 4658,
      "▁tor": 4659,
      "duka": 4660,
      "mp": 4661,
      "50": 4662,
      "▁słoń": 4663,
      "▁potrzeby": 4664,
      "▁góry": 4665,
      "▁drodze": 4666,
      "\na": 4667,
      "▁Któ": 4668,
      "▁Obec": 4669,
      "▁dzieci,": 4670,
      "▁pojem": 4671,
      "▁mnie,": 4672,
      "▁skar": 4673,
      "▁indy": 4674,
      "qu": 4675,
      "▁elektroni": 4676,
      "ver": 4677,
      "▁całej": 4678,
      "rabia": 4679,
      "▁kol": 4680,
      "▁specja": 4681,
      "pięk": 4682,
      "▁twór": 4683,
      "▁tzw.": 4684,
      "▁pracy.": 4685,
      "▁ponow": 4686,
      "ość,": 4687,
      "▁Świę": 4688,
      "▁ilości": 4689,
      "▁najwyż": 4690,
      "▁grupy": 4691,
      "▁sobie,": 4692,
      "stry": 4693,
      "niu,": 4694,
      "dopodob": 4695,
      "▁zaję": 4696,
      "▁upo": 4697,
      "czenia.": 4698,
      "gno": 4699,
      "▁producentów": 4700,
      "ownika": 4701,
      "▁zmar": 4702,
      "▁mor": 4703,
      "tkę": 4704,
      "▁2013": 4705,
      "stych": 4706,
      "dob": 4707,
      "▁pozby": 4708,
      "▁mał": 4709,
      ".\nWy": 4710,
      "▁zakoń": 4711,
      "▁2014": 4712,
      "▁of": 4713,
      "▁listopada": 4714,
      "▁Poza": 4715,
      "tere": 4716,
      "▁kolejny": 4717,
      "▁ło": 4718,
      "▁sieci": 4719,
      "▁mieli": 4720,
      "▁krea": 4721,
      "les": 4722,
      "▁niko": 4723,
      "▁/": 4724,
      "▁prawidł": 4725,
      "onu": 4726,
      "▁mili": 4727,
      "▁sprzęt": 4728,
      "▁pienią": 4729,
      "kana": 4730,
      "owanego": 4731,
      "▁wpływ": 4732,
      "30": 4733,
      "▁Wiel": 4734,
      "AR": 4735,
      "▁dodatkowo": 4736,
      "▁większości": 4737,
      "▁kamie": 4738,
      "▁produktu": 4739,
      "▁kuchen": 4740,
      "mai": 4741,
      "▁błę": 4742,
      "▁książka": 4743,
      "▁(o": 4744,
      "▁cuk": 4745,
      "▁pokaza": 4746,
      "▁serwi": 4747,
      "▁września": 4748,
      "mu,": 4749,
      "▁znów": 4750,
      "▁bal": 4751,
      "owały": 4752,
      "▁lekarza": 4753,
      "▁funkcjon": 4754,
      "dę,": 4755,
      "rki": 4756,
      "▁duży": 4757,
      "▁chi": 4758,
      "tnio": 4759,
      "dzamy": 4760,
      "▁bohater": 4761,
      "▁dobrego": 4762,
      "ściej": 4763,
      "▁uśmie": 4764,
      "▁utwo": 4765,
      "▁szan": 4766,
      "▁pokoju": 4767,
      "kami,": 4768,
      "▁cier": 4769,
      "▁parametry": 4770,
      "▁kobiet": 4771,
      "▁Przez": 4772,
      "▁194": 4773,
      "kami.": 4774,
      "▁okresie": 4775,
      "▁informacji": 4776,
      "▁mów": 4777,
      "danie": 4778,
      "▁pozwalają": 4779,
      "▁stycznia": 4780,
      "▁maksymal": 4781,
      "▁(z": 4782,
      "▁Gra": 4783,
      "▁zwierzę": 4784,
      "▁ceny": 4785,
      "▁Że": 4786,
      "aku": 4787,
      "menty": 4788,
      "CA": 4789,
      "amie": 4790,
      "lone": 4791,
      "▁koja": 4792,
      "fy": 4793,
      "▁właściwie": 4794,
      "wną": 4795,
      "▁poznać": 4796,
      "fie": 4797,
      "▁iść": 4798,
      "▁Im": 4799,
      "▁osiąg": 4800,
      "▁problemy": 4801,
      "wały": 4802,
      "▁jutro": 4803,
      "▁posłu": 4804,
      "▁Lo": 4805,
      "▁okres": 4806,
      "▁powro": 4807,
      "▁przypomina": 4808,
      "▁strasznie": 4809,
      "▁mięk": 4810,
      "▁pozwoli": 4811,
      "ckiej": 4812,
      "▁syn": 4813,
      "owę": 4814,
      "▁rankingu": 4815,
      "▁zostało": 4816,
      "reszcie": 4817,
      "▁rozwoju": 4818,
      "▁mama": 4819,
      "▁Cze": 4820,
      "▁człowieka": 4821,
      "▁sprawi": 4822,
      "▁głowy": 4823,
      "▁lat.": 4824,
      "▁obok": 4825,
      "szek": 4826,
      "lega": 4827,
      "▁lat,": 4828,
      "▁um": 4829,
      "\nwy": 4830,
      "▁sprawie": 4831,
      "▁ciekawe": 4832,
      "tłu": 4833,
      "▁tań": 4834,
      "▁miały": 4835,
      "▁znajdują": 4836,
      "logia": 4837,
      "▁idealnie": 4838,
      "▁niektóre": 4839,
      "▁stron": 4840,
      "▁rozwija": 4841,
      "▁szam": 4842,
      "▁łóż": 4843,
      "cje.": 4844,
      "▁grudnia": 4845,
      "tkiem": 4846,
      "cznych,": 4847,
      "su.": 4848,
      "▁wieku,": 4849,
      "▁zmiany": 4850,
      ".\nTak": 4851,
      "▁występu": 4852,
      "▁najważniejsze": 4853,
      "▁mart": 4854,
      "▁dale": 4855,
      "?\nM": 4856,
      "no-": 4857,
      "▁He": 4858,
      "▁zę": 4859,
      "lność": 4860,
      "▁dużym": 4861,
      "▁samodziel": 4862,
      "▁itp.": 4863,
      "▁dowiesz": 4864,
      "cio": 4865,
      "▁gwia": 4866,
      "▁odw": 4867,
      "ad": 4868,
      "pla": 4869,
      "▁ge": 4870,
      "▁mieszkań": 4871,
      "turą": 4872,
      "▁bab": 4873,
      "▁parę": 4874,
      "▁karty": 4875,
      "tną": 4876,
      "▁poru": 4877,
      "▁dobrym": 4878,
      "▁kraj": 4879,
      "▁Pre": 4880,
      "▁Fi": 4881,
      "no.": 4882,
      "▁najpierw": 4883,
      "▁firmy": 4884,
      "▁zapewnia": 4885,
      "2.": 4886,
      "▁zapyta": 4887,
      "▁chciałam": 4888,
      "▁Ne": 4889,
      "\nu": 4890,
      "daj": 4891,
      "▁źle": 4892,
      "▁szczy": 4893,
      ".\nG": 4894,
      "▁użyciu": 4895,
      "moc": 4896,
      "ciele": 4897,
      "▁eta": 4898,
      "▁następnie": 4899,
      "ant": 4900,
      "▁większą": 4901,
      "sach": 4902,
      "▁żół": 4903,
      "▁mieście": 4904,
      "▁dzieje": 4905,
      "▁uczest": 4906,
      "▁ciasto": 4907,
      "▁praktycz": 4908,
      "▁osoba": 4909,
      "▁XX": 4910,
      "ówki": 4911,
      "gh": 4912,
      "▁twarz": 4913,
      "▁podłą": 4914,
      "▁smartfonów": 4915,
      "▁ostatnich": 4916,
      "▁kontra": 4917,
      "▁cyf": 4918,
      "▁twar": 4919,
      "▁zmę": 4920,
      "rzuca": 4921,
      "imi": 4922,
      "niejszym": 4923,
      "▁staje": 4924,
      "cję.": 4925,
      "wało": 4926,
      "cami": 4927,
      "▁kierunku": 4928,
      "nikiem": 4929,
      "▁Ho": 4930,
      "▁Kar": 4931,
      "▁wówczas": 4932,
      "kół": 4933,
      "▁porówn": 4934,
      "▁chciałabym": 4935,
      "g.": 4936,
      "ana,": 4937,
      "▁wynika": 4938,
      "▁wyma": 4939,
      "▁zegar": 4940,
      "kowym": 4941,
      "▁znam": 4942,
      "▁zdarza": 4943,
      "▁rzad": 4944,
      "działa": 4945,
      "▁mnóstwo": 4946,
      "▁jakaś": 4947,
      "▁pios": 4948,
      "▁miłość": 4949,
      "▁Znaj": 4950,
      "▁studi": 4951,
      "dzają": 4952,
      "▁cent": 4953,
      "domości": 4954,
      "Za": 4955,
      "▁przeczy": 4956,
      "▁wszystko,": 4957,
      "zdra": 4958,
      "toli": 4959,
      "▁40": 4960,
      "▁pamięci": 4961,
      "▁wątku": 4962,
      "▁całego": 4963,
      "dal": 4964,
      "▁niedaw": 4965,
      "▁zanim": 4966,
      "▁nagry": 4967,
      "▁Zak": 4968,
      "▁dobrą": 4969,
      "▁nocy": 4970,
      "ON": 4971,
      "▁spodzie": 4972,
      "▁wątek": 4973,
      "gani": 4974,
      "waniu": 4975,
      "▁specjalne": 4976,
      "▁deko": 4977,
      "o,": 4978,
      "dny": 4979,
      "wie,": 4980,
      "▁byłoby": 4981,
      "▁Szukasz": 4982,
      "▁godzin": 4983,
      "▁jo": 4984,
      "ama": 4985,
      "▁niby": 4986,
      "▁ryzy": 4987,
      "▁lepszym": 4988,
      "▁Trze": 4989,
      "?\nNie": 4990,
      "▁uwagi": 4991,
      "Ni": 4992,
      "▁szczęśli": 4993,
      "▁Ser": 4994,
      "▁sprawa": 4995,
      "mm": 4996,
      "feren": 4997,
      "▁pane": 4998,
      "▁wytrzyma": 4999,
      "?\nW": 5000,
      "koła": 5001,
      "▁Sp": 5002,
      "▁głębo": 5003,
      "orą": 5004,
      "chem": 5005,
      "pać": 5006,
      "▁porówna": 5007,
      "śle": 5008,
      "▁faktycznie": 5009,
      "stki": 5010,
      "▁tar": 5011,
      "▁Mat": 5012,
      "▁poro": 5013,
      "▁głowie": 5014,
      "▁zmniej": 5015,
      "lor": 5016,
      "towe": 5017,
      "▁2015": 5018,
      "▁zwraca": 5019,
      "▁gatu": 5020,
      "▁Jan": 5021,
      "owo-": 5022,
      "▁cel": 5023,
      "▁wzię": 5024,
      "ton": 5025,
      "tem.": 5026,
      "▁dło": 5027,
      "nę,": 5028,
      "mos": 5029,
      "hone": 5030,
      "TE": 5031,
      "Ja": 5032,
      "▁ból": 5033,
      "cznych.": 5034,
      "▁dawno": 5035,
      "▁najpopular": 5036,
      "gów": 5037,
      "▁udział": 5038,
      "żył": 5039,
      "▁Boże": 5040,
      "▁przedstawia": 5041,
      "▁rodzaje": 5042,
      "▁samochod": 5043,
      "▁przygo": 5044,
      "▁nieod": 5045,
      "eken": 5046,
      "▁eduka": 5047,
      "▁poma": 5048,
      "▁tani": 5049,
      "cesz": 5050,
      "sław": 5051,
      ".\nCytat:\nNapisane": 5052,
      "▁stało": 5053,
      "▁rolę": 5054,
      "▁198": 5055,
      "▁nieza": 5056,
      "▁Produk": 5057,
      "▁praca": 5058,
      "łki": 5059,
      "▁the": 5060,
      "▁lipca": 5061,
      "▁znie": 5062,
      "▁wartości": 5063,
      ".0": 5064,
      "▁Rob": 5065,
      "żę": 5066,
      "▁wnęt": 5067,
      "▁wpływa": 5068,
      "lna": 5069,
      "▁chciała": 5070,
      "▁opa": 5071,
      "dziesz": 5072,
      "jąć": 5073,
      "ódz": 5074,
      "tele": 5075,
      "kowych": 5076,
      "noszą": 5077,
      "▁warzy": 5078,
      "wienie": 5079,
      "▁hu": 5080,
      "▁zajmu": 5081,
      "▁zł.": 5082,
      "▁Py": 5083,
      "▁przedstawi": 5084,
      "▁krze": 5085,
      "▁wro": 5086,
      "!!!": 5087,
      "▁pomieszcze": 5088,
      "▁nieprzy": 5089,
      "▁budże": 5090,
      "▁cm": 5091,
      "▁skon": 5092,
      "▁And": 5093,
      "▁prawa": 5094,
      "▁zbiera": 5095,
      "▁spoj": 5096,
      "▁albu": 5097,
      "▁wiecz": 5098,
      "▁wiza": 5099,
      "▁monitor": 5100,
      "▁historia": 5101,
      "▁Nic": 5102,
      "▁zaa": 5103,
      "lu.": 5104,
      "mini": 5105,
      "▁konstruk": 5106,
      "▁nieo": 5107,
      "cyjnych": 5108,
      "▁ana": 5109,
      "rady": 5110,
      "▁Dowiedz": 5111,
      "▁sięg": 5112,
      "▁2012": 5113,
      "▁określo": 5114,
      "▁Pamię": 5115,
      "▁tere": 5116,
      "▁uzyska": 5117,
      "▁nar": 5118,
      "▁jakiegoś": 5119,
      "▁popularnych": 5120,
      "\ndo": 5121,
      "▁dłużej": 5122,
      "GO": 5123,
      "▁jakąś": 5124,
      "▁odcie": 5125,
      "▁Ry": 5126,
      "▁gor": 5127,
      "▁umiejęt": 5128,
      "wnątrz": 5129,
      "hala": 5130,
      "gor": 5131,
      "▁sierpnia": 5132,
      "▁zi": 5133,
      "▁używa": 5134,
      "▁smo": 5135,
      "stka": 5136,
      "▁kwietnia": 5137,
      "▁młod": 5138,
      "▁fin": 5139,
      "▁bru": 5140,
      "▁zakupu": 5141,
      "▁stwierdzi": 5142,
      "▁Chyba": 5143,
      "▁słuchawek": 5144,
      "▁uniw": 5145,
      "▁wyłącznie": 5146,
      "▁liczy": 5147,
      "▁narze": 5148,
      "▁Książ": 5149,
      "▁najbliż": 5150,
      "dla": 5151,
      "▁ostatnie": 5152,
      "▁Przygot": 5153,
      "▁indywidu": 5154,
      "stytu": 5155,
      "▁przekona": 5156,
      "▁gę": 5157,
      "▁powoduje": 5158,
      "styczne": 5159,
      "kąd": 5160,
      "żony": 5161,
      "sten": 5162,
      "▁kobieta": 5163,
      "▁zmienić": 5164,
      "▁dlatego,": 5165,
      "rzeń": 5166,
      "▁zwięk": 5167,
      "▁rodziny": 5168,
      "lności": 5169,
      "▁1500": 5170,
      "▁cała": 5171,
      "ban": 5172,
      "▁odby": 5173,
      "▁ludzi,": 5174,
      "▁zazna": 5175,
      "ycha": 5176,
      "nością.": 5177,
      "raża": 5178,
      "▁ogląd": 5179,
      ".\nNo": 5180,
      "fu": 5181,
      "cia,": 5182,
      "nale": 5183,
      "cjami": 5184,
      "▁medy": 5185,
      "mienia": 5186,
      "▁pomoże": 5187,
      "▁siebie,": 5188,
      "▁wszystkiego": 5189,
      "▁pieniądze": 5190,
      "▁polega": 5191,
      "▁fla": 5192,
      "▁formie": 5193,
      "szem": 5194,
      "▁tygod": 5195,
      "su,": 5196,
      "▁organiza": 5197,
      "lnej": 5198,
      "dzię": 5199,
      "▁ozd": 5200,
      "▁narzę": 5201,
      "sy,": 5202,
      "201": 5203,
      "▁wygo": 5204,
      "▁rą": 5205,
      "▁rela": 5206,
      "▁śmierci": 5207,
      "▁dobrej": 5208,
      "▁skorzystać": 5209,
      "▁2016": 5210,
      "bienia": 5211,
      "rzem": 5212,
      "▁otwo": 5213,
      "▁oku": 5214,
      "tnym": 5215,
      "bor": 5216,
      "lnego": 5217,
      "▁Bie": 5218,
      "byś": 5219,
      "tow": 5220,
      "▁mieszkania": 5221,
      "mu.": 5222,
      "▁połu": 5223,
      "▁niektórych": 5224,
      "▁rodzice": 5225,
      "▁;)": 5226,
      "▁inteligent": 5227,
      "aru": 5228,
      "\nNa": 5229,
      "▁weeken": 5230,
      "▁sukce": 5231,
      "▁pomys": 5232,
      "dej": 5233,
      "▁wiedzą": 5234,
      "▁Obecnie": 5235,
      "▁Mamy": 5236,
      "szać": 5237,
      "▁60": 5238,
      "▁uszko": 5239,
      "nicy": 5240,
      "są": 5241,
      "▁zewnętrz": 5242,
      "owym,": 5243,
      "▁czekola": 5244,
      "łod": 5245,
      "▁tanie": 5246,
      "▁prowadzi": 5247,
      "▁współczes": 5248,
      "kładu": 5249,
      "gła": 5250,
      "▁cza": 5251,
      "owa.": 5252,
      "y.": 5253,
      "▁Sto": 5254,
      "czeniem": 5255,
      "▁sukie": 5256,
      "żem": 5257,
      "▁doty": 5258,
      "▁wynosi": 5259,
      "▁łyż": 5260,
      "nienie": 5261,
      "obraz": 5262,
      "▁niczym": 5263,
      "bro": 5264,
      "▁wybie": 5265,
      "ru.": 5266,
      "▁Opi": 5267,
      "▁składa": 5268,
      "▁problemów": 5269,
      "▁rano": 5270,
      "▁napi": 5271,
      "▁powyżej": 5272,
      "▁nie,": 5273,
      "▁zeby": 5274,
      "▁dem": 5275,
      "ego": 5276,
      "▁szczeg": 5277,
      ".\nCh": 5278,
      "strz": 5279,
      "sh": 5280,
      "▁krótki": 5281,
      "▁Wiza": 5282,
      "▁dziecię": 5283,
      "▁he": 5284,
      "gre": 5285,
      "▁y": 5286,
      "com": 5287,
      "▁grzy": 5288,
      "▁śle": 5289,
      "daje": 5290,
      "▁łatw": 5291,
      "▁podróży": 5292,
      "▁sięga": 5293,
      "▁komunika": 5294,
      "▁ślu": 5295,
      "cła": 5296,
      "dże": 5297,
      "owym.": 5298,
      "▁ciała": 5299,
      "▁wyro": 5300,
      "▁odpowiedzia": 5301,
      "łem.": 5302,
      "▁tymi": 5303,
      "▁lepszą": 5304,
      "▁Ha": 5305,
      "wie.": 5306,
      "▁swobo": 5307,
      "▁zobaczyć": 5308,
      "dę.": 5309,
      "ame": 5310,
      "ona,": 5311,
      "▁kolei": 5312,
      "lnym": 5313,
      "▁poprzedni": 5314,
      "torem": 5315,
      "nerg": 5316,
      "trzeb": 5317,
      "dzież": 5318,
      "▁domowych": 5319,
      "rym": 5320,
      "▁wykonane": 5321,
      "▁Często": 5322,
      "lii": 5323,
      "szkę": 5324,
      "▁drogi": 5325,
      "oła": 5326,
      "▁pewne": 5327,
      "▁indywidual": 5328,
      "sen": 5329,
      "▁czymś": 5330,
      "▁projekt": 5331,
      "▁profesj": 5332,
      "fil": 5333,
      "trzeć": 5334,
      "▁pokry": 5335,
      "▁filmów": 5336,
      "▁głos": 5337,
      "▁napis": 5338,
      "▁styl": 5339,
      "▁Wil": 5340,
      "▁łączą": 5341,
      "▁zostanie": 5342,
      "gow": 5343,
      "▁ostate": 5344,
      "RA": 5345,
      "▁wią": 5346,
      "▁wspomnie": 5347,
      "wans": 5348,
      "▁\"S": 5349,
      "▁fanta": 5350,
      "nera": 5351,
      "▁liście": 5352,
      "▁opera": 5353,
      "▁element": 5354,
      "▁ocenia": 5355,
      "ńskie": 5356,
      "▁23": 5357,
      "▁wyświetla": 5358,
      "lon": 5359,
      "▁impre": 5360,
      "oną": 5361,
      "▁blog": 5362,
      "tnego": 5363,
      "▁tk": 5364,
      "▁Produkty": 5365,
      "it": 5366,
      "LE": 5367,
      "jeżdża": 5368,
      "▁bezpoś": 5369,
      "▁wyci": 5370,
      "py.": 5371,
      "▁szkole": 5372,
      "▁substan": 5373,
      "▁kupiłam": 5374,
      "▁zakła": 5375,
      "▁ładnie": 5376,
      "▁itd.": 5377,
      "▁zuży": 5378,
      "▁abso": 5379,
      "▁któremu": 5380,
      "▁dać": 5381,
      "▁konsu": 5382,
      "Hej": 5383,
      "▁naszą": 5384,
      "▁Polecam": 5385,
      "story": 5386,
      "szy,": 5387,
      "akie": 5388,
      "ZE": 5389,
      "▁nami": 5390,
      "ństw": 5391,
      "▁+": 5392,
      "▁ofi": 5393,
      "▁hy": 5394,
      "▁zacząć": 5395,
      "sa.": 5396,
      "▁ud": 5397,
      "▁Su": 5398,
      "ll": 5399,
      "▁Ru": 5400,
      "kla": 5401,
      "▁21": 5402,
      "onem": 5403,
      "▁wycie": 5404,
      "▁pomocy": 5405,
      "▁On": 5406,
      "▁dostać": 5407,
      "zygn": 5408,
      "▁przegląd": 5409,
      "ee": 5410,
      "źnie": 5411,
      "▁książek": 5412,
      "▁Wybór": 5413,
      "▁Kości": 5414,
      "▁częściej": 5415,
      "va": 5416,
      "▁zanieczy": 5417,
      "unkt": 5418,
      "▁spełnia": 5419,
      "▁sklepie": 5420,
      "▁miasto": 5421,
      "▁prepara": 5422,
      "te,": 5423,
      "▁wokół": 5424,
      "▁opis": 5425,
      "▁dostępnych": 5426,
      "▁naczy": 5427,
      "kle": 5428,
      "▁robię": 5429,
      "kie,": 5430,
      "może": 5431,
      "▁dźwięk": 5432,
      "sza.": 5433,
      "▁myśle": 5434,
      "ff": 5435,
      "▁znaczy": 5436,
      "▁np": 5437,
      "▁znajomych": 5438,
      "▁sytuacja": 5439,
      "tnej": 5440,
      "▁połączenie": 5441,
      "\nJe": 5442,
      "▁aro": 5443,
      "▁zestawie": 5444,
      "▁TŻ": 5445,
      "pow": 5446,
      "▁pierwszego": 5447,
      "▁pojedy": 5448,
      "▁oświet": 5449,
      "▁ust": 5450,
      "▁trzech": 5451,
      "czonych": 5452,
      "▁lodów": 5453,
      "▁wobec": 5454,
      "▁piekar": 5455,
      "ńska": 5456,
      "czeka": 5457,
      "▁rzeczywiście": 5458,
      "owi,": 5459,
      "▁każdą": 5460,
      "▁zrobić,": 5461,
      "▁odpor": 5462,
      "▁oczyszczacz": 5463,
      "anu": 5464,
      "▁kolek": 5465,
      "▁szkoły": 5466,
      "▁pomogą": 5467,
      "▁drugiego": 5468,
      "▁Zam": 5469,
      "▁dużej": 5470,
      "\nsię": 5471,
      "IA": 5472,
      "▁momencie": 5473,
      "sze,": 5474,
      "▁Sklep": 5475,
      "▁Bę": 5476,
      "▁wrażenie,": 5477,
      "▁Następ": 5478,
      "▁alko": 5479,
      "▁fryzu": 5480,
      "▁siedzi": 5481,
      "▁gości": 5482,
      "chani": 5483,
      "ową.": 5484,
      "róbu": 5485,
      "nawi": 5486,
      "stety,": 5487,
      "twór": 5488,
      "dna": 5489,
      "wanych": 5490,
      "▁zga": 5491,
      "scie": 5492,
      "▁zor": 5493,
      "umer": 5494,
      "▁mąż": 5495,
      "działu": 5496,
      "▁pomóc": 5497,
      "▁Dobrze": 5498,
      "turze": 5499,
      "▁nagra": 5500,
      "▁mieszkaniu": 5501,
      "żowe": 5502,
      "pol": 5503,
      "▁stosować": 5504,
      "▁sił": 5505,
      "pak": 5506,
      "▁Mimo": 5507,
      "▁złoty": 5508,
      ".\nDo": 5509,
      "▁magi": 5510,
      "blem": 5511,
      "▁blisko": 5512,
      "bawi": 5513,
      "łowa": 5514,
      "▁niebie": 5515,
      "▁pytanie,": 5516,
      "kun": 5517,
      "rop": 5518,
      "▁wpad": 5519,
      "leb": 5520,
      "▁hor": 5521,
      "▁mon": 5522,
      "▁próbu": 5523,
      "▁wersji": 5524,
      "noc": 5525,
      "▁zali": 5526,
      "żeniem": 5527,
      "wycię": 5528,
      "▁Wło": 5529,
      "\n\"": 5530,
      "szar": 5531,
      "▁zalety": 5532,
      "▁psychi": 5533,
      "▁opła": 5534,
      "\nPo": 5535,
      "▁kosmetycz": 5536,
      "▁powinniśmy": 5537,
      "▁przeszka": 5538,
      "owo,": 5539,
      "▁opowiada": 5540,
      "▁prywat": 5541,
      "▁szpita": 5542,
      "lue": 5543,
      "kować": 5544,
      "▁wie,": 5545,
      "▁witaminy": 5546,
      "pej": 5547,
      "▁powiedział": 5548,
      "dło": 5549,
      "wz": 5550,
      "▁dedy": 5551,
      ".\nPrze": 5552,
      "▁związane": 5553,
      "LICA": 5554,
      "skiego,": 5555,
      "▁ono": 5556,
      "▁Polak": 5557,
      "▁fakt,": 5558,
      "▁gwaran": 5559,
      "tion": 5560,
      "▁Pio": 5561,
      "▁całkowicie": 5562,
      "▁młody": 5563,
      "▁wygra": 5564,
      "▁Dru": 5565,
      "▁wykorzystu": 5566,
      "▁zbli": 5567,
      "lki": 5568,
      "▁plo": 5569,
      "LICA>>": 5570,
      "▁zabi": 5571,
      "łek": 5572,
      "ru,": 5573,
      "▁zachę": 5574,
      "enty": 5575,
      "▁media": 5576,
      "▁kier": 5577,
      "▁Si": 5578,
      "▁pikse": 5579,
      "▁wyszu": 5580,
      "▁rzą": 5581,
      "▁orze": 5582,
      "tań": 5583,
      "▁insta": 5584,
      "▁pasuje": 5585,
      "▁zdecydować": 5586,
      "dła": 5587,
      "▁Zie": 5588,
      "▁żadnego": 5589,
      "mon": 5590,
      "18": 5591,
      "▁wypa": 5592,
      "▁\"P": 5593,
      "▁modelu": 5594,
      "tąd": 5595,
      "▁tydzień": 5596,
      "▁zagro": 5597,
      "▁stopni": 5598,
      "▁widzenia": 5599,
      "▁siłow": 5600,
      "▁dziecka.": 5601,
      "lka": 5602,
      "▁uzu": 5603,
      "▁własne": 5604,
      "▁program": 5605,
      "krotnie": 5606,
      "ziewczy": 5607,
      "dziemy": 5608,
      "▁odzy": 5609,
      "▁posił": 5610,
      "▁poniżej": 5611,
      "▁unika": 5612,
      "owane,": 5613,
      "czesne": 5614,
      "▁test": 5615,
      "▁Kolej": 5616,
      "▁punkt": 5617,
      "łożyć": 5618,
      "▁poniedziałek,": 5619,
      "▁ogrze": 5620,
      "pli": 5621,
      "▁The": 5622,
      "▁ofia": 5623,
      "▁wys": 5624,
      "▁fryzje": 5625,
      "▁wiek": 5626,
      "▁funkcjonal": 5627,
      "▁przygotować": 5628,
      "zor": 5629,
      "▁przewi": 5630,
      "▁jaj": 5631,
      "▁sia": 5632,
      "▁toale": 5633,
      "▁porównaniu": 5634,
      "▁Czym": 5635,
      "cznej.": 5636,
      "staura": 5637,
      "▁pocie": 5638,
      "▁ucz": 5639,
      "owanie,": 5640,
      "▁sce": 5641,
      "▁Stan": 5642,
      "▁pomieszczenia": 5643,
      "▁pr": 5644,
      "mak": 5645,
      "▁nagle": 5646,
      "▁pierwszych": 5647,
      "dziła": 5648,
      "▁godziny": 5649,
      "▁pięknie": 5650,
      "▁wyglądać": 5651,
      "▁jakimś": 5652,
      "▁niespo": 5653,
      "dzony": 5654,
      "ski.": 5655,
      "▁wyborze": 5656,
      "▁chcem": 5657,
      "rag": 5658,
      "▁197": 5659,
      "▁2017": 5660,
      "▁Wiele": 5661,
      "▁nazwi": 5662,
      "▁brakuje": 5663,
      "ościach": 5664,
      "▁forma": 5665,
      "▁bada": 5666,
      "blio": 5667,
      "▁zabu": 5668,
      "▁utrzyma": 5669,
      "▁bloga": 5670,
      "▁energ": 5671,
      "nne": 5672,
      "cone": 5673,
      "▁rozwiązanie": 5674,
      "dzę,": 5675,
      "▁studen": 5676,
      "lać": 5677,
      "▁konkur": 5678,
      "▁Micha": 5679,
      "▁pienię": 5680,
      "▁ustawie": 5681,
      "▁dodać": 5682,
      "▁okazuje": 5683,
      "▁22": 5684,
      "dent": 5685,
      "▁x": 5686,
      "ie,": 5687,
      "andy": 5688,
      "▁LE": 5689,
      "▁pł": 5690,
      "?\nP": 5691,
      "▁(a": 5692,
      "▁Bóg": 5693,
      "▁dzieci.": 5694,
      "łyśmy": 5695,
      "torek,": 5696,
      "▁zostaje": 5697,
      "▁2011": 5698,
      "▁fote": 5699,
      "cznymi": 5700,
      "ść.": 5701,
      "▁dostos": 5702,
      "▁symbo": 5703,
      "▁rozwie": 5704,
      "▁czuję": 5705,
      "▁suple": 5706,
      "ria": 5707,
      "▁niczego": 5708,
      "▁cieszyć": 5709,
      "▁wspar": 5710,
      "czach": 5711,
      "▁dziedzi": 5712,
      "\nNo": 5713,
      "▁tysięcy": 5714,
      "▁czasu,": 5715,
      "▁nasza": 5716,
      "▁Par": 5717,
      "▁miesięcy": 5718,
      "▁cyk": 5719,
      "czny,": 5720,
      "nujemy": 5721,
      "▁stał": 5722,
      "▁którymi": 5723,
      "▁Chcesz": 5724,
      "jedno": 5725,
      "▁Star": 5726,
      "▁przyz": 5727,
      "▁muzyki": 5728,
      "miar": 5729,
      "▁śpie": 5730,
      "▁z\n": 5731,
      "▁cer": 5732,
      "ardzo": 5733,
      "▁piosen": 5734,
      "▁Jej": 5735,
      "▁alkoho": 5736,
      "▁nawilża": 5737,
      "▁zabieg": 5738,
      "▁komputera": 5739,
      "zumia": 5740,
      "▁stru": 5741,
      "▁ogar": 5742,
      "▁pamiętam": 5743,
      "resie": 5744,
      "▁dyspo": 5745,
      "▁dba": 5746,
      "▁sprawdzić": 5747,
      "▁Bla": 5748,
      "▁sprzętu": 5749,
      "tarz": 5750,
      "▁Krak": 5751,
      "wela": 5752,
      "▁dziesią": 5753,
      "▁wtorek,": 5754,
      "-3": 5755,
      "owac": 5756,
      "mą": 5757,
      "tyfika": 5758,
      "▁ciekawych": 5759,
      "▁Wszystkie": 5760,
      "ranża": 5761,
      "▁usły": 5762,
      "▁słysza": 5763,
      "▁oszczę": 5764,
      "▁v": 5765,
      "▁aler": 5766,
      "▁prosto": 5767,
      "▁wchodzi": 5768,
      "200": 5769,
      "▁wystarcza": 5770,
      "stawy": 5771,
      "lane": 5772,
      "▁zwyczaj": 5773,
      "rans": 5774,
      "jek": 5775,
      "▁zwo": 5776,
      "▁numer": 5777,
      "▁kilo": 5778,
      "▁łu": 5779,
      "▁ner": 5780,
      "▁dane": 5781,
      "▁pat": 5782,
      "▁nosi": 5783,
      "▁fran": 5784,
      "waj": 5785,
      "rost": 5786,
      "▁własnych": 5787,
      "▁ukoch": 5788,
      "liśmy,": 5789,
      "▁jakiego": 5790,
      "wił": 5791,
      "▁egzami": 5792,
      "▁Os": 5793,
      "▁higie": 5794,
      "▁piękne": 5795,
      "▁na\n": 5796,
      "▁duch": 5797,
      "terna": 5798,
      ".\nCzy": 5799,
      "rzył": 5800,
      "▁większe": 5801,
      "▁niewy": 5802,
      "▁telefonu": 5803,
      "▁fas": 5804,
      "pić": 5805,
      "▁doprowa": 5806,
      "▁Bra": 5807,
      "nków": 5808,
      "▁dotyczące": 5809,
      "ersy": 5810,
      "▁Rze": 5811,
      "chy,": 5812,
      "wnie": 5813,
      "lia": 5814,
      "▁środowi": 5815,
      "▁edy": 5816,
      "tacza": 5817,
      "▁społeczności": 5818,
      "▁Poz": 5819,
      "cyjnie": 5820,
      "a,": 5821,
      "▁sprób": 5822,
      "▁pracuje": 5823,
      "sorty": 5824,
      "nkę": 5825,
      "▁aku": 5826,
      "▁tygodniu": 5827,
      "wać,": 5828,
      "nęłam": 5829,
      "czyła": 5830,
      "\nU": 5831,
      "▁(na": 5832,
      "▁odświe": 5833,
      "▁następu": 5834,
      "▁rzę": 5835,
      "uper": 5836,
      "▁post": 5837,
      "czki,": 5838,
      "▁Niem": 5839,
      "▁miało": 5840,
      "are": 5841,
      "▁energii": 5842,
      "▁cyfr": 5843,
      "spe": 5844,
      "any,": 5845,
      "rem,": 5846,
      "▁ulubionych": 5847,
      "krót": 5848,
      "▁kogo": 5849,
      "▁Szko": 5850,
      "▁środa,": 5851,
      "szość": 5852,
      "▁zasadzie": 5853,
      "▁polity": 5854,
      "...)": 5855,
      "puszcza": 5856,
      "▁podobnie": 5857,
      "▁restaura": 5858,
      "▁niezależ": 5859,
      "▁piątek,": 5860,
      "wiać": 5861,
      "▁ruch": 5862,
      "▁Chcia": 5863,
      "\nDot.:": 5864,
      "dwie": 5865,
      "▁smartwat": 5866,
      "▁cieszy": 5867,
      "▁sami": 5868,
      "▁potwier": 5869,
      "▁właściwości": 5870,
      "smy": 5871,
      "▁przenoś": 5872,
      "▁koniecznie": 5873,
      "dzania": 5874,
      "▁Per": 5875,
      "▁mogłam": 5876,
      "▁czwartek,": 5877,
      "czenia,": 5878,
      "▁spokojnie": 5879,
      "mieni": 5880,
      "▁Kró": 5881,
      "mować": 5882,
      "▁życia,": 5883,
      "60": 5884,
      "▁ame": 5885,
      "tków": 5886,
      "▁św.": 5887,
      "▁wspomnia": 5888,
      "szczą": 5889,
      "▁oczywi": 5890,
      "zny": 5891,
      "▁słów": 5892,
      "cona": 5893,
      "▁przeszkadza": 5894,
      "tywa": 5895,
      "▁Wystarczy": 5896,
      "lina": 5897,
      "ślę,": 5898,
      "▁ml": 5899,
      "▁Wśród": 5900,
      "▁Świet": 5901,
      "▁zabie": 5902,
      "żyłam": 5903,
      "j.": 5904,
      "zdrawiam": 5905,
      "▁małym": 5906,
      "▁dostrze": 5907,
      "▁brą": 5908,
      "▁wreszcie": 5909,
      "▁zacze": 5910,
      "▁działanie": 5911,
      "▁wykonać": 5912,
      "jew": 5913,
      "▁włą": 5914,
      "▁zle": 5915,
      "▁przech": 5916,
      "▁odleg": 5917,
      "▁Świa": 5918,
      "lot": 5919,
      "▁danym": 5920,
      "ersal": 5921,
      "▁elementem": 5922,
      "▁wydaw": 5923,
      "▁przemy": 5924,
      "▁nagro": 5925,
      "szczu": 5926,
      "tui": 5927,
      "▁niewiele": 5928,
      "▁Oto": 5929,
      "▁dosy": 5930,
      "▁druga": 5931,
      "▁badania": 5932,
      "CH": 5933,
      "dnych": 5934,
      "chać": 5935,
      "jąco": 5936,
      "▁czas,": 5937,
      "kaz": 5938,
      "▁rozry": 5939,
      "▁mogli": 5940,
      "▁Pow": 5941,
      "▁układ": 5942,
      "▁patel": 5943,
      "▁specyfika": 5944,
      "▁rodziców": 5945,
      "▁wysokiej": 5946,
      "▁Więc": 5947,
      "lami": 5948,
      "cze,": 5949,
      "▁Jedy": 5950,
      "▁2018": 5951,
      "land": 5952,
      "▁przeby": 5953,
      "ime": 5954,
      "▁Krzy": 5955,
      "▁reak": 5956,
      "ści,": 5957,
      "son": 5958,
      "▁wypada": 5959,
      "▁równo": 5960,
      "▁używam": 5961,
      "▁cudow": 5962,
      "nki,": 5963,
      "▁dział": 5964,
      "▁powiedzieć,": 5965,
      "▁Produ": 5966,
      "▁parametr": 5967,
      "▁jednak,": 5968,
      "▁zastąpi": 5969,
      "▁kot": 5970,
      "▁marki": 5971,
      "▁mro": 5972,
      "▁książkę": 5973,
      "▁Tele": 5974,
      "ralnie": 5975,
      "▁najlepszym": 5976,
      "▁zawie": 5977,
      "▁bas": 5978,
      "▁gadże": 5979,
      "▁filmu": 5980,
      "wienia": 5981,
      "▁mega": 5982,
      "▁ramach": 5983,
      "▁chrze": 5984,
      "▁istnieje": 5985,
      "▁szans": 5986,
      "▁27": 5987,
      "▁193": 5988,
      "▁uwie": 5989,
      "jącymi": 5990,
      "▁robią": 5991,
      "▁przychodzi": 5992,
      "głę": 5993,
      "guje": 5994,
      "lada": 5995,
      "▁(n": 5996,
      "▁współpra": 5997,
      "lta": 5998,
      "▁oby": 5999,
      "▁ści": 6000,
      "▁regi": 6001,
      "▁nasto": 6002,
      "▁mały": 6003,
      "▁such": 6004,
      "cz,": 6005,
      "▁bylo": 6006,
      "▁serca": 6007,
      "dzeniu": 6008,
      "▁słone": 6009,
      "▁nie.": 6010,
      "▁Autor": 6011,
      "▁us": 6012,
      "▁zabezpie": 6013,
      "▁odrobi": 6014,
      "ści.": 6015,
      "▁propozycje": 6016,
      "ściu": 6017,
      "▁kolory": 6018,
      "bienie": 6019,
      ".\nTe": 6020,
      "▁niebezpie": 6021,
      "▁naro": 6022,
      "niejsza": 6023,
      "▁Boga": 6024,
      "▁archi": 6025,
      "▁kata": 6026,
      "liście": 6027,
      "▁bezpośredni": 6028,
      "▁wiesz": 6029,
      "▁kwestia": 6030,
      "▁odpowiedź": 6031,
      "zę": 6032,
      "▁użytkownika": 6033,
      "▁śli": 6034,
      "▁kost": 6035,
      "▁powietrza.": 6036,
      "▁siłownię": 6037,
      ".\nWie": 6038,
      "lony": 6039,
      "owość": 6040,
      "▁Poznaj": 6041,
      "▁odbiera": 6042,
      "▁wziąć": 6043,
      "▁wrzu": 6044,
      "▁skutecznie": 6045,
      "▁Tro": 6046,
      "▁powierzchni": 6047,
      "czasem": 6048,
      ".pl": 6049,
      "▁bezprzewodowe": 6050,
      "▁wsta": 6051,
      "▁90": 6052,
      "pki": 6053,
      "▁myślę,": 6054,
      ".\nMoże": 6055,
      "▁śre": 6056,
      "▁Rek": 6057,
      "▁powszech": 6058,
      "▁wnętrza": 6059,
      "▁history": 6060,
      "▁odkurza": 6061,
      "▁zesz": 6062,
      "▁myślą": 6063,
      "▁stwier": 6064,
      "nione": 6065,
      "24": 6066,
      "win": 6067,
      "▁wyzna": 6068,
      "▁iP": 6069,
      "▁tworzy": 6070,
      "obi": 6071,
      "▁pobli": 6072,
      "łami": 6073,
      "▁rozpoczę": 6074,
      "▁sposobem": 6075,
      "siada": 6076,
      "mówi": 6077,
      "▁zasłu": 6078,
      "▁zawi": 6079,
      "▁zas": 6080,
      "▁Jednym": 6081,
      "▁pielęgnacji": 6082,
      "▁zostać": 6083,
      "▁sprawy": 6084,
      "leni": 6085,
      "gdzie": 6086,
      "▁Chry": 6087,
      "▁Zastanawiasz": 6088,
      "cia.": 6089,
      "▁dniu": 6090,
      "▁plus": 6091,
      "▁spor": 6092,
      "▁Ofer": 6093,
      "▁rzeczywistości": 6094,
      "gne": 6095,
      "▁dostałam": 6096,
      "▁zaga": 6097,
      "▁zła": 6098,
      "lizacja": 6099,
      "▁kiesze": 6100,
      "▁kor": 6101,
      "▁tysią": 6102,
      "▁ponownie": 6103,
      "▁Bia": 6104,
      "owar": 6105,
      "nił": 6106,
      "▁Jeszcze": 6107,
      "jął": 6108,
      "dzanie": 6109,
      "▁syl": 6110,
      "Fo": 6111,
      "▁chcemy": 6112,
      "▁zawod": 6113,
      "▁oferuje": 6114,
      "▁stoi": 6115,
      "1.": 6116,
      "owuje": 6117,
      "▁ręce": 6118,
      "▁bierze": 6119,
      "▁popro": 6120,
      "żeniu": 6121,
      "ckich": 6122,
      "▁space": 6123,
      "▁bezpieczeństwa": 6124,
      "▁pierwsza": 6125,
      "gatyw": 6126,
      "czyli": 6127,
      "▁swego": 6128,
      "▁1,": 6129,
      "▁głośni": 6130,
      "▁zapewnić": 6131,
      "szczegól": 6132,
      "ska.": 6133,
      ".\nL": 6134,
      "▁służ": 6135,
      "▁TV": 6136,
      "▁przyję": 6137,
      "nek,": 6138,
      "▁ogólnie": 6139,
      "▁widziałam": 6140,
      "rucho": 6141,
      "▁niedziela,": 6142,
      "▁innej": 6143,
      "▁scho": 6144,
      "ię.": 6145,
      "cham": 6146,
      "łama": 6147,
      "skiego.": 6148,
      "▁ameryka": 6149,
      "▁jakimi": 6150,
      "▁polskich": 6151,
      "▁wrażenie": 6152,
      "▁dzwo": 6153,
      "▁dodatkowe": 6154,
      "▁rady": 6155,
      "▁fajnie": 6156,
      "▁stabi": 6157,
      "nę.": 6158,
      "nięcie": 6159,
      "▁kreatyw": 6160,
      "▁Trzeba": 6161,
      "ii.": 6162,
      "▁wspiera": 6163,
      "▁otrzy": 6164,
      "▁meble": 6165,
      "▁męża": 6166,
      "▁więcej,": 6167,
      "▁scen": 6168,
      "▁zgodnie": 6169,
      "▁świetną": 6170,
      "jciec": 6171,
      "▁tych,": 6172,
      "kiedy": 6173,
      "ltra": 6174,
      "▁materiał": 6175,
      "ganiz": 6176,
      "▁psa": 6177,
      "▁różnego": 6178,
      "▁zresztą": 6179,
      "▁przesy": 6180,
      "łach": 6181,
      "▁nauki": 6182,
      "▁okazało": 6183,
      "sz.": 6184,
      "▁tytuł": 6185,
      "▁skór": 6186,
      "nieść": 6187,
      "▁Podpowiadamy,": 6188,
      "▁zamów": 6189,
      "▁wady": 6190,
      "▁należą": 6191,
      "lip": 6192,
      "▁pieniędzy": 6193,
      "▁zabawki": 6194,
      "▁zmu": 6195,
      "▁byc": 6196,
      "▁Podob": 6197,
      "▁koszu": 6198,
      "▁Zw": 6199,
      "chód": 6200,
      "▁różnią": 6201,
      "dziłam": 6202,
      "▁tera": 6203,
      "da.": 6204,
      "▁szale": 6205,
      "▁różno": 6206,
      "?\nD": 6207,
      "▁Ak": 6208,
      "dować": 6209,
      "▁atmos": 6210,
      "▁Chociaż": 6211,
      "▁wodą": 6212,
      "▁ułatwia": 6213,
      "▁skóra": 6214,
      "entu": 6215,
      "▁wsi": 6216,
      "▁troche": 6217,
      "▁hała": 6218,
      "dami": 6219,
      "23": 6220,
      "sie,": 6221,
      "camy": 6222,
      "wolu": 6223,
      "▁absolu": 6224,
      "▁zadbać": 6225,
      "▁odpo": 6226,
      "▁sezon": 6227,
      "▁Odpowie": 6228,
      "▁Wro": 6229,
      "ci.": 6230,
      "cha,": 6231,
      "cznego.": 6232,
      "żona": 6233,
      "▁ofercie": 6234,
      "▁całości": 6235,
      "mat": 6236,
      "▁codziennie": 6237,
      "▁Samsu": 6238,
      "OS": 6239,
      "▁wykorzysta": 6240,
      "stwie": 6241,
      "róć": 6242,
      "▁ostro": 6243,
      "ńskich": 6244,
      "systen": 6245,
      "▁Czar": 6246,
      "▁Trans": 6247,
      "▁strze": 6248,
      "▁Hu": 6249,
      "▁samopo": 6250,
      "ril": 6251,
      "▁dora": 6252,
      "▁zajęcia": 6253,
      "▁śnie": 6254,
      "▁finans": 6255,
      "▁powierzch": 6256,
      "▁Wyso": 6257,
      "▁ogo": 6258,
      "▁wraż": 6259,
      "▁reprez": 6260,
      "TA": 6261,
      "▁pojawiają": 6262,
      "▁reklam": 6263,
      "▁opony": 6264,
      "dziesią": 6265,
      "▁elementów": 6266,
      "rzy,": 6267,
      "▁wielki": 6268,
      "żu,": 6269,
      "▁drugim": 6270,
      "▁zrezygn": 6271,
      "▁chłopak": 6272,
      "▁\"M": 6273,
      "▁prę": 6274,
      "▁grub": 6275,
      "rie": 6276,
      "▁ref": 6277,
      "▁przedszko": 6278,
      "▁\"W": 6279,
      "▁niezbędne": 6280,
      "gram": 6281,
      "▁zbior": 6282,
      "dzać": 6283,
      "▁sprawia,": 6284,
      "▁drewnia": 6285,
      "▁ziemi": 6286,
      "rząc": 6287,
      "▁rower": 6288,
      "▁człon": 6289,
      "▁zasię": 6290,
      "szy.": 6291,
      "puszcz": 6292,
      "▁ogromną": 6293,
      "▁mig": 6294,
      "wła": 6295,
      "▁spad": 6296,
      "▁\"T": 6297,
      "▁cenę": 6298,
      "▁żar": 6299,
      "▁Dy": 6300,
      "▁maszy": 6301,
      "▁biur": 6302,
      "▁HD": 6303,
      "▁rozwa": 6304,
      "▁opty": 6305,
      "▁kątem": 6306,
      "▁iPhone": 6307,
      "▁Moja": 6308,
      "▁porówny": 6309,
      "tę,": 6310,
      "▁Ge": 6311,
      "ic": 6312,
      "zdro": 6313,
      "stego": 6314,
      "cznie,": 6315,
      "tycznych": 6316,
      "sty,": 6317,
      "▁oprócz": 6318,
      "▁miarę": 6319,
      "▁Oprócz": 6320,
      "▁żyć": 6321,
      "▁wojny": 6322,
      "▁!": 6323,
      "au": 6324,
      "▁polecanych": 6325,
      "▁prysz": 6326,
      "▁droga": 6327,
      "▁28": 6328,
      "▁opar": 6329,
      "▁pysz": 6330,
      "▁osoby,": 6331,
      "▁funkcji": 6332,
      ".\nMam": 6333,
      "▁Jedno": 6334,
      "▁Takie": 6335,
      "▁dorosł": 6336,
      "twarza": 6337,
      "ld": 6338,
      "▁atak": 6339,
      "▁mąd": 6340,
      "cjonar": 6341,
      "▁profesjonal": 6342,
      "nem,": 6343,
      "tyczny": 6344,
      "▁dobrać": 6345,
      "\ns": 6346,
      "ersyte": 6347,
      "łu,": 6348,
      "▁linii": 6349,
      "▁sprawdź": 6350,
      "cyjne,": 6351,
      "▁uczni": 6352,
      "▁26": 6353,
      "leń": 6354,
      "dak": 6355,
      "▁roman": 6356,
      "czny.": 6357,
      "▁udo": 6358,
      "▁zabawy": 6359,
      ".\nDot.:": 6360,
      "▁wewnętrz": 6361,
      "▁samopoczu": 6362,
      "▁przeko": 6363,
      "▁początek": 6364,
      "▁temu,": 6365,
      "▁dow": 6366,
      "▁telewizo": 6367,
      "▁wiedzy": 6368,
      "▁Potem": 6369,
      "▁dobrych": 6370,
      "▁sprzą": 6371,
      "letni": 6372,
      "▁zask": 6373,
      "▁drogie": 6374,
      "▁podraż": 6375,
      "▁dołą": 6376,
      "ZY": 6377,
      "▁filtr": 6378,
      "net": 6379,
      "▁ewen": 6380,
      "▁stać": 6381,
      "▁rozumiem": 6382,
      "▁rzeczy,": 6383,
      "▁pok": 6384,
      "ane,": 6385,
      "▁Chrystu": 6386,
      "cja.": 6387,
      "▁określi": 6388,
      "owin": 6389,
      "▁miałem": 6390,
      "▁fun": 6391,
      "▁francu": 6392,
      "▁asorty": 6393,
      "sną": 6394,
      "ste,": 6395,
      "EN": 6396,
      "stej": 6397,
      "misja": 6398,
      "▁śwież": 6399,
      "▁zapomnia": 6400,
      "▁wlas": 6401,
      "w,": 6402,
      "▁Inter": 6403,
      "▁zdra": 6404,
      "▁Pat": 6405,
      "▁Więk": 6406,
      "▁Dodatkowo": 6407,
      "▁Reklama": 6408,
      "▁aranża": 6409,
      "▁wykonanie": 6410,
      "CO": 6411,
      "\nMo": 6412,
      "rów,": 6413,
      "000": 6414,
      "▁twojego": 6415,
      "esz": 6416,
      "▁zaczęłam": 6417,
      "dan": 6418,
      "g,": 6419,
      "▁potrzebne": 6420,
      "ryfi": 6421,
      "▁środku": 6422,
      "▁infor": 6423,
      "▁wnios": 6424,
      "bliote": 6425,
      "czko": 6426,
      "▁Ich": 6427,
      "łopo": 6428,
      "▁dr": 6429,
      "▁męskie": 6430,
      "▁kontakt": 6431,
      "▁zdjęcie": 6432,
      "▁zapachy": 6433,
      "▁kosmetyki": 6434,
      "żne": 6435,
      "▁uz": 6436,
      "▁nowej": 6437,
      "▁występ": 6438,
      "lnia": 6439,
      "▁specjalnie": 6440,
      "▁wszę": 6441,
      "▁rewela": 6442,
      "▁opinii": 6443,
      "▁niezwyk": 6444,
      "kach,": 6445,
      "kowej": 6446,
      "▁szklan": 6447,
      "▁Kra": 6448,
      "▁cieszą": 6449,
      "▁mężczyzn": 6450,
      "▁tekst": 6451,
      "▁zrobiłam": 6452,
      "▁zwycię": 6453,
      "▁Twojego": 6454,
      "tarza": 6455,
      "▁wyobraża": 6456,
      "decyd": 6457,
      "▁aplikacji": 6458,
      "lną": 6459,
      "▁obiad": 6460,
      "lona": 6461,
      "ciła": 6462,
      "lił": 6463,
      "▁łączy": 6464,
      "tam,": 6465,
      "▁wiedzieć": 6466,
      "▁poroz": 6467,
      "▁Wybiera": 6468,
      "nowi": 6469,
      "▁prą": 6470,
      "▁szere": 6471,
      "ft": 6472,
      "▁otwiera": 6473,
      "▁korzy": 6474,
      "▁Zobacz,": 6475,
      "oth": 6476,
      "▁myślę": 6477,
      "▁zakresie": 6478,
      "▁cztery": 6479,
      "owałem": 6480,
      "▁żadnej": 6481,
      "▁Ame": 6482,
      "▁Tutaj": 6483,
      "▁małże": 6484,
      "▁choćby": 6485,
      "▁poniższym": 6486,
      "mula": 6487,
      "▁mówiąc": 6488,
      "▁służy": 6489,
      "▁twój": 6490,
      "▁wierz": 6491,
      "▁sposobów": 6492,
      "stre": 6493,
      "▁uniwersal": 6494,
      "▁inni": 6495,
      "nek.": 6496,
      "jące,": 6497,
      "▁skąd": 6498,
      "siębior": 6499,
      "▁Dzisiaj": 6500,
      "▁unik": 6501,
      "▁(np.": 6502,
      "▁2.": 6503,
      "▁przekon": 6504,
      "jekt": 6505,
      "ono": 6506,
      "▁wymienić": 6507,
      "nik,": 6508,
      "\nja": 6509,
      "▁potę": 6510,
      "czyłam": 6511,
      "▁czytać": 6512,
      "czką": 6513,
      "suje": 6514,
      "▁miesiąc": 6515,
      "▁czasu.": 6516,
      "▁przek": 6517,
      "▁wielkie": 6518,
      "▁potrafią": 6519,
      "▁powietrze": 6520,
      "konie": 6521,
      "kł": 6522,
      "▁spoży": 6523,
      "▁wybrać.": 6524,
      "▁Black": 6525,
      "▁ole": 6526,
      "▁ciu": 6527,
      "typ": 6528,
      "▁dźwięku": 6529,
      "▁rozmowy": 6530,
      "▁Przygotowaliśmy": 6531,
      "dują": 6532,
      "▁Był": 6533,
      "▁powoli": 6534,
      "dowe": 6535,
      "▁monitora": 6536,
      "▁2019": 6537,
      "ję.": 6538,
      "▁rozmiar": 6539,
      "▁prawdę": 6540,
      "▁stanowią": 6541,
      "▁zaawans": 6542,
      "▁zasi": 6543,
      "lec": 6544,
      "gania": 6545,
      "▁spodoba": 6546,
      "krai": 6547,
      "boo": 6548,
      "▁mi,": 6549,
      "▁oczu": 6550,
      "▁użytku": 6551,
      "▁dosz": 6552,
      "▁frag": 6553,
      "▁śla": 6554,
      "rez": 6555,
      "biór": 6556,
      "ąb": 6557,
      "▁nasi": 6558,
      "▁pikseli": 6559,
      "▁ćwiczenia": 6560,
      "▁dokona": 6561,
      "▁wymy": 6562,
      "▁Ponad": 6563,
      "twarty": 6564,
      "▁negatyw": 6565,
      "▁masa": 6566,
      "▁serce": 6567,
      "▁rozgry": 6568,
      "▁wykorzysty": 6569,
      "▁patrzy": 6570,
      "prawie": 6571,
      "▁zapewniają": 6572,
      "▁tylko,": 6573,
      "▁przesa": 6574,
      "szal": 6575,
      "▁zaczął": 6576,
      "\n\n": 6577,
      "▁potrzeba": 6578,
      "nęło": 6579,
      "skiem": 6580,
      "▁1.": 6581,
      "▁szukasz": 6582,
      "chów": 6583,
      "▁ude": 6584,
      "▁wysił": 6585,
      "▁używać": 6586,
      "demu": 6587,
      "▁ochotę": 6588,
      "del": 6589,
      "\nprzy": 6590,
      "cznej,": 6591,
      "▁obud": 6592,
      "zdu": 6593,
      "jąc,": 6594,
      "cony": 6595,
      "▁pos": 6596,
      "więcej": 6597,
      "kazuje": 6598,
      "rea": 6599,
      "czytaj": 6600,
      "▁Jezu": 6601,
      "czenie.": 6602,
      "▁drugą": 6603,
      "▁infek": 6604,
      "▁wyposażone": 6605,
      "▁narod": 6606,
      "▁pewnym": 6607,
      "▁rozmai": 6608,
      "zon": 6609,
      "▁Dzień": 6610,
      "brew": 6611,
      "▁80": 6612,
      "▁przemyś": 6613,
      "cza,": 6614,
      "zyden": 6615,
      "▁upa": 6616,
      "▁wykoń": 6617,
      "40": 6618,
      "ctwa": 6619,
      "▁Zosta": 6620,
      "▁zacho": 6621,
      "▁dobro": 6622,
      "▁zaka": 6623,
      "▁cebu": 6624,
      "nar": 6625,
      "\nTo": 6626,
      "▁podkład": 6627,
      "▁Ste": 6628,
      "▁jeź": 6629,
      "siad": 6630,
      "▁trój": 6631,
      "go.": 6632,
      "▁mozna": 6633,
      "15": 6634,
      "▁Samsung": 6635,
      "ruje": 6636,
      "▁odde": 6637,
      "▁adres": 6638,
      "▁znalazłam": 6639,
      "▁staro": 6640,
      "▁zapła": 6641,
      "mien": 6642,
      "ctwo": 6643,
      "czynku": 6644,
      ".\nJeśli": 6645,
      "▁pana": 6646,
      "owie,": 6647,
      "▁inwe": 6648,
      "▁kame": 6649,
      "▁świ": 6650,
      "rzyja": 6651,
      "▁pop": 6652,
      "▁uzależ": 6653,
      "▁wyciąg": 6654,
      "▁zje": 6655,
      "▁potrzebuje": 6656,
      "\np": 6657,
      "▁Najczęściej": 6658,
      "gaż": 6659,
      "▁gład": 6660,
      "▁wojs": 6661,
      "amy,": 6662,
      "▁nieprzyjem": 6663,
      "▁\"K": 6664,
      "▁2020": 6665,
      "wać.": 6666,
      "▁Najlep": 6667,
      "▁słab": 6668,
      "▁lubią": 6669,
      "dle": 6670,
      "▁cóż": 6671,
      "▁mobi": 6672,
      "▁żaden": 6673,
      "dziela": 6674,
      "▁alerg": 6675,
      "ko.": 6676,
      "▁akcesoria": 6677,
      "▁Zawsze": 6678,
      "▁NA": 6679,
      "▁wlo": 6680,
      "▁znanych": 6681,
      "▁znik": 6682,
      "▁efektyw": 6683,
      "▁nas,": 6684,
      "▁poszczegól": 6685,
      "▁makijaż": 6686,
      "tki,": 6687,
      "działam": 6688,
      "stawiamy": 6689,
      "owywania": 6690,
      "▁bohaterów": 6691,
      "wien": 6692,
      "dopodobnie": 6693,
      "dzwo": 6694,
      "KA": 6695,
      "▁telefonu.": 6696,
      "▁Szy": 6697,
      "▁spacer": 6698,
      "▁ście": 6699,
      "to,": 6700,
      "▁Czasem": 6701,
      "▁ziemnia": 6702,
      "\nR": 6703,
      "ołnie": 6704,
      "mienie": 6705,
      "▁tr": 6706,
      "▁usłu": 6707,
      "▁własnego": 6708,
      "ret": 6709,
      "tach,": 6710,
      "gene": 6711,
      "▁Następnie": 6712,
      "▁:P": 6713,
      "4.": 6714,
      "szeniu": 6715,
      "▁prace": 6716,
      "▁aktualnie": 6717,
      "▁Mój": 6718,
      "▁pracowni": 6719,
      "nów": 6720,
      "niza": 6721,
      "▁łazien": 6722,
      "▁itp": 6723,
      "rum,": 6724,
      "▁aparatu": 6725,
      "▁przeno": 6726,
      "sow": 6727,
      "▁zebra": 6728,
      "▁bywa": 6729,
      "▁mikro": 6730,
      "szymi": 6731,
      "▁imię": 6732,
      "łe,": 6733,
      "▁treningu": 6734,
      "▁Ceneo": 6735,
      "kan": 6736,
      "ciłam": 6737,
      "▁wida": 6738,
      "▁modli": 6739,
      "ciela": 6740,
      "▁szukać": 6741,
      "▁konty": 6742,
      "sta,": 6743,
      "▁prost": 6744,
      "▁Blue": 6745,
      "▁wartość": 6746,
      "▁postęp": 6747,
      "▁różnorod": 6748,
      "▁musiała": 6749,
      "▁filo": 6750,
      "▁\"D": 6751,
      "▁stały": 6752,
      "grafi": 6753,
      "▁cierp": 6754,
      "▁otacza": 6755,
      "▁maj": 6756,
      "▁było,": 6757,
      "▁cechy": 6758,
      "▁producenci": 6759,
      "▁Niektóre": 6760,
      "▁Or": 6761,
      "▁sklepu": 6762,
      "▁małych": 6763,
      "▁daj": 6764,
      "nor": 6765,
      "▁wczes": 6766,
      "▁Wtedy": 6767,
      "szone": 6768,
      "▁rozwiązania": 6769,
      "▁termi": 6770,
      "wicz": 6771,
      "▁mówić": 6772,
      "▁mil": 6773,
      "\nG": 6774,
      "▁dosyć": 6775,
      "▁idealne": 6776,
      "sf": 6777,
      "▁sobota,": 6778,
      "ariu": 6779,
      "▁wiedzieć,": 6780,
      "▁śmia": 6781,
      "▁zdanie": 6782,
      "▁zapewne": 6783,
      "▁Kto": 6784,
      "mac": 6785,
      "▁łyże": 6786,
      "▁modele,": 6787,
      "▁sposób.": 6788,
      "IM": 6789,
      "▁dniach": 6790,
      "▁nowa": 6791,
      "▁zaczyn": 6792,
      "mentu": 6793,
      "▁kolejnych": 6794,
      "zym": 6795,
      "▁napraw": 6796,
      "▁obserw": 6797,
      "▁użytkowania": 6798,
      "▁wspomina": 6799,
      "▁kompute": 6800,
      "▁pozo": 6801,
      "nerw": 6802,
      "▁pytania.": 6803,
      "▁bó": 6804,
      "▁doleg": 6805,
      "cją.": 6806,
      "▁dziękuję": 6807,
      "▁legen": 6808,
      "▁Współ": 6809,
      "▁El": 6810,
      "▁koło": 6811,
      "▁nową": 6812,
      "▁Nowo": 6813,
      "▁kończy": 6814,
      "▁bran": 6815,
      "▁Tak,": 6816,
      "▁zgod": 6817,
      "▁(i": 6818,
      "▁wóz": 6819,
      "▁przyszłości": 6820,
      "▁PR": 6821,
      "nują": 6822,
      "▁Gre": 6823,
      "znania": 6824,
      "rator": 6825,
      "▁wysu": 6826,
      "▁przeciwko": 6827,
      "▁„P": 6828,
      "ana.": 6829,
      "▁prawdziwy": 6830,
      "▁uprawia": 6831,
      "▁spotkanie": 6832,
      "▁rozpozna": 6833,
      "25": 6834,
      "▁bak": 6835,
      "zł": 6836,
      "▁bry": 6837,
      "▁rozwój": 6838,
      "lować": 6839,
      "▁energi": 6840,
      "▁Kom": 6841,
      "rem.": 6842,
      "▁Ang": 6843,
      "OR": 6844,
      "▁70": 6845,
      "▁facet": 6846,
      "▁szybciej": 6847,
      "tywy": 6848,
      "gu,": 6849,
      "▁delikat": 6850,
      "▁piersi": 6851,
      "▁reli": 6852,
      "tychczas": 6853,
      "▁zo": 6854,
      "▁sypia": 6855,
      "dego": 6856,
      "▁powiem": 6857,
      "▁znakomi": 6858,
      "▁zakład": 6859,
      "--------": 6860,
      "▁polskim": 6861,
      "▁wygodne": 6862,
      "▁południ": 6863,
      "▁wyrzu": 6864,
      "▁29": 6865,
      "éj": 6866,
      "▁coś,": 6867,
      "▁pomyśla": 6868,
      "▁ur": 6869,
      "▁karie": 6870,
      "godnie": 6871,
      "▁wyjątkowo": 6872,
      "▁kąpie": 6873,
      ".\nDz": 6874,
      "▁fabu": 6875,
      "▁efekty": 6876,
      "▁wpis": 6877,
      "▁stanu": 6878,
      "Jak": 6879,
      "▁własną": 6880,
      "▁Mon": 6881,
      "skim,": 6882,
      "▁własnej": 6883,
      "▁nadaje": 6884,
      "▁transpo": 6885,
      "▁miesię": 6886,
      "▁dok": 6887,
      "▁nr": 6888,
      "▁technologii": 6889,
      "▁kloc": 6890,
      "▁AG": 6891,
      "▁czasach": 6892,
      "▁urządzenie,": 6893,
      "▁\"C": 6894,
      "▁dziewczyna": 6895,
      "▁zawart": 6896,
      "gi.": 6897,
      "▁Dołącz": 6898,
      "czna,": 6899,
      "dem,": 6900,
      "▁sposób,": 6901,
      "sznie": 6902,
      "▁możecie": 6903,
      "rka": 6904,
      "▁stacjonar": 6905,
      "▁mod": 6906,
      "rzeniem": 6907,
      "▁małego": 6908,
      "weryfi": 6909,
      "▁euro": 6910,
      "pio": 6911,
      "▁braku": 6912,
      "▁mys": 6913,
      "▁zyska": 6914,
      "e,": 6915,
      "▁koncer": 6916,
      "▁przesu": 6917,
      "▁Oj": 6918,
      "chu,": 6919,
      "▁hand": 6920,
      "▁nowym": 6921,
      "▁wzo": 6922,
      "▁reduk": 6923,
      "▁pło": 6924,
      "▁jesli": 6925,
      "czeni": 6926,
      "▁Większość": 6927,
      "▁charakter": 6928,
      "▁stó": 6929,
      "▁przyci": 6930,
      "▁codziennego": 6931,
      "fię": 6932,
      "▁Wrocła": 6933,
      "▁rozpa": 6934,
      "▁dorosłych": 6935,
      "▁ubo": 6936,
      "niami": 6937,
      "lowe": 6938,
      ".\nOd": 6939,
      "▁Urzą": 6940,
      "-)": 6941,
      "▁niedob": 6942,
      "ckim": 6943,
      "▁Pytania": 6944,
      "**": 6945,
      "pka": 6946,
      "▁Transmisja": 6947,
      "▁kłopo": 6948,
      "▁zer": 6949,
      "▁ciśnie": 6950,
      "▁musiał": 6951,
      "owanie.": 6952,
      "▁flagow": 6953,
      "▁sklepach": 6954,
      "▁cukier": 6955,
      "▁bło": 6956,
      "▁lekarz": 6957,
      "▁ważny": 6958,
      "▁Mak": 6959,
      "dząc": 6960,
      "óże": 6961,
      "▁ilu": 6962,
      "oni": 6963,
      "▁zagra": 6964,
      "cyjna": 6965,
      "▁osa": 6966,
      "▁język": 6967,
      "▁samą": 6968,
      "alne": 6969,
      "niż": 6970,
      "▁przyro": 6971,
      "▁też,": 6972,
      "▁har": 6973,
      "▁chu": 6974,
      "▁„S": 6975,
      "▁zostawia": 6976,
      "▁kondy": 6977,
      "▁preferen": 6978,
      "▁toreb": 6979,
      "ości,": 6980,
      "▁radzi": 6981,
      "▁Fil": 6982,
      "strzo": 6983,
      "▁spi": 6984,
      "▁zbud": 6985,
      "słane": 6986,
      "niony": 6987,
      "mentów": 6988,
      "▁ulubio": 6989,
      "▁Powie": 6990,
      "line": 6991,
      "▁Mary": 6992,
      "skich.": 6993,
      "▁specjali": 6994,
      "▁całość": 6995,
      "▁roli": 6996,
      "▁mani": 6997,
      "▁funkcję": 6998,
      "▁Sprawdzamy": 6999,
      "dzieli": 7000,
      "▁urządzenia.": 7001,
      "▁przys": 7002,
      "▁uch": 7003,
      "▁warst": 7004,
      "▁wyna": 7005,
      "ord": 7006,
      "▁rekomendowane": 7007,
      "▁najtań": 7008,
      "itam": 7009,
      "czych": 7010,
      "▁2010": 7011,
      "wzglę": 7012,
      "alny": 7013,
      "▁lektury!": 7014,
      "▁Har": 7015,
      "nię,": 7016,
      "▁konsek": 7017,
      "▁chem": 7018,
      "▁mała": 7019,
      "▁zjawi": 7020,
      "dał": 7021,
      "byśmy": 7022,
      "▁zakupem": 7023,
      "▁błyska": 7024,
      "▁ekonomi": 7025,
      "▁zarzą": 7026,
      "▁żywo": 7027,
      "▁150": 7028,
      "▁kierow": 7029,
      "▁monta": 7030,
      "▁znaczą": 7031,
      "▁delikatnie": 7032,
      "kos": 7033,
      "łu.": 7034,
      "pływ": 7035,
      "▁kolczy": 7036,
      "▁dowiedzieć": 7037,
      "bierać": 7038,
      "nictwo": 7039,
      "rzone": 7040,
      "szczone": 7041,
      "tali": 7042,
      "▁dekora": 7043,
      "▁Car": 7044,
      "▁man": 7045,
      "▁pojęcia": 7046,
      "▁Pla": 7047,
      "czymy": 7048,
      "▁ekspres": 7049,
      "▁oznacza,": 7050,
      "krótce": 7051,
      "▁przyw": 7052,
      "skiej,": 7053,
      "twie": 7054,
      "▁nieba": 7055,
      "▁tygodnie": 7056,
      "▁ciężar": 7057,
      "▁warszta": 7058,
      "nu,": 7059,
      "tychmiast": 7060,
      "▁nieodłą": 7061,
      ".\nDla": 7062,
      "pat": 7063,
      "▁mocy": 7064,
      "▁mechani": 7065,
      "▁zajmuje": 7066,
      "▁dotyczy": 7067,
      "▁zastanawiam": 7068,
      "▁napo": 7069,
      "▁zamówie": 7070,
      "▁NIE": 7071,
      "▁sos": 7072,
      "▁liczba": 7073,
      "wanego": 7074,
      "▁szkod": 7075,
      "▁normalnie": 7076,
      "▁spotkania": 7077,
      "długo": 7078,
      "że,": 7079,
      "dzenia.": 7080,
      "czają": 7081,
      "bla": 7082,
      "▁cztere": 7083,
      "▁użytkowania.": 7084,
      "▁charakte": 7085,
      "▁obcią": 7086,
      "▁załat": 7087,
      "▁dziecia": 7088,
      "▁ktore": 7089,
      "▁płat": 7090,
      "▁wyróżnia": 7091,
      "▁instruk": 7092,
      "▁poten": 7093,
      "▁urządzenia,": 7094,
      "\nje": 7095,
      "▁miejsce,": 7096,
      "▁porozmawia": 7097,
      "▁jaz": 7098,
      "▁specyfi": 7099,
      "łąd": 7100,
      "▁śnia": 7101,
      "▁pocz": 7102,
      "▁przestrzeni": 7103,
      "▁liczby": 7104,
      "▁odżyw": 7105,
      "▁myśl": 7106,
      "▁zwro": 7107,
      "▁zastanowi": 7108,
      "▁król": 7109,
      "▁własnym": 7110,
      "prz": 7111,
      "▁wypowie": 7112,
      "▁skuteczne": 7113,
      "owane.": 7114,
      "▁prowadzić": 7115,
      "▁brze": 7116,
      "nika,": 7117,
      "▁punktu": 7118,
      "▁siły": 7119,
      "▁195": 7120,
      "zajem": 7121,
      "tyczna": 7122,
      "rys": 7123,
      "wając": 7124,
      "czenie,": 7125,
      "▁laptop": 7126,
      "▁stre": 7127,
      "▁wielką": 7128,
      "▁brąz": 7129,
      "▁powodzeniem": 7130,
      "\nod": 7131,
      "▁katoli": 7132,
      "▁końców": 7133,
      "▁bawi": 7134,
      "▁szczegół": 7135,
      "stość": 7136,
      "▁Cieka": 7137,
      "▁przeło": 7138,
      "▁Praw": 7139,
      "ram": 7140,
      "ństwie": 7141,
      ".\nH": 7142,
      "▁zdzi": 7143,
      "ministra": 7144,
      "skiej.": 7145,
      "▁opcja": 7146,
      "▁stała": 7147,
      "▁..": 7148,
      "▁tematy": 7149,
      "▁czuj": 7150,
      "▁przytu": 7151,
      "▁pozycji": 7152,
      "▁marzy": 7153,
      "sta.": 7154,
      "▁skoń": 7155,
      "▁zakupie": 7156,
      "ósł": 7157,
      "▁miejsca,": 7158,
      "▁pojecha": 7159,
      "▁języka": 7160,
      "dzi,": 7161,
      "▁kolorysty": 7162,
      "▁Ła": 7163,
      "▁oś": 7164,
      "▁osobiście": 7165,
      "▁butel": 7166,
      "latka": 7167,
      "▁poży": 7168,
      "▁Super": 7169,
      "oz": 7170,
      "dzona": 7171,
      "▁Og": 7172,
      "▁przer": 7173,
      "logię": 7174,
      "▁plasti": 7175,
      "▁zamy": 7176,
      "▁Ber": 7177,
      "cznie.": 7178,
      "▁upie": 7179,
      "▁wersja": 7180,
      "▁stąd": 7181,
      "'a": 7182,
      "▁Pas": 7183,
      "80": 7184,
      "▁premie": 7185,
      "▁woda": 7186,
      "sce": 7187,
      "jemu": 7188,
      "▁wiadomo,": 7189,
      "▁Taki": 7190,
      "owo.": 7191,
      "▁telefo": 7192,
      "▁Ap": 7193,
      "▁serde": 7194,
      "▁pełną": 7195,
      "▁odpowiedniej": 7196,
      "▁bezpieczeństwo": 7197,
      "▁2021": 7198,
      "▁producenta.": 7199,
      "!!!!": 7200,
      "▁znaczenie": 7201,
      "ńskim": 7202,
      "twem": 7203,
      "▁XV": 7204,
      "mię": 7205,
      "▁men": 7206,
      "▁jest.": 7207,
      "grzy": 7208,
      "▁uzda": 7209,
      "▁Musi": 7210,
      "▁zatem,": 7211,
      "▁wolno": 7212,
      "▁oficjal": 7213,
      "▁mycia": 7214,
      "nika.": 7215,
      "▁zwierzą": 7216,
      "▁196": 7217,
      "owywać": 7218,
      "▁podpowiadamy": 7219,
      "▁węd": 7220,
      "▁podstawowe": 7221,
      "▁musiałam": 7222,
      "cyjną": 7223,
      "▁świata,": 7224,
      "▁wdzię": 7225,
      "▁drogę": 7226,
      "ER": 7227,
      "jewódz": 7228,
      "bów": 7229,
      "▁napię": 7230,
      "▁krą": 7231,
      "▁Możesz": 7232,
      "zas": 7233,
      "▁trą": 7234,
      "lne,": 7235,
      "▁płu": 7236,
      "mato": 7237,
      "▁Nau": 7238,
      "puści": 7239,
      "▁Fe": 7240,
      "diu": 7241,
      "▁prysznic": 7242,
      "▁uzdatnia": 7243,
      "▁większej": 7244,
      "▁nag": 7245,
      "▁pokro": 7246,
      "▁powoduje,": 7247,
      ".\nPrzy": 7248,
      "▁napisać": 7249,
      ":)": 7250,
      "lory": 7251,
      "▁Jedną": 7252,
      "▁Moje": 7253,
      "▁czuć": 7254,
      "▁sprawę,": 7255,
      "▁wysokości": 7256,
      "▁wieczorem": 7257,
      "maty": 7258,
      "liwych": 7259,
      "▁Opinie": 7260,
      "▁kosmetyków": 7261,
      "OD": 7262,
      "rzał": 7263,
      "▁żołnie": 7264,
      "▁przewodni": 7265,
      "Bo": 7266,
      "▁technologi": 7267,
      "▁okazać": 7268,
      "skie.": 7269,
      "▁dosł": 7270,
      "▁sylwet": 7271,
      "es": 7272,
      "▁rozpoczą": 7273,
      "▁wyglądają": 7274,
      "▁grup": 7275,
      "▁wybu": 7276,
      "▁proces": 7277,
      "leży": 7278,
      "▁Sie": 7279,
      "▁Cy": 7280,
      "▁rzadko": 7281,
      "▁sygna": 7282,
      "▁troszkę": 7283,
      "liwa": 7284,
      "▁wnętrze": 7285,
      "▁polski": 7286,
      "▁Wszyscy": 7287,
      "▁ocz": 7288,
      "▁jab": 7289,
      "▁oliw": 7290,
      "▁zewnątrz": 7291,
      "▁tekstu": 7292,
      "▁doświadczenia": 7293,
      "▁Woj": 7294,
      "nictwa": 7295,
      "▁szczo": 7296,
      "▁Sko": 7297,
      "▁wg": 7298,
      "▁Gru": 7299,
      "▁dziecka,": 7300,
      "rzony": 7301,
      "▁korzystać": 7302,
      "cząc": 7303,
      "▁pochodzi": 7304,
      "▁Dłu": 7305,
      "▁artykule!": 7306,
      "▁ogło": 7307,
      "▁pisać": 7308,
      "▁służą": 7309,
      "▁pięć": 7310,
      "▁rozsze": 7311,
      "▁uwagę,": 7312,
      "sem.": 7313,
      "Hz": 7314,
      "▁starszych": 7315,
      "▁blu": 7316,
      "▁wolę": 7317,
      "▁nikogo": 7318,
      "▁poście": 7319,
      "▁nało": 7320,
      "▁parametrów": 7321,
      "kwi": 7322,
      "steś": 7323,
      "młod": 7324,
      "▁szaf": 7325,
      "▁problem,": 7326,
      "dor": 7327,
      "▁Wybierając": 7328,
      "▁wszystko.": 7329,
      "▁rozdzielczość": 7330,
      "▁wyle": 7331,
      "▁Masz": 7332,
      "▁Kla": 7333,
      "▁socze": 7334,
      "szony": 7335,
      "▁bateria": 7336,
      "▁pocho": 7337,
      "▁laptopa": 7338,
      "▁dużych": 7339,
      "piłam": 7340,
      "▁podobno": 7341,
      "uu": 7342,
      "towy": 7343,
      "▁zorganiz": 7344,
      "▁szczerze": 7345,
      "▁zama": 7346,
      "▁podobne": 7347,
      "▁inna": 7348,
      "▁up": 7349,
      "▁cytry": 7350,
      "▁trudne": 7351,
      "▁dym": 7352,
      "▁powia": 7353,
      "▁tle": 7354,
      "ksu": 7355,
      "▁błyskawi": 7356,
      "aniu.": 7357,
      "▁baj": 7358,
      "▁wychodzą": 7359,
      "▁Stu": 7360,
      ".\nMa": 7361,
      "▁kolorze": 7362,
      "tooth": 7363,
      "▁intry": 7364,
      "▁iden": 7365,
      "▁przo": 7366,
      "▁brzmi": 7367,
      "ośród": 7368,
      "prawy": 7369,
      "12": 7370,
      "▁lotni": 7371,
      "▁dotar": 7372,
      "▁najgor": 7373,
      "▁moge": 7374,
      "▁poziomu": 7375,
      "narod": 7376,
      "nieważ": 7377,
      "▁Jako": 7378,
      "▁zakupy": 7379,
      "domość": 7380,
      "▁IP": 7381,
      "▁este": 7382,
      "▁ut": 7383,
      "▁XI": 7384,
      "▁stają": 7385,
      "▁uważam,": 7386,
      "cznym,": 7387,
      "▁szo": 7388,
      "▁czytania": 7389,
      "pry": 7390,
      "▁dodatku": 7391,
      "tuję": 7392,
      "czyć,": 7393,
      "▁obrazu.": 7394,
      "▁2022": 7395,
      "▁zmian": 7396,
      "▁klucz": 7397,
      "▁panie": 7398,
      "cyjnej": 7399,
      "▁styliza": 7400,
      "cą,": 7401,
      ".\nŻ": 7402,
      "cko": 7403,
      "▁centrum": 7404,
      "pety": 7405,
      "mują": 7406,
      "dzielczość": 7407,
      "▁choroby": 7408,
      "▁dodatek": 7409,
      "biu": 7410,
      ".\nMy": 7411,
      "▁siłę": 7412,
      "▁zł,": 7413,
      "▁produktów.": 7414,
      "▁farb": 7415,
      "mowe": 7416,
      "▁szkoda": 7417,
      "tkach": 7418,
      "▁najlepsza": 7419,
      "sper": 7420,
      "set": 7421,
      "▁wyszuki": 7422,
      "▁kawy": 7423,
      "▁logi": 7424,
      "▁inhala": 7425,
      "▁Stra": 7426,
      "▁Gu": 7427,
      "▁alterna": 7428,
      "lany": 7429,
      "▁AGD": 7430,
      "▁Naprawdę": 7431,
      "▁Stro": 7432,
      "▁autora": 7433,
      "▁wysła": 7434,
      "ja,": 7435,
      "▁póki": 7436,
      "▁kawa": 7437,
      "▁inspira": 7438,
      "westować": 7439,
      "lację": 7440,
      "▁lakie": 7441,
      "▁spowodowa": 7442,
      "▁drogą": 7443,
      "▁Rozdzielczość": 7444,
      "anii": 7445,
      "▁biżu": 7446,
      "▁naby": 7447,
      "▁sprzedaży": 7448,
      "prawa": 7449,
      "▁treści": 7450,
      "py,": 7451,
      "▁zasy": 7452,
      "▁perspek": 7453,
      "▁stworzyć": 7454,
      "dzieży": 7455,
      "▁decyduje": 7456,
      "her": 7457,
      "▁szczęścia": 7458,
      "pres": 7459,
      "sum": 7460,
      "▁ozdob": 7461,
      "zan": 7462,
      "▁najważniejszych": 7463,
      "▁zaopa": 7464,
      "▁danego": 7465,
      "▁częstot": 7466,
      "▁wielkości": 7467,
      "owani": 7468,
      "▁utra": 7469,
      "▁Kul": 7470,
      "bić": 7471,
      "pełnienie": 7472,
      "▁Odpowiedzi": 7473,
      "day": 7474,
      "▁prosty": 7475,
      "▁Q": 7476,
      "\nZa": 7477,
      "▁przenoszenia": 7478,
      "▁Sama": 7479,
      "▁nienawi": 7480,
      "▁relak": 7481,
      "▁pozostaje": 7482,
      "▁pozbyć": 7483,
      "czy.": 7484,
      "▁elementy": 7485,
      "[1": 7486,
      "▁sezonie": 7487,
      "▁zdjęciu": 7488,
      "▁kojarzy": 7489,
      "▁swe": 7490,
      "cznego,": 7491,
      "▁pokazu": 7492,
      "▁polskie": 7493,
      "▁konsysten": 7494,
      "▁lekar": 7495,
      "nom": 7496,
      "▁okazja": 7497,
      "wiad": 7498,
      "▁organizm": 7499,
      "mplik": 7500,
      "▁stopniu": 7501,
      "gowi": 7502,
      "▁przyby": 7503,
      "tę.": 7504,
      "▁jakiejś": 7505,
      "!\nC": 7506,
      "▁spania": 7507,
      "▁(wy": 7508,
      "▁poszuku": 7509,
      "alnie": 7510,
      "▁nakład": 7511,
      "▁nazwa": 7512,
      "weł": 7513,
      "boga": 7514,
      "cyjnym": 7515,
      "▁port": 7516,
      "EM": 7517,
      "▁przykry": 7518,
      "▁ostatnim": 7519,
      "▁III": 7520,
      "▁poł": 7521,
      "▁stawia": 7522,
      "▁poprawnie": 7523,
      "▁połowie": 7524,
      "▁km": 7525,
      "▁Dro": 7526,
      "cza.": 7527,
      "▁sekun": 7528,
      "▁tam,": 7529,
      "▁Ide": 7530,
      "▁has": 7531,
      "ome": 7532,
      "▁uroczy": 7533,
      "NA": 7534,
      "▁uczestni": 7535,
      "▁spotyk": 7536,
      "▁kompozy": 7537,
      "ia,": 7538,
      "▁powtó": 7539,
      "▁Ultra": 7540,
      "▁Mło": 7541,
      "▁zdą": 7542,
      "▁wsty": 7543,
      "▁oglądać": 7544,
      "\nL": 7545,
      "ya": 7546,
      "▁Twój": 7547,
      "▁obli": 7548,
      "▁wyczu": 7549,
      "Wi": 7550,
      "▁najcieka": 7551,
      "▁przew": 7552,
      "niejszą": 7553,
      "’a": 7554,
      "▁obserwa": 7555,
      "sy.": 7556,
      "▁ró": 7557,
      "rzona": 7558,
      "▁pewnego": 7559,
      "▁gustu": 7560,
      "▁rąk": 7561,
      "ńcz": 7562,
      "▁najwy": 7563,
      "▁społecze": 7564,
      "▁snu": 7565,
      "▁Ki": 7566,
      "▁ręka": 7567,
      "▁samych": 7568,
      "▁pozbawi": 7569,
      "wne": 7570,
      "dale": 7571,
      "▁Niestety,": 7572,
      "▁naturalny": 7573,
      "r,": 7574,
      "▁pil": 7575,
      "▁oszu": 7576,
      "▁użytkownik": 7577,
      "▁pochodzą": 7578,
      "▁odpowiadamy": 7579,
      "▁przeszłości": 7580,
      "▁Poli": 7581,
      "▁Pana": 7582,
      "▁swoimi": 7583,
      "▁terenie": 7584,
      "szę,": 7585,
      "▁rząd": 7586,
      "▁któraś": 7587,
      "▁Głów": 7588,
      "▁Kil": 7589,
      "▁:/": 7590,
      "▁zrobił": 7591,
      "▁“": 7592,
      "?\nA": 7593,
      "▁kru": 7594,
      "lt": 7595,
      "▁twier": 7596,
      "▁pomimo": 7597,
      "tko": 7598,
      "owań": 7599,
      "▁Mas": 7600,
      "▁duża": 7601,
      "▁natychmiast": 7602,
      "▁książce": 7603,
      "brzy": 7604,
      "▁żo": 7605,
      "▁budow": 7606,
      "▁tuż": 7607,
      "kłady": 7608,
      "staną": 7609,
      "▁akcesori": 7610,
      "▁urzę": 7611,
      "tóż": 7612,
      "▁USA": 7613,
      "cie?": 7614,
      "▁oczekiwania": 7615,
      "▁układu": 7616,
      "▁moment": 7617,
      "▁kg": 7618,
      "▁total": 7619,
      "bin": 7620,
      "▁wyborem!": 7621,
      "▁doko": 7622,
      "▁lewej": 7623,
      "▁kwo": 7624,
      "▁każdemu": 7625,
      "liwy": 7626,
      "▁kompletnie": 7627,
      "▁aktor": 7628,
      "▁temperatury": 7629,
      "▁się\n": 7630,
      "kor": 7631,
      "▁charakterysty": 7632,
      "sma": 7633,
      "▁firm": 7634,
      "▁Oferty": 7635,
      "ównie": 7636,
      "tek.": 7637,
      "▁rękę": 7638,
      "czną.": 7639,
      "▁zapomnie": 7640,
      "KI": 7641,
      "▁liczbę": 7642,
      "weryfikowane": 7643,
      "▁stoli": 7644,
      "▁odmia": 7645,
      "▁druży": 7646,
      "▁,,": 7647,
      "CZ": 7648,
      "gu.": 7649,
      "▁zaczęła": 7650,
      "▁pokój": 7651,
      "▁ogrzewanie": 7652,
      "▁Ostatnio": 7653,
      "▁wypadku": 7654,
      "▁rozpoczyna": 7655,
      "To": 7656,
      "nkowo": 7657,
      "▁pierwszą": 7658,
      "▁smaku": 7659,
      "▁zespół": 7660,
      "gach": 7661,
      "▁Uniw": 7662,
      "▁komentarz": 7663,
      "▁wodę": 7664,
      "OTE": 7665,
      "▁pragnie": 7666,
      "▁chleb": 7667,
      "▁świetny": 7668,
      "▁ham": 7669,
      "▁weekend": 7670,
      "▁Zda": 7671,
      "▁Joh": 7672,
      "cą.": 7673,
      "▁wierzy": 7674,
      "łyby": 7675,
      "sława": 7676,
      "▁najpopularniejszych": 7677,
      "▁uję": 7678,
      "▁podkreśla": 7679,
      "▁praktyczne": 7680,
      "obby": 7681,
      "▁wyżej": 7682,
      "?\nO": 7683,
      "lizować": 7684,
      "▁nosić": 7685,
      "▁potrzebujesz": 7686,
      "king": 7687,
      "▁odnale": 7688,
      "▁pociąg": 7689,
      "▁słuch": 7690,
      "niec": 7691,
      "stawić": 7692,
      "stawa": 7693,
      "nik.": 7694,
      "HD": 7695,
      "▁wyniku": 7696,
      "▁włosów.": 7697,
      "\nAle": 7698,
      "gowe": 7699,
      "▁budynku": 7700,
      "▁godzinie": 7701,
      "▁figu": 7702,
      "▁jakies": 7703,
      "laka": 7704,
      "▁klocków": 7705,
      "▁przecię": 7706,
      "▁bezpośrednio": 7707,
      "nos": 7708,
      "dzić.": 7709,
      "▁gorzej": 7710,
      "pan": 7711,
      "▁der": 7712,
      "▁dyskusji": 7713,
      "▁dobrze.": 7714,
      "▁czekam": 7715,
      "▁zalet": 7716,
      "▁atmosfe": 7717,
      "ma,": 7718,
      "▁kontynu": 7719,
      "▁Chi": 7720,
      "▁świąte": 7721,
      "▁należa": 7722,
      "owi.": 7723,
      "QU": 7724,
      "ore": 7725,
      "legro": 7726,
      "plo": 7727,
      "▁zdaje": 7728,
      "▁prowadzą": 7729,
      "▁odebra": 7730,
      "▁Bry": 7731,
      "▁spokój": 7732,
      "jne": 7733,
      "▁jazdy": 7734,
      "99": 7735,
      "▁zdrowo": 7736,
      "▁architek": 7737,
      "▁światło": 7738,
      "▁zapas": 7739,
      "lana": 7740,
      "rat": 7741,
      "▁polskiej": 7742,
      "▁słow": 7743,
      "\nJak": 7744,
      "kątna": 7745,
      "Forum": 7746,
      "low": 7747,
      "▁Nor": 7748,
      "▁smartfonie": 7749,
      "ur.": 7750,
      "▁mase": 7751,
      "cin": 7752,
      "▁dostępu": 7753,
      "▁Ile": 7754,
      "▁ciało": 7755,
      "▁zrozumia": 7756,
      "czna.": 7757,
      "3,": 7758,
      "skich,": 7759,
      "▁Wal": 7760,
      "▁słowo": 7761,
      "▁aktywności": 7762,
      "st,": 7763,
      "▁pokazuje": 7764,
      "▁nadzieję": 7765,
      "nięte": 7766,
      "▁objawy": 7767,
      "▁komuś": 7768,
      "▁składników": 7769,
      "▁podzi": 7770,
      "czce": 7771,
      "tniego": 7772,
      "▁odpowiedzieć": 7773,
      "▁Albo": 7774,
      "▁Zna": 7775,
      "▁filmy": 7776,
      "▁Karo": 7777,
      "▁decyzji": 7778,
      "▁ekspe": 7779,
      "▁szlak": 7780,
      "▁podar": 7781,
      "▁dotychczas": 7782,
      "\nto": 7783,
      "▁ów": 7784,
      "▁lę": 7785,
      "chodzić": 7786,
      "▁Gdzie": 7787,
      "ościami": 7788,
      "▁oczyszczacza": 7789,
      "▁Pły": 7790,
      "▁wyobraź": 7791,
      "żonych": 7792,
      "stania": 7793,
      "▁spotyka": 7794,
      "▁zgło": 7795,
      "▁motyw": 7796,
      "▁niektórzy": 7797,
      "▁najmłod": 7798,
      "gru": 7799,
      "\nWy": 7800,
      "▁żyje": 7801,
      "▁wkład": 7802,
      "▁Istnie": 7803,
      "szed": 7804,
      "▁czterech": 7805,
      "▁czo": 7806,
      "amy.": 7807,
      "lety": 7808,
      "▁obiektyw": 7809,
      "▁ojciec": 7810,
      "cyjnego": 7811,
      "▁miesiące": 7812,
      "▁czytam": 7813,
      "strza": 7814,
      "▁kota": 7815,
      "dki": 7816,
      "▁okrop": 7817,
      "▁cenie.": 7818,
      "▁rodzina": 7819,
      "▁trans": 7820,
      "▁zarzu": 7821,
      "▁związek": 7822,
      "▁cukru": 7823,
      "on,": 7824,
      "▁własny": 7825,
      "ymi": 7826,
      "▁niepotrzeb": 7827,
      "▁Di": 7828,
      "▁doskonały": 7829,
      "▁nadmier": 7830,
      "▁móz": 7831,
      "rus": 7832,
      "▁zadowolona": 7833,
      "▁wybrać,": 7834,
      "ak,": 7835,
      "▁bibliote": 7836,
      "▁hałasu": 7837,
      "uf": 7838,
      "▁Fri": 7839,
      "tami.": 7840,
      "▁funkcje": 7841,
      "luje": 7842,
      "▁dzień,": 7843,
      "▁życie.": 7844,
      "patal": 7845,
      "▁oddech": 7846,
      "tłuma": 7847,
      "nymi,": 7848,
      "▁mialam": 7849,
      "▁tabli": 7850,
      "▁For": 7851,
      "▁win": 7852,
      ".\nBy": 7853,
      "▁systemu": 7854,
      "▁gier": 7855,
      "ologi": 7856,
      "3.": 7857,
      "▁Tam": 7858,
      "▁tur": 7859,
      "▁obdar": 7860,
      "▁sprawę": 7861,
      "dwo": 7862,
      "▁zazdro": 7863,
      "▁wez": 7864,
      "▁Vi": 7865,
      "▁chro": 7866,
      "▁krymina": 7867,
      "▁(jak": 7868,
      "▁Myślę,": 7869,
      "dną": 7870,
      "▁apte": 7871,
      "▁izo": 7872,
      "▁warunkach": 7873,
      "▁lepszy": 7874,
      "III": 7875,
      "▁rozryw": 7876,
      "tt": 7877,
      "▁biega": 7878,
      "▁najpięk": 7879,
      "▁podaw": 7880,
      "lacja": 7881,
      "▁inną": 7882,
      "▁wielkim": 7883,
      "▁stres": 7884,
      "▁kimś": 7885,
      "▁pamiętać": 7886,
      "▁gaze": 7887,
      "▁czos": 7888,
      "▁Sze": 7889,
      "dzonych": 7890,
      "▁gam": 7891,
      "▁studiach": 7892,
      "▁wakacje": 7893,
      "▁minut.": 7894,
      "▁sreb": 7895,
      "▁państwa": 7896,
      "▁alergi": 7897,
      "▁trening": 7898,
      "cina": 7899,
      "▁mnie.": 7900,
      "▁zacznie": 7901,
      "waniem": 7902,
      "czki.": 7903,
      "▁Tapatal": 7904,
      "▁seksu": 7905,
      "tać": 7906,
      "▁opisa": 7907,
      "▁turysty": 7908,
      "▁twoim": 7909,
      "▁zasięgu": 7910,
      "▁mieliśmy": 7911,
      "▁czasów": 7912,
      "▁Bluetooth": 7913,
      "lle": 7914,
      "▁cali.": 7915,
      "▁Rodzi": 7916,
      "▁miłośni": 7917,
      "▁reszta": 7918,
      "▁rami": 7919,
      "▁przyzwycza": 7920,
      "▁Kiedyś": 7921,
      "▁uwielbiam": 7922,
      "dziesiąt": 7923,
      "S.": 7924,
      "▁średnio": 7925,
      "▁uśmiech": 7926,
      "którzy": 7927,
      "▁osu": 7928,
      "▁ciekawa": 7929,
      "tkami": 7930,
      "▁sklepów": 7931,
      "nęły": 7932,
      "▁Przekątna": 7933,
      "▁lud": 7934,
      "▁Pamiętaj": 7935,
      "▁wydajność": 7936,
      "▁dostępna": 7937,
      "16": 7938,
      "cają": 7939,
      "▁uczelni": 7940,
      "▁rezy": 7941,
      "▁sur": 7942,
      "▁dziewczyn": 7943,
      "▁wszędzie": 7944,
      "▁fantasty": 7945,
      "▁nud": 7946,
      "chu.": 7947,
      "▁biorą": 7948,
      "loga": 7949,
      "pie,": 7950,
      "▁obrazu": 7951,
      "NI": 7952,
      "▁dzieckiem": 7953,
      "▁ulicy": 7954,
      "dzenie,": 7955,
      "▁Począ": 7956,
      "▁Twoja": 7957,
      "▁woli": 7958,
      "▁poprawia": 7959,
      "kło": 7960,
      "▁opisy": 7961,
      "rzyło": 7962,
      "▁uj": 7963,
      "▁Polska": 7964,
      "▁Kur": 7965,
      "▁fajne": 7966,
      "▁Przeczytaj": 7967,
      "liwie": 7968,
      "▁odgry": 7969,
      "▁przypa": 7970,
      "spoko": 7971,
      "kanaście": 7972,
      "▁Coraz": 7973,
      "▁niedawno": 7974,
      "▁wykorzystać": 7975,
      "▁akcji": 7976,
      "▁Decy": 7977,
      "▁powinnam": 7978,
      "▁rosyj": 7979,
      "▁Uży": 7980,
      "kania": 7981,
      "▁prag": 7982,
      "QUOTE": 7983,
      "działy": 7984,
      "▁fu": 7985,
      "▁zaledwie": 7986,
      "▁urlo": 7987,
      "niósł": 7988,
      "▁powieść": 7989,
      "▁nie\n": 7990,
      "▁prezentują": 7991,
      "▁hum": 7992,
      "▁śpi": 7993,
      "storia": 7994,
      "▁światła": 7995,
      "........": 7996,
      "prost": 7997,
      "NE": 7998,
      "▁podzielić": 7999,
      "▁aka": 8000,
      "▁regularnie": 8001,
      "test": 8002,
      "▁wybierać": 8003,
      "▁Gdyby": 8004,
      "▁Jaka": 8005,
      "gó": 8006,
      "turą,": 8007,
      "▁dany": 8008,
      "▁Tego": 8009,
      "▁Bel": 8010,
      "labym": 8011,
      "▁strona": 8012,
      "▁porządku": 8013,
      "▁polskiego": 8014,
      "▁wzbu": 8015,
      "▁pełne": 8016,
      "▁brać": 8017,
      "stek": 8018,
      "▁Który": 8019,
      "tylko": 8020,
      "gam": 8021,
      "zem": 8022,
      "rzałam": 8023,
      "▁przechodzi": 8024,
      "▁forum,": 8025,
      "▁nauczyć": 8026,
      "▁spróbować": 8027,
      "tujemy": 8028,
      "▁widok": 8029,
      "▁wieczór": 8030,
      "▁Zu": 8031,
      "▁do\n": 8032,
      "ree": 8033,
      "▁chrześci": 8034,
      "▁dyrek": 8035,
      "▁wiadomości": 8036,
      "odzi": 8037,
      "17": 8038,
      "mer": 8039,
      "óze": 8040,
      "jaśnia": 8041,
      "▁dzieć": 8042,
      "▁(do": 8043,
      "xy": 8044,
      "▁nies": 8045,
      "▁wyobraz": 8046,
      "łuje": 8047,
      "jach": 8048,
      "▁pił": 8049,
      "▁wola": 8050,
      "▁„M": 8051,
      "tema": 8052,
      "szyb": 8053,
      "gami": 8054,
      "▁trafia": 8055,
      "▁produkcji": 8056,
      "▁grania,": 8057,
      "▁2-3": 8058,
      "▁hybry": 8059,
      "▁okolicy": 8060,
      "▁wiary": 8061,
      "dero": 8062,
      "▁tacy": 8063,
      "▁Ponadto": 8064,
      "▁krok": 8065,
      "mierz": 8066,
      "▁prakty": 8067,
      "▁Pięk": 8068,
      "▁zatrzyma": 8069,
      "dru": 8070,
      "▁częścią": 8071,
      "óźniej": 8072,
      "▁Adam": 8073,
      "▁wyszło": 8074,
      "ższe": 8075,
      "▁nawie": 8076,
      "▁matka": 8077,
      "▁wymagają": 8078,
      "rzeniu": 8079,
      "▁100%": 8080,
      "▁kultury": 8081,
      "chodzę": 8082,
      "anymi": 8083,
      "▁Wysokość": 8084,
      "▁większych": 8085,
      "kracza": 8086,
      "▁wprost": 8087,
      "▁LEGO": 8088,
      "▁dni,": 8089,
      "▁Nigdy": 8090,
      "▁wtedy,": 8091,
      "▁imprez": 8092,
      "niesi": 8093,
      "anach": 8094,
      "pienie": 8095,
      "\nE": 8096,
      "▁Pozna": 8097,
      "oży": 8098,
      "▁staram": 8099,
      "uję": 8100,
      "ości.": 8101,
      "▁Dzia": 8102,
      "owie.": 8103,
      "▁wygląd,": 8104,
      "▁odwa": 8105,
      "▁klocki": 8106,
      "▁Kobie": 8107,
      "▁suche": 8108,
      "▁zasady": 8109,
      "▁maka": 8110,
      "▁dochodzi": 8111,
      "towane": 8112,
      "▁zba": 8113,
      "▁stresu": 8114,
      "▁temperatura": 8115,
      "▁rodziców,": 8116,
      "strzega": 8117,
      "▁Tru": 8118,
      "▁skórze": 8119,
      "nikami": 8120,
      "lum": 8121,
      "▁utrzym": 8122,
      "skie,": 8123,
      "owski": 8124,
      "▁samolo": 8125,
      "▁naturalne": 8126,
      ".\nE": 8127,
      "▁czytałam": 8128,
      "▁(bo": 8129,
      "▁podejście": 8130,
      "▁minera": 8131,
      "▁liczyć": 8132,
      "▁deszcz": 8133,
      "▁łatwością": 8134,
      "▁Cia": 8135,
      "14": 8136,
      "tyczną": 8137,
      "▁krzyw": 8138,
      "owując": 8139,
      "jaw": 8140,
      "imna": 8141,
      "▁mieszkanie": 8142,
      "▁teat": 8143,
      "owiec": 8144,
      "nii.": 8145,
      "90": 8146,
      "dniki": 8147,
      "▁żwi": 8148,
      "nica": 8149,
      "▁aktual": 8150,
      "▁diagno": 8151,
      "▁Jas": 8152,
      "enta": 8153,
      "▁podstawowych": 8154,
      "lam,": 8155,
      "ńcu": 8156,
      "sami": 8157,
      "▁młodych": 8158,
      "dzenia,": 8159,
      "▁pacj": 8160,
      "▁składniki": 8161,
      "▁największych": 8162,
      "▁Oczy": 8163,
      "tami,": 8164,
      "torzy": 8165,
      "▁pewien": 8166,
      "▁ceny.": 8167,
      "▁absolutnie": 8168,
      "▁Gene": 8169,
      "▁leży": 8170,
      "▁Najlepiej": 8171,
      "▁denerw": 8172,
      "▁administra": 8173,
      "▁wszelkich": 8174,
      "▁niezbyt": 8175,
      "▁akcep": 8176,
      "▁trzeci": 8177,
      "▁stosunkowo": 8178,
      "▁powtarza": 8179,
      "▁tale": 8180,
      "▁Uniwersyte": 8181,
      "▁zbliża": 8182,
      "wer": 8183,
      "szto": 8184,
      "▁głowę": 8185,
      "▁Interne": 8186,
      "▁saty": 8187,
      "▁żebym": 8188,
      "▁butów": 8189,
      "▁twierdzi": 8190,
      "?\nS": 8191,
      "▁(cho": 8192,
      "▁Duż": 8193,
      "▁miej": 8194,
      "▁wzmac": 8195,
      "▁prawdopodobnie": 8196,
      "▁daleko": 8197,
      "▁spotkać": 8198,
      "▁określić": 8199,
      "▁aparat": 8200,
      "ju.": 8201,
      "mieniu": 8202,
      "liki": 8203,
      "▁partner": 8204,
      "▁wieku.": 8205,
      "▁zm": 8206,
      "▁ludź": 8207,
      "▁spek": 8208,
      "str": 8209,
      "▁nowoczesne": 8210,
      "▁pomara": 8211,
      "▁Pierwszy": 8212,
      "▁pracują": 8213,
      "▁historię": 8214,
      "▁okaże": 8215,
      "▁tyle,": 8216,
      "nionych": 8217,
      "om,": 8218,
      "▁Wiem,": 8219,
      "gij": 8220,
      "sku,": 8221,
      "▁wykonania": 8222,
      "▁małej": 8223,
      "lania": 8224,
      "▁nieprze": 8225,
      "działem": 8226,
      "szymy": 8227,
      "▁śmierć": 8228,
      "▁vi": 8229,
      "▁rand": 8230,
      "▁mody": 8231,
      "▁groma": 8232,
      "mie,": 8233,
      "any.": 8234,
      "▁Sh": 8235,
      "łoży": 8236,
      "K.": 8237,
      "bach": 8238,
      "▁pracować": 8239,
      "jęcie": 8240,
      "▁postanowiłam": 8241,
      "▁(ur.": 8242,
      "▁milion": 8243,
      "▁zabiera": 8244,
      "▁wody.": 8245,
      "▁powięk": 8246,
      "▁firma": 8247,
      "▁dzień.": 8248,
      "▁zamówi": 8249,
      "▁telewizji": 8250,
      "trwa": 8251,
      "▁nausz": 8252,
      "▁you": 8253,
      "NIE": 8254,
      ".\nJest": 8255,
      "▁wspólnego": 8256,
      "▁byłem": 8257,
      "wek": 8258,
      "▁and": 8259,
      "aniu,": 8260,
      "▁życi": 8261,
      "▁gmi": 8262,
      "▁postać": 8263,
      "rudno": 8264,
      "▁trzymać": 8265,
      "tanie": 8266,
      "zy,": 8267,
      "▁skomplik": 8268,
      "▁letni": 8269,
      "rów.": 8270,
      "▁(...)": 8271,
      "\nko": 8272,
      "US": 8273,
      "▁dostarcza": 8274,
      "▁zaro": 8275,
      "▁dzisiejszym": 8276,
      ".\nF": 8277,
      "form": 8278,
      "▁żel": 8279,
      "czną,": 8280,
      "orę": 8281,
      "▁musie": 8282,
      "▁zwracać": 8283,
      "▁Księ": 8284,
      "▁pupi": 8285,
      "▁musze": 8286,
      "▁warunki": 8287,
      "▁północ": 8288,
      "▁ilością": 8289,
      "óra": 8290,
      "▁skóry.": 8291,
      "▁ktos": 8292,
      "ght": 8293,
      "szystko": 8294,
      "▁prosi": 8295,
      "▁kształt": 8296,
      "▁konsekwen": 8297,
      "p,": 8298,
      "▁chwil": 8299,
      "cyk": 8300,
      "▁stosunek": 8301,
      "▁kciu": 8302,
      "▁Przede": 8303,
      "liny": 8304,
      "czekać": 8305,
      "▁Tobie": 8306,
      "▁lista": 8307,
      "▁2009": 8308,
      "cę,": 8309,
      "gla": 8310,
      "▁\"B": 8311,
      "▁plotk": 8312,
      "▁bede": 8313,
      "▁jeść": 8314,
      ".\nMu": 8315,
      "▁artysty": 8316,
      "26": 8317,
      "▁odpowiednią": 8318,
      "▁lice": 8319,
      "29": 8320,
      "▁ciasta": 8321,
      "▁działać": 8322,
      "\nH": 8323,
      "▁zmęczenie": 8324,
      "koniecznie": 8325,
      "▁„W": 8326,
      "fik": 8327,
      "?\nJa": 8328,
      "▁Tra": 8329,
      "▁Funk": 8330,
      "▁programu": 8331,
      "groma": 8332,
      "▁współprac": 8333,
      "▁Trochę": 8334,
      "▁okład": 8335,
      "prawi": 8336,
      "▁czło": 8337,
      "▁brzy": 8338,
      "▁Mnie": 8339,
      "QUOTE]": 8340,
      "▁interes": 8341,
      "▁Kat": 8342,
      "▁Komi": 8343,
      "▁1/": 8344,
      "sie.": 8345,
      "▁samodzielnie": 8346,
      "lizację": 8347,
      "13": 8348,
      "▁marek": 8349,
      "▁ochrony": 8350,
      "▁duzo": 8351,
      "▁wskazów": 8352,
      "▁kredy": 8353,
      "▁kontrah": 8354,
      "▁Mag": 8355,
      "▁Wia": 8356,
      "▁świecie.": 8357,
      "▁zwal": 8358,
      "ph": 8359,
      "dka": 8360,
      "▁kosztuje": 8361,
      "▁oglądania": 8362,
      "▁szar": 8363,
      "▁sytuacjach": 8364,
      "LA": 8365,
      "▁nur": 8366,
      "▁modeli.": 8367,
      "▁roślin": 8368,
      "/QUOTE]": 8369,
      "▁siecią": 8370,
      "▁radę": 8371,
      "▁gwiazd": 8372,
      "▁mogło": 8373,
      "tyj": 8374,
      "romo": 8375,
      "▁łóże": 8376,
      "▁gardero": 8377,
      "▁rowe": 8378,
      "▁wyjść": 8379,
      "▁wykształ": 8380,
      "▁naukę": 8381,
      "tycznej": 8382,
      "twier": 8383,
      "▁chcieli": 8384,
      "\nCo": 8385,
      "▁grupa": 8386,
      "▁zastosowanie": 8387,
      "▁Być": 8388,
      "▁serwisu": 8389,
      "▁zaprez": 8390,
      "▁Przecież": 8391,
      "▁RAM": 8392,
      "▁paznokcie": 8393,
      "▁okie": 8394,
      "▁wojewódz": 8395,
      "▁zagrani": 8396,
      "▁ol": 8397,
      "[1=": 8398,
      "!)": 8399,
      "▁domowe": 8400,
      "▁mężczyzna": 8401,
      "czka,": 8402,
      "rtu": 8403,
      "▁szansę": 8404,
      "nięty": 8405,
      "70": 8406,
      "zia": 8407,
      "chodni": 8408,
      "pas": 8409,
      "▁życie,": 8410,
      "\nTe": 8411,
      "ali": 8412,
      "▁3.": 8413,
      "▁Żeby": 8414,
      ".\nTy": 8415,
      "▁znaczy,": 8416,
      "▁naw": 8417,
      "▁wan": 8418,
      "▁publika": 8419,
      "▁osób.": 8420,
      "▁niz": 8421,
      "▁fina": 8422,
      "▁uprze": 8423,
      "▁średniej": 8424,
      "▁szukam": 8425,
      "▁kilkanaście": 8426,
      "▁koście": 8427,
      "▁zapozna": 8428,
      "▁Inte": 8429,
      "▁swej": 8430,
      "▁producenta": 8431,
      "▁standard": 8432,
      "ard": 8433,
      "▁byl": 8434,
      "rasta": 8435,
      "▁święta": 8436,
      "▁sensu": 8437,
      "▁występuje": 8438,
      "▁dostaw": 8439,
      "▁nerw": 8440,
      "tujące": 8441,
      "▁1000": 8442,
      "▁pokazy": 8443,
      "nięciu": 8444,
      "lache": 8445,
      "▁właściciel": 8446,
      "▁opinie,": 8447,
      "▁formy": 8448,
      "▁reflek": 8449,
      "▁owoc": 8450,
      "rz,": 8451,
      "▁3-": 8452,
      "▁ludzi.": 8453,
      "▁wyjecha": 8454,
      "▁Józe": 8455,
      "▁zmysł": 8456,
      "skach": 8457,
      "▁umiera": 8458,
      "▁mówił": 8459,
      "▁materiału": 8460,
      "tuj": 8461,
      "▁pachnie": 8462,
      "▁papier": 8463,
      "▁nia": 8464,
      "▁pełna": 8465,
      "▁nastąpi": 8466,
      "▁Twoim": 8467,
      "▁Cent": 8468,
      "▁Posiada": 8469,
      "▁spać": 8470,
      "metr": 8471,
      "ników,": 8472,
      "▁orien": 8473,
      "▁Wym": 8474,
      "▁zadzwo": 8475,
      "▁wor": 8476,
      "▁intui": 8477,
      "rodzi": 8478,
      "▁włosów,": 8479,
      "▁Oczywiście,": 8480,
      "▁większa": 8481,
      "▁popularne": 8482,
      "▁gabi": 8483,
      "▁najnowsze": 8484,
      "▁teor": 8485,
      "wią,": 8486,
      "▁zaczynają": 8487,
      "▁doce": 8488,
      "tki.": 8489,
      "▁szybkie": 8490,
      "▁łatwe": 8491,
      "28": 8492,
      "▁mówię": 8493,
      "szył": 8494,
      "▁termin": 8495,
      "▁en": 8496,
      "▁paznokci": 8497,
      "▁zup": 8498,
      "owany,": 8499,
      "▁zare": 8500,
      "▁odz": 8501,
      "▁prawdziwe": 8502,
      "▁państw": 8503,
      "dago": 8504,
      "▁domy": 8505,
      "▁znaczenia": 8506,
      "▁album": 8507,
      "▁Narod": 8508,
      "zeum": 8509,
      "▁zainwestować": 8510,
      "<<ULICA>>": 8511,
      "▁ryb": 8512,
      "ctwem": 8513,
      "▁fajny": 8514,
      "▁ukaza": 8515,
      "▁trybie": 8516,
      "▁niemowlaka": 8517,
      "▁inwesty": 8518,
      "▁urodziny": 8519,
      "▁Sprawdzi": 8520,
      "lanych": 8521,
      "▁procesor": 8522,
      "▁najwięcej": 8523,
      "▁Kos": 8524,
      "▁pojedyn": 8525,
      "dłuż": 8526,
      "pisać": 8527,
      "▁zamk": 8528,
      "▁formu": 8529,
      "iast": 8530,
      "▁pokar": 8531,
      "zyn": 8532,
      "▁materiałów": 8533,
      "psu": 8534,
      "▁koloru": 8535,
      "▁nogi": 8536,
      "▁wzor": 8537,
      "▁materac": 8538,
      "szona": 8539,
      "ina": 8540,
      "ance": 8541,
      "▁wina": 8542,
      "łaśnie": 8543,
      "▁wnętrz": 8544,
      "lim": 8545,
      "▁ważna": 8546,
      "▁sposobu": 8547,
      "by.": 8548,
      "▁itd": 8549,
      "wit": 8550,
      "▁Nowy": 8551,
      "▁znalazły": 8552,
      "tą,": 8553,
      "▁bieżą": 8554,
      "▁wlasnie": 8555,
      "▁stosunku": 8556,
      "prawić": 8557,
      "▁Lon": 8558,
      "▁wybi": 8559,
      "▁dobie": 8560,
      "▁Jana": 8561,
      "nen": 8562,
      "▁staną": 8563,
      "▁morder": 8564,
      "dzespo": 8565,
      "▁Spe": 8566,
      "▁trądzi": 8567,
      ".\nPro": 8568,
      "▁rach": 8569,
      "▁przyjemność": 8570,
      "▁makijażu": 8571,
      "▁Dziewczy": 8572,
      "▁wilgot": 8573,
      "▁opcji": 8574,
      "▁powstała": 8575,
      "▁wyraźnie": 8576,
      "▁mając": 8577,
      "▁audio": 8578,
      "różnia": 8579,
      "▁dolegliwości": 8580,
      "▁produkt?": 8581,
      "▁energe": 8582,
      "▁SIM": 8583,
      "▁matry": 8584,
      "nkiem": 8585,
      "▁niepoko": 8586,
      "▁Zd": 8587,
      "▁rodzajów": 8588,
      "C.": 8589,
      "▁zbro": 8590,
      "▁wyrazi": 8591,
      "dzą,": 8592,
      "▁siostra": 8593,
      "▁pies": 8594,
      "▁miesiącu": 8595,
      "▁robiłam": 8596,
      "▁list": 8597,
      "▁emocjonal": 8598,
      "klej": 8599,
      "▁pozostawia": 8600,
      "zmu": 8601,
      "▁kontek": 8602,
      "▁otwarty": 8603,
      "▁wyniki": 8604,
      "▁eksplo": 8605,
      "▁łączność": 8606,
      "▁tzn": 8607,
      "▁przeczytać": 8608,
      "lanie": 8609,
      "jów": 8610,
      "cać": 8611,
      "▁Właśnie": 8612,
      "tach.": 8613,
      "▁wyzwa": 8614,
      "▁dedykowane": 8615,
      "▁precy": 8616,
      "▁dzisiejszych": 8617,
      "▁tren": 8618,
      "▁kierunek": 8619,
      "▁zrobiła": 8620,
      "\nk": 8621,
      "▁koszty": 8622,
      "▁salonie": 8623,
      "▁Wz": 8624,
      "▁kłam": 8625,
      "ńską": 8626,
      "▁posiadanie": 8627,
      "dzimy": 8628,
      "▁twórcz": 8629,
      "▁uważam": 8630,
      "kowego": 8631,
      "▁zachować": 8632,
      "szpa": 8633,
      "▁liczbie": 8634,
      "▁nastro": 8635,
      "▁meta": 8636,
      "▁spore": 8637,
      "▁stosowania": 8638,
      "▁wyb": 8639,
      "nastu": 8640,
      "nicja": 8641,
      "pen": 8642,
      "▁autorka": 8643,
      "▁rozczar": 8644,
      "szak": 8645,
      "lenda": 8646,
      "▁więzie": 8647,
      "▁Sza": 8648,
      "owana,": 8649,
      "▁klik": 8650,
      "anka": 8651,
      "▁poe": 8652,
      "▁najtańsze": 8653,
      "▁zakończy": 8654,
      "▁chemi": 8655,
      "▁emi": 8656,
      "▁idą": 8657,
      "łbym": 8658,
      "▁zaplan": 8659,
      "▁świata.": 8660,
      "▁papiero": 8661,
      "▁następujące": 8662,
      "▁główne": 8663,
      "szczonych": 8664,
      "▁Ukrai": 8665,
      "▁zio": 8666,
      "▁czasy": 8667,
      "▁jakos": 8668,
      "▁czekać": 8669,
      "▁aspek": 8670,
      "▁poga": 8671,
      "▁Hen": 8672,
      "jny": 8673,
      "▁wyraź": 8674,
      "▁Łu": 8675,
      "▁baterii": 8676,
      "▁gl": 8677,
      "▁kapi": 8678,
      "▁zrobienia": 8679,
      "▁Jaką": 8680,
      "▁efekcie": 8681,
      "▁złą": 8682,
      "jnie": 8683,
      "▁pojawiły": 8684,
      "kładać": 8685,
      "▁drzewa": 8686,
      "▁uczucia": 8687,
      "▁\"A": 8688,
      "▁postawi": 8689,
      "▁noś": 8690,
      "▁dziwi": 8691,
      "▁centy": 8692,
      "czonej": 8693,
      "▁wrócić": 8694,
      "▁kwestii": 8695,
      "▁poprawi": 8696,
      "▁mai": 8697,
      "▁oprac": 8698,
      "▁czyt": 8699,
      "▁wykład": 8700,
      "▁znana": 8701,
      "szają": 8702,
      "▁nazywa": 8703,
      "żar": 8704,
      "▁bliżej": 8705,
      "▁sali": 8706,
      "terii": 8707,
      "łby": 8708,
      "▁niewielkie": 8709,
      "▁Nowoczesne": 8710,
      "27": 8711,
      "▁Para": 8712,
      "▁złego": 8713,
      "dnym": 8714,
      "▁podzespo": 8715,
      "▁Win": 8716,
      "▁związanych": 8717,
      "▁zrobię": 8718,
      "▁walki": 8719,
      "▁ekspery": 8720,
      ".\nNi": 8721,
      "▁obsługu": 8722,
      "waża": 8723,
      "dba": 8724,
      "żenia,": 8725,
      "▁książki,": 8726,
      "onach": 8727,
      "▁Kor": 8728,
      "dnego": 8729,
      "▁dają": 8730,
      "▁cech": 8731,
      "ys": 8732,
      "▁zawierają": 8733,
      "▁rozmaitych": 8734,
      "▁niedługo": 8735,
      "▁Najpopular": 8736,
      "▁Tymczasem": 8737,
      "▁San": 8738,
      "▁wch": 8739,
      "▁świado": 8740,
      "▁Friday": 8741,
      "▁koszt": 8742,
      "▁warzyw": 8743,
      "▁Jezus": 8744,
      "▁niespodzia": 8745,
      "▁połączenia": 8746,
      "▁modeli,": 8747,
      "▁zasad": 8748,
      "rach.": 8749,
      "▁wyglada": 8750,
      "zz": 8751,
      "▁POCO": 8752,
      "▁twojej": 8753,
      "▁znać": 8754,
      "obraż": 8755,
      "dzisz": 8756,
      "dają": 8757,
      "▁Smartfon": 8758,
      "▁dawna": 8759,
      "▁Według": 8760,
      "▁pomyśle": 8761,
      "\njak": 8762,
      "▁rozs": 8763,
      "▁obywa": 8764,
      "▁boi": 8765,
      "▁kła": 8766,
      "wiga": 8767,
      "▁miejscach": 8768,
      "▁ciaste": 8769,
      "rowanie": 8770,
      "▁krew": 8771,
      "▁materaca": 8772,
      "▁pisałam": 8773,
      "▁Szyb": 8774,
      "▁jak:": 8775,
      "▁dowód": 8776,
      "problem": 8777,
      "▁Ani": 8778,
      "cielem": 8779,
      "▁koro": 8780,
      "\nMam": 8781,
      "▁humo": 8782,
      "▁maga": 8783,
      "▁spośród": 8784,
      "▁salonu": 8785,
      "▁człowieka,": 8786,
      "▁Warszawie": 8787,
      "owicz": 8788,
      "▁wizer": 8789,
      "ie.": 8790,
      "▁gre": 8791,
      "▁kle": 8792,
      "▁Każda": 8793,
      "dem.": 8794,
      "▁długim": 8795,
      "▁wzboga": 8796,
      "▁boję": 8797,
      "dniego": 8798,
      "▁1,5": 8799,
      "iera": 8800,
      "▁czaso": 8801,
      "▁chroni": 8802,
      "▁metal": 8803,
      "▁wymienia": 8804,
      "▁posiad": 8805,
      "rzyła": 8806,
      "▁bieg": 8807,
      "▁pasoży": 8808,
      "żni": 8809,
      "te.": 8810,
      "▁damskie": 8811,
      "▁pozytywnie": 8812,
      "▁nieodłącznym": 8813,
      "sfak": 8814,
      "▁sprawą": 8815,
      "▁dynami": 8816,
      "mimo": 8817,
      "▁(D": 8818,
      "▁niemowlę": 8819,
      "▁drzew": 8820,
      "▁samochodu": 8821,
      "▁ogrod": 8822,
      "▁przyznać,": 8823,
      "▁dni.": 8824,
      "▁wydarzenia": 8825,
      "▁artykuł": 8826,
      "liwym": 8827,
      "czać": 8828,
      "fii": 8829,
      "mierza": 8830,
      "▁Książka": 8831,
      "▁byłby": 8832,
      "▁Społe": 8833,
      "▁mógłby": 8834,
      "▁pary": 8835,
      "poko": 8836,
      "▁Kas": 8837,
      "▁powiedz": 8838,
      "▁wpisu": 8839,
      "▁uzyskać": 8840,
      "▁Pewnie": 8841,
      "tką": 8842,
      "rzam": 8843,
      "tykie": 8844,
      "▁mistrzo": 8845,
      "ciwie": 8846,
      "▁sprzyja": 8847,
      "▁tenden": 8848,
      "▁prote": 8849,
      "▁byle": 8850,
      "▁zastąpić": 8851,
      "▁edycji": 8852,
      "▁gdybym": 8853,
      "▁przybli": 8854,
      "▁Her": 8855,
      "▁mebli": 8856,
      "▁zwróci": 8857,
      "▁opan": 8858,
      "▁szampon": 8859,
      "▁wybor": 8860,
      "wielbiam": 8861,
      "ema": 8862,
      "▁Amery": 8863,
      "▁poszukiwania": 8864,
      "▁baz": 8865,
      "▁Pierwsza": 8866,
      "▁dziwne": 8867,
      "▁mysz": 8868,
      "▁Niech": 8869,
      "▁nebu": 8870,
      "uch": 8871,
      "▁wyborem?": 8872,
      "▁alternatyw": 8873,
      "warki": 8874,
      "▁co,": 8875,
      "▁(tak": 8876,
      "▁kaza": 8877,
      "▁literatury": 8878,
      "▁broni": 8879,
      "▁agen": 8880,
      "?\nJe": 8881,
      "▁prezyden": 8882,
      "rach,": 8883,
      "lnie)": 8884,
      "▁szef": 8885,
      "▁Stani": 8886,
      "▁rodzinie": 8887,
      "▁hobby": 8888,
      "sko-": 8889,
      "▁zaczynam": 8890,
      "mum": 8891,
      "▁Ol": 8892,
      "▁Pora": 8893,
      "towych": 8894,
      "11": 8895,
      "▁chodzić": 8896,
      "▁zapachów": 8897,
      "▁poniższego": 8898,
      "▁Moni": 8899,
      "▁dosłownie": 8900,
      "sze.": 8901,
      "\njest": 8902,
      "▁umiejętności": 8903,
      "▁sztuki": 8904,
      "▁szkoły.": 8905,
      "▁przeka": 8906,
      "▁gigan": 8907,
      "▁tęsk": 8908,
      "ine": 8909,
      "▁posie": 8910,
      "▁akumula": 8911,
      "▁natury": 8912,
      "▁er": 8913,
      "łymi": 8914,
      "▁Przedstawiamy": 8915,
      "▁upad": 8916,
      "▁2008": 8917,
      "▁będąc": 8918,
      "▁Łat": 8919,
      "▁żadne": 8920,
      "car": 8921,
      "▁Europej": 8922,
      "cisz": 8923,
      "▁Ri": 8924,
      "▁ma,": 8925,
      "▁wiąże": 8926,
      "▁przejść": 8927,
      "kowo": 8928,
      "toni": 8929,
      "▁los": 8930,
      "▁gorąco": 8931,
      "▁termo": 8932,
      "ba,": 8933,
      "▁ostatecznie": 8934,
      "▁zatru": 8935,
      "▁słody": 8936,
      "MI": 8937,
      "ownicy": 8938,
      "▁bohatera": 8939,
      "trafi": 8940,
      "▁ludzie,": 8941,
      "▁jakbym": 8942,
      "kamy": 8943,
      "▁radość": 8944,
      "▁poczucie": 8945,
      "▁naci": 8946,
      "▁recep": 8947,
      "▁posy": 8948,
      "▁hote": 8949,
      "▁kół": 8950,
      "▁mokre": 8951,
      "▁hormo": 8952,
      "▁filozo": 8953,
      "gosłu": 8954,
      "▁cal": 8955,
      "▁boli": 8956,
      "nny": 8957,
      "▁bardziej,": 8958,
      "▁proś": 8959,
      "▁Ogólnie": 8960,
      "tuł": 8961,
      "▁gnia": 8962,
      "▁waha": 8963,
      "▁utrzymać": 8964,
      "mont": 8965,
      "▁małą": 8966,
      "▁kiep": 8967,
      "?\nZ": 8968,
      "▁regene": 8969,
      "▁okrę": 8970,
      "▁Naro": 8971,
      "ksy": 8972,
      "▁wszech": 8973,
      "▁znaku": 8974,
      "▁zakupiony": 8975,
      "▁akadem": 8976,
      "uj": 8977,
      "▁zachowania": 8978,
      "▁mówi,": 8979,
      "▁mieszkańców": 8980,
      "▁(19": 8981,
      "Mo": 8982,
      "▁szeroki": 8983,
      "robić": 8984,
      "▁konkuren": 8985,
      "▁jakis": 8986,
      "▁feromo": 8987,
      "▁gum": 8988,
      "▁uwo": 8989,
      "▁wio": 8990,
      "▁ubrania": 8991,
      "▁ścież": 8992,
      "▁kandy": 8993,
      "try,": 8994,
      "▁paru": 8995,
      "▁Gro": 8996,
      "kową": 8997,
      "▁35": 8998,
      "AK": 8999,
      "▁urucho": 9000,
      "tura(": 9001,
      "▁piszą": 9002,
      "▁nadmia": 9003,
      "rę,": 9004,
      "▁perfumy,": 9005,
      "▁nigdzie": 9006,
      "ziewczyny": 9007,
      "▁spodnie": 9008,
      "zdr": 9009,
      "▁wesz": 9010,
      "▁niebo": 9011,
      "▁doros": 9012,
      "▁miejscowości": 9013,
      "▁czekają": 9014,
      "▁Piotr": 9015,
      "▁ryzyko": 9016,
      "P,": 9017,
      "▁poznasz": 9018,
      "▁więcej.": 9019,
      "tura(lnie)": 9020,
      "linar": 9021,
      "sku.": 9022,
      "▁wydajność,": 9023,
      "▁dobrane": 9024,
      "▁kolejna": 9025,
      "▁wysoko": 9026,
      "▁wiecej": 9027,
      "▁spróbu": 9028,
      "▁dziesię": 9029,
      "▁szybki": 9030,
      "▁przygotowania": 9031,
      "▁cien": 9032,
      "pła": 9033,
      "\n(": 9034,
      "▁Sty": 9035,
      "▁wystąpi": 9036,
      "▁znajdziecie": 9037,
      "▁atrakcyjnych": 9038,
      "▁spie": 9039,
      "▁interesują": 9040,
      "cal": 9041,
      "▁codzienne": 9042,
      "▁Zresztą": 9043,
      "▁cokolwiek": 9044,
      "▁zaprojekt": 9045,
      "▁krótko": 9046,
      "▁przedsiębior": 9047,
      "▁flak": 9048,
      "▁zapraszam": 9049,
      "▁zato": 9050,
      "▁słoi": 9051,
      "▁kocham": 9052,
      "▁dodatkowych": 9053,
      "SZ": 9054,
      "▁nic,": 9055,
      "gres": 9056,
      "\nDo": 9057,
      "▁<<ULICA>>": 9058,
      "▁dotk": 9059,
      "ujesz": 9060,
      "wam,": 9061,
      "▁mniejsze": 9062,
      "▁zostawi": 9063,
      "cha.": 9064,
      "▁Lek": 9065,
      "▁podrę": 9066,
      "▁spory": 9067,
      "▁rzeczy.": 9068,
      "▁Które": 9069,
      "▁świadomości": 9070,
      "▁Mówi": 9071,
      "▁powrotem": 9072,
      "▁roze": 9073,
      "pa,": 9074,
      "▁wiecie": 9075,
      "▁Ważne": 9076,
      "vo": 9077,
      "▁środek": 9078,
      "▁Gar": 9079,
      "▁Rober": 9080,
      "▁Miałam": 9081,
      "▁spędza": 9082,
      "▁Oczyszcza": 9083,
      "▁leżą": 9084,
      "angaż": 9085,
      "''": 9086,
      "▁kolejną": 9087,
      "▁wpi": 9088,
      "▁idę": 9089,
      "▁wojen": 9090,
      "▁fotograf": 9091,
      "▁\"O": 9092,
      "▁żona": 9093,
      "jący,": 9094,
      "▁mary": 9095,
      "▁Ponieważ": 9096,
      "lików": 9097,
      "▁Czasami": 9098,
      "▁ustawi": 9099,
      "▁pośredni": 9100,
      "▁porta": 9101,
      "▁chłopaka": 9102,
      "▁ciepła": 9103,
      "▁słuchać": 9104,
      "czku": 9105,
      ".\nWi": 9106,
      "▁zadanie": 9107,
      "▁mięso": 9108,
      "cznik": 9109,
      ".\nJestem": 9110,
      "nal": 9111,
      "▁naprawde": 9112,
      "▁niekiedy": 9113,
      "▁ojca": 9114,
      "▁jakości,": 9115,
      "▁metrów": 9116,
      "h.": 9117,
      "▁zgi": 9118,
      "▁ofertę": 9119,
      "▁ok,": 9120,
      "alam": 9121,
      "▁formę": 9122,
      "▁prania": 9123,
      "▁przystos": 9124,
      "▁widzisz": 9125,
      "czą,": 9126,
      "▁pobu": 9127,
      "▁czystości": 9128,
      "▁„K": 9129,
      "RE": 9130,
      "pem": 9131,
      "cyna": 9132,
      "▁władzy": 9133,
      "▁mogłabym": 9134,
      "liwej": 9135,
      "▁piek": 9136,
      "▁et": 9137,
      "▁Dopiero": 9138,
      "▁Zdecyd": 9139,
      "▁wodo": 9140,
      "▁Czu": 9141,
      "▁listy": 9142,
      "▁szczególną": 9143,
      "ujemy": 9144,
      "▁podpowie": 9145,
      "▁zakres": 9146,
      "czyć.": 9147,
      "▁studiów": 9148,
      "▁pała": 9149,
      "▁Por": 9150,
      "▁konser": 9151,
      "▁pras": 9152,
      "?\nTo": 9153,
      "bek": 9154,
      "skać": 9155,
      "cem,": 9156,
      "▁interesuje": 9157,
      "▁bom": 9158,
      "▁marke": 9159,
      "▁podwój": 9160,
      "▁dodajemy": 9161,
      "▁skrę": 9162,
      "▁większy": 9163,
      "cjom": 9164,
      "dłam": 9165,
      "▁kotów": 9166,
      "▁jedne": 9167,
      "tarzy": 9168,
      "▁kręgosłu": 9169,
      "sem,": 9170,
      "▁kasz": 9171,
      "▁Cer": 9172,
      "jazd": 9173,
      "szalne.": 9174,
      "▁powiedziała": 9175,
      "ery": 9176,
      "nikach": 9177,
      "▁(za": 9178,
      "szel": 9179,
      "▁użyte": 9180,
      "▁sprzed": 9181,
      "▁wilgo": 9182,
      "▁pale": 9183,
      "2,": 9184,
      "▁wyposażeniem": 9185,
      "dujemy": 9186,
      "▁móc": 9187,
      "▁uzysk": 9188,
      "szem,": 9189,
      "fumy": 9190,
      "▁problem.": 9191,
      "▁odwo": 9192,
      "▁otoczenia": 9193,
      "▁kupić?": 9194,
      "▁dziennie": 9195,
      "▁ochron": 9196,
      "anna": 9197,
      "▁karmi": 9198,
      "rują": 9199,
      "\")": 9200,
      "cją,": 9201,
      "▁fio": 9202,
      "▁Muszę": 9203,
      "▁zespołu": 9204,
      "▁dysko": 9205,
      "rąg": 9206,
      "de,": 9207,
      "▁wzajem": 9208,
      "świado": 9209,
      "▁odbior": 9210,
      "▁myślałam,": 9211,
      "▁korek": 9212,
      "▁studiu": 9213,
      "dziale": 9214,
      "żym": 9215,
      "▁Ża": 9216,
      "▁charakteryzują": 9217,
      "▁struk": 9218,
      "▁wysp": 9219,
      "▁układa": 9220,
      "żoną": 9221,
      "▁dał": 9222,
      "▁sytuacji,": 9223,
      "▁znaleź": 9224,
      "▁wró": 9225,
      "▁Twojej": 9226,
      "▁muzyki.": 9227,
      "▁Polaków": 9228,
      "▁biznes": 9229,
      "AT": 9230,
      "▁obra": 9231,
      "▁dlu": 9232,
      "▁nauczyciel": 9233,
      "-19": 9234,
      "e.": 9235,
      "▁Ranki": 9236,
      "▁utrzymy": 9237,
      "▁diety": 9238,
      "racja": 9239,
      "▁wyjazd": 9240,
      "ryj": 9241,
      "▁zago": 9242,
      "▁zag": 9243,
      "bij": 9244,
      "▁fotel": 9245,
      "▁filmie": 9246,
      "▁Czer": 9247,
      "▁wypowiedzi": 9248,
      "stwem": 9249,
      "wio": 9250,
      "▁minimal": 9251,
      "▁przycze": 9252,
      "▁pewna": 9253,
      "obowią": 9254,
      "▁ciekawy": 9255,
      "▁31": 9256,
      "▁odej": 9257,
      "▁płyty": 9258,
      "▁kuchni.": 9259,
      "▁dbać": 9260,
      "▁nadają": 9261,
      "▁znany": 9262,
      "akra": 9263,
      "▁Wielu": 9264,
      "▁liczne": 9265,
      "▁bardzo,": 9266,
      "▁lato": 9267,
      "▁łyżki": 9268,
      "▁eli": 9269,
      "wość": 9270,
      "▁złe": 9271,
      "▁Korzysta": 9272,
      "▁gimna": 9273,
      "▁przyjecha": 9274,
      "▁tys.": 9275,
      "▁żadnym": 9276,
      "▁piękny": 9277,
      "ychać": 9278,
      "bierz": 9279,
      "▁największą": 9280,
      "!\nW": 9281,
      "amią": 9282,
      "żyła": 9283,
      "D.": 9284,
      "▁Con": 9285,
      "▁znalazła": 9286,
      "▁ogród": 9287,
      "▁fał": 9288,
      "▁aparaty": 9289,
      "▁chwa": 9290,
      "▁włosy,": 9291,
      "▁przekro": 9292,
      "▁real": 9293,
      "▁dziecku": 9294,
      "▁Kolor": 9295,
      "cze.": 9296,
      "▁powstał": 9297,
      "\nHej": 9298,
      "▁przyszłość": 9299,
      "▁powiedział,": 9300,
      "▁naraz": 9301,
      "▁najlepszego": 9302,
      "▁przemysł": 9303,
      "łać": 9304,
      "???": 9305,
      "▁prom": 9306,
      "grzewa": 9307,
      "okie": 9308,
      "5.": 9309,
      "▁dokon": 9310,
      "▁wyróżniają": 9311,
      "arka": 9312,
      "▁dół": 9313,
      "▁mąki": 9314,
      "▁suger": 9315,
      "▁kierować": 9316,
      "sman": 9317,
      "▁dostar": 9318,
      "PI": 9319,
      "▁rosną": 9320,
      "▁sensie": 9321,
      "cznym.": 9322,
      "ane.": 9323,
      "▁ostatniej": 9324,
      "▁Wę": 9325,
      "Do": 9326,
      ".....": 9327,
      "▁bliski": 9328,
      "▁podkreś": 9329,
      "▁podpowiadamy,": 9330,
      "▁piękna": 9331,
      "▁artykule.": 9332,
      "▁pomysłów": 9333,
      "owana.": 9334,
      "▁ewentualnie": 9335,
      "▁umiem": 9336,
      "▁kolorów": 9337,
      "▁kurcz": 9338,
      "▁Ranking": 9339,
      "▁db": 9340,
      "▁niezależnie": 9341,
      "▁Ona": 9342,
      "▁zabrać": 9343,
      "▁porusza": 9344,
      "nisty": 9345,
      "▁zakłada": 9346,
      "ham": 9347,
      "▁posty": 9348,
      "▁dziwnego,": 9349,
      "▁Sku": 9350,
      "▁impreza": 9351,
      "▁stałe": 9352,
      "▁zapamię": 9353,
      "ościach,": 9354,
      "▁Smartwat": 9355,
      "więki": 9356,
      "▁zestawienie": 9357,
      "▁Chodzi": 9358,
      "▁180": 9359,
      "NY": 9360,
      "▁porównanie": 9361,
      "▁łagod": 9362,
      "▁Trzy": 9363,
      "▁ekspertów": 9364,
      "▁tobą": 9365,
      "▁pamiętać,": 9366,
      "▁uczucie": 9367,
      "▁ekologi": 9368,
      "▁twoich": 9369,
      "rzałem": 9370,
      "▁przegląda": 9371,
      "▁długości": 9372,
      "▁charakterystyczne": 9373,
      "każ": 9374,
      "▁nieź": 9375,
      "▁th": 9376,
      "rza,": 9377,
      "▁konf": 9378,
      "▁sypialni": 9379,
      "▁przyjdzie": 9380,
      "▁głowy.": 9381,
      "\nF": 9382,
      "▁iry": 9383,
      ",7": 9384,
      "▁poleca": 9385,
      "▁środków": 9386,
      "▁znajdą": 9387,
      "dując": 9388,
      ".\nPod": 9389,
      "▁pojawiła": 9390,
      "tus": 9391,
      "▁Szczególnie": 9392,
      "▁wyprób": 9393,
      "▁półki": 9394,
      "▁centyme": 9395,
      "owska": 9396,
      "▁klub": 9397,
      "▁najlepszej": 9398,
      "▁stare": 9399,
      "szku": 9400,
      "▁obuwia": 9401,
      "▁wyjaśni": 9402,
      "▁miaste": 9403,
      "▁samochód": 9404,
      "▁autobu": 9405,
      "▁metody": 9406,
      "pij": 9407,
      "▁dysk": 9408,
      "▁baterią": 9409,
      "▁bezpieczny": 9410,
      "dry": 9411,
      "▁podpowiedzi": 9412,
      "▁Mikoła": 9413,
      "▁odbywa": 9414,
      "▁samemu": 9415,
      "▁charakteryzuje": 9416,
      "▁starych": 9417,
      "▁garść": 9418,
      "▁Lud": 9419,
      "▁syna": 9420,
      "▁di": 9421,
      "▁Było": 9422,
      "▁wyprowa": 9423,
      "▁co?": 9424,
      "▁zdje": 9425,
      "mii": 9426,
      "▁Kilka": 9427,
      "godzi": 9428,
      "▁człowieka.": 9429,
      "▁przeglą": 9430,
      ".\"": 9431,
      "▁wzmacnia": 9432,
      "▁uka": 9433,
      "▁Tur": 9434,
      "▁jezio": 9435,
      ":\n-": 9436,
      "▁chociażby": 9437,
      "▁pytanie:": 9438,
      "▁Th": 9439,
      "posa": 9440,
      "▁podda": 9441,
      "pie.": 9442,
      "▁rusz": 9443,
      "nania": 9444,
      "▁widzę,": 9445,
      "▁piw": 9446,
      "▁szereg": 9447,
      "▁chmu": 9448,
      "▁grzej": 9449,
      "▁partne": 9450,
      "▁Polsce.": 9451,
      "zy.": 9452,
      "▁prostych": 9453,
      "▁Gda": 9454,
      "▁lada": 9455,
      "▁zapobiega": 9456,
      "▁cery": 9457,
      "trak": 9458,
      "▁kurz": 9459,
      "ponujemy": 9460,
      "▁srebr": 9461,
      "▁odżywia": 9462,
      "cymi": 9463,
      "▁postawić": 9464,
      "▁Czyli": 9465,
      "dium": 9466,
      "▁mniejsza": 9467,
      "▁okru": 9468,
      "▁wynik": 9469,
      "–19": 9470,
      "▁Pozdrawiam": 9471,
      "jące.": 9472,
      "▁ruchu": 9473,
      "▁nebuliza": 9474,
      "strak": 9475,
      "▁skupia": 9476,
      "▁poradzić": 9477,
      "▁popa": 9478,
      "gli": 9479,
      "szty": 9480,
      "▁kawę": 9481,
      "▁Otóż": 9482,
      "▁Mał": 9483,
      "wiązy": 9484,
[...]
