{
  "version": "1.0",
  "truncation": null,
  "padding": null,
  "added_tokens": [
    {
      "id": 0,
      "content": "<UNK>",
      "single_word": false,
      "lstrip": false,
      "rstrip": false,
      "normalized": false,
      "special": true
    },
    {
      "id": 1,
      "content": "<BOS>",
      "single_word": false,
      "lstrip": false,
      "rstrip": false,
      "normalized": false,
      "special": true
    },
    {
      "id": 2,
      "content": "<PAD>",
      "single_word": false,
      "lstrip": false,
      "rstrip": false,
      "normalized": false,
      "special": true
    },
    {
      "id": 3,
      "content": "<EOS>",
      "single_word": false,
      "lstrip": false,
      "rstrip": false,
      "normalized": false,
      "special": true
    }
  ],
  "normalizer": {
    "type": "Sequence",
    "normalizers": [
      {
        "type": "NFKC"
      },
      {
        "type": "Replace",
        "pattern": {
          "Regex": " {2,}"
        },
        "content": " "
      }
    ]
  },
  "pre_tokenizer": {
    "type": "Metaspace",
    "replacement": "▁",
    "prepend_scheme": "always",
    "split": true
  },
  "post_processor": {
    "type": "TemplateProcessing",
    "single": [
      {
        "SpecialToken": {
          "id": "<BOS>",
          "type_id": 0
        }
      },
      {
        "Sequence": {
          "id": "A",
          "type_id": 0
        }
      },
      {
        "SpecialToken": {
          "id": "<EOS>",
          "type_id": 0
        }
      }
    ],
    "pair": [
      {
        "SpecialToken": {
          "id": "<BOS>",
          "type_id": 0
        }
      },
      {
        "Sequence": {
          "id": "A",
          "type_id": 0
        }
      },
      {
        "SpecialToken": {
          "id": "<EOS>",
          "type_id": 0
        }
      },
      {
        "Sequence": {
          "id": "B",
          "type_id": 1
        }
      },
      {
        "SpecialToken": {
          "id": "<EOS>",
          "type_id": 1
        }
      }
    ],
    "special_tokens": {
      "<BOS>": {
        "id": "<BOS>",
        "ids": [
          1
        ],
        "tokens": [
          "<BOS>"
        ]
      },
      "<EOS>": {
        "id": "<EOS>",
        "ids": [
          3
        ],
        "tokens": [
          "<EOS>"
        ]
      }
    }
  },
  "decoder": {
    "type": "Sequence",
    "decoders": [
      {
        "type": "Metaspace",
        "replacement": "▁",
        "prepend_scheme": "always",
        "split": true
      },
      {
        "type": "ByteFallback"
      }
    ]
  },
  "model": {
    "type": "BPE",
    "dropout": 0.1,
    "unk_token": "<UNK>",
    "continuing_subword_prefix": null,
    "end_of_word_suffix": null,
    "fuse_unk": true,
    "byte_fallback": true,
    "ignore_merges": false,
    "vocab": {
      "<UNK>": 0,
      "<BOS>": 1,
      "<PAD>": 2,
      "<EOS>": 3,
      "\t": 4,
      "\n": 5,
      "\u000b": 6,
      "\f": 7,
      "\r": 8,
      " ": 9,
      "!": 10,
      "\"": 11,
      "#": 12,
      "$": 13,
      "%": 14,
      "&": 15,
      "'": 16,
      "(": 17,
      ")": 18,
      "*": 19,
      "+": 20,
      ",": 21,
      "-": 22,
      ".": 23,
      "/": 24,
      "0": 25,
      "1": 26,
      "2": 27,
      "3": 28,
      "4": 29,
      "5": 30,
      "6": 31,
      "7": 32,
      "8": 33,
      "9": 34,
      ":": 35,
      ";": 36,
      "<": 37,
      "=": 38,
      ">": 39,
      "?": 40,
      "@": 41,
      "A": 42,
      "B": 43,
      "C": 44,
      "D": 45,
      "E": 46,
      "F": 47,
      "G": 48,
      "H": 49,
      "I": 50,
      "J": 51,
      "K": 52,
      "L": 53,
      "M": 54,
      "N": 55,
      "O": 56,
      "P": 57,
      "Q": 58,
      "R": 59,
      "S": 60,
      "T": 61,
      "U": 62,
      "V": 63,
      "W": 64,
      "X": 65,
      "Y": 66,
      "Z": 67,
      "[": 68,
      "\\": 69,
      "]": 70,
      "^": 71,
      "_": 72,
      "`": 73,
      "a": 74,
      "b": 75,
      "c": 76,
      "d": 77,
      "e": 78,
      "f": 79,
      "g": 80,
      "h": 81,
      "i": 82,
      "j": 83,
      "k": 84,
      "l": 85,
      "m": 86,
      "n": 87,
      "o": 88,
      "p": 89,
      "q": 90,
      "r": 91,
      "s": 92,
      "t": 93,
      "u": 94,
      "v": 95,
      "w": 96,
      "x": 97,
      "y": 98,
      "z": 99,
      "{": 100,
      "|": 101,
      "}": 102,
      "~": 103,
      "Ó": 104,
      "ó": 105,
      "Ą": 106,
      "ą": 107,
      "Ć": 108,
      "ć": 109,
      "Ę": 110,
      "ę": 111,
      "Ł": 112,
      "ł": 113,
      "Ń": 114,
      "ń": 115,
      "Ś": 116,
      "ś": 117,
      "Ź": 118,
      "ź": 119,
      "Ż": 120,
      "ż": 121,
      " ": 122,
      "▁": 123,
      "ie": 124,
      "▁p": 125,
      "▁s": 126,
      "▁w": 127,
      "▁n": 128,
      "▁z": 129,
      "rz": 130,
      "cz": 131,
      "ch": 132,
      "▁t": 133,
      "▁d": 134,
      "▁m": 135,
      "ał": 136,
      "sz": 137,
      "▁o": 138,
      "ię": 139,
      "▁j": 140,
      "▁i": 141,
      "ow": 142,
      "an": 143,
      "▁k": 144,
      "st": 145,
      "dz": 146,
      "▁na": 147,
      "ra": 148,
      "▁po": 149,
      "go": 150,
      "▁b": 151,
      "ro": 152,
      "rze": 153,
      "▁nie": 154,
      "em": 155,
      "ci": 156,
      "nie": 157,
      "▁się": 158,
      "ni": 159,
      "li": 160,
      "ak": 161,
      ".\n": 162,
      "le": 163,
      "▁za": 164,
      "▁do": 165,
      "rzy": 166,
      "ła": 167,
      "▁je": 168,
      "ar": 169,
      "ło": 170,
      "na": 171,
      "że": 172,
      "wi": 173,
      "▁u": 174,
      "ny": 175,
      "ne": 176,
      "am": 177,
      "ko": 178,
      "▁g": 179,
      "▁a": 180,
      "▁c": 181,
      "ka": 182,
      "▁wy": 183,
      "ki": 184,
      "ąc": 185,
      "czy": 186,
      "dy": 187,
      "▁prze": 188,
      "dzi": 189,
      "ów": 190,
      "ry": 191,
      "aj": 192,
      "by": 193,
      "cie": 194,
      "at": 195,
      "wo": 196,
      "ego": 197,
      "▁st": 198,
      "szy": 199,
      "▁P": 200,
      "no": 201,
      "dzie": 202,
      "ści": 203,
      "ej": 204,
      "wa": 205,
      "▁od": 206,
      "▁by": 207,
      "▁jak": 208,
      "▁że": 209,
      "▁to": 210,
      "▁przy": 211,
      "kie": 212,
      "..": 213,
      "la": 214,
      "mi": 215,
      "tó": 216,
      "po": 217,
      "a,": 218,
      "▁ch": 219,
      "▁ro": 220,
      "ad": 221,
      "▁mi": 222,
      "▁W": 223,
      "▁cz": 224,
      "▁mo": 225,
      "▁któ": 226,
      "ani": 227,
      "ną": 228,
      "re": 229,
      "ły": 230,
      "wie": 231,
      "▁sz": 232,
      "▁ko": 233,
      "bie": 234,
      "ała": 235,
      "▁ni": 236,
      "ży": 237,
      "▁N": 238,
      "ru": 239,
      "si": 240,
      "▁ś": 241,
      "cze": 242,
      "▁ty": 243,
      "owie": 244,
      "mie": 245,
      "ku": 246,
      "ró": 247,
      "▁A": 248,
      "ty": 249,
      "▁wie": 250,
      "er": 251,
      "en": 252,
      "ać": 253,
      "lu": 254,
      "▁M": 255,
      "▁go": 256,
      "▁S": 257,
      "▁tak": 258,
      "łu": 259,
      "ść": 260,
      "▁T": 261,
      "▁dz": 262,
      "ce": 263,
      "▁B": 264,
      "to": 265,
      "my": 266,
      "je": 267,
      "cy": 268,
      "raz": 269,
      "▁C": 270,
      "sze": 271,
      "as": 272,
      "▁roz": 273,
      "▁J": 274,
      "▁pod": 275,
      "▁co": 276,
      "wy": 277,
      "▁ob": 278,
      "owi": 279,
      "bi": 280,
      ",\n": 281,
      "▁wi": 282,
      "▁Z": 283,
      "▁jest": 284,
      "▁K": 285,
      "te": 286,
      "nia": 287,
      "ały": 288,
      "▁mu": 289,
      "da": 290,
      "anie": 291,
      "ami": 292,
      "ta": 293,
      "▁O": 294,
      "pi": 295,
      "▁D": 296,
      "ało": 297,
      "rę": 298,
      "al": 299,
      "ając": 300,
      "pie": 301,
      "u,": 302,
      "owa": 303,
      "nych": 304,
      "ob": 305,
      "zy": 306,
      "uż": 307,
      "ja": 308,
      "▁jed": 309,
      "▁pan": 310,
      "ą,": 311,
      "▁lu": 312,
      "▁te": 313,
      "gi": 314,
      "▁Nie": 315,
      "▁sp": 316,
      "ąd": 317,
      "...": 318,
      "ez": 319,
      "nę": 320,
      "▁dzie": 321,
      "nego": 322,
      "m,": 323,
      "▁mó": 324,
      "▁spo": 325,
      "▁Po": 326,
      "mu": 327,
      "\n\n": 328,
      "szyst": 329,
      "ach": 330,
      "lo": 331,
      "▁bo": 332,
      "▁pra": 333,
      "▁ci": 334,
      "▁le": 335,
      "niej": 336,
      "ski": 337,
      "tu": 338,
      "▁wo": 339,
      "do": 340,
      "▁który": 341,
      "▁ży": 342,
      "cho": 343,
      "bo": 344,
      "▁rze": 345,
      "▁jego": 346,
      "▁ale": 347,
      "▁już": 348,
      "we": 349,
      "em,": 350,
      "mo": 351,
      "▁gdy": 352,
      "▁ż": 353,
      "lko": 354,
      "jąc": 355,
      "any": 356,
      "ma": 357,
      "sta": 358,
      "▁f": 359,
      "nej": 360,
      "ę,": 361,
      "▁czy": 362,
      "▁\n": 363,
      "ca": 364,
      "wał": 365,
      "▁ka": 366,
      "▁mie": 367,
      "▁wszyst": 368,
      "▁R": 369,
      "skie": 370,
      "▁sam": 371,
      "▁pie": 372,
      "▁G": 373,
      "▁mnie": 374,
      "▁I": 375,
      "▁ze": 376,
      "ją": 377,
      "▁jej": 378,
      "▁dla": 379,
      "ek": 380,
      "▁był": 381,
      "ba": 382,
      "szcze": 383,
      "nym": 384,
      "or": 385,
      "czę": 386,
      "▁tylko": 387,
      "owy": 388,
      "▁naj": 389,
      "▁tego": 390,
      "▁h": 391,
      "▁przez": 392,
      "ch,": 393,
      "▁wię": 394,
      "▁so": 395,
      "▁było": 396,
      "▁wz": 397,
      "?\n": 398,
      "ności": 399,
      "▁przed": 400,
      "łem": 401,
      "▁L": 402,
      "ów,": 403,
      "śli": 404,
      "▁cie": 405,
      "▁zna": 406,
      "ałem": 407,
      "▁pow": 408,
      "▁któr": 409,
      "▁sk": 410,
      "▁pot": 411,
      "eł": 412,
      "▁zap": 413,
      "ję": 414,
      "▁in": 415,
      "▁bę": 416,
      "ście": 417,
      "ć,": 418,
      "os": 419,
      "!\n": 420,
      "▁ra": 421,
      "▁ma": 422,
      "wszy": 423,
      "czo": 424,
      "il": 425,
      "usz": 426,
      "nem": 427,
      "dzo": 428,
      "▁my": 429,
      "sto": 430,
      "▁gł": 431,
      "nie,": 432,
      "▁sobie": 433,
      "kiem": 434,
      "▁pro": 435,
      "▁dzi": 436,
      "▁swo": 437,
      "▁nad": 438,
      "sk": 439,
      "▁bez": 440,
      "▁sie": 441,
      "ew": 442,
      "▁jeszcze": 443,
      "nął": 444,
      "ania": 445,
      "sy": 446,
      "▁r": 447,
      "▁ku": 448,
      "▁da": 449,
      "du": 450,
      "ary": 451,
      "▁sw": 452,
      "▁poz": 453,
      "ga": 454,
      "ny,": 455,
      "▁tu": 456,
      ".\n\n": 457,
      "ół": 458,
      "kę": 459,
      "dział": 460,
      "▁li": 461,
      "▁więc": 462,
      "▁ja": 463,
      "▁bar": 464,
      "▁Na": 465,
      "▁rę": 466,
      "sty": 467,
      "ają": 468,
      "ąg": 469,
      ":\n": 470,
      "kł": 471,
      "▁powie": 472,
      "▁się,": 473,
      "▁dob": 474,
      "▁ich": 475,
      "▁ten": 476,
      "ska": 477,
      "▁raz": 478,
      "▁mówi": 479,
      "cia": 480,
      "lę": 481,
      "▁chwi": 482,
      "▁czas": 483,
      "▁[": 484,
      "▁świ": 485,
      "de": 486,
      "▁no": 487,
      "▁H": 488,
      "gł": 489,
      "▁op": 490,
      "▁aby": 491,
      "...\n": 492,
      "rzu": 493,
      "on": 494,
      "▁og": 495,
      "▁cho": 496,
      "▁we": 497,
      "nak": 498,
      "▁wła": 499,
      "ali": 500,
      "ój": 501,
      "wię": 502,
      "nik": 503,
      "się": 504,
      "▁Je": 505,
      "▁może": 506,
      "ano": 507,
      "ost": 508,
      "▁pi": 509,
      "im": 510,
      "▁wiel": 511,
      "▁ją": 512,
      "dze": 513,
      "śl": 514,
      "ował": 515,
      "ką": 516,
      "▁mog": 517,
      "▁odp": 518,
      "zu": 519,
      "śmy": 520,
      "owo": 521,
      "ki,": 522,
      "na,": 523,
      "sie": 524,
      "▁tem": 525,
      "▁Bo": 526,
      "▁kie": 527,
      "ność": 528,
      "▁pa": 529,
      "lat": 530,
      "▁du": 531,
      "ana": 532,
      "▁są": 533,
      "czą": 534,
      "łowie": 535,
      "▁pier": 536,
      "cu": 537,
      "tem": 538,
      "dł": 539,
      "▁si": 540,
      "▁będzie": 541,
      "spo": 542,
      "so": 543,
      "▁Ale": 544,
      "gie": 545,
      "▁bi": 546,
      "▁ła": 547,
      "▁tam": 548,
      "czu": 549,
      "bu": 550,
      "nię": 551,
      "ór": 552,
      "▁tej": 553,
      "▁dro": 554,
      "▁kró": 555,
      "▁była": 556,
      "wet": 557,
      "ane": 558,
      "ał,": 559,
      "▁zie": 560,
      "▁które": 561,
      "fi": 562,
      "el": 563,
      "sa": 564,
      "su": 565,
      "▁zd": 566,
      "ony": 567,
      "dzy": 568,
      "ł,": 569,
      "▁1": 570,
      "ka,": 571,
      "kła": 572,
      "ęp": 573,
      "ji": 574,
      "▁pani": 575,
      "▁ok": 576,
      "pra": 577,
      "▁F": 578,
      "▁sto": 579,
      "▁ser": 580,
      "▁on": 581,
      "sza": 582,
      "▁zn": 583,
      "▁ani": 584,
      "yt": 585,
      "▁pię": 586,
      "ować": 587,
      "▁To": 588,
      "▁Ch": 589,
      "róż": 590,
      "pad": 591,
      "niu": 592,
      "▁cał": 593,
      "▁słu": 594,
      "▁bardzo": 595,
      "▁nim": 596,
      "▁nawet": 597,
      "▁człowie": 598,
      "gu": 599,
      "ąż": 600,
      "▁dru": 601,
      "▁sł": 602,
      "▁gło": 603,
      "▁cię": 604,
      "▁śmie": 605,
      "zi": 606,
      "sł": 607,
      "▁gdzie": 608,
      "ńst": 609,
      "dni": 610,
      "dę": 611,
      "▁Za": 612,
      "stęp": 613,
      "ych": 614,
      "koj": 615,
      "▁jednak": 616,
      "ecz": 617,
      "▁sze": 618,
      "▁ta": 619,
      "▁U": 620,
      "▁jakie": 621,
      "▁tym": 622,
      "▁niez": 623,
      "▁być": 624,
      "▁mło": 625,
      "rzym": 626,
      "▁nic": 627,
      "ne,": 628,
      "li,": 629,
      "ur": 630,
      "▁ł": 631,
      "ich": 632,
      "sko": 633,
      "▁zaw": 634,
      "▁świat": 635,
      "co": 636,
      "▁wszystko": 637,
      "ast": 638,
      "▁re": 639,
      "et": 640,
      "▁miał": 641,
      "kich": 642,
      "▁oczy": 643,
      "ym": 644,
      "▁nas": 645,
      "ran": 646,
      "▁bra": 647,
      "▁rzekł": 648,
      "ków": 649,
      "▁każ": 650,
      "czas": 651,
      "▁ost": 652,
      "▁stra": 653,
      "▁dłu": 654,
      "róci": 655,
      "▁praw": 656,
      "niem": 657,
      "bli": 658,
      "▁ru": 659,
      "▁pu": 660,
      "chodzi": 661,
      "szedł": 662,
      "peł": 663,
      "aje": 664,
      "▁stro": 665,
      "▁E": 666,
      "mię": 667,
      "ona": 668,
      "óż": 669,
      "śnie": 670,
      "rza": 671,
      "ód": 672,
      "ku,": 673,
      "▁zło": 674,
      "▁niego": 675,
      "▁kiedy": 676,
      "▁ot": 677,
      "▁bu": 678,
      "▁spra": 679,
      "rowa": 680,
      "▁Jak": 681,
      "gdy": 682,
      "▁oj": 683,
      "ąt": 684,
      "eś": 685,
      "wać": 686,
      "sp": 687,
      "br": 688,
      "▁lub": 689,
      "▁siebie": 690,
      "▁teraz": 691,
      "szt": 692,
      "chy": 693,
      "▁mę": 694,
      "ot": 695,
      "▁mię": 696,
      "rzę": 697,
      "cznie": 698,
      "▁sy": 699,
      "▁lecz": 700,
      "zna": 701,
      "waż": 702,
      "▁bie": 703,
      "nu": 704,
      "▁też": 705,
      "dząc": 706,
      "▁Czy": 707,
      "▁jako": 708,
      "ród": 709,
      "skiego": 710,
      "▁pew": 711,
      "▁de": 712,
      "▁świe": 713,
      "dow": 714,
      "▁trze": 715,
      "▁star": 716,
      "stawi": 717,
      "▁(": 718,
      "k,": 719,
      "▁sta": 720,
      "▁miej": 721,
      "▁gro": 722,
      "war": 723,
      "j,": 724,
      "▁wa": 725,
      "▁Prze": 726,
      "▁Tak": 727,
      "nia,": 728,
      "szcz": 729,
      "emi": 730,
      "dź": 731,
      "▁twa": 732,
      "▁tych": 733,
      "bym": 734,
      "om": 735,
      "▁moż": 736,
      "ą.": 737,
      "ami,": 738,
      "pa": 739,
      "▁kil": 740,
      "▁tę": 741,
      "▁lat": 742,
      "▁dale": 743,
      "cha": 744,
      "▁By": 745,
      "ła,": 746,
      "▁stan": 747,
      "▁chci": 748,
      "▁musi": 749,
      "▁zw": 750,
      "kt": 751,
      "▁mat": 752,
      "emu": 753,
      "cie,": 754,
      "słu": 755,
      "▁zro": 756,
      "▁zaś": 757,
      "owe": 758,
      "▁miejs": 759,
      "szą": 760,
      "owiad": 761,
      "▁wszystkie": 762,
      "liśmy": 763,
      "rzą": 764,
      "kaz": 765,
      "wała": 766,
      "dził": 767,
      "▁e": 768,
      "gl": 769,
      "▁zak": 770,
      "▁niej": 771,
      "▁Co": 772,
      "▁która": 773,
      "▁mógł": 774,
      "one": 775,
      "ut": 776,
      "łości": 777,
      "zie": 778,
      "▁Mo": 779,
      "▁myśl": 780,
      "śmie": 781,
      "▁sło": 782,
      "▁iż": 783,
      "aty": 784,
      "un": 785,
      "siad": 786,
      "▁ry": 787,
      "ąz": 788,
      "▁two": 789,
      "▁kobie": 790,
      "dą": 791,
      "▁Wi": 792,
      "▁Do": 793,
      "szę": 794,
      "▁pat": 795,
      "czył": 796,
      "▁szczę": 797,
      "▁odpowie": 798,
      "szego": 799,
      "▁pięk": 800,
      "ć.": 801,
      "ec": 802,
      "▁mam": 803,
      "▁kra": 804,
      "▁ludzi": 805,
      "▁Wy": 806,
      "sła": 807,
      "stą": 808,
      "▁St": 809,
      "▁Przy": 810,
      "rac": 811,
      "nęła": 812,
      "rod": 813,
      "▁su": 814,
      "▁nich": 815,
      "ól": 816,
      "▁Cz": 817,
      "▁ba": 818,
      "kow": 819,
      "▁zawsze": 820,
      "prze": 821,
      "łą": 822,
      "▁zost": 823,
      "▁szy": 824,
      "▁im": 825,
      "i,": 826,
      "▁krzy": 827,
      "▁Ja": 828,
      "▁zwy": 829,
      "▁czu": 830,
      "strze": 831,
      "▁chło": 832,
      "▁Gdy": 833,
      "▁zu": 834,
      "ni,": 835,
      "tych": 836,
      "tow": 837,
      "▁kto": 838,
      "▁tru": 839,
      "▁ziemi": 840,
      "▁śmier": 841,
      "▁jakby": 842,
      "szych": 843,
      "▁tro": 844,
      "le,": 845,
      "żeli": 846,
      "ną,": 847,
      "ciw": 848,
      "dli": 849,
      "▁aż": 850,
      "▁Pan": 851,
      "▁którego": 852,
      "▁znaj": 853,
      "▁sko": 854,
      "▁wp": 855,
      "sz,": 856,
      "ce,": 857,
      "tk": 858,
      "rzał": 859,
      "▁koch": 860,
      "▁których": 861,
      "▁al": 862,
      "▁czę": 863,
      "scy": 864,
      "▁zam": 865,
      "ciąg": 866,
      "▁Mi": 867,
      "oł": 868,
      "um": 869,
      "▁spos": 870,
      "pu": 871,
      "▁głow": 872,
      "▁nam": 873,
      "▁podob": 874,
      "▁lo": 875,
      "wych": 876,
      "▁chwili": 877,
      "ono": 878,
      "▁żad": 879,
      "dzić": 880,
      "kry": 881,
      "art": 882,
      "▁to,": 883,
      "jem": 884,
      "cę": 885,
      "ty,": 886,
      "szej": 887,
      "▁rów": 888,
      ".\n\n\n": 889,
      "cił": 890,
      "ego,": 891,
      "▁Sz": 892,
      "▁jaki": 893,
      "ów.": 894,
      "▁Wie": 895,
      "▁takie": 896,
      "▁księ": 897,
      "▁coś": 898,
      "dy,": 899,
      "▁Ka": 900,
      "▁przyja": 901,
      "▁ostat": 902,
      "rą": 903,
      "▁Ko": 904,
      "▁zawo": 905,
      "▁dw": 906,
      "▁zda": 907,
      "mieni": 908,
      "▁szcze": 909,
      "▁nigdy": 910,
      "sku": 911,
      "ński": 912,
      "▁Ż": 913,
      "chu": 914,
      "▁powo": 915,
      "▁sob": 916,
      "▁niż": 917,
      "lan": 918,
      "▁Ro": 919,
      "▁rzeczy": 920,
      "▁dom": 921,
      "two": 922,
      "gę": 923,
      "dnie": 924,
      "▁ści": 925,
      "▁głos": 926,
      "▁mój": 927,
      "dziej": 928,
      "ent": 929,
      "żył": 930,
      "ste": 931,
      ";\n": 932,
      "ale": 933,
      "owarzy": 934,
      "dem": 935,
      "▁potrze": 936,
      "▁daw": 937,
      "stan": 938,
      "▁tra": 939,
      "ca,": 940,
      "▁dobrze": 941,
      "kiego": 942,
      "ób": 943,
      "▁ce": 944,
      "owu": 945,
      "▁ksi": 946,
      "▁la": 947,
      "▁ciąg": 948,
      "▁były": 949,
      "ciu": 950,
      "ża": 951,
      "wa,": 952,
      "nąć": 953,
      "▁włas": 954,
      "tnie": 955,
      "▁woj": 956,
      "ać,": 957,
      "▁godzi": 958,
      "▁sły": 959,
      "cię": 960,
      "ej,": 961,
      "▁rzu": 962,
      "cą": 963,
      "rzwi": 964,
      "cy,": 965,
      "in": 966,
      "▁choć": 967,
      "czyć": 968,
      "▁war": 969,
      "ajem": 970,
      "leg": 971,
      "stu": 972,
      "▁obo": 973,
      "szczę": 974,
      "rów": 975,
      "▁cały": 976,
      "▁której": 977,
      "▁[1": 978,
      "▁czar": 979,
      "ące": 980,
      "▁kro": 981,
      "az": 982,
      "kach": 983,
      "wem": 984,
      "▁Od": 985,
      "arł": 986,
      "▁swego": 987,
      "▁domu": 988,
      "▁można": 989,
      "łam": 990,
      "▁żeby": 991,
      "▁myśli": 992,
      "▁ona": 993,
      "wało": 994,
      "▁gdyby": 995,
      "aniu": 996,
      "▁niepo": 997,
      "▁mil": 998,
      "łość": 999,
      "ści,": 1000,
      "laz": 1001,
      "▁zupeł": 1002,
      "▁róż": 1003,
      "rabi": 1004,
      "nał": 1005,
      "▁drzwi": 1006,
      "sły": 1007,
      "ud": 1008,
      "▁gó": 1009,
      "anie,": 1010,
      "gląd": 1011,
      "▁pana": 1012,
      "szyscy": 1013,
      "stwo": 1014,
      "nie.": 1015,
      "lach": 1016,
      "y,": 1017,
      "jm": 1018,
      "▁ar": 1019,
      "cza": 1020,
      "myśl": 1021,
      "▁nale": 1022,
      "▁oko": 1023,
      "kim": 1024,
      "praw": 1025,
      "nych,": 1026,
      "▁niech": 1027,
      "▁wsp": 1028,
      "▁nią": 1029,
      "za": 1030,
      "▁peł": 1031,
      "▁koń": 1032,
      "ach,": 1033,
      "rzył": 1034,
      "▁os": 1035,
      "▁An": 1036,
      "▁dzieci": 1037,
      "▁towarzy": 1038,
      "nią": 1039,
      "▁Ma": 1040,
      "▁świę": 1041,
      "amię": 1042,
      "▁wsze": 1043,
      "▁nag": 1044,
      "▁zdo": 1045,
      "pis": 1046,
      "óg": 1047,
      "nemi": 1048,
      "▁głę": 1049,
      "▁powi": 1050,
      "pom": 1051,
      "▁życie": 1052,
      "Nie": 1053,
      "▁miesz": 1054,
      "▁król": 1055,
      "resz": 1056,
      "dał": 1057,
      "▁jeden": 1058,
      "nił": 1059,
      "czne": 1060,
      "▁uśmie": 1061,
      "wą": 1062,
      "ówi": 1063,
      "stąpi": 1064,
      "▁zat": 1065,
      "▁wol": 1066,
      "▁potem": 1067,
      "▁Ś": 1068,
      "śród": 1069,
      "▁cze": 1070,
      "anych": 1071,
      "▁nap": 1072,
      "▁zawoł": 1073,
      "▁dy": 1074,
      "tor": 1075,
      "wiad": 1076,
      "nić": 1077,
      "▁pierw": 1078,
      "sił": 1079,
      "▁wszystkich": 1080,
      "jej": 1081,
      "od": 1082,
      "wały": 1083,
      "▁przeciw": 1084,
      "ra,": 1085,
      "▁kar": 1086,
      "dzieć": 1087,
      "wier": 1088,
      "▁pół": 1089,
      "▁mał": 1090,
      "▁albo": 1091,
      "cji": 1092,
      "▁kon": 1093,
      "tek": 1094,
      "wym": 1095,
      "▁pła": 1096,
      "miał": 1097,
      "rom": 1098,
      "▁moje": 1099,
      "skiej": 1100,
      "▁wyp": 1101,
      "▁Ni": 1102,
      "▁którzy": 1103,
      "▁par": 1104,
      "▁więcej": 1105,
      "pli": 1106,
      "▁którą": 1107,
      "▁rodzi": 1108,
      "cząc": 1109,
      "▁widzi": 1110,
      "ń,": 1111,
      "czął": 1112,
      "▁znowu": 1113,
      "t,": 1114,
      "▁kilka": 1115,
      "▁Te": 1116,
      "▁także": 1117,
      "owych": 1118,
      "▁nau": 1119,
      "▁naz": 1120,
      "▁zach": 1121,
      "▁przysz": 1122,
      "ścią": 1123,
      "kami": 1124,
      "gą": 1125,
      "kę,": 1126,
      "łę": 1127,
      "óź": 1128,
      "▁spoj": 1129,
      "▁chciał": 1130,
      "▁trzy": 1131,
      "▁zg": 1132,
      "dać": 1133,
      "raż": 1134,
      "▁kr": 1135,
      "▁chłop": 1136,
      "▁smu": 1137,
      "▁człowiek": 1138,
      "▁,": 1139,
      "▁którym": 1140,
      "ki.": 1141,
      "tę": 1142,
      "▁każdy": 1143,
      "▁uczy": 1144,
      "▁zrobi": 1145,
      "e,": 1146,
      "ta,": 1147,
      "▁2": 1148,
      "▁wst": 1149,
      "bra": 1150,
      "śni": 1151,
      "▁fi": 1152,
      "▁uczu": 1153,
      "miast": 1154,
      "▁dwo": 1155,
      "kiej": 1156,
      "czaj": 1157,
      "c,": 1158,
      "▁zaraz": 1159,
      "reszcie": 1160,
      "▁pol": 1161,
      "tą": 1162,
      "▁szu": 1163,
      "wali": 1164,
      "▁zm": 1165,
      "ara": 1166,
      "rze,": 1167,
      "▁życia": 1168,
      "▁spokoj": 1169,
      "▁dziew": 1170,
      "ko,": 1171,
      "dzą": 1172,
      "▁dwa": 1173,
      "ców": 1174,
      "▁czego": 1175,
      "ry,": 1176,
      "▁ciem": 1177,
      "szu": 1178,
      "▁Mar": 1179,
      "śle": 1180,
      "ść,": 1181,
      "ny.": 1182,
      "▁sobą": 1183,
      "m.": 1184,
      "dzie,": 1185,
      "▁drze": 1186,
      "aną": 1187,
      "amy": 1188,
      "chem": 1189,
      "czem": 1190,
      "ło,": 1191,
      "▁uro": 1192,
      "▁gru": 1193,
      "o,": 1194,
      "byt": 1195,
      "no,": 1196,
      "▁chce": 1197,
      "▁męż": 1198,
      "wając": 1199,
      "ytał": 1200,
      "▁Pi": 1201,
      "oba": 1202,
      "ral": 1203,
      "tel": 1204,
      "n,": 1205,
      "▁cięż": 1206,
      "cież": 1207,
      "owiem": 1208,
      "▁między": 1209,
      "▁dziś": 1210,
      "▁wido": 1211,
      "es": 1212,
      "▁robi": 1213,
      "▁panie": 1214,
      "▁wszyscy": 1215,
      "▁ło": 1216,
      "▁bla": 1217,
      "szym": 1218,
      "▁ust": 1219,
      "▁l": 1220,
      "▁prawie": 1221,
      "▁ciebie": 1222,
      "nika": 1223,
      "▁wiecz": 1224,
      "▁zb": 1225,
      "rząd": 1226,
      "▁książ": 1227,
      "ciel": 1228,
      "amie": 1229,
      "wę": 1230,
      "row": 1231,
      "mi,": 1232,
      "▁słowa": 1233,
      "▁bro": 1234,
      "▁jestem": 1235,
      "▁sła": 1236,
      "ły,": 1237,
      "▁pokoj": 1238,
      "▁pop": 1239,
      "wiąz": 1240,
      "▁isto": 1241,
      "▁tw": 1242,
      "omo": 1243,
      "▁drugi": 1244,
      "▁ludz": 1245,
      "u.": 1246,
      "▁Jest": 1247,
      "▁dr": 1248,
      "▁strasz": 1249,
      "kol": 1250,
      "chę": 1251,
      "cem": 1252,
      "▁tr": 1253,
      "ała,": 1254,
      "ął": 1255,
      "ństwo": 1256,
      "ścia": 1257,
      "▁wyd": 1258,
      "▁trzeba": 1259,
      "je,": 1260,
      "▁niem": 1261,
      "rew": 1262,
      "▁ję": 1263,
      "py": 1264,
      "▁jas": 1265,
      "▁Ty": 1266,
      "▁pomo": 1267,
      "licz": 1268,
      "▁dusz": 1269,
      "▁sposób": 1270,
      "▁ucie": 1271,
      "▁wszel": 1272,
      "▁wło": 1273,
      "▁ofi": 1274,
      "]\n": 1275,
      "raże": 1276,
      "tów": 1277,
      "▁właśnie": 1278,
      "am,": 1279,
      "▁wal": 1280,
      "and": 1281,
      "piero": 1282,
      "▁cier": 1283,
      "▁jedy": 1284,
      "knął": 1285,
      "▁umie": 1286,
      "▁zwie": 1287,
      "zd": 1288,
      "▁drugie": 1289,
      "tąd": 1290,
      "łe": 1291,
      "▁wzg": 1292,
      "▁pierwszy": 1293,
      "kład": 1294,
      "jech": 1295,
      "bieg": 1296,
      "▁pog": 1297,
      "dzę": 1298,
      "żąc": 1299,
      "▁słoń": 1300,
      "niec": 1301,
      "s,": 1302,
      "▁Pa": 1303,
      "II": 1304,
      "▁miała": 1305,
      "\n\n\n": 1306,
      "nios": 1307,
      "ład": 1308,
      "ron": 1309,
      "skich": 1310,
      "aniem": 1311,
      "szał": 1312,
      "stwa": 1313,
      "▁um": 1314,
      "▁gdyż": 1315,
      "▁przyby": 1316,
      "dza": 1317,
      "▁dost": 1318,
      "▁twarz": 1319,
      "▁dnia": 1320,
      "wol": 1321,
      "▁dziw": 1322,
      "żyć": 1323,
      "▁jedno": 1324,
      "▁me": 1325,
      "kiem,": 1326,
      "rani": 1327,
      "▁jaką": 1328,
      "▁ut": 1329,
      "▁zag": 1330,
      "▁mają": 1331,
      "▁poś": 1332,
      "▁ocz": 1333,
      "god": 1334,
      "▁swoje": 1335,
      "wy,": 1336,
      "▁tłu": 1337,
      "nosi": 1338,
      "▁zupełnie": 1339,
      "nością": 1340,
      "▁stary": 1341,
      "czej": 1342,
      "▁oto": 1343,
      "▁cu": 1344,
      "dzię": 1345,
      "cale": 1346,
      "▁swej": 1347,
      "▁wyraz": 1348,
      "▁was": 1349,
      "ności,": 1350,
      "tedy": 1351,
      "▁Bóg": 1352,
      "czego": 1353,
      "▁mar": 1354,
      "▁mówił": 1355,
      "▁ręce": 1356,
      "kać": 1357,
      "▁coraz": 1358,
      "owej": 1359,
      "oną": 1360,
      "rócił": 1361,
      "▁długo": 1362,
      "trz": 1363,
      "▁wiele": 1364,
      "▁niep": 1365,
      "wił": 1366,
      "▁lek": 1367,
      "▁przesz": 1368,
      "▁dalej": 1369,
      "a,\n": 1370,
      "▁kwi": 1371,
      "▁nieszczę": 1372,
      "rał": 1373,
      "▁wyso": 1374,
      "▁prag": 1375,
      "ze": 1376,
      "▁czasu": 1377,
      "ując": 1378,
      "mawi": 1379,
      "▁Pod": 1380,
      "▁.": 1381,
      "▁jeżeli": 1382,
      "▁śpie": 1383,
      "▁pamię": 1384,
      "▁rozm": 1385,
      "▁Le": 1386,
      "ter": 1387,
      "▁rzecz": 1388,
      "▁śmierci": 1389,
      "nic": 1390,
      "▁tak,": 1391,
      "kolwie": 1392,
      "▁razem": 1393,
      "chow": 1394,
      "świad": 1395,
      "nek": 1396,
      "pe": 1397,
      "szczy": 1398,
      "la,": 1399,
      "▁bli": 1400,
      "▁up": 1401,
      "▁Pol": 1402,
      "▁jeśli": 1403,
      "▁kom": 1404,
      "bę": 1405,
      "any,": 1406,
      "ka.": 1407,
      "▁kraj": 1408,
      "raź": 1409,
      "kro": 1410,
      "nia.": 1411,
      "taj": 1412,
      "▁równie": 1413,
      "▁dziec": 1414,
      "▁głu": 1415,
      "na.": 1416,
      "ania,": 1417,
      "gi,": 1418,
      "▁póź": 1419,
      "▁zbli": 1420,
      "▁uj": 1421,
      "żej": 1422,
      "▁stos": 1423,
      "res": 1424,
      "▁Li": 1425,
      "▁zo": 1426,
      "cić": 1427,
      "▁dzień": 1428,
      "▁twarzy": 1429,
      "kon": 1430,
      "▁czer": 1431,
      "nicy": 1432,
      "▁wypad": 1433,
      "▁wśród": 1434,
      "▁tego,": 1435,
      "▁rozu": 1436,
      "▁noc": 1437,
      "uszcz": 1438,
      "▁serce": 1439,
      "▁dni": 1440,
      "ol": 1441,
      "owała": 1442,
      "a.": 1443,
      "rót": 1444,
      "Na": 1445,
      "owi,": 1446,
      "▁ludzie": 1447,
      "▁całą": 1448,
      "▁uli": 1449,
      "▁trud": 1450,
      "▁moc": 1451,
      "▁ź": 1452,
      "▁nikt": 1453,
      "kolwiek": 1454,
      "▁taki": 1455,
      "▁miłości": 1456,
      "▁tyle": 1457,
      "nego,": 1458,
      "▁zale": 1459,
      "▁następ": 1460,
      "szła": 1461,
      "▁wcale": 1462,
      "▁smut": 1463,
      "▁ile": 1464,
      "ńczy": 1465,
      "▁Niech": 1466,
      "▁zawołał": 1467,
      "▁grze": 1468,
      "▁szlach": 1469,
      "▁czem": 1470,
      "nio": 1471,
      "działa": 1472,
      "▁gor": 1473,
      "cia,": 1474,
      "▁pozost": 1475,
      "czny": 1476,
      "ństwa": 1477,
      "ósł": 1478,
      "▁rado": 1479,
      "▁zad": 1480,
      "▁duszy": 1481,
      "ięc": 1482,
      "dwie": 1483,
      "pat": 1484,
      "▁zoba": 1485,
      "ków,": 1486,
      "▁uśmiech": 1487,
      "ul": 1488,
      "▁powa": 1489,
      "ku.": 1490,
      "raj": 1491,
      "▁pło": 1492,
      "▁tajem": 1493,
      "▁obraz": 1494,
      "▁uważ": 1495,
      "▁przyj": 1496,
      "Jak": 1497,
      "▁wzro": 1498,
      "▁natu": 1499,
      "▁samo": 1500,
      "se": 1501,
      "▁szep": 1502,
      "ał.": 1503,
      "▁V": 1504,
      ",\nA": 1505,
      ",\nI": 1506,
      "sząc": 1507,
      "ądź": 1508,
      "da,": 1509,
      "ab": 1510,
      "▁Al": 1511,
      "ek,": 1512,
      "▁odda": 1513,
      "▁for": 1514,
      "▁ow": 1515,
      "cyi": 1516,
      "▁moja": 1517,
      "▁skrzy": 1518,
      "nie.\n": 1519,
      "▁obu": 1520,
      "▁wspo": 1521,
      "ski,": 1522,
      "▁jakiś": 1523,
      "▁sil": 1524,
      "em.": 1525,
      "szak": 1526,
      "▁Lu": 1527,
      "wal": 1528,
      "anego": 1529,
      "▁byli": 1530,
      "▁wyt": 1531,
      "rzeć": 1532,
      "▁kamie": 1533,
      "żo": 1534,
      "łó": 1535,
      "▁rękę": 1536,
      "▁szyb": 1537,
      "▁potę": 1538,
      "lew": 1539,
      "▁poło": 1540,
      "▁Jed": 1541,
      "▁sztu": 1542,
      "▁brze": 1543,
      "rafi": 1544,
      "ier": 1545,
      "ówczas": 1546,
      "▁nieb": 1547,
      "▁zim": 1548,
      "\nI": 1549,
      "nać": 1550,
      "▁zaczę": 1551,
      "▁trochę": 1552,
      "rzód": 1553,
      "▁pis": 1554,
      "▁swe": 1555,
      "kle": 1556,
      "▁gnie": 1557,
      "my,": 1558,
      "li.": 1559,
      "stra": 1560,
      "ri": 1561,
      "▁więk": 1562,
      "▁dopiero": 1563,
      "lił": 1564,
      "▁gospo": 1565,
      "▁słuch": 1566,
      "reszt": 1567,
      ",\nW": 1568,
      "owego": 1569,
      "▁\n\n": 1570,
      "▁znów": 1571,
      "!...": 1572,
      "ciec": 1573,
      "▁or": 1574,
      "▁zgo": 1575,
      "▁cór": 1576,
      "dzenia": 1577,
      "▁mogła": 1578,
      "▁głowę": 1579,
      "▁dziewczy": 1580,
      "ało,": 1581,
      "ada": 1582,
      "▁kości": 1583,
      "▁wzi": 1584,
      "▁bied": 1585,
      "szo": 1586,
      "▁swoją": 1587,
      "▁piersi": 1588,
      "▁posiad": 1589,
      "▁chwil": 1590,
      "ką,": 1591,
      "▁pok": 1592,
      "tej": 1593,
      "▁strze": 1594,
      "▁pły": 1595,
      "▁Fran": 1596,
      "man": 1597,
      "▁poch": 1598,
      "▁swoich": 1599,
      "▁poko": 1600,
      "▁swych": 1601,
      "ery": 1602,
      "▁szczeg": 1603,
      "▁nagle": 1604,
      "▁powiedział": 1605,
      "iedy": 1606,
      "▁szczęśli": 1607,
      "▁[2": 1608,
      "▁stał": 1609,
      "▁Lecz": 1610,
      "ed": 1611,
      "▁pyt": 1612,
      "ową": 1613,
      "▁sku": 1614,
      "▁mnie,": 1615,
      "cznych": 1616,
      "ską": 1617,
      "ający": 1618,
      "▁mia": 1619,
      "pomni": 1620,
      "▁dok": 1621,
      "ber": 1622,
      "▁będę": 1623,
      "▁hi": 1624,
      "nę,": 1625,
      "kał": 1626,
      "▁swój": 1627,
      "▁bowiem": 1628,
      "nej,": 1629,
      "wie,": 1630,
      "▁głębo": 1631,
      "▁widział": 1632,
      "▁kilku": 1633,
      "▁pal": 1634,
      "▁wę": 1635,
      "▁kaz": 1636,
      "▁robo": 1637,
      "▁kole": 1638,
      "ciaż": 1639,
      "▁syn": 1640,
      "cj": 1641,
      "us": 1642,
      "▁oba": 1643,
      "▁Jan": 1644,
      "miesz": 1645,
      "▁znalaz": 1646,
      "dob": 1647,
      "uści": 1648,
      "▁pró": 1649,
      "▁pom": 1650,
      "▁pos": 1651,
      "▁panu": 1652,
      "anym": 1653,
      "▁szko": 1654,
      "▁rozp": 1655,
      "1]": 1656,
      "ształ": 1657,
      "ały,": 1658,
      "▁r.": 1659,
      "\nW": 1660,
      "▁zbyt": 1661,
      "▁rzekła": 1662,
      "ezpie": 1663,
      "w.": 1664,
      "▁swą": 1665,
      "▁mogę": 1666,
      "szył": 1667,
      "▁chwilę": 1668,
      "niejsze": 1669,
      "▁nasz": 1670,
      "biera": 1671,
      "▁wam": 1672,
      "▁inte": 1673,
      "nieważ": 1674,
      "nym,": 1675,
      "▁zapew": 1676,
      "▁por": 1677,
      "▁18": 1678,
      "▁gar": 1679,
      "▁poli": 1680,
      "wia": 1681,
      "tego": 1682,
      "cał": 1683,
      "zn": 1684,
      "▁niby": 1685,
      "▁Boże": 1686,
      "▁cóż": 1687,
      "▁weso": 1688,
      "trze": 1689,
      "niósł": 1690,
      "nienia": 1691,
      "roż": 1692,
      "▁zas": 1693,
      "▁nieu": 1694,
      "▁bły": 1695,
      "czenie": 1696,
      "▁obec": 1697,
      "dziła": 1698,
      "▁kla": 1699,
      "kra": 1700,
      "rząc": 1701,
      "wości": 1702,
      "▁3": 1703,
      "adomo": 1704,
      "▁ude": 1705,
      "▁Ł": 1706,
      "▁list": 1707,
      "▁należy": 1708,
      "tarz": 1709,
      "▁ak": 1710,
      "niejszy": 1711,
      "▁często": 1712,
      "▁zabi": 1713,
      "▁Roz": 1714,
      "nąc": 1715,
      "▁wreszcie": 1716,
      "jął": 1717,
      "lep": 1718,
      "▁obie": 1719,
      "óch": 1720,
      "▁jednego": 1721,
      "rowi": 1722,
      "▁prę": 1723,
      "▁wier": 1724,
      "▁począ": 1725,
      "chodząc": 1726,
      "żeby": 1727,
      "tał": 1728,
      "▁środ": 1729,
      "▁Pro": 1730,
      "▁znak": 1731,
      "czasem": 1732,
      "▁Dla": 1733,
      "anej": 1734,
      "▁wzglę": 1735,
      "rzyć": 1736,
      "▁cy": 1737,
      "zo": 1738,
      "▁konie": 1739,
      "▁prawdzi": 1740,
      "▁każd": 1741,
      "tom": 1742,
      "▁żoł": 1743,
      ",\nP": 1744,
      "▁przecież": 1745,
      "▁opowiad": 1746,
      "▁uwa": 1747,
      "ami.": 1748,
      "pomi": 1749,
      "ch.": 1750,
      "▁dwie": 1751,
      "▁powst": 1752,
      "▁trzym": 1753,
      "tym": 1754,
      "piej": 1755,
      "kając": 1756,
      "ene": 1757,
      "naj": 1758,
      "nt": 1759,
      "▁Był": 1760,
      "▁serca": 1761,
      "▁innych": 1762,
      "▁czo": 1763,
      "▁odpowiedział": 1764,
      "▁strony": 1765,
      "▁j,": 1766,
      "▁zami": 1767,
      "▁mieć": 1768,
      "▁kry": 1769,
      "▁rozpo": 1770,
      "cąc": 1771,
      "▁wyk": 1772,
      "by,": 1773,
      "▁wielkie": 1774,
      "▁sposob": 1775,
      "▁lud": 1776,
      "▁dowie": 1777,
      "rost": 1778,
      "▁wtedy": 1779,
      "▁całe": 1780,
      "▁skar": 1781,
      ",\nC": 1782,
      "mio": 1783,
      "▁zaczął": 1784,
      "▁opie": 1785,
      "nienie": 1786,
      "▁wiedział": 1787,
      "▁sama": 1788,
      "▁X": 1789,
      "▁uży": 1790,
      "łych": 1791,
      "▁Wo": 1792,
      "▁właści": 1793,
      "ność,": 1794,
      "ki.\n": 1795,
      "▁zrozu": 1796,
      "ające": 1797,
      "owym": 1798,
      "bą": 1799,
      "▁pę": 1800,
      "ciem": 1801,
      "▁nadzie": 1802,
      "rop": 1803,
      "▁dał": 1804,
      "raw": 1805,
      "cer": 1806,
      "▁niedo": 1807,
      "\nP": 1808,
      "▁tem,": 1809,
      "owy,": 1810,
      "najm": 1811,
      "czną": 1812,
      "więk": 1813,
      "ła.": 1814,
      "▁Więc": 1815,
      "▁otwo": 1816,
      "▁mniej": 1817,
      "żd": 1818,
      "▁pad": 1819,
      "▁Naj": 1820,
      "▁Tu": 1821,
      "▁dwóch": 1822,
      "▁krwi": 1823,
      "rem": 1824,
      "go,": 1825,
      "▁Wszyst": 1826,
      "▁posta": 1827,
      "▁nocy": 1828,
      "▁razy": 1829,
      "▁słow": 1830,
      "▁prowa": 1831,
      "▁zau": 1832,
      "▁Dzie": 1833,
      "tan": 1834,
      "▁ki": 1835,
      "▁ucz": 1836,
      "▁Mary": 1837,
      "▁potrzeb": 1838,
      "tni": 1839,
      "szem": 1840,
      "men": 1841,
      "ników": 1842,
      "▁miłość": 1843,
      "▁Bi": 1844,
      "▁roku": 1845,
      "▁dość": 1846,
      "▁ud": 1847,
      "now": 1848,
      "▁moj": 1849,
      "▁dło": 1850,
      "ięk": 1851,
      "czenia": 1852,
      "ata": 1853,
      "skiem": 1854,
      "uje": 1855,
      "cki": 1856,
      "▁mego": 1857,
      "▁hu": 1858,
      "▁jesteś": 1859,
      "▁hrabi": 1860,
      "▁natych": 1861,
      "▁stanowi": 1862,
      "▁Sy": 1863,
      "▁niema": 1864,
      "stanowi": 1865,
      "▁natychmiast": 1866,
      "rzo": 1867,
      "▁Mu": 1868,
      "▁ist": 1869,
      "dłu": 1870,
      "żał": 1871,
      "r.": 1872,
      "alo": 1873,
      "!\n\n": 1874,
      "resztą": 1875,
      "▁chy": 1876,
      "śla": 1877,
      "▁sobie,": 1878,
      "▁Cho": 1879,
      "dzaj": 1880,
      "▁oby": 1881,
      "▁miast": 1882,
      "▁świecie": 1883,
      "▁człowieka": 1884,
      "▁krew": 1885,
      "▁Ba": 1886,
      "▁nieprzy": 1887,
      "ście,": 1888,
      "▁nazy": 1889,
      "▁In": 1890,
      "▁ukry": 1891,
      "dąc": 1892,
      "▁pre": 1893,
      "mier": 1894,
      "▁siost": 1895,
      "ńskiego": 1896,
      "▁wyda": 1897,
      "▁zapytał": 1898,
      "▁ode": 1899,
      "ga,": 1900,
      "▁duch": 1901,
      "▁zamk": 1902,
      "der": 1903,
      "wić": 1904,
      "nęły": 1905,
      "▁sprze": 1906,
      "▁przep": 1907,
      "▁Cóż": 1908,
      "▁później": 1909,
      "gra": 1910,
      "▁nieco": 1911,
      "▁chociaż": 1912,
      "wat": 1913,
      "wiedli": 1914,
      "owali": 1915,
      "▁drogi": 1916,
      "IE": 1917,
      "▁bło": 1918,
      "▁młody": 1919,
      "▁ziemię": 1920,
      "▁prac": 1921,
      "jący": 1922,
      "tak": 1923,
      "▁szero": 1924,
      "▁sen": 1925,
      "▁otwar": 1926,
      "łak": 1927,
      "łow": 1928,
      "ś,": 1929,
      "▁Kiedy": 1930,
      "▁również": 1931,
      "▁kat": 1932,
      "▁odez": 1933,
      "obec": 1934,
      "▁krót": 1935,
      "▁wspom": 1936,
      "▁pój": 1937,
      "mówi": 1938,
      "lb": 1939,
      "▁zaję": 1940,
      "siąc": 1941,
      "▁War": 1942,
      "ciąż": 1943,
      "owie,": 1944,
      "▁Może": 1945,
      "▁tutaj": 1946,
      "▁ów": 1947,
      "▁dop": 1948,
      "sia": 1949,
      "ne.": 1950,
      "lu,": 1951,
      "▁odparł": 1952,
      "twa": 1953,
      "▁prawo": 1954,
      "▁poru": 1955,
      "mysł": 1956,
      "▁papie": 1957,
      "▁wraże": 1958,
      "▁swoj": 1959,
      "kazy": 1960,
      "▁mną": 1961,
      "▁czerwo": 1962,
      "▁śmi": 1963,
      "▁gwał": 1964,
      "▁bog": 1965,
      "wan": 1966,
      "▁ogrom": 1967,
      "ać.": 1968,
      "zię": 1969,
      "▁młodzie": 1970,
      "▁bardziej": 1971,
      "▁nasze": 1972,
      "skim": 1973,
      "▁dobro": 1974,
      "▁nę": 1975,
      "▁Ju": 1976,
      "▁biał": 1977,
      "▁będą": 1978,
      "▁fran": 1979,
      "▁Sta": 1980,
      "czyna": 1981,
      "▁wdzię": 1982,
      "▁zmieni": 1983,
      ",\nZ": 1984,
      "▁Teraz": 1985,
      "▁wro": 1986,
      "),": 1987,
      "▁głów": 1988,
      "▁czasie": 1989,
      "▁doko": 1990,
      "▁żołnie": 1991,
      "czał": 1992,
      "▁masz": 1993,
      "gło": 1994,
      "▁niko": 1995,
      "▁świad": 1996,
      "między": 1997,
      "▁Bar": 1998,
      "czony": 1999,
      "▁Kto": 2000,
      "▁pas": 2001,
      "rek": 2002,
      "owiąz": 2003,
      "ciła": 2004,
      "▁Ten": 2005,
      "eli": 2006,
      "▁musiał": 2007,
      "▁Dzi": 2008,
      "00": 2009,
      "świe": 2010,
      "▁usta": 2011,
      "▁Ra": 2012,
      "▁pokoju": 2013,
      "▁dal": 2014,
      "s.": 2015,
      "▁oni": 2016,
      "▁sza": 2017,
      "ędzi": 2018,
      "któ": 2019,
      "nku": 2020,
      "▁jakim": 2021,
      "▁dwu": 2022,
      "▁niebezpie": 2023,
      "▁razie": 2024,
      "Że": 2025,
      "▁bole": 2026,
      "▁powin": 2027,
      "▁On": 2028,
      "tery": 2029,
      "▁gwi": 2030,
      "▁wska": 2031,
      "dzieli": 2032,
      "dzieć,": 2033,
      "▁cieka": 2034,
      "cyj": 2035,
      "▁.\n": 2036,
      "▁dobr": 2037,
      "owania": 2038,
      "▁an": 2039,
      "▁Pani": 2040,
      "▁stało": 2041,
      "▁młod": 2042,
      "rzenia": 2043,
      "▁gra": 2044,
      "\nZ": 2045,
      "▁spostrze": 2046,
      "▁ażeby": 2047,
      "▁rą": 2048,
      "wość": 2049,
      "krót": 2050,
      "▁oso": 2051,
      "▁niebie": 2052,
      "▁ostatni": 2053,
      "najmniej": 2054,
      "▁wielki": 2055,
      "▁wyj": 2056,
      "▁jaka": 2057,
      "mag": 2058,
      "▁Jeżeli": 2059,
      "ć.\n": 2060,
      "▁chę": 2061,
      "lą": 2062,
      "ten": 2063,
      "▁niewi": 2064,
      "kazu": 2065,
      "▁języ": 2066,
      "wyczaj": 2067,
      "ńskie": 2068,
      "▁spotk": 2069,
      "▁ojciec": 2070,
      "wego": 2071,
      "▁My": 2072,
      "▁mieszk": 2073,
      "miona": 2074,
      "ałam": 2075,
      "▁stop": 2076,
      "szy,": 2077,
      "lej": 2078,
      "tycz": 2079,
      "atu": 2080,
      "czyła": 2081,
      "▁Ar": 2082,
      "▁mojej": 2083,
      "▁dlat": 2084,
      "au": 2085,
      "cja": 2086,
      "r,": 2087,
      "▁wąt": 2088,
      "▁kapi": 2089,
      "▁mówiąc": 2090,
      "▁gę": 2091,
      ",\nB": 2092,
      "▁i,": 2093,
      "▁dobry": 2094,
      "▁swoim": 2095,
      "▁dź": 2096,
      "żu": 2097,
      "▁pozwo": 2098,
      "▁Dob": 2099,
      "▁jakiego": 2100,
      "▁jednej": 2101,
      "óz": 2102,
      "sią": 2103,
      "▁osob": 2104,
      "▁niebo": 2105,
      "źni": 2106,
      "▁Ci": 2107,
      "gli": 2108,
      "▁niespo": 2109,
      "ci,": 2110,
      "jawi": 2111,
      "ających": 2112,
      "▁wyro": 2113,
      "▁rozko": 2114,
      "▁temu": 2115,
      "▁obok": 2116,
      "dów": 2117,
      "▁pole": 2118,
      ",\nT": 2119,
      "▁głoś": 2120,
      "tóż": 2121,
      "▁zwycię": 2122,
      "niu,": 2123,
      "net": 2124,
      "bar": 2125,
      "▁mało": 2126,
      "▁wiat": 2127,
      "czyz": 2128,
      "▁tajemni": 2129,
      "▁poprze": 2130,
      "cu,": 2131,
      "▁znale": 2132,
      "ny.\n": 2133,
      "wicz": 2134,
      "owanie": 2135,
      "ciół": 2136,
      "wają": 2137,
      "▁przer": 2138,
      "kło": 2139,
      "▁wszystko,": 2140,
      "▁tą": 2141,
      "byś": 2142,
      "mę": 2143,
      "▁Oj": 2144,
      "▁spad": 2145,
      "▁Kró": 2146,
      "▁rozpa": 2147,
      "ręt": 2148,
      "▁Już": 2149,
      "rzyła": 2150,
      "nęło": 2151,
      "▁rozumie": 2152,
      "▁rodzaj": 2153,
      "▁wzru": 2154,
      "Gdy": 2155,
      "cach": 2156,
      "pełni": 2157,
      "▁śnie": 2158,
      "kowi": 2159,
      "czone": 2160,
      "▁jakieś": 2161,
      "▁krze": 2162,
      "▁jut": 2163,
      "bił": 2164,
      "▁wyciąg": 2165,
      "czy,": 2166,
      "▁iz": 2167,
      "▁mor": 2168,
      "▁wówczas": 2169,
      "▁mimo": 2170,
      "▁mów": 2171,
      "▁au": 2172,
      "▁śla": 2173,
      "gna": 2174,
      "▁się.": 2175,
      "słuch": 2176,
      "▁czasem": 2177,
      "rzenie": 2178,
      "▁przygo": 2179,
      "▁dar": 2180,
      "▁zaj": 2181,
      "wu": 2182,
      "nemu": 2183,
      "▁moją": 2184,
      "ty.": 2185,
      "krótce": 2186,
      "▁dod": 2187,
      "▁miejsce": 2188,
      "ana,": 2189,
      "▁wiadomo": 2190,
      "▁błę": 2191,
      "▁znajdu": 2192,
      "mien": 2193,
      "▁parę": 2194,
      "▁ojca": 2195,
      "ka.\n": 2196,
      "▁przedstawi": 2197,
      "▁kwiat": 2198,
      "mienia": 2199,
      "▁wios": 2200,
      "rach": 2201,
      "▁został": 2202,
      "▁Boga": 2203,
      "▁Tak,": 2204,
      "▁przej": 2205,
      "▁wróci": 2206,
      "zm": 2207,
      "rzała": 2208,
      "▁Ob": 2209,
      "giem": 2210,
      "kli": 2211,
      "▁drodze": 2212,
      "▁jest,": 2213,
      "na.\n": 2214,
      "▁dosko": 2215,
      "▁tobie": 2216,
      "▁stanie": 2217,
      "▁pomiędzy": 2218,
      "▁ws": 2219,
      "let": 2220,
      "▁swojej": 2221,
      "▁żo": 2222,
      "rami": 2223,
      "▁głowy": 2224,
      "rza,": 2225,
      "wio": 2226,
      "▁4": 2227,
      "▁mieli": 2228,
      "żą": 2229,
      ",\nK": 2230,
      "▁zdoby": 2231,
      "jo": 2232,
      "ju": 2233,
      "▁siebie,": 2234,
      "ję,": 2235,
      ".\n.\n": 2236,
      "stać": 2237,
      "gar": 2238,
      "rz,": 2239,
      "rzekł": 2240,
      "ni.": 2241,
      "▁nami": 2242,
      "▁jad": 2243,
      "ru,": 2244,
      "leb": 2245,
      "szli": 2246,
      "▁p.": 2247,
      "▁żywo": 2248,
      "▁głosem": 2249,
      "tku": 2250,
      "wej": 2251,
      "lem": 2252,
      "▁książę": 2253,
      "▁zaba": 2254,
      "▁dać": 2255,
      "▁powiad": 2256,
      "dzenie": 2257,
      "ów.\n": 2258,
      "daw": 2259,
      "▁obowiąz": 2260,
      "....": 2261,
      "▁przyp": 2262,
      "▁ho": 2263,
      "cią": 2264,
      "▁Wa": 2265,
      "▁Ży": 2266,
      "▁wyob": 2267,
      "▁Spo": 2268,
      "▁królew": 2269,
      "dła": 2270,
      ").": 2271,
      "Lecz": 2272,
      "nem,": 2273,
      "▁modli": 2274,
      "▁maj": 2275,
      "▁pocz": 2276,
      "▁słowo": 2277,
      "▁zdra": 2278,
      "▁go,": 2279,
      "▁zawie": 2280,
      "▁mówić": 2281,
      "▁gości": 2282,
      "▁domu,": 2283,
      "▁poważ": 2284,
      "▁chodzi": 2285,
      "▁ofiar": 2286,
      "▁Mat": 2287,
      "▁wielką": 2288,
      "▁wpad": 2289,
      "▁przyczy": 2290,
      "▁pe": 2291,
      "żyła": 2292,
      "▁rzeczywi": 2293,
      "▁szybko": 2294,
      "▁zdaje": 2295,
      "▁powtó": 2296,
      "▁arty": 2297,
      "star": 2298,
      "▁drogę": 2299,
      "ff": 2300,
      "óki": 2301,
      "▁niemi": 2302,
      "▁Sam": 2303,
      "czek": 2304,
      "▁wiem": 2305,
      "▁czyni": 2306,
      "▁zatrzym": 2307,
      "ji,": 2308,
      "▁wraz": 2309,
      "ała.": 2310,
      "▁postęp": 2311,
      "▁one": 2312,
      "▁pomyśl": 2313,
      "▁No": 2314,
      "▁spraw": 2315,
      "▁ran": 2316,
      "▁Jez": 2317,
      "▁zapyt": 2318,
      "▁ciągle": 2319,
      "▁przyjacie": 2320,
      "▁naszych": 2321,
      "▁sch": 2322,
      "▁łatwo": 2323,
      "▁god": 2324,
      "▁upo": 2325,
      "2]": 2326,
      "▁Piot": 2327,
      "działem": 2328,
      "gła": 2329,
      "▁inne": 2330,
      "łym": 2331,
      "łego": 2332,
      "kąd": 2333,
      "▁tedy": 2334,
      "ska,": 2335,
      "czki": 2336,
      "▁Tym": 2337,
      "▁pała": 2338,
      "▁uspo": 2339,
      "▁wciąż": 2340,
      "cier": 2341,
      "▁gwiaz": 2342,
      "waj": 2343,
      "▁każdym": 2344,
      "▁duż": 2345,
      "▁służ": 2346,
      "tach": 2347,
      "▁koło": 2348,
      "prawi": 2349,
      "▁las": 2350,
      "▁obro": 2351,
      "▁najm": 2352,
      "▁łą": 2353,
      "▁Oto": 2354,
      "▁zab": 2355,
      "ę.": 2356,
      "▁dziedzi": 2357,
      "▁odw": 2358,
      "▁śmierć": 2359,
      "▁odd": 2360,
      "▁wpły": 2361,
      "kar": 2362,
      "▁ludzi,": 2363,
      "wyż": 2364,
      "▁obej": 2365,
      "nka": 2366,
      "▁głową": 2367,
      "▁takim": 2368,
      "▁stosun": 2369,
      "▁mały": 2370,
      "▁zostawi": 2371,
      "▁olb": 2372,
      "▁wielu": 2373,
      "▁grani": 2374,
      "▁dotąd": 2375,
      "rzy,": 2376,
      "rob": 2377,
      "▁szczęście": 2378,
      "gn": 2379,
      "▁całej": 2380,
      "▁Du": 2381,
      "▁usły": 2382,
      "jed": 2383,
      "▁życiu": 2384,
      "sław": 2385,
      "▁py": 2386,
      "▁ina": 2387,
      "▁idzie": 2388,
      "cznej": 2389,
      "▁naro": 2390,
      "▁pozo": 2391,
      "dar": 2392,
      "▁dowo": 2393,
      "▁staro": 2394,
      "ści.": 2395,
      "omi": 2396,
      "▁taką": 2397,
      "?...": 2398,
      "kazał": 2399,
      "▁wej": 2400,
      "▁milcze": 2401,
      "nętrz": 2402,
      "▁szczegól": 2403,
      "▁naprzód": 2404,
      "▁głębi": 2405,
      "▁św.": 2406,
      "ner": 2407,
      "▁jedną": 2408,
      "nawi": 2409,
      "▁wygląd": 2410,
      "▁upad": 2411,
      "▁daleko": 2412,
      "▁poe": 2413,
      "▁dow": 2414,
      "▁zi": 2415,
      "▁uko": 2416,
      "▁Pary": 2417,
      "sięcy": 2418,
      "▁moich": 2419,
      "▁połu": 2420,
      "ano,": 2421,
      "▁mieszka": 2422,
      "▁łu": 2423,
      "▁drob": 2424,
      "ge": 2425,
      "▁króla": 2426,
      "▁podczas": 2427,
      "▁nazwi": 2428,
      "orem": 2429,
      "ane,": 2430,
      "fe": 2431,
      "▁Ta": 2432,
      "▁stara": 2433,
      "chać": 2434,
      "▁Sa": 2435,
      "▁zni": 2436,
      "▁dum": 2437,
      "▁pienią": 2438,
      "▁samego": 2439,
      "▁jednym": 2440,
      "▁lepiej": 2441,
      "▁kogo": 2442,
      "▁góry": 2443,
      "▁jedna": 2444,
      "▁przekon": 2445,
      "▁bru": 2446,
      "▁He": 2447,
      "sza,": 2448,
      "ho": 2449,
      "▁znie": 2450,
      "boż": 2451,
      "▁ramiona": 2452,
      "szcza": 2453,
      "▁jakiej": 2454,
      "rzymy": 2455,
      "▁bądź": 2456,
      "▁ponieważ": 2457,
      "szczo": 2458,
      "3]": 2459,
      "▁chara": 2460,
      "▁opuści": 2461,
      "wania": 2462,
      "▁stwo": 2463,
      "▁komi": 2464,
      "▁łóż": 2465,
      "▁skoro": 2466,
      "rozu": 2467,
      "▁oczach": 2468,
      "▁Warsza": 2469,
      "tne": 2470,
      "▁przyjem": 2471,
      "len": 2472,
      "▁zamy": 2473,
      "▁nimi": 2474,
      "nale": 2475,
      "▁wil": 2476,
      "skiego,": 2477,
      "▁pięć": 2478,
      "▁sur": 2479,
      "▁lite": 2480,
      "▁słusz": 2481,
      "dy.": 2482,
      "▁długie": 2483,
      "▁kap": 2484,
      "▁lep": 2485,
      "ako": 2486,
      "lar": 2487,
      "k.": 2488,
      "tora": 2489,
      "▁miło": 2490,
      "▁odpowiad": 2491,
      "▁gór": 2492,
      "▁zako": 2493,
      "czka": 2494,
      "▁trwo": 2495,
      "▁przeko": 2496,
      "wał,": 2497,
      "▁znik": 2498,
      "anow": 2499,
      "nne": 2500,
      "jeżd": 2501,
      "▁pocie": 2502,
      "roz": 2503,
      "gnie": 2504,
      "▁se": 2505,
      "▁było,": 2506,
      "▁speł": 2507,
      "\nS": 2508,
      "▁Że": 2509,
      "nach": 2510,
      "siaj": 2511,
      "▁wyszedł": 2512,
      "kój": 2513,
      "▁dzwo": 2514,
      "▁słów": 2515,
      "dę,": 2516,
      "ować,": 2517,
      "▁naszego": 2518,
      "brał": 2519,
      "▁mas": 2520,
      "▁ć": 2521,
      "cznym": 2522,
      "▁zbu": 2523,
      "▁niewie": 2524,
      "roni": 2525,
      "dle": 2526,
      "▁najp": 2527,
      "is": 2528,
      "ło.": 2529,
      "▁ga": 2530,
      "rób": 2531,
      "ną.": 2532,
      "ust": 2533,
      "▁zbro": 2534,
      "▁zdzi": 2535,
      "▁świata": 2536,
      "ców,": 2537,
      "▁wzię": 2538,
      "▁zmi": 2539,
      "jące": 2540,
      "▁porząd": 2541,
      "▁czyt": 2542,
      "chodził": 2543,
      "▁swobo": 2544,
      "▁We": 2545,
      "jąć": 2546,
      "▁cza": 2547,
      "dzi,": 2548,
      "▁cała": 2549,
      "▁Trze": 2550,
      "an,": 2551,
      "▁swym": 2552,
      "▁ozna": 2553,
      "▁ogni": 2554,
      "nów": 2555,
      "▁pracy": 2556,
      "▁siły": 2557,
      "▁długi": 2558,
      "▁podróż": 2559,
      "▁napis": 2560,
      "for": 2561,
      "▁jedynie": 2562,
      "sem": 2563,
      ".\nP": 2564,
      "▁doj": 2565,
      "▁ręką": 2566,
      "tar": 2567,
      "▁chmu": 2568,
      "▁przyjaciół": 2569,
      "▁ocze": 2570,
      "▁suk": 2571,
      "ńcu": 2572,
      "▁pil": 2573,
      "▁try": 2574,
      ",\nS": 2575,
      "▁rozwi": 2576,
      "▁wyż": 2577,
      "▁gorąc": 2578,
      "ram": 2579,
      "▁chrze": 2580,
      "jących": 2581,
      "▁Nie,": 2582,
      "▁cicho": 2583,
      "▁sąd": 2584,
      "▁wobec": 2585,
      "▁5": 2586,
      "▁wierz": 2587,
      "cześnie": 2588,
      "▁Wła": 2589,
      "▁uprze": 2590,
      "ster": 2591,
      "▁widać": 2592,
      "▁ksią": 2593,
      "▁nieraz": 2594,
      "▁stru": 2595,
      "▁poczę": 2596,
      "▁znalazł": 2597,
      "ału": 2598,
      "▁postanowi": 2599,
      "▁matka": 2600,
      "ąda": 2601,
      ".\nW": 2602,
      "▁stu": 2603,
      "▁wiem,": 2604,
      "▁tylko,": 2605,
      "▁najwięk": 2606,
      "hat": 2607,
      "▁Ku": 2608,
      "ności.": 2609,
      "▁Re": 2610,
      "▁spodzie": 2611,
      "w,": 2612,
      "▁dziesię": 2613,
      "i.": 2614,
      "giel": 2615,
      "▁związ": 2616,
      "zwo": 2617,
      "cznego": 2618,
      "źli": 2619,
      "▁nieba": 2620,
      "wanie": 2621,
      "▁cierpie": 2622,
      "▁[3": 2623,
      "▁zawi": 2624,
      "snął": 2625,
      "▁przypad": 2626,
      "▁Si": 2627,
      "▁dosy": 2628,
      "▁am": 2629,
      "▁zobaczy": 2630,
      "▁śle": 2631,
      "▁Była": 2632,
      "▁obi": 2633,
      "▁poży": 2634,
      "▁uczyni": 2635,
      "▁Przez": 2636,
      "czes": 2637,
      "▁prosi": 2638,
      "stał": 2639,
      "dzę,": 2640,
      "!...\n": 2641,
      "nien": 2642,
      "dziel": 2643,
      "ta.": 2644,
      "▁korzy": 2645,
      "▁zmu": 2646,
      "ań": 2647,
      "▁Gdyby": 2648,
      "▁pomi": 2649,
      "▁wspani": 2650,
      "bio": 2651,
      "▁powodu": 2652,
      "kaj": 2653,
      "biegł": 2654,
      "▁cich": 2655,
      "▁Panie": 2656,
      "▁chcę": 2657,
      "▁gwałtow": 2658,
      "czer": 2659,
      "stro": 2660,
      "▁Powie": 2661,
      "▁wsi": 2662,
      "▁sre": 2663,
      "▁kawał": 2664,
      "▁stronę": 2665,
      "▁urzę": 2666,
      "▁żąd": 2667,
      "▁wziął": 2668,
      "▁ktoś": 2669,
      "▁pienię": 2670,
      "▁t.": 2671,
      "▁\nI": 2672,
      "▁podnie": 2673,
      "▁posłu": 2674,
      "▁pociąg": 2675,
      "▁got": 2676,
      "▁Rzy": 2677,
      "▁świet": 2678,
      "▁zielo": 2679,
      "▁Fi": 2680,
      "▁takiego": 2681,
      "muje": 2682,
      "▁Przed": 2683,
      "▁Są": 2684,
      "▁współ": 2685,
      "siadł": 2686,
      "▁chyba": 2687,
      "▁ubo": 2688,
      "rzej": 2689,
      "bij": 2690,
      "▁biały": 2691,
      "▁olbrzy": 2692,
      "jęt": 2693,
      "czyn": 2694,
      "▁poświę": 2695,
      "▁szczy": 2696,
      "▁miejscu": 2697,
      "▁będziesz": 2698,
      "▁twój": 2699,
      "▁mamy": 2700,
      "gle": 2701,
      "▁takich": 2702,
      "▁zresztą": 2703,
      "▁mając": 2704,
      "ca.": 2705,
      "dował": 2706,
      "liwe": 2707,
      "▁miasta": 2708,
      "ks": 2709,
      "▁rozum": 2710,
      "liwie": 2711,
      "▁wybu": 2712,
      "▁uroczy": 2713,
      "▁przyję": 2714,
      "▁Pat": 2715,
      "▁twoje": 2716,
      "ńczo": 2717,
      "▁ogro": 2718,
      "▁Mówi": 2719,
      "▁Chry": 2720,
      "erw": 2721,
      "▁Ze": 2722,
      "▁kieru": 2723,
      "▁odwie": 2724,
      "▁około": 2725,
      "▁uwie": 2726,
      "▁Słu": 2727,
      "▁chwy": 2728,
      "aki": 2729,
      "▁gał": 2730,
      "rot": 2731,
      "akie": 2732,
      "pomina": 2733,
      "▁nowe": 2734,
      "kwi": 2735,
      "kom": 2736,
      "sy,": 2737,
      "▁sercu": 2738,
      "▁części": 2739,
      "▁podej": 2740,
      "kę.": 2741,
      "▁czek": 2742,
      "▁zauwa": 2743,
      "rzas": 2744,
      "▁\nW": 2745,
      "twie": 2746,
      "tości": 2747,
      "niejszych": 2748,
      "Je": 2749,
      "gę,": 2750,
      "▁zapewne": 2751,
      "▁wyrzu": 2752,
      "d,": 2753,
      "▁Gdzie": 2754,
      "▁waż": 2755,
      "moż": 2756,
      "▁Jeśli": 2757,
      "chi": 2758,
      "cami": 2759,
      "▁zdr": 2760,
      "5]": 2761,
      "▁łzy": 2762,
      "▁zdu": 2763,
      "▁ruch": 2764,
      "▁proszę": 2765,
      "▁zapomni": 2766,
      "ędzie": 2767,
      "▁tęsk": 2768,
      "▁pla": 2769,
      "mienie": 2770,
      "▁poza": 2771,
      "4]": 2772,
      "ant": 2773,
      "den": 2774,
      "▁począł": 2775,
      "▁lę": 2776,
      "▁kobiety": 2777,
      "story": 2778,
      "ckie": 2779,
      "kami,": 2780,
      "oła": 2781,
      "nęli": 2782,
      "siąt": 2783,
      "▁iść": 2784,
      "▁księż": 2785,
      "cie.": 2786,
      "▁wid": 2787,
      "▁imię": 2788,
      "▁końcu": 2789,
      "▁mogą": 2790,
      "▁wrac": 2791,
      "▁mąd": 2792,
      "▁cel": 2793,
      "ckiego": 2794,
      "▁Kra": 2795,
      "[1]": 2796,
      "stąpił": 2797,
      "łał": 2798,
      "▁dodał": 2799,
      "▁pręd": 2800,
      "tylko": 2801,
      "▁Zo": 2802,
      "sze,": 2803,
      "▁górę": 2804,
      "żenie": 2805,
      "▁zdawało": 2806,
      "nar": 2807,
      "▁raczej": 2808,
      "▁potrafi": 2809,
      "▁poszedł": 2810,
      "▁ad": 2811,
      "mierz": 2812,
      "▁wspól": 2813,
      "▁naszej": 2814,
      "▁wody": 2815,
      "lnie": 2816,
      "ży,": 2817,
      "▁nieprzyja": 2818,
      "▁ska": 2819,
      "dzia": 2820,
      "▁ubr": 2821,
      "▁pieniądze": 2822,
      "▁So": 2823,
      "sa,": 2824,
      "▁jeste": 2825,
      "niał": 2826,
      "kach,": 2827,
      "▁dzię": 2828,
      "pił": 2829,
      "▁chor": 2830,
      "▁No,": 2831,
      "nięte": 2832,
      "▁innego": 2833,
      "▁nieo": 2834,
      "jechał": 2835,
      "▁odby": 2836,
      "▁publi": 2837,
      "▁żar": 2838,
      "▁człowieka,": 2839,
      "dłem": 2840,
      "ciał": 2841,
      "szyć": 2842,
      "▁wszak": 2843,
      "▁czyn": 2844,
      "▁mogli": 2845,
      "nki": 2846,
      "▁wszę": 2847,
      "▁należ": 2848,
      "▁potęż": 2849,
      "niach": 2850,
      "▁Jo": 2851,
      "▁oczu": 2852,
      "▁oraz": 2853,
      "ący": 2854,
      "▁odwa": 2855,
      "▁chwili,": 2856,
      "▁kształ": 2857,
      "że,": 2858,
      "▁dzisiaj": 2859,
      "▁pozna": 2860,
      "▁muzy": 2861,
      "▁ide": 2862,
      "▁wym": 2863,
      "▁więzie": 2864,
      "▁wieczo": 2865,
      "rócz": 2866,
      "▁zasłu": 2867,
      "szech": 2868,
      "▁wyraź": 2869,
      "szek": 2870,
      "be": 2871,
      "▁wszedł": 2872,
      "▁Mam": 2873,
      "▁bła": 2874,
      "▁los": 2875,
      "zg": 2876,
      "▁powiedzieć": 2877,
      "▁chcąc": 2878,
      "▁kan": 2879,
      "▁wywo": 2880,
      "▁moim": 2881,
      "▁widok": 2882,
      "▁opowie": 2883,
      "▁Ru": 2884,
      "spoli": 2885,
      "▁mi,": 2886,
      "▁Było": 2887,
      "▁wzią": 2888,
      "▁mal": 2889,
      "▁Wszystko": 2890,
      "▁Mie": 2891,
      "▁zwykle": 2892,
      "▁15": 2893,
      "7]": 2894,
      "▁mąż": 2895,
      "▁ple": 2896,
      "▁nieszczęśli": 2897,
      "Do": 2898,
      "stem": 2899,
      "kiem.": 2900,
      "ra.": 2901,
      "▁próż": 2902,
      "rzem": 2903,
      "▁ban": 2904,
      "▁drugiej": 2905,
      "▁chciała": 2906,
      "▁część": 2907,
      "czoraj": 2908,
      "▁najlep": 2909,
      "mai": 2910,
      "▁nienawi": 2911,
      "▁Czyż": 2912,
      "▁Da": 2913,
      "▁odezwał": 2914,
      "ce.": 2915,
      "cję": 2916,
      "▁widząc": 2917,
      "▁prawa": 2918,
      "arę": 2919,
      "jemy": 2920,
      "▁panna": 2921,
      "▁żelaz": 2922,
      "▁codzie": 2923,
      "puści": 2924,
      "▁kochan": 2925,
      "▁choćby": 2926,
      "▁półno": 2927,
      "stwie": 2928,
      "ją,": 2929,
      "wszy,": 2930,
      "fa": 2931,
      "▁byłem": 2932,
      "raca": 2933,
      "▁francu": 2934,
      "▁Eu": 2935,
      "pan": 2936,
      "▁umi": 2937,
      "ląd": 2938,
      "ajut": 2939,
      "▁obja": 2940,
      "ściu": 2941,
      "▁żadnego": 2942,
      "▁jutro": 2943,
      "cze,": 2944,
      "▁nogi": 2945,
      "ach.": 2946,
      "▁stat": 2947,
      "nymi": 2948,
      "▁rz": 2949,
      "arła": 2950,
      "lek": 2951,
      "ić": 2952,
      "▁okoli": 2953,
      "▁wsty": 2954,
      "▁zwyczaj": 2955,
      "▁oczyma": 2956,
      "stej": 2957,
      "▁stała": 2958,
      "ował,": 2959,
      "▁wkrótce": 2960,
      "▁otrzym": 2961,
      "▁nadz": 2962,
      "▁dziecię": 2963,
      "9]": 2964,
      "▁jakąś": 2965,
      "ręcz": 2966,
      "▁Go": 2967,
      "nk": 2968,
      "▁rozmawi": 2969,
      "▁dziecko": 2970,
      "▁przestrze": 2971,
      "kan": 2972,
      "▁okru": 2973,
      "▁zwi": 2974,
      ",\nJak": 2975,
      "tem,": 2976,
      "6]": 2977,
      "▁wą": 2978,
      "▁szedł": 2979,
      "▁serde": 2980,
      "▁niebezpiecze": 2981,
      "▁patrząc": 2982,
      "▁mru": 2983,
      "▁pochy": 2984,
      "▁kolo": 2985,
      "▁przyjaciel": 2986,
      "▁Lud": 2987,
      "▁tymczasem": 2988,
      "▁kazał": 2989,
      "▁groź": 2990,
      "▁zdol": 2991,
      "▁Zap": 2992,
      "▁wielkiego": 2993,
      "▁Wiel": 2994,
      "▁dobrze,": 2995,
      "mując": 2996,
      "▁Be": 2997,
      "▁potrzeba": 2998,
      "▁namię": 2999,
      "ającego": 3000,
      "▁Jego": 3001,
      "▁licz": 3002,
      "▁szlachet": 3003,
      "wano": 3004,
      "rych": 3005,
      "di": 3006,
      "▁samej": 3007,
      "▁trzech": 3008,
      "▁Bie": 3009,
      "▁przyszedł": 3010,
      "stch": 3011,
      "▁scho": 3012,
      "rzmi": 3013,
      "▁bieg": 3014,
      "▁Nic": 3015,
      "▁pokry": 3016,
      "lić": 3017,
      "▁zgi": 3018,
      "▁dobre": 3019,
      "▁wew": 3020,
      "li.\n": 3021,
      "▁pl": 3022,
      "wałem": 3023,
      "ryz": 3024,
      "▁rząd": 3025,
      "razu": 3026,
      "▁poję": 3027,
      "tka": 3028,
      "\nT": 3029,
      "bić": 3030,
      "bier": 3031,
      "ku.\n": 3032,
      "▁dosyć": 3033,
      "▁Zd": 3034,
      "▁Tam": 3035,
      "▁woła": 3036,
      "rzyk": 3037,
      "▁dotk": 3038,
      "▁Sie": 3039,
      "▁ziemi,": 3040,
      "▁wydo": 3041,
      "szony": 3042,
      "▁kobieta": 3043,
      "▁wyb": 3044,
      "8]": 3045,
      "▁Potem": 3046,
      "▁poże": 3047,
      "bor": 3048,
      "▁mówiła": 3049,
      "▁owo": 3050,
      "me": 3051,
      "wór": 3052,
      ",\nNie": 3053,
      "▁księży": 3054,
      "▁obli": 3055,
      "pier": 3056,
      "no.": 3057,
      "▁Cie": 3058,
      "▁oz": 3059,
      "▁sprawiedli": 3060,
      "▁miałem": 3061,
      "▁samot": 3062,
      "▁Hen": 3063,
      "▁Au": 3064,
      "dach": 3065,
      ",\nŻe": 3066,
      "ewszyst": 3067,
      "▁szere": 3068,
      "tna": 3069,
      "▁okaz": 3070,
      "▁mogło": 3071,
      "▁przecie": 3072,
      "ił": 3073,
      "▁samym": 3074,
      "▁krę": 3075,
      "to,": 3076,
      "▁poż": 3077,
      "▁nowo": 3078,
      "ha": 3079,
      "▁rozkaz": 3080,
      "anim": 3081,
      "ń.": 3082,
      "▁spytał": 3083,
      "▁rzucił": 3084,
      "owany": 3085,
      "mak": 3086,
      "gani": 3087,
      "▁miejsca": 3088,
      "▁per": 3089,
      "▁życia,": 3090,
      "▁Tylko": 3091,
      "▁czyli": 3092,
      "▁sal": 3093,
      "▁pomoc": 3094,
      "▁mro": 3095,
      "dzej": 3096,
      "▁niego,": 3097,
      "▁history": 3098,
      "nych.": 3099,
      "▁Karo": 3100,
      "▁panią": 3101,
      "▁nos": 3102,
      "▁okrop": 3103,
      "▁wyja": 3104,
      ",\nO": 3105,
      "▁dam": 3106,
      "p.": 3107,
      "▁wprost": 3108,
      "▁żało": 3109,
      "rat": 3110,
      "▁nietylko": 3111,
      "▁przynajmniej": 3112,
      "▁głowie": 3113,
      "ren": 3114,
      "gen": 3115,
      "źć": 3116,
      "▁zech": 3117,
      "▁niewy": 3118,
      "▁umy": 3119,
      "▁inaczej": 3120,
      "▁cno": 3121,
      "sów": 3122,
      "anta": 3123,
      "▁ciep": 3124,
      "ania.": 3125,
      "▁ręka": 3126,
      "owe,": 3127,
      "▁ptak": 3128,
      "dzał": 3129,
      "▁minu": 3130,
      "niejszego": 3131,
      "▁pogo": 3132,
      "▁szar": 3133,
      "jusz": 3134,
      "▁zadowo": 3135,
      "▁celu": 3136,
      "▁ostatnie": 3137,
      "▁daje": 3138,
      "n.": 3139,
      "lony": 3140,
      "▁myśle": 3141,
      "▁tar": 3142,
      "▁Chrystu": 3143,
      "▁nat": 3144,
      "▁wieku": 3145,
      "▁kup": 3146,
      "▁słod": 3147,
      "qu": 3148,
      "▁taka": 3149,
      "ając,": 3150,
      "▁odzy": 3151,
      "▁lubi": 3152,
      "gu,": 3153,
      "stat": 3154,
      "ęb": 3155,
      "▁się.\n": 3156,
      "▁zało": 3157,
      "▁Jó": 3158,
      "wiał": 3159,
      "▁Mich": 3160,
      "▁zaledwie": 3161,
      "Bo": 3162,
      "gan": 3163,
      "▁6": 3164,
      "▁znaczy": 3165,
      "▁gniew": 3166,
      "cen": 3167,
      "▁gdzieś": 3168,
      "▁stoli": 3169,
      "▁ką": 3170,
      "▁tysięcy": 3171,
      "▁przywi": 3172,
      "▁\nP": 3173,
      "gosła": 3174,
      "▁sił": 3175,
      "▁Wil": 3176,
      "prawdzie": 3177,
      "AN": 3178,
      "▁jego,": 3179,
      "▁niemal": 3180,
      "▁oł": 3181,
      "▁dużo": 3182,
      "▁niezmier": 3183,
      "▁muszę": 3184,
      "▁żadnej": 3185,
      "▁rad": 3186,
      "niesie": 3187,
      "ary,": 3188,
      "▁ża": 3189,
      "▁oczy,": 3190,
      "▁Musi": 3191,
      "strz": 3192,
      "▁żół": 3193,
      "▁zachwy": 3194,
      "▁zem": 3195,
      "rze.": 3196,
      "▁nadzwyczaj": 3197,
      "▁choro": 3198,
      "tu,": 3199,
      "▁wez": 3200,
      "▁[4": 3201,
      "▁sprawy": 3202,
      "▁niegdy": 3203,
      "t.": 3204,
      "▁kop": 3205,
      "▁chcesz": 3206,
      "▁zjawi": 3207,
      "▁rzuc": 3208,
      "nami": 3209,
      "tacz": 3210,
      "▁miasto": 3211,
      "▁klu": 3212,
      "▁może,": 3213,
      "▁dlatego": 3214,
      "▁krzyż": 3215,
      "je.": 3216,
      "▁fał": 3217,
      "▁odpowiedzi": 3218,
      "owych,": 3219,
      "czna": 3220,
      "▁klę": 3221,
      "▁jakich": 3222,
      "▁interes": 3223,
      "▁win": 3224,
      "▁łz": 3225,
      "anie.": 3226,
      "▁spojrze": 3227,
      "▁lam": 3228,
      "▁siedział": 3229,
      "rab": 3230,
      "0]": 3231,
      "▁niew": 3232,
      "▁słońce": 3233,
      "nij": 3234,
      ".\nA": 3235,
      "▁nauczy": 3236,
      "▁żal": 3237,
      "▁krwa": 3238,
      "▁Op": 3239,
      "ków.": 3240,
      "aka": 3241,
      "▁reli": 3242,
      "▁Trzeba": 3243,
      "du,": 3244,
      "jesz": 3245,
      "▁tych,": 3246,
      "skich,": 3247,
      "bawi": 3248,
      "▁przeby": 3249,
      "▁byłoby": 3250,
      "▁Tymczasem": 3251,
      "tr": 3252,
      "cji,": 3253,
      "▁niektó": 3254,
      "▁wyko": 3255,
      "ły.": 3256,
      "▁doświad": 3257,
      "▁westch": 3258,
      "sło": 3259,
      "rowadzi": 3260,
      "anu": 3261,
      "gami": 3262,
      "▁chwila": 3263,
      "mor": 3264,
      "szło": 3265,
      "legł": 3266,
      "▁powro": 3267,
      "▁jeszcze,": 3268,
      "▁zwróci": 3269,
      "brać": 3270,
      "▁stó": 3271,
      "▁podniósł": 3272,
      "ała.\n": 3273,
      "▁okry": 3274,
      "nosząc": 3275,
      "stor": 3276,
      "▁rzad": 3277,
      "▁Król": 3278,
      "tość": 3279,
      "▁spojrzał": 3280,
      "nąłem": 3281,
      "▁patrzy": 3282,
      "▁powróci": 3283,
      "▁towarzysz": 3284,
      "▁Rz": 3285,
      "▁pieniędzy": 3286,
      "▁Bu": 3287,
      "▁pan,": 3288,
      "ali,": 3289,
      "mieniu": 3290,
      "cya": 3291,
      "▁widzieć": 3292,
      "sty,": 3293,
      "lin": 3294,
      "▁zamiast": 3295,
      "▁odkry": 3296,
      "▁dziel": 3297,
      "kie,": 3298,
      "▁ciało": 3299,
      "▁drzewa": 3300,
      "▁zanie": 3301,
      "▁zwrac": 3302,
      "▁Ber": 3303,
      "▁wysoko": 3304,
      "▁słysz": 3305,
      "gląda": 3306,
      "▁zatem": 3307,
      "▁wolno": 3308,
      "nad": 3309,
      "jan": 3310,
      "▁\nA": 3311,
      "▁gospoda": 3312,
      "chodzą": 3313,
      "▁klasz": 3314,
      "▁daj": 3315,
      "ch!": 3316,
      "▁najwyż": 3317,
      "▁względem": 3318,
      "▁tam,": 3319,
      "▁zer": 3320,
      "sarz": 3321,
      "▁skó": 3322,
      "ał.\n": 3323,
      "▁Am": 3324,
      "cz,": 3325,
      "dne": 3326,
      "▁zaczęła": 3327,
      "▁cztery": 3328,
      "pio": 3329,
      "▁niezn": 3330,
      "niej,": 3331,
      "▁Jestem": 3332,
      "rając": 3333,
      "▁posł": 3334,
      "gad": 3335,
      "ającą": 3336,
      "ódz": 3337,
      "▁skład": 3338,
      "▁Kon": 3339,
      "▁sro": 3340,
      "▁przezna": 3341,
      "▁zwła": 3342,
      "▁Sko": 3343,
      "nięty": 3344,
      "▁kraju": 3345,
      "tki": 3346,
      "▁wieczór": 3347,
      "▁Sp": 3348,
      "▁zwierzę": 3349,
      "ato": 3350,
      "wsze": 3351,
      "▁stanę": 3352,
      "mień": 3353,
      "▁zast": 3354,
      "▁ulicy": 3355,
      "▁har": 3356,
      "▁szk": 3357,
      "▁oświad": 3358,
      "cio": 3359,
      "pić": 3360,
      "▁ogie": 3361,
      "▁ocho": 3362,
      "▁ogar": 3363,
      "▁cud": 3364,
      "▁ci,": 3365,
      "▁czeka": 3366,
      "czność": 3367,
      "nąwszy": 3368,
      "ss": 3369,
      "▁gu": 3370,
      "▁widocznie": 3371,
      "▁żyć": 3372,
      "▁uśmiechem": 3373,
      "ajutrz": 3374,
      "czności": 3375,
      "wale": 3376,
      "\nO": 3377,
      "podob": 3378,
      "em.\n": 3379,
      "▁puł": 3380,
      "czkę": 3381,
      "▁Niem": 3382,
      "▁hono": 3383,
      "te,": 3384,
      "▁wskaz": 3385,
      "nia.\n": 3386,
      "mieniem": 3387,
      "▁skło": 3388,
      "▁dlaczego": 3389,
      "▁zapła": 3390,
      "▁starego": 3391,
      "▁wyzna": 3392,
      "▁żem": 3393,
      "▁17": 3394,
      "▁prosto": 3395,
      "▁będąc": 3396,
      "▁ducha": 3397,
      "wać,": 3398,
      "▁poczu": 3399,
      "▁pokój": 3400,
      "▁męża": 3401,
      "rzec": 3402,
      "▁warun": 3403,
      "▁woli": 3404,
      "▁obiad": 3405,
      "▁odrzekł": 3406,
      "▁zacho": 3407,
      "▁wszelkie": 3408,
      "▁domy": 3409,
      "▁syna": 3410,
      "wer": 3411,
      "▁16": 3412,
      "▁nu": 3413,
      "▁leż": 3414,
      "▁przychodzi": 3415,
      "▁tysiąc": 3416,
      "niosła": 3417,
      "owę": 3418,
      "rowadził": 3419,
      "▁stanął": 3420,
      "▁sami": 3421,
      "ać.\n": 3422,
      "▁wie,": 3423,
      "▁grom": 3424,
      "▁Zda": 3425,
      "▁powiet": 3426,
      "▁cof": 3427,
      "▁wielkim": 3428,
      "▁Pra": 3429,
      "▁nie,": 3430,
      "▁młodo": 3431,
      "▁pani,": 3432,
      "▁podzi": 3433,
      "gó": 3434,
      "▁nim,": 3435,
      "▁uda": 3436,
      "▁stoi": 3437,
      "ba,": 3438,
      "rać": 3439,
      "▁bohat": 3440,
      "▁wczoraj": 3441,
      "miot": 3442,
      "▁małże": 3443,
      "ńca": 3444,
      "▁nikogo": 3445,
      "▁śpi": 3446,
      "IA": 3447,
      "▁chrześci": 3448,
      "ię,": 3449,
      "rój": 3450,
      "▁Henry": 3451,
      "▁oświe": 3452,
      "stych": 3453,
      "zio": 3454,
      "gach": 3455,
      "ących": 3456,
      "aru": 3457,
      "dzony": 3458,
      "▁tobą": 3459,
      "▁namięt": 3460,
      "▁rodzaju": 3461,
      "jeżdż": 3462,
      "▁płak": 3463,
      "▁zew": 3464,
      "rzch": 3465,
      "owa,": 3466,
      "ą.\n": 3467,
      "▁stóp": 3468,
      "▁ge": 3469,
      "▁matki": 3470,
      "▁naw": 3471,
      "dr": 3472,
      "ryw": 3473,
      "▁fo": 3474,
      "▁skończy": 3475,
      "▁prawda": 3476,
      "▁śmiał": 3477,
      "▁człowiek,": 3478,
      "▁niewol": 3479,
      "piec": 3480,
      "▁Praw": 3481,
      "▁śni": 3482,
      "sić": 3483,
      "roma": 3484,
      "▁gad": 3485,
      "▁O,": 3486,
      "▁mocno": 3487,
      "moc": 3488,
      "▁Pier": 3489,
      "redni": 3490,
      "ck": 3491,
      "▁mej": 3492,
      "▁ostroż": 3493,
      "▁rąk": 3494,
      "stwa,": 3495,
      "▁całego": 3496,
      "▁sa": 3497,
      "▁niegdyś": 3498,
      "kły": 3499,
      "liła": 3500,
      "cyi,": 3501,
      "▁kiesze": 3502,
      "▁przyzna": 3503,
      "▁powtarz": 3504,
      "rzyma": 3505,
      "▁19": 3506,
      "▁któremu": 3507,
      "cierpli": 3508,
      "▁wście": 3509,
      "gów": 3510,
      "liwy": 3511,
      "▁pomy": 3512,
      "▁myślał": 3513,
      "▁komu": 3514,
      "?\n\n": 3515,
      "▁Nad": 3516,
      "▁mężczy": 3517,
      "▁boga": 3518,
      "▁ziem": 3519,
      "▁wyją": 3520,
      "łani": 3521,
      "▁kło": 3522,
      "▁Każ": 3523,
      "stym": 3524,
      "▁jednak,": 3525,
      "omy": 3526,
      "▁kape": 3527,
      "piesz": 3528,
      "tra": 3529,
      "▁ogól": 3530,
      "▁gene": 3531,
      "▁oczeki": 3532,
      "▁godziny": 3533,
      "▁drzew": 3534,
      "lał": 3535,
      "▁gi": 3536,
      "dług": 3537,
      "▁tłum": 3538,
      "▁pewnego": 3539,
      "siące": 3540,
      "▁okolicz": 3541,
      "▁urzą": 3542,
      "▁twar": 3543,
      "▁skrom": 3544,
      "▁początku": 3545,
      "wien": 3546,
      "siej": 3547,
      ".\nT": 3548,
      "dal": 3549,
      "▁wielkiej": 3550,
      "▁wszędzie": 3551,
      "▁błęki": 3552,
      "▁niezwy": 3553,
      "chał": 3554,
      "wiat": 3555,
      "cznie,": 3556,
      "▁szczęścia": 3557,
      "skar": 3558,
      "got": 3559,
      "▁podw": 3560,
      "▁koście": 3561,
      "▁her": 3562,
      "cę,": 3563,
      "ja,": 3564,
      "Ni": 3565,
      "▁twier": 3566,
      "chaj": 3567,
      "▁duszę": 3568,
      "▁którem": 3569,
      "▁Mon": 3570,
      "\nC": 3571,
      "▁dział": 3572,
      "▁fun": 3573,
      "dny": 3574,
      "owały": 3575,
      "żenia": 3576,
      "▁niemie": 3577,
      "▁ślu": 3578,
      "▁Ależ": 3579,
      "arem": 3580,
      "nó": 3581,
      "▁czuł": 3582,
      "▁ogląd": 3583,
      "▁broni": 3584,
      "▁słysze": 3585,
      "rwi": 3586,
      "III": 3587,
      "zdro": 3588,
      "▁Bogu": 3589,
      "▁trudno": 3590,
      "▁\nT": 3591,
      "▁żona": 3592,
      "▁natural": 3593,
      "łecz": 3594,
      "▁fa": 3595,
      "▁obojęt": 3596,
      "▁puści": 3597,
      "▁bry": 3598,
      "▁ręku": 3599,
      "▁kobiet": 3600,
      "cenia": 3601,
      "▁Mój": 3602,
      "▁mogłem": 3603,
      "▁cierpi": 3604,
      "abry": 3605,
      "▁lata": 3606,
      "ratu": 3607,
      "▁zy": 3608,
      "le.": 3609,
      "▁usz": 3610,
      "▁pomimo": 3611,
      "▁znajdzie": 3612,
      "▁wzrok": 3613,
      "niesi": 3614,
      "▁dostrze": 3615,
      "▁ostatecz": 3616,
      "skup": 3617,
      "▁narod": 3618,
      "▁stąd": 3619,
      "sunął": 3620,
      "stali": 3621,
      "▁według": 3622,
      "ników,": 3623,
      "▁zagad": 3624,
      "▁moral": 3625,
      "mat": 3626,
      "▁jakże": 3627,
      "cieli": 3628,
      "▁jakaś": 3629,
      "▁Jeszcze": 3630,
      "bro": 3631,
      "▁skąd": 3632,
      "▁Hi": 3633,
      "▁ciągu": 3634,
      "sier": 3635,
      "▁Wszyscy": 3636,
      "▁tuż": 3637,
      "▁służąc": 3638,
      "koło": 3639,
      "▁postawi": 3640,
      "sce": 3641,
      "tyk": 3642,
      "▁zmar": 3643,
      "czar": 3644,
      "▁zgu": 3645,
      "bel": 3646,
      "▁kur": 3647,
      "mie,": 3648,
      "wienie": 3649,
      "▁osobi": 3650,
      "▁De": 3651,
      "▁łaska": 3652,
      "pomnie": 3653,
      "ry.": 3654,
      "▁v": 3655,
      "kre": 3656,
      "ment": 3657,
      "▁fak": 3658,
      "▁miało": 3659,
      "▁zawołała": 3660,
      "gą,": 3661,
      "mar": 3662,
      "▁m,": 3663,
      "▁żaden": 3664,
      "niejszą": 3665,
      "▁całym": 3666,
      "▁świą": 3667,
      "owski": 3668,
      "che": 3669,
      "▁miały": 3670,
      "mal": 3671,
      "▁Otóż": 3672,
      "cy.": 3673,
      "▁pragnie": 3674,
      "rzymać": 3675,
      "▁źród": 3676,
      "▁same": 3677,
      "ńskich": 3678,
      "▁Ani": 3679,
      "▁bó": 3680,
      "▁zajm": 3681,
      "▁łagod": 3682,
      "▁potrzebu": 3683,
      "▁doli": 3684,
      "▁dziewi": 3685,
      "...\n\n": 3686,
      "▁kapelu": 3687,
      "\nM": 3688,
      "▁kuch": 3689,
      "▁sce": 3690,
      ",\nM": 3691,
      "cony": 3692,
      "daj": 3693,
      "oz": 3694,
      "▁Ry": 3695,
      "▁dźwię": 3696,
      "▁zbliż": 3697,
      "ami.\n": 3698,
      "▁zwol": 3699,
      "▁wscho": 3700,
      "ństwa,": 3701,
      "▁ryce": 3702,
      "▁szale": 3703,
      "wam": 3704,
      "▁zarzu": 3705,
      "▁stanow": 3706,
      "ńców": 3707,
      "usza": 3708,
      "▁byłby": 3709,
      "▁pokoju,": 3710,
      "gni": 3711,
      "dyn": 3712,
      "▁popro": 3713,
      ",\nCo": 3714,
      "▁koniec": 3715,
      "▁dusza": 3716,
      "emy": 3717,
      "ł.": 3718,
      "tal": 3719,
      "temi": 3720,
      "rucho": 3721,
      "▁chleb": 3722,
      "▁takiej": 3723,
      "bardziej": 3724,
      "▁teraz,": 3725,
      "tać": 3726,
      "▁7": 3727,
      "ść.": 3728,
      "▁wszystki": 3729,
      "▁oka": 3730,
      "gnął": 3731,
      "▁opi": 3732,
      "dziesiąt": 3733,
      "chy,": 3734,
      "ślo": 3735,
      "▁rozmai": 3736,
      "▁El": 3737,
      "▁Wtedy": 3738,
      "▁siad": 3739,
      "▁zapad": 3740,
      "▁siedzi": 3741,
      "▁jakoś": 3742,
      "▁okrę": 3743,
      "▁sędzi": 3744,
      "▁sym": 3745,
      "niejsza": 3746,
      ".\nS": 3747,
      "ti": 3748,
      "▁śmiertel": 3749,
      "▁Pow": 3750,
      "oru": 3751,
      "▁Zna": 3752,
      "rząs": 3753,
      "lozo": 3754,
      "▁myśli,": 3755,
      "▁występ": 3756,
      "▁niczem": 3757,
      "▁para": 3758,
      "▁prędko": 3759,
      "▁pierwsze": 3760,
      "śmi": 3761,
      "ńskiej": 3762,
      "▁postać": 3763,
      "▁źle": 3764,
      "▁podró": 3765,
      "▁ledwie": 3766,
      "kiedy": 3767,
      "kroć": 3768,
      "la.": 3769,
      "▁grz": 3770,
      "▁proś": 3771,
      "▁zrobić": 3772,
      "g,": 3773,
      "▁inny": 3774,
      "▁słyszał": 3775,
      "nik,": 3776,
      "▁zrozumie": 3777,
      "aty,": 3778,
      "rząt": 3779,
      "rowadzić": 3780,
      "lon": 3781,
      "liz": 3782,
      "tu.": 3783,
      "▁pieś": 3784,
      "▁jakiegoś": 3785,
      "ąb": 3786,
      "ają,": 3787,
      "▁kol": 3788,
      "jącego": 3789,
      "▁wychodzi": 3790,
      "wy.": 3791,
      "▁Jezu": 3792,
      "▁zazdro": 3793,
      "▁And": 3794,
      "stw": 3795,
      "szka": 3796,
      "▁powoli": 3797,
      "▁sty": 3798,
      "▁sprawa": 3799,
      "▁pozn": 3800,
      "▁Czu": 3801,
      "▁opo": 3802,
      "▁zapro": 3803,
      "sz?": 3804,
      "▁Świę": 3805,
      "AR": 3806,
      "▁[5": 3807,
      "▁pierwszej": 3808,
      "skie,": 3809,
      "wany": 3810,
      "▁ły": 3811,
      "jcie": 3812,
      "▁kiedyś": 3813,
      "▁strzel": 3814,
      "▁widzę": 3815,
      "▁leka": 3816,
      "th": 3817,
      "▁brak": 3818,
      "ałe": 3819,
      "▁srebr": 3820,
      "c.": 3821,
      "are": 3822,
      "▁pocho": 3823,
      "▁ja,": 3824,
      "▁doz": 3825,
      "▁Krzy": 3826,
      "lika": 3827,
      "▁istnie": 3828,
      "▁spogląd": 3829,
      "▁Dy": 3830,
      "▁koro": 3831,
      "▁mą": 3832,
      "▁spyt": 3833,
      "▁La": 3834,
      "skiej,": 3835,
      "▁mart": 3836,
      "▁Mło": 3837,
      "▁wystar": 3838,
      "kien": 3839,
      "▁Se": 3840,
      "dzie.": 3841,
      "▁całkiem": 3842,
      "▁wierzy": 3843,
      "dzili": 3844,
      "▁powinien": 3845,
      "▁krzyk": 3846,
      "▁ono": 3847,
      "▁będziemy": 3848,
      "▁dzieje": 3849,
      "kłem": 3850,
      "rym": 3851,
      "▁mojego": 3852,
      "▁Ros": 3853,
      "▁Oczy": 3854,
      "▁rano": 3855,
      "▁10": 3856,
      "▁prócz": 3857,
      "▁różne": 3858,
      "▁tre": 3859,
      "śnie,": 3860,
      "gry": 3861,
      "▁poto": 3862,
      "▁dzien": 3863,
      "▁kre": 3864,
      "sie,": 3865,
      "▁brat": 3866,
      "ało.": 3867,
      "▁Czas": 3868,
      "stego": 3869,
      "▁przywiąz": 3870,
      "ni.\n": 3871,
      "dą,": 3872,
      "▁dach": 3873,
      "NA": 3874,
      "▁ten,": 3875,
      "stwem": 3876,
      "▁sposobem": 3877,
      "syp": 3878,
      "nikiem": 3879,
      "owane": 3880,
      "▁nareszcie": 3881,
      "▁zato": 3882,
      "cej": 3883,
      "czel": 3884,
      "▁robić": 3885,
      "▁wiatr": 3886,
      "wienia": 3887,
      "▁różnych": 3888,
      "▁uz": 3889,
      "▁spę": 3890,
      "tkiem": 3891,
      "▁zakon": 3892,
      "l,": 3893,
      "ek.": 3894,
      "▁kła": 3895,
      "▁snu": 3896,
      "▁każdej": 3897,
      "tny": 3898,
      "anowi": 3899,
      "▁obywat": 3900,
      "bie,": 3901,
      "▁przewo": 3902,
      "chu,": 3903,
      "▁dokoła": 3904,
      "sięg": 3905,
      "▁panie,": 3906,
      "▁kwa": 3907,
      "▁Ste": 3908,
      "▁zwłaszcza": 3909,
      "▁wielkich": 3910,
      "▁ha": 3911,
      "cone": 3912,
      "▁stron": 3913,
      "▁pali": 3914,
      "▁nań": 3915,
      "▁sprawi": 3916,
      "▁Me": 3917,
      "staw": 3918,
      "▁zmę": 3919,
      "Czy": 3920,
      "▁sąsie": 3921,
      "▁uści": 3922,
      "▁Wło": 3923,
      "ana.": 3924,
      "▁Ona": 3925,
      "▁pogar": 3926,
      "▁bawi": 3927,
      "▁gorą": 3928,
      "▁zaczyna": 3929,
      "tów,": 3930,
      "▁grob": 3931,
      "▁spi": 3932,
      "tam": 3933,
      "▁zapo": 3934,
      "▁spokojnie": 3935,
      "▁ścian": 3936,
      "▁wydoby": 3937,
      "żony": 3938,
      "▁uło": 3939,
      "▁drugiego": 3940,
      "▁miesiąc": 3941,
      "▁charak": 3942,
      "uszczo": 3943,
      "umf": 3944,
      "▁zde": 3945,
      "▁8": 3946,
      "tór": 3947,
      "dził,": 3948,
      "▁Dlaczego": 3949,
      "▁jesteśmy": 3950,
      "▁pocał": 3951,
      "▁spoczy": 3952,
      "▁\nZ": 3953,
      "▁Proszę": 3954,
      "nym.": 3955,
      "▁konia": 3956,
      "▁każdego": 3957,
      "▁Cy": 3958,
      "sąd": 3959,
      "rąg": 3960,
      "lenie": 3961,
      "▁j.": 3962,
      "▁och": 3963,
      "czeniu": 3964,
      "▁gospodar": 3965,
      ".\nK": 3966,
      "▁osób": 3967,
      "▁przeba": 3968,
      "▁wszystkiego": 3969,
      "anem": 3970,
      "tyka": 3971,
      "▁możesz": 3972,
      "▁okre": 3973,
      "▁samą": 3974,
      "▁powszech": 3975,
      "prawiedli": 3976,
      "▁wód": 3977,
      "wiście": 3978,
      "▁pias": 3979,
      "▁Anto": 3980,
      "▁wybuch": 3981,
      "lać": 3982,
      "▁wszech": 3983,
      "nieść": 3984,
      "▁teat": 3985,
      "▁oku": 3986,
      "bła": 3987,
      "▁wzajem": 3988,
      "szedłem": 3989,
      "jad": 3990,
      "▁wys": 3991,
      "▁Ludwi": 3992,
      "▁napo": 3993,
      "żna": 3994,
      "▁włos": 3995,
      "▁Józe": 3996,
      "▁dzisiej": 3997,
      "▁Pie": 3998,
      "▁powiedzieć,": 3999,
      "▁przeto": 4000,
      "▁Jakże": 4001,
      "▁droga": 4002,
      "▁wyr": 4003,
      "▁sek": 4004,
      "▁słońca": 4005,
      "bliż": 4006,
      "cem,": 4007,
      "▁zarazem": 4008,
      "▁zanim": 4009,
      "du.": 4010,
      "▁Pew": 4011,
      "▁zbo": 4012,
      "▁intere": 4013,
      "▁przeciwko": 4014,
      "▁filozo": 4015,
      "▁księcia": 4016,
      "▁połą": 4017,
      "leń": 4018,
      "ma,": 4019,
      "▁trafi": 4020,
      "▁Naz": 4021,
      "łów": 4022,
      "▁sobą,": 4023,
      "stoj": 4024,
      "▁pora": 4025,
      "▁Ho": 4026,
      "▁stały": 4027,
      "▁swojego": 4028,
      "▁bogat": 4029,
      "aniu,": 4030,
      "▁wszystkiem": 4031,
      "mach": 4032,
      "łowa": 4033,
      "▁siedząc": 4034,
      "▁reszt": 4035,
      "▁Ponieważ": 4036,
      "Gdzie": 4037,
      "▁pełne": 4038,
      "żone": 4039,
      "▁narze": 4040,
      "▁poku": 4041,
      "▁przest": 4042,
      "szenia": 4043,
      "▁wprawdzie": 4044,
      "▁Sto": 4045,
      "▁ratu": 4046,
      "▁tch": 4047,
      "▁zwrócił": 4048,
      "▁mężczyz": 4049,
      "▁żyje": 4050,
      "?...\n": 4051,
      "▁12": 4052,
      "▁ból": 4053,
      "▁nas,": 4054,
      "▁idąc": 4055,
      "u.\n": 4056,
      "▁oży": 4057,
      "dzić,": 4058,
      ",\nD": 4059,
      "ille": 4060,
      "▁inni": 4061,
      "▁została": 4062,
      "ająca": 4063,
      "▁plan": 4064,
      "nąć,": 4065,
      "▁przygotow": 4066,
      "▁skła": 4067,
      "ały.": 4068,
      "▁panem": 4069,
      "ct": 4070,
      "▁przyjdzie": 4071,
      "▁zamiesz": 4072,
      "▁zrobił": 4073,
      "łej": 4074,
      "▁ponad": 4075,
      "▁Or": 4076,
      "▁jeź": 4077,
      "▁poje": 4078,
      "▁umiał": 4079,
      "▁grun": 4080,
      "tyw": 4081,
      "▁skle": 4082,
      "▁niewin": 4083,
      "▁kocha": 4084,
      "▁włosy": 4085,
      "▁miejsc": 4086,
      "▁pochwy": 4087,
      ".\nO": 4088,
      "▁utwo": 4089,
      "ard": 4090,
      "liw": 4091,
      "źnie": 4092,
      "▁kłam": 4093,
      ".\n.\n.\n.\n": 4094,
      "▁Cze": 4095,
      "▁następnie": 4096,
      "dzać": 4097,
      "▁bliz": 4098,
      "▁błogosła": 4099,
      "▁sąsiad": 4100,
      "▁histor": 4101,
      "nkt": 4102,
      "▁ręki": 4103,
      "▁obsz": 4104,
      "▁upły": 4105,
      "▁kapitan": 4106,
      "dam": 4107,
      "▁dawno": 4108,
      "nątrz": 4109,
      "▁nowy": 4110,
      "▁żony": 4111,
      "▁nędz": 4112,
      "ton": 4113,
      "▁cen": 4114,
      "▁obcy": 4115,
      "wiony": 4116,
      "łek": 4117,
      "▁staje": 4118,
      "▁wysp": 4119,
      "lam": 4120,
      "RA": 4121,
      "▁zby": 4122,
      "▁umysł": 4123,
      "▁ty,": 4124,
      "▁ksiądz": 4125,
      "▁czło": 4126,
      "▁słowa,": 4127,
      "▁wzbu": 4128,
      "any.": 4129,
      "\nK": 4130,
      "▁spostrzegł": 4131,
      "▁wyna": 4132,
      "▁czter": 4133,
      "▁końca": 4134,
      "nika,": 4135,
      "\nNa": 4136,
      "ństw": 4137,
      "▁uwagę": 4138,
      "aków": 4139,
      "▁pokaz": 4140,
      "▁panny": 4141,
      "▁błag": 4142,
      "gro": 4143,
      "dych": 4144,
      "ty.\n": 4145,
      "▁wewnętrz": 4146,
      "nosił": 4147,
      "ką.": 4148,
      "▁byle": 4149,
      "a.\n": 4150,
      "owi.": 4151,
      "▁powietrze": 4152,
      "gdzie": 4153,
      "▁Di": 4154,
      "▁Bardzo": 4155,
      "▁krzyknął": 4156,
      "▁nawet,": 4157,
      "▁działa": 4158,
      "▁wychow": 4159,
      "▁przytem": 4160,
      "▁Two": 4161,
      "dol": 4162,
      "▁drugą": 4163,
      "▁okiem": 4164,
      "byśmy": 4165,
      "▁rzę": 4166,
      "▁nies": 4167,
      "▁krzyw": 4168,
      "▁naprze": 4169,
      "niła": 4170,
      "leci": 4171,
      "▁naraz": 4172,
      "▁Kości": 4173,
      "ret": 4174,
      "▁kul": 4175,
      "▁bezpie": 4176,
      "▁ład": 4177,
      "▁ujrzał": 4178,
      "ewszystkiem": 4179,
      "sta,": 4180,
      "▁Ach,": 4181,
      "▁insty": 4182,
      "▁wrócił": 4183,
      "▁światło": 4184,
      "lot": 4185,
      "▁wnet": 4186,
      "lenia": 4187,
      ",\n\n": 4188,
      "por": 4189,
      "stąpić": 4190,
      "DZ": 4191,
      "▁pta": 4192,
      "dopodob": 4193,
      "kier": 4194,
      "▁Ha": 4195,
      "▁abym": 4196,
      "robi": 4197,
      "ctwo": 4198,
      "▁rozkosz": 4199,
      "nością,": 4200,
      "kowie": 4201,
      "▁rzeczy,": 4202,
      "▁wiedział,": 4203,
      "▁posz": 4204,
      "szyła": 4205,
      "klę": 4206,
      "▁dlatego,": 4207,
      "▁otacz": 4208,
      "ścią,": 4209,
      "▁dobra": 4210,
      "szę,": 4211,
      "cili": 4212,
      "▁wzrokiem": 4213,
      "▁panowie": 4214,
      "powie": 4215,
      "dzono": 4216,
      "dzą,": 4217,
      "dzieścia": 4218,
      "▁pośród": 4219,
      ").\n": 4220,
      "eb": 4221,
      "▁nieprze": 4222,
      "bur": 4223,
      "▁twego": 4224,
      "▁woł": 4225,
      "▁jej,": 4226,
      "ld": 4227,
      "nął,": 4228,
      "▁us": 4229,
      "▁gdybym": 4230,
      "▁króle": 4231,
      "▁modlit": 4232,
      "▁skarb": 4233,
      "ałem,": 4234,
      "rzały": 4235,
      "▁poczem": 4236,
      "▁oce": 4237,
      "▁czoło": 4238,
      "rza.": 4239,
      "▁ludź": 4240,
      "▁stołu": 4241,
      "nicz": 4242,
      "▁szukać": 4243,
      "▁lekko": 4244,
      "▁okna": 4245,
      "▁Paryż": 4246,
      "▁gałę": 4247,
      "▁Ce": 4248,
      "▁tygo": 4249,
      "▁wszystkim": 4250,
      "▁stry": 4251,
      "oli": 4252,
      "świę": 4253,
      "▁ciała": 4254,
      "▁dzięki": 4255,
      "▁dzieci,": 4256,
      "cka": 4257,
      "\nD": 4258,
      "▁Wszak": 4259,
      "▁zła": 4260,
      "gi.": 4261,
      "▁ukoch": 4262,
      "▁dziesięć": 4263,
      "m.\n": 4264,
      "▁Rze": 4265,
      "▁utra": 4266,
      ".\n\nW": 4267,
      "▁wyg": 4268,
      "syj": 4269,
      "▁społecz": 4270,
      "▁sześć": 4271,
      "ować.": 4272,
      "▁istotnie": 4273,
      "▁wich": 4274,
      "▁widziałem": 4275,
      "▁uczynić": 4276,
      "deł": 4277,
      "Co": 4278,
      "dziemy": 4279,
      "ciu,": 4280,
      "rzony": 4281,
      "▁zamie": 4282,
      "▁Nigdy": 4283,
      "▁zba": 4284,
      "▁obchodzi": 4285,
      "▁koszt": 4286,
      "czyły": 4287,
      "▁kru": 4288,
      "▁niecierpli": 4289,
      "niami": 4290,
      "▁mogły": 4291,
      "▁cudow": 4292,
      "▁wszakże": 4293,
      "▁angiel": 4294,
      "\nNie": 4295,
      "nica": 4296,
      "▁wieczor": 4297,
      "nd": 4298,
      "▁musiała": 4299,
      "▁jeno": 4300,
      "▁hand": 4301,
      "skał": 4302,
      "rzyły": 4303,
      "łem,": 4304,
      "▁bezw": 4305,
      "era": 4306,
      "▁Dzię": 4307,
      "tychczas": 4308,
      "▁nic,": 4309,
      "▁nasza": 4310,
      "▁stronie": 4311,
      "▁pierwszego": 4312,
      "stwo,": 4313,
      "▁drogą": 4314,
      "▁szat": 4315,
      "▁niespokoj": 4316,
      "żę": 4317,
      "▁Jako": 4318,
      "▁nóg": 4319,
      "▁drżąc": 4320,
      "▁sprawę": 4321,
      "wości,": 4322,
      "▁przyszłość": 4323,
      "▁pomocy": 4324,
      "▁ją,": 4325,
      "nę.": 4326,
      "asz": 4327,
      "▁wielko": 4328,
      "ńska": 4329,
      "▁stać": 4330,
      "ół,": 4331,
      "▁przerwał": 4332,
      "▁ogień": 4333,
      "▁pozy": 4334,
      "czyli": 4335,
      "nego.": 4336,
      "przy": 4337,
      "▁tytu": 4338,
      "dzone": 4339,
      "prawdę": 4340,
      "▁uczci": 4341,
      "szenie": 4342,
      "▁Kar": 4343,
      "sen": 4344,
      "ającym": 4345,
      "▁rok": 4346,
      "▁siła": 4347,
      "cow": 4348,
      "▁najbardziej": 4349,
      "▁wiary": 4350,
      "▁Nikt": 4351,
      "nice": 4352,
      "▁nowego": 4353,
      "▁pust": 4354,
      "▁Sły": 4355,
      "▁więc,": 4356,
      "▁[6": 4357,
      "▁błyszcz": 4358,
      "▁podobne": 4359,
      "ńczył": 4360,
      "ność.": 4361,
      "ską,": 4362,
      "▁przestra": 4363,
      "▁Jeden": 4364,
      "▁sali": 4365,
      "▁odpowiedziała": 4366,
      ".\n\nP": 4367,
      "▁Her": 4368,
      "▁dziad": 4369,
      "▁bohater": 4370,
      "ski.": 4371,
      "skę": 4372,
      "niejszym": 4373,
      "▁głęboko": 4374,
      "▁postaci": 4375,
      "▁delika": 4376,
      "▁siebie.": 4377,
      "▁tęskno": 4378,
      "▁chle": 4379,
      "rywał": 4380,
      "tuje": 4381,
      "▁wypra": 4382,
      "▁rzekł:\n": 4383,
      "▁ener": 4384,
      "▁całem": 4385,
      "sil": 4386,
      "ającej": 4387,
      "rzeń": 4388,
      "▁wd": 4389,
      ",\nGdy": 4390,
      "mil": 4391,
      "logi": 4392,
      "▁mini": 4393,
      "▁czap": 4394,
      "▁usił": 4395,
      "▁gotów": 4396,
      "▁brzegu": 4397,
      "les": 4398,
      "▁łez": 4399,
      "▁zebr": 4400,
      "▁Lo": 4401,
      "koła": 4402,
      "▁przeraż": 4403,
      "▁moi": 4404,
      "▁mieście": 4405,
      "▁morze": 4406,
      "▁twoja": 4407,
      "czne,": 4408,
      "▁wiesz": 4409,
      "▁przedmio": 4410,
      "▁zasa": 4411,
      "▁nieza": 4412,
      "▁nierucho": 4413,
      "tą,": 4414,
      "▁uf": 4415,
      "▁głośno": 4416,
      "▁leży": 4417,
      "dale": 4418,
      "żyli": 4419,
      "nal": 4420,
      "▁żadnych": 4421,
      "jach": 4422,
      "▁prof": 4423,
      "▁Nagle": 4424,
      "▁przypat": 4425,
      "▁zwo": 4426,
      "cin": 4427,
      "▁Ser": 4428,
      "równ": 4429,
      "rzyło": 4430,
      "▁gaz": 4431,
      "▁więcej,": 4432,
      "rabie": 4433,
      "ną.\n": 4434,
      "aliśmy": 4435,
      "▁Zresztą": 4436,
      "▁zja": 4437,
      "▁szepnął": 4438,
      "ta.\n": 4439,
      "▁zuch": 4440,
      "▁wró": 4441,
      "cie.\n": 4442,
      "▁zasło": 4443,
      "▁niebi": 4444,
      "▁wspomnie": 4445,
      "▁pozostawi": 4446,
      "wością": 4447,
      "▁mnó": 4448,
      "▁szpi": 4449,
      "niu.": 4450,
      "▁Czar": 4451,
      "▁poznał": 4452,
      "▁wieczorem": 4453,
      "▁przypuszcz": 4454,
      "▁znajduje": 4455,
      "owało": 4456,
      "niejsz": 4457,
      "noś": 4458,
      "▁Su": 4459,
      "tek,": 4460,
      "ciej": 4461,
      "tali": 4462,
      "▁skry": 4463,
      "jąc,": 4464,
      "▁głowa": 4465,
      "▁ponu": 4466,
      "▁czasu,": 4467,
      "ZE": 4468,
      "▁pach": 4469,
      "▁ukaz": 4470,
      "▁dwor": 4471,
      "▁miłosier": 4472,
      "▁czyż": 4473,
      "siąg": 4474,
      "▁wielka": 4475,
      "▁mogąc": 4476,
      "▁umar": 4477,
      "▁kwe": 4478,
      "▁spokój": 4479,
      "▁twe": 4480,
      "▁któremi": 4481,
      "▁odzie": 4482,
      "▁niepodob": 4483,
      "▁codzien": 4484,
      "▁pogrze": 4485,
      "▁ek": 4486,
      "czonych": 4487,
      "▁bad": 4488,
      "io": 4489,
      "▁9": 4490,
      "▁przedmiot": 4491,
      "niejszej": 4492,
      "▁rozmowy": 4493,
      "siąż": 4494,
      "▁kor": 4495,
      "▁Zy": 4496,
      "▁milcząc": 4497,
      "▁usu": 4498,
      "▁ludu": 4499,
      "▁Jul": 4500,
      "▁koni": 4501,
      "▁O!": 4502,
      "▁własnej": 4503,
      "▁małe": 4504,
      "▁przew": 4505,
      "lone": 4506,
      "▁głupi": 4507,
      "▁patrz": 4508,
      "▁Jednak": 4509,
      "▁przewi": 4510,
      "rała": 4511,
      "▁zbi": 4512,
      "▁uczucia": 4513,
      "▁znaleźć": 4514,
      "▁fanta": 4515,
      "słych": 4516,
      "▁religi": 4517,
      "ST": 4518,
      "▁pana,": 4519,
      "▁Myśl": 4520,
      "sko,": 4521,
      "▁świąty": 4522,
      "ła.\n": 4523,
      "jewo": 4524,
      "▁pusz": 4525,
      "er,": 4526,
      "▁niej,": 4527,
      "▁pewnie": 4528,
      "iem": 4529,
      "▁jakiejś": 4530,
      "y.": 4531,
      "dziestu": 4532,
      "min": 4533,
      "▁czwar": 4534,
      "tami": 4535,
      "▁posa": 4536,
      "▁oprócz": 4537,
      "▁pusty": 4538,
      ",\nNa": 4539,
      "▁uprzej": 4540,
      "▁Pe": 4541,
      "rad": 4542,
      "da.": 4543,
      "▁dwadzieścia": 4544,
      "dziło": 4545,
      "▁bal": 4546,
      "▁rzą": 4547,
      "▁nich,": 4548,
      "▁\nS": 4549,
      "▁rozpacz": 4550,
      "jal": 4551,
      "mian": 4552,
      "bowiem": 4553,
      "▁naszym": 4554,
      "łóma": 4555,
      "rzuc": 4556,
      "▁odczu": 4557,
      "▁pry": 4558,
      "▁wiedząc": 4559,
      "uj": 4560,
      "▁Chło": 4561,
      "▁dalej,": 4562,
      "▁głup": 4563,
      "▁usłu": 4564,
      "▁znakomi": 4565,
      "\n\n\n\n": 4566,
      "▁Szy": 4567,
      "▁obję": 4568,
      "▁wątpli": 4569,
      "▁herb": 4570,
      "▁ró": 4571,
      "▁doku": 4572,
      "sku,": 4573,
      "▁przeciąg": 4574,
      "▁niczego": 4575,
      "▁Tego": 4576,
      "▁dopóki": 4577,
      "▁żeś": 4578,
      "ajcie": 4579,
      "ji.": 4580,
      "▁myśl,": 4581,
      "▁swojem": 4582,
      "▁Miał": 4583,
      "rę,": 4584,
      "▁cierpli": 4585,
      "hi": 4586,
      "ją.": 4587,
      "▁złego": 4588,
      "▁szal": 4589,
      "▁on,": 4590,
      "OW": 4591,
      "▁ojczyz": 4592,
      "▁Pana": 4593,
      "▁uspoko": 4594,
      "▁Widzi": 4595,
      "▁uczynił": 4596,
      "▁kim": 4597,
      "▁pou": 4598,
      "\nB": 4599,
      "▁Piotr": 4600,
      "▁oznaj": 4601,
      "tur": 4602,
      "▁czasów": 4603,
      "▁gwar": 4604,
      "▁dnie": 4605,
      "▁14": 4606,
      "▁dziewczę": 4607,
      "▁dostat": 4608,
      "▁Wreszcie": 4609,
      "▁obawi": 4610,
      "▁pewien": 4611,
      "▁wojsk": 4612,
      "▁chłopak": 4613,
      "pał": 4614,
      "▁poszu": 4615,
      "▁zadu": 4616,
      "▁gła": 4617,
      "▁wese": 4618,
      "▁umarł": 4619,
      "▁odej": 4620,
      "▁dra": 4621,
      "▁przyjm": 4622,
      "▁pieśni": 4623,
      "▁przypomni": 4624,
      "▁kosz": 4625,
      "▁znać": 4626,
      "▁młodego": 4627,
      "▁przeczu": 4628,
      "▁fizy": 4629,
      "aję": 4630,
      "łecze": 4631,
      "▁psy": 4632,
      "▁życie,": 4633,
      "rzawszy": 4634,
      "ści.\n": 4635,
      "▁swem": 4636,
      "cenie": 4637,
      "wna": 4638,
      "▁Mor": 4639,
      "▁Poz": 4640,
      "rabia": 4641,
      "▁uci": 4642,
      "owej,": 4643,
      "▁ręce,": 4644,
      "▁zwykł": 4645,
      "▁mu,": 4646,
      "▁Ot": 4647,
      "▁\nO": 4648,
      "▁domu.": 4649,
      "▁niekiedy": 4650,
      "ckich": 4651,
      "fie": 4652,
      "kę.\n": 4653,
      "▁13": 4654,
      "▁niesko": 4655,
      "si,": 4656,
      "▁cało": 4657,
      "▁stawi": 4658,
      "▁chust": 4659,
      "▁dłuż": 4660,
      "emo": 4661,
      "▁przypomina": 4662,
      "▁hała": 4663,
      "▁Stani": 4664,
      "ód,": 4665,
      "▁oficer": 4666,
      "▁czte": 4667,
      "▁żyw": 4668,
      "▁nią,": 4669,
      "▁Bez": 4670,
      "rok": 4671,
      "▁śniad": 4672,
      "▁zdawał": 4673,
      "▁odpowiedź": 4674,
      "▁Następ": 4675,
      ",\nBo": 4676,
      "▁Nawet": 4677,
      "▁Bra": 4678,
      "▁przyz": 4679,
      "ciela": 4680,
      "ers": 4681,
      "▁nazywa": 4682,
      "wor": 4683,
      "mi.": 4684,
      "▁resz": 4685,
      "▁epo": 4686,
      "▁deszcz": 4687,
      "▁Będzie": 4688,
      "▁pioru": 4689,
      "▁odpo": 4690,
      "▁podło": 4691,
      "▁wyłą": 4692,
      "▁prawdę": 4693,
      "on,": 4694,
      "▁ramię": 4695,
      "różno": 4696,
      "▁zamku": 4697,
      "dziły": 4698,
      "▁ludzko": 4699,
      "▁XV": 4700,
      "ż,": 4701,
      "pienia": 4702,
      "▁Człowie": 4703,
      "czni": 4704,
      "▁powiedz": 4705,
      "▁znał": 4706,
      "▁istocie": 4707,
      "▁wycie": 4708,
      "▁zamknię": 4709,
      "tała": 4710,
      "biegła": 4711,
      "▁organi": 4712,
      "▁piękne": 4713,
      "▁święty": 4714,
      "dować": 4715,
      "owałem": 4716,
      "▁Angli": 4717,
      "▁gorz": 4718,
      "ścia,": 4719,
      "nek,": 4720,
      "dy.\n": 4721,
      "▁kolan": 4722,
      "▁odrazu": 4723,
      "kuję": 4724,
      "▁posu": 4725,
      "▁poboż": 4726,
      "ę.\n": 4727,
      "▁spie": 4728,
      "▁cię,": 4729,
      "▁obło": 4730,
      "▁miastecz": 4731,
      "▁wedle": 4732,
      "▁zamiar": 4733,
      "▁ludzie,": 4734,
      "nem.": 4735,
      "ński,": 4736,
      "owicz": 4737,
      "▁chętnie": 4738,
      "▁sypi": 4739,
      "▁doskonale": 4740,
      "▁mili": 4741,
      "dnia": 4742,
      "▁podzie": 4743,
      "▁fal": 4744,
      "ług": 4745,
      "▁braci": 4746,
      "▁dja": 4747,
      "▁ciebie,": 4748,
      "▁przyw": 4749,
      "▁przyszło": 4750,
      "anie.\n": 4751,
      "ste,": 4752,
      "▁razu": 4753,
      "▁macie": 4754,
      "▁hrabia": 4755,
      "▁przyszłości": 4756,
      "▁możemy": 4757,
      "▁zgroma": 4758,
      "SK": 4759,
      "▁polu": 4760,
      "sz.": 4761,
      "▁szuka": 4762,
      "▁wpat": 4763,
      "▁pośpie": 4764,
      "▁dobrego": 4765,
      "▁ojca,": 4766,
      "▁przechodzi": 4767,
      "▁poczci": 4768,
      "▁błyska": 4769,
      "▁przeszko": 4770,
      "▁białe": 4771,
      "▁prób": 4772,
      "▁zac": 4773,
      "▁pamięci": 4774,
      "warz": 4775,
      "▁będzie,": 4776,
      "▁ub": 4777,
      "▁ros": 4778,
      "▁wah": 4779,
      "ser": 4780,
      "czyć,": 4781,
      "▁rozleg": 4782,
      "kowa": 4783,
      "▁mnie.": 4784,
      "▁brzy": 4785,
      "ńcy": 4786,
      "chadz": 4787,
      "▁staną": 4788,
      "▁przyszła": 4789,
      "pro": 4790,
      "▁Augu": 4791,
      "▁prawda,": 4792,
      "▁póki": 4793,
      "lec": 4794,
      "▁udał": 4795,
      "▁godzin": 4796,
      "▁zbrodni": 4797,
      "żon": 4798,
      "▁przepa": 4799,
      "!\n\n\n": 4800,
      "▁dotychczas": 4801,
      "ura": 4802,
      "▁at": 4803,
      "▁kościoła": 4804,
      "▁nosi": 4805,
      "żyłem": 4806,
      "▁kroków": 4807,
      "▁Iz": 4808,
      "▁wiedzieć": 4809,
      "▁drugim": 4810,
      "▁wziąć": 4811,
      "ru.": 4812,
      "▁zbrod": 4813,
      "▁charakt": 4814,
      "▁port": 4815,
      "▁Flo": 4816,
      "▁kory": 4817,
      "▁gorącz": 4818,
      "▁post": 4819,
      "▁poznać": 4820,
      "czył,": 4821,
      "▁temi": 4822,
      "▁kłopo": 4823,
      "▁Pu": 4824,
      "▁ciężko": 4825,
      "▁ręko": 4826,
      "▁cha": 4827,
      "▁skrzydła": 4828,
      "ściej": 4829,
      "▁przemówi": 4830,
      "nieniem": 4831,
      "▁ilo": 4832,
      "▁czemu": 4833,
      "▁śpiew": 4834,
      "▁tu,": 4835,
      "▁ludzkie": 4836,
      "▁włó": 4837,
      "czyło": 4838,
      "▁zostać": 4839,
      "▁polity": 4840,
      "▁Fili": 4841,
      "▁kieli": 4842,
      "dło": 4843,
      "▁ustawi": 4844,
      "▁zauf": 4845,
      "▁Skoro": 4846,
      "▁uwol": 4847,
      "▁bur": 4848,
      "lom": 4849,
      "pol": 4850,
      "ździe": 4851,
      "▁owe": 4852,
      "stanowie": 4853,
      "Ja": 4854,
      "▁piękna": 4855,
      "▁zatrzymał": 4856,
      "▁trzeci": 4857,
      "▁wykrzy": 4858,
      "▁niejed": 4859,
      "emnie": 4860,
      "▁[7": 4861,
      "▁sied": 4862,
      "▁jesie": 4863,
      "▁dą": 4864,
      "dzenia,": 4865,
      "mą": 4866,
      "▁be": 4867,
      "▁Stary": 4868,
      "▁hrabie": 4869,
      "▁Mał": 4870,
      "▁robot": 4871,
      "▁wydaje": 4872,
      "▁południ": 4873,
      "pię": 4874,
      "▁wymag": 4875,
      "▁kot": 4876,
      "▁weź": 4877,
      "▁mle": 4878,
      "stość": 4879,
      "▁podróży": 4880,
      "▁\nK": 4881,
      "▁społecze": 4882,
      "▁krz": 4883,
      "▁zmy": 4884,
      "by.": 4885,
      "▁wt": 4886,
      "▁oś": 4887,
      "▁udział": 4888,
      "▁już,": 4889,
      "ścić": 4890,
      "▁ciot": 4891,
      "▁znam": 4892,
      "▁Zdaje": 4893,
      "▁rozst": 4894,
      "chwy": 4895,
      "mon": 4896,
      "▁Ojciec": 4897,
      "▁szeroko": 4898,
      "▁ziemia": 4899,
      "▁krop": 4900,
      "▁mówię": 4901,
      "▁mięk": 4902,
      "niony": 4903,
      "▁ściąg": 4904,
      "nur": 4905,
      "▁proce": 4906,
      "ńce": 4907,
      "▁wchodzi": 4908,
      "▁naprzeciw": 4909,
      "▁porzu": 4910,
      "▁nieszczęście": 4911,
      "stości": 4912,
      "▁wasze": 4913,
      "▁własne": 4914,
      "ro,": 4915,
      "obie": 4916,
      "▁rzeź": 4917,
      "▁przytom": 4918,
      "▁jakimś": 4919,
      "▁pory": 4920,
      "▁niechę": 4921,
      "▁złe": 4922,
      "ństwem": 4923,
      "▁oszu": 4924,
      "szły": 4925,
      "cha,": 4926,
      "▁głowę,": 4927,
      "▁słone": 4928,
      "▁dłoń": 4929,
      "▁obfi": 4930,
      "he": 4931,
      "czona": 4932,
      "▁Ki": 4933,
      "▁twór": 4934,
      "hy": 4935,
      "tnych": 4936,
      "▁kapł": 4937,
      "jak": 4938,
      "▁zechce": 4939,
      "▁klaszto": 4940,
      "▁czegoś": 4941,
      "RO": 4942,
      "▁koł": 4943,
      "▁dłużej": 4944,
      "Już": 4945,
      "▁stud": 4946,
      "pisy": 4947,
      "▁nied": 4948,
      "▁nadziej": 4949,
      "▁rzeczywiście": 4950,
      "▁wybor": 4951,
      "▁wielce": 4952,
      "mer": 4953,
      "▁zapra": 4954,
      "nię,": 4955,
      "jów": 4956,
      "▁wasz": 4957,
      "owni": 4958,
      "▁naprawdę": 4959,
      "▁Kor": 4960,
      "▁słabo": 4961,
      "▁pałacu": 4962,
      "▁Rob": 4963,
      "▁czarne": 4964,
      "▁opis": 4965,
      "▁serca,": 4966,
      "▁pewnością": 4967,
      "set": 4968,
      "dzeniu": 4969,
      "▁pełen": 4970,
      "lina": 4971,
      "▁zmart": 4972,
      "ństwie": 4973,
      "dźwie": 4974,
      "▁powiedziała": 4975,
      "▁dała": 4976,
      "▁opad": 4977,
      "wa.": 4978,
      "▁słychać": 4979,
      "▁niewo": 4980,
      "▁wydał": 4981,
      "▁fabry": 4982,
      "▁niespodzi": 4983,
      "▁brata": 4984,
      "▁naszą": 4985,
      "▁śmiało": 4986,
      "▁pami": 4987,
      "▁olbrzymi": 4988,
      "żem": 4989,
      "▁drzwi,": 4990,
      "ciwszy": 4991,
      "▁rodzin": 4992,
      "▁zasad": 4993,
      "▁Ne": 4994,
      "▁posiada": 4995,
      "▁zaprze": 4996,
      "▁państwa": 4997,
      "▁pierwszym": 4998,
      "▁leżąc": 4999,
      "▁sław": 5000,
      "góle": 5001,
      "▁niemu": 5002,
      "mowo": 5003,
      "▁zostanie": 5004,
      "▁punk": 5005,
      "▁podd": 5006,
      "▁przeczy": 5007,
      "cje": 5008,
      "▁11": 5009,
      "▁właściwie": 5010,
      "▁wyrze": 5011,
      "rzałem": 5012,
      "▁rękę,": 5013,
      "▁Kazi": 5014,
      "▁sam,": 5015,
      "lum": 5016,
      "nej.": 5017,
      "▁wizy": 5018,
      "tną": 5019,
      "▁pomocą": 5020,
      "▁tor": 5021,
      "▁wzgó": 5022,
      "▁doby": 5023,
      "▁przyci": 5024,
      "▁dokąd": 5025,
      "▁uczucie": 5026,
      "▁Zam": 5027,
      "▁przykład": 5028,
      "rech": 5029,
      "▁Gu": 5030,
      "per": 5031,
      "ng": 5032,
      "▁siłą": 5033,
      "arty": 5034,
      "▁niedaw": 5035,
      "▁wodę": 5036,
      "▁odleg": 5037,
      "▁uleg": 5038,
      "▁mater": 5039,
      "ślę": 5040,
      "▁ogród": 5041,
      "▁zbliżył": 5042,
      "mina": 5043,
      "▁szlachci": 5044,
      "▁śmiesz": 5045,
      "▁wojen": 5046,
      "dzień": 5047,
      "▁drew": 5048,
      "▁nieustan": 5049,
      "▁niezmiernie": 5050,
      "▁koły": 5051,
      "▁kilk": 5052,
      "wolu": 5053,
      "nom": 5054,
      "▁Jezus": 5055,
      "czeń": 5056,
      "▁czci": 5057,
      "▁Wszystkie": 5058,
      "▁nowych": 5059,
      "▁Pawe": 5060,
      "▁mni": 5061,
      "▁zaro": 5062,
      "▁staran": 5063,
      "▁węd": 5064,
      "▁stojąc": 5065,
      "▁dziwnie": 5066,
      "▁dawniej": 5067,
      "cą,": 5068,
      "maga": 5069,
      "▁obecnie": 5070,
      "▁przyro": 5071,
      "▁napad": 5072,
      "▁Boże,": 5073,
      "szem,": 5074,
      "▁wieki": 5075,
      "góż": 5076,
      "del": 5077,
      "kała": 5078,
      "niusz": 5079,
      "gał": 5080,
      "ałych": 5081,
      "głę": 5082,
      "▁Dłu": 5083,
      "▁mógłby": 5084,
      "dwo": 5085,
      "kty": 5086,
      "▁przeraże": 5087,
      "▁eg": 5088,
      "czny,": 5089,
      "▁prowi": 5090,
      "▁Zdawało": 5091,
      "▁nadto": 5092,
      "▁ogo": 5093,
      "▁jednem": 5094,
      "▁napełni": 5095,
      "▁zaszczy": 5096,
      "▁przedsię": 5097,
      "ństwo,": 5098,
      "nięcia": 5099,
      "rowadz": 5100,
      "łom": 5101,
      "▁nios": 5102,
      "▁now": 5103,
      "cyę": 5104,
      "▁wysił": 5105,
      "▁Księ": 5106,
      "▁cios": 5107,
      "rud": 5108,
      "▁twarzy,": 5109,
      "▁pewne": 5110,
      "▁przybył": 5111,
      "▁Tur": 5112,
      "▁smak": 5113,
      "▁cer": 5114,
      "dów,": 5115,
      "▁Bądź": 5116,
      "▁baj": 5117,
      "▁oszczę": 5118,
      "▁śród": 5119,
      "ciły": 5120,
      "▁przyt": 5121,
      "tof": 5122,
      "zy,": 5123,
      "ania.\n": 5124,
      "▁literatu": 5125,
      "kowo": 5126,
      "▁wysł": 5127,
      "sobie": 5128,
      "▁zaci": 5129,
      "▁jemu": 5130,
      "▁pracu": 5131,
      "▁zdrowi": 5132,
      "zmu": 5133,
      "▁ciemności": 5134,
      "▁odde": 5135,
      "my.": 5136,
      "▁[8": 5137,
      "▁oskar": 5138,
      "▁kolej": 5139,
      "▁Zyg": 5140,
      "łach": 5141,
      "▁każda": 5142,
      "ciłem": 5143,
      "entu": 5144,
      "▁przykro": 5145,
      "żywszy": 5146,
      "arów": 5147,
      "Cz": 5148,
      "▁progu": 5149,
      "cznem": 5150,
      "▁grozi": 5151,
      "▁Każdy": 5152,
      "▁wszelkich": 5153,
      "▁stole": 5154,
      "▁wio": 5155,
      "▁pió": 5156,
      "▁tryumf": 5157,
      "▁Przecież": 5158,
      "asy": 5159,
      "▁poł": 5160,
      "aj,": 5161,
      "▁natch": 5162,
      "szczu": 5163,
      "▁Ga": 5164,
      "ia": 5165,
      "dzieści": 5166,
      "▁tysiące": 5167,
      "▁Spoj": 5168,
      "▁chu": 5169,
      "▁Mos": 5170,
      "▁uzna": 5171,
      "eś,": 5172,
      "▁pułkow": 5173,
      "▁żą": 5174,
      "▁książe": 5175,
      "om,": 5176,
      "▁salon": 5177,
      "stru": 5178,
      "▁Ed": 5179,
      "ógł": 5180,
      "gat": 5181,
      "▁każde": 5182,
      "knie": 5183,
      "▁nastąpi": 5184,
      "▁zał": 5185,
      "▁mojem": 5186,
      "▁pozwoli": 5187,
      "▁drogi,": 5188,
      "▁jezio": 5189,
      "com": 5190,
      "niem.": 5191,
      "▁autor": 5192,
      "▁innym": 5193,
      "myślnie": 5194,
      "mów": 5195,
      "▁natury": 5196,
      "▁obszer": 5197,
      "rys": 5198,
      "dak": 5199,
      ".\nZ": 5200,
      "▁co?": 5201,
      "▁ski": 5202,
      "▁zga": 5203,
      "▁Franci": 5204,
      "▁łańcu": 5205,
      "▁radości": 5206,
      "▁znajdow": 5207,
      "▁Dlat": 5208,
      "▁blask": 5209,
      "▁nowi": 5210,
      "▁zegar": 5211,
      "▁był,": 5212,
      ".\n\n\n\n\n": 5213,
      "▁owa": 5214,
      "▁niebios": 5215,
      "▁pozwal": 5216,
      "▁wystawi": 5217,
      "▁świętego": 5218,
      "▁człowiekiem": 5219,
      "▁chwilę,": 5220,
      "▁dźwi": 5221,
      "▁Sal": 5222,
      "▁otworzył": 5223,
      "skać": 5224,
      "gły": 5225,
      "[1": 5226,
      "▁mach": 5227,
      "▁przekona": 5228,
      "▁świata,": 5229,
      "▁zwolna": 5230,
      "we,": 5231,
      "▁kobiety,": 5232,
      "▁owego": 5233,
      "▁musie": 5234,
      "▁Wol": 5235,
      "śmier": 5236,
      "ctwa": 5237,
      "▁ostatnich": 5238,
      "Ch": 5239,
      "▁ślicz": 5240,
      "▁Rad": 5241,
      "▁kochany": 5242,
      "▁nikomu": 5243,
      "▁Książ": 5244,
      "▁nagro": 5245,
      "ńskim": 5246,
      "▁owych": 5247,
      "kazuje": 5248,
      "▁Dziś": 5249,
      "end": 5250,
      "▁mogi": 5251,
      ",\nKtó": 5252,
      "▁żył": 5253,
      "▁ustęp": 5254,
      "▁wyobraź": 5255,
      "▁pobli": 5256,
      "▁charakter": 5257,
      "▁młodzi": 5258,
      "▁rady": 5259,
      "▁godzinę": 5260,
      "▁Stef": 5261,
      "▁spły": 5262,
      "▁zaś,": 5263,
      "▁szacu": 5264,
      "▁któż": 5265,
      "▁położe": 5266,
      "▁pójdzie": 5267,
      "ra.\n": 5268,
      "▁najle": 5269,
      "▁godzinie": 5270,
      "no-": 5271,
      "▁wściek": 5272,
      "▁sier": 5273,
      "▁twoich": 5274,
      "▁bab": 5275,
      "dźmy": 5276,
      "dziłem": 5277,
      "▁że,": 5278,
      "▁pewną": 5279,
      "▁skaz": 5280,
      "▁Hu": 5281,
      "▁Chci": 5282,
      "tnie,": 5283,
      "dzy,": 5284,
      "▁przedewszystkiem": 5285,
      "ans": 5286,
      "▁słowem": 5287,
      "▁Dru": 5288,
      "▁prędzej": 5289,
      "▁tym,": 5290,
      "▁nieznaj": 5291,
      "▁katoli": 5292,
      "ina": 5293,
      "▁coby": 5294,
      "▁patrzał": 5295,
      "liwości": 5296,
      "▁rozbi": 5297,
      "▁ul": 5298,
      "▁cień": 5299,
      "tem.": 5300,
      "▁żywi": 5301,
      "▁zrozumi": 5302,
      "▁wyszła": 5303,
      "▁szyder": 5304,
      "onych": 5305,
      "czym": 5306,
      "fer": 5307,
      "▁kwie": 5308,
      "ląt": 5309,
      "▁powrac": 5310,
      "▁gabi": 5311,
      "▁II": 5312,
      "▁zawiera": 5313,
      "▁\n\n\n": 5314,
      "▁światła": 5315,
      "▁twojej": 5316,
      "▁mimowo": 5317,
      "▁oznajmi": 5318,
      "▁spełni": 5319,
      "▁bywa": 5320,
      ".\n\nA": 5321,
      "▁słyszeć": 5322,
      "▁fałszy": 5323,
      "równo": 5324,
      "▁Mimo": 5325,
      "tować": 5326,
      "▁koniecznie": 5327,
      "▁pozostał": 5328,
      "▁arcy": 5329,
      "ałem.": 5330,
      "▁nazwisko": 5331,
      "▁Pamię": 5332,
      "▁odgad": 5333,
      "▁własną": 5334,
      "▁okrzy": 5335,
      "▁życia.": 5336,
      "▁sprawie": 5337,
      "▁ich,": 5338,
      "▁stare": 5339,
      "pierw": 5340,
      ".\nI": 5341,
      "▁Jakie": 5342,
      "tę,": 5343,
      "▁postanowił": 5344,
      "▁spa": 5345,
      "▁Raz": 5346,
      "▁trą": 5347,
      "▁leżał": 5348,
      "bierał": 5349,
      "▁Józef": 5350,
      "▁poszła": 5351,
      "str": 5352,
      "o.": 5353,
      "▁złam": 5354,
      "▁Kry": 5355,
      "▁nocy,": 5356,
      "▁dostać": 5357,
      "wala": 5358,
      "▁krwią": 5359,
      "▁chleba": 5360,
      "Niech": 5361,
      "▁duchow": 5362,
      "skim,": 5363,
      "ącą": 5364,
      "▁Zat": 5365,
      "▁Boga,": 5366,
      "▁poprzedni": 5367,
      "▁Mę": 5368,
      "▁mianowi": 5369,
      "▁zauważył": 5370,
      "owano": 5371,
      "▁morza": 5372,
      "▁baron": 5373,
      "▁lamp": 5374,
      "▁Zygmu": 5375,
      "▁zabr": 5376,
      "▁twoją": 5377,
      "▁unik": 5378,
      "▁Chciał": 5379,
      "CH": 5380,
      "▁żonę": 5381,
      "chów": 5382,
      "▁zamieni": 5383,
      "▁zmie": 5384,
      "czych": 5385,
      "▁równo": 5386,
      "ne.\n": 5387,
      "rygi": 5388,
      "▁Zach": 5389,
      "słani": 5390,
      "▁rzekł,": 5391,
      "czerp": 5392,
      "jał": 5393,
      "▁ludziom": 5394,
      "▁ster": 5395,
      "▁okien": 5396,
      "i.\n": 5397,
      "▁wrażenie": 5398,
      "sa.": 5399,
      "▁tłuma": 5400,
      "▁powietrzu": 5401,
      "kam": 5402,
      "łat": 5403,
      "▁swemi": 5404,
      "▁trzymał": 5405,
      "▁dowci": 5406,
      "▁bierze": 5407,
      "▁wpływ": 5408,
      "▁wypowie": 5409,
      "▁bior": 5410,
      "cza,": 5411,
      "▁indy": 5412,
      "win": 5413,
      "prasz": 5414,
      "▁zdoła": 5415,
      "▁północ": 5416,
      "▁miejscu,": 5417,
      "▁kierunku": 5418,
      "▁Mag": 5419,
      "▁wiesz,": 5420,
      "▁Boże!": 5421,
      "▁kart": 5422,
      "▁sercem": 5423,
      "▁Dobrze": 5424,
      "▁he": 5425,
      "▁charakte": 5426,
      "▁wojewo": 5427,
      "mość": 5428,
      "▁Nat": 5429,
      "anych,": 5430,
      "▁przebieg": 5431,
      "▁Tat": 5432,
      "▁Rozu": 5433,
      "▁należało": 5434,
      "▁wnę": 5435,
      "▁niesłych": 5436,
      "▁błą": 5437,
      "▁III": 5438,
      "rąż": 5439,
      "▁kuzy": 5440,
      "▁ule": 5441,
      "▁figu": 5442,
      "▁dobrodziej": 5443,
      "ckiej": 5444,
      "▁cześć": 5445,
      "▁powrócił": 5446,
      "anaście": 5447,
      "▁szklan": 5448,
      "▁Gi": 5449,
      "▁San": 5450,
      "▁osła": 5451,
      "dłuż": 5452,
      "kształ": 5453,
      "▁twarzą": 5454,
      "▁długo,": 5455,
      "▁dowód": 5456,
      "▁uni": 5457,
      "▁twej": 5458,
      "re,": 5459,
      "▁[9": 5460,
      "▁usiadł": 5461,
      "żyły": 5462,
      "▁owej": 5463,
      "krę": 5464,
      "▁trosk": 5465,
      "og": 5466,
      "ódł": 5467,
      "▁Star": 5468,
      "▁młodzień": 5469,
      "bię": 5470,
      "▁fur": 5471,
      "▁pamiąt": 5472,
      "ują": 5473,
      "▁zastęp": 5474,
      "▁Jana": 5475,
      "▁zabaw": 5476,
      "d.": 5477,
      "nicy,": 5478,
      "wane": 5479,
      "▁pięt": 5480,
      "fek": 5481,
      "dnik": 5482,
      "kół": 5483,
      "wój": 5484,
      "▁olbrzymie": 5485,
      "lami": 5486,
      "ców.": 5487,
      "▁kwiaty": 5488,
      "▁podnosi": 5489,
      "▁Juli": 5490,
      "▁oddać": 5491,
      "▁minut": 5492,
      "▁patrzył": 5493,
      "▁chwilą": 5494,
      "sami": 5495,
      "▁przyg": 5496,
      "ącego": 5497,
      "▁znajdował": 5498,
      "aniem,": 5499,
      "▁Gre": 5500,
      "▁dot": 5501,
      "▁drzewo": 5502,
      "czki,": 5503,
      "kuje": 5504,
      "dniej": 5505,
      "▁śli": 5506,
      "▁straż": 5507,
      "szczęśli": 5508,
      "czy.": 5509,
      "szą,": 5510,
      "▁zarówno": 5511,
      "▁czytel": 5512,
      "XX": 5513,
      "ędy": 5514,
      "śladow": 5515,
      "▁dym": 5516,
      "▁każdą": 5517,
      "▁sposób,": 5518,
      "▁osie": 5519,
      "resztą,": 5520,
      "dami": 5521,
      "dali": 5522,
      "▁szczu": 5523,
      "chyl": 5524,
      "000": 5525,
      "▁znu": 5526,
      "▁rozd": 5527,
      "▁plu": 5528,
      "▁mary": 5529,
      "▁tylu": 5530,
      "▁niepew": 5531,
      "▁Karol": 5532,
      "bla": 5533,
      "▁poj": 5534,
      "▁przyst": 5535,
      "▁brzmi": 5536,
      "▁skrę": 5537,
      "rzone": 5538,
      "szki": 5539,
      "anemi": 5540,
      "▁wybr": 5541,
      "▁far": 5542,
      "▁zdrowie": 5543,
      "wól": 5544,
      "▁nazajutrz": 5545,
      "▁wpadł": 5546,
      "▁ślub": 5547,
      "▁oże": 5548,
      "ono,": 5549,
      "▁gospody": 5550,
      "▁pierwszych": 5551,
      "▁prowin": 5552,
      "▁odmówi": 5553,
      "▁fra": 5554,
      "▁myślą": 5555,
      "▁dozna": 5556,
      "▁oddał": 5557,
      "▁nast": 5558,
      ".\nM": 5559,
      "▁rusz": 5560,
      "▁Aleks": 5561,
      "▁probo": 5562,
      "tana": 5563,
      "▁powtórzył": 5564,
      "▁dziewczyna": 5565,
      ",\nR": 5566,
      "▁Sze": 5567,
      "▁orze": 5568,
      "▁wstręt": 5569,
      "▁źre": 5570,
      "▁dnia,": 5571,
      "ności.\n": 5572,
      "▁Koch": 5573,
      "stety": 5574,
      "IAŁ": 5575,
      "▁zapomnie": 5576,
      "wą,": 5577,
      "▁zaczą": 5578,
      "▁usi": 5579,
      "▁małżon": 5580,
      "cye": 5581,
      "trzeb": 5582,
      "▁chat": 5583,
      "pie,": 5584,
      "▁naczel": 5585,
      "▁dawnych": 5586,
      "▁et": 5587,
      "żej,": 5588,
      "▁Mil": 5589,
      "▁tale": 5590,
      "▁bym": 5591,
      "wła": 5592,
      "▁gre": 5593,
      "▁wyraźnie": 5594,
      "▁mówił,": 5595,
      "▁cesa": 5596,
      "▁rośli": 5597,
      "▁pożąd": 5598,
      "ślił": 5599,
      "▁woda": 5600,
      "▁odgło": 5601,
      "▁Wal": 5602,
      "▁mniem": 5603,
      "▁Woj": 5604,
      "ownie": 5605,
      "\nA": 5606,
      "▁Jaki": 5607,
      "gor": 5608,
      "▁sądzi": 5609,
      "▁Rzeczy": 5610,
      "▁Dopiero": 5611,
      "czała": 5612,
      "▁mod": 5613,
      "▁pary": 5614,
      "▁drg": 5615,
      "▁tygodni": 5616,
      "pospoli": 5617,
      "▁wskazu": 5618,
      "▁sekre": 5619,
      "▁bał": 5620,
      "▁jednost": 5621,
      "▁jednakże": 5622,
      "▁słucha": 5623,
      "▁stanowczo": 5624,
      "▁chciałem": 5625,
      "▁okazy": 5626,
      "▁twoj": 5627,
      "sel": 5628,
      "▁ojczy": 5629,
      "▁zostało": 5630,
      "ję.": 5631,
      "śpie": 5632,
      "łem.": 5633,
      "▁złu": 5634,
      "▁szła": 5635,
      "▁20": 5636,
      "▁najpięk": 5637,
      "▁podsta": 5638,
      "▁przeszedł": 5639,
      "▁zę": 5640,
      "▁tur": 5641,
      "łowi": 5642,
      "▁roman": 5643,
      "▁pen": 5644,
      "▁kościo": 5645,
      "ąca": 5646,
      "ak,": 5647,
      "▁zwyk": 5648,
      "▁rękami": 5649,
      "▁wych": 5650,
      "▁Tro": 5651,
      "tarza": 5652,
      "Lu": 5653,
      "chu.": 5654,
      "▁mych": 5655,
      "▁odbi": 5656,
      "▁Ile": 5657,
      "▁nóż": 5658,
      "ham": 5659,
      "▁dostał": 5660,
      "▁powiada": 5661,
      "▁Musz": 5662,
      "▁wypo": 5663,
      "▁zapach": 5664,
      "▁najwię": 5665,
      "▁walki": 5666,
      "▁ju": 5667,
      "▁albowiem": 5668,
      "▁boles": 5669,
      "chnął": 5670,
      "▁poprostu": 5671,
      "▁Powiedz": 5672,
      "▁zęb": 5673,
      "▁wytr": 5674,
      "▁lor": 5675,
      "▁poran": 5676,
      "▁utrzym": 5677,
      "anin": 5678,
      "▁spuści": 5679,
      "SZ": 5680,
      "▁dre": 5681,
      "▁ruszy": 5682,
      "▁duszy,": 5683,
      "▁zrozumiał": 5684,
      "kal": 5685,
      "▁zacie": 5686,
      "▁Francu": 5687,
      "▁drewni": 5688,
      "▁okręt": 5689,
      "▁wład": 5690,
      "▁wóz": 5691,
      "t-": 5692,
      "szone": 5693,
      "▁obyczaj": 5694,
      "krzy": 5695,
      "▁przeszłości": 5696,
      "▁naród": 5697,
      "▁przenik": 5698,
      "▁schwy": 5699,
      "▁trup": 5700,
      "▁rzeczą": 5701,
      "▁wybi": 5702,
      "▁biskup": 5703,
      "rali": 5704,
      "▁jednocześnie": 5705,
      "▁muszą": 5706,
      "▁dali": 5707,
      "▁Pet": 5708,
      "▁dobrą": 5709,
      "gieł": 5710,
      "ome": 5711,
      "▁chłod": 5712,
      "▁gromad": 5713,
      "anę": 5714,
      "▁maszy": 5715,
      "kładnie": 5716,
      "wski": 5717,
      "▁kawale": 5718,
      "▁przedtem": 5719,
      "▁ściany": 5720,
      "▁ustach": 5721,
      "tedy,": 5722,
      "▁om": 5723,
      "▁powinna": 5724,
      "▁jakiem": 5725,
      ").\n\n": 5726,
      "▁znacznie": 5727,
      "▁Mak": 5728,
      "▁samych": 5729,
      "▁kocham": 5730,
      "▁korzyst": 5731,
      "nny": 5732,
      "▁liście": 5733,
      "▁poły": 5734,
      "▁Któż": 5735,
      "▁opuszcz": 5736,
      "▁jam": 5737,
      "▁ab": 5738,
      "▁pij": 5739,
      "▁ap": 5740,
      "▁pewnym": 5741,
      "▁nako": 5742,
      "▁roze": 5743,
      "▁padł": 5744,
      "▁straszli": 5745,
      "▁szczegół": 5746,
      "DZIAŁ": 5747,
      "▁wytwo": 5748,
      "▁temu,": 5749,
      "▁ciężkie": 5750,
      "nastu": 5751,
      "▁rach": 5752,
      "stwi": 5753,
      "▁abyś": 5754,
      "▁Jad": 5755,
      "▁powy": 5756,
      "syła": 5757,
      "▁morder": 5758,
      "▁młoda": 5759,
      "▁potwier": 5760,
      "▁chcieli": 5761,
      "skiego.": 5762,
      "▁ciągnął": 5763,
      "▁wojny": 5764,
      "▁broń": 5765,
      "▁cywi": 5766,
      "▁zosta": 5767,
      "▁otwie": 5768,
      "▁uwagi": 5769,
      "pia": 5770,
      "cie!": 5771,
      "▁Hele": 5772,
      "ałym": 5773,
      "ator": 5774,
      "▁ryb": 5775,
      "pt": 5776,
      "▁czterech": 5777,
      "sar": 5778,
      "▁lasu": 5779,
      "▁miasta,": 5780,
      "▁dwaj": 5781,
      "▁życz": 5782,
      "dź,": 5783,
      "▁znajomy": 5784,
      "▁Wkrótce": 5785,
      "glądał": 5786,
      "▁poka": 5787,
      "czenia,": 5788,
      "▁wstęp": 5789,
      "▁grzbie": 5790,
      "▁rzadko": 5791,
      "▁prawi": 5792,
      "ory": 5793,
      "▁jedwa": 5794,
      "▁powiem": 5795,
      "▁płacz": 5796,
      "▁osa": 5797,
      "▁wyraż": 5798,
      ",\nBy": 5799,
      "[2]": 5800,
      "▁pr": 5801,
      "▁miejsca,": 5802,
      "▁wesoło": 5803,
      "▁łód": 5804,
      "ową,": 5805,
      "▁gnia": 5806,
      "▁rana": 5807,
      "▁gan": 5808,
      "▁zbiera": 5809,
      "▁budow": 5810,
      "rzod": 5811,
      "ZDZIAŁ": 5812,
      "▁nik": 5813,
      "\ni": 5814,
      "gla": 5815,
      "▁podwó": 5816,
      "▁rycer": 5817,
      "▁pamięt": 5818,
      "▁koszu": 5819,
      "▁opat": 5820,
      "iła": 5821,
      "▁podobny": 5822,
      "▁zwło": 5823,
      "▁sej": 5824,
      "skoczył": 5825,
      "▁odz": 5826,
      "▁ukło": 5827,
      "esor": 5828,
      "▁wogóle": 5829,
      "nięcie": 5830,
      "▁religij": 5831,
      "▁policz": 5832,
      "bert": 5833,
      "▁dawał": 5834,
      "▁wzrusze": 5835,
      "ńskiego,": 5836,
      "cki,": 5837,
      "▁niepraw": 5838,
      "▁ste": 5839,
      "kanie": 5840,
      "▁żał": 5841,
      "▁sztuki": 5842,
      "▁rozsąd": 5843,
      "▁Aleksand": 5844,
      "▁pytał": 5845,
      "▁brzeg": 5846,
      "▁strony,": 5847,
      "▁zabra": 5848,
      "▁postanowie": 5849,
      "▁Masz": 5850,
      "▁wyw": 5851,
      "▁bynajmniej": 5852,
      "▁Zu": 5853,
      "▁rodziny": 5854,
      "▁wymy": 5855,
      "▁Zaraz": 5856,
      "cją": 5857,
      "owaniu": 5858,
      "▁wiod": 5859,
      "▁złośli": 5860,
      "\nR": 5861,
      "▁małą": 5862,
      "cyą": 5863,
      "▁nerw": 5864,
      "▁tło": 5865,
      "▁mówiąc,": 5866,
      "▁przys": 5867,
      "▁swoi": 5868,
      "▁milczeniu": 5869,
      "▁córki": 5870,
      "nii": 5871,
      "▁chcą": 5872,
      "cji.": 5873,
      "▁następując": 5874,
      "▁doskon": 5875,
      "rus": 5876,
      "▁Matka": 5877,
      "▁mądro": 5878,
      "▁miar": 5879,
      "▁szczegó": 5880,
      "▁dół": 5881,
      "▁dniu": 5882,
      "▁kasz": 5883,
      "gier": 5884,
      "▁niedźwie": 5885,
      "▁wzy": 5886,
      "godnie": 5887,
      "▁porusz": 5888,
      "▁Dlatego": 5889,
      "▁np.": 5890,
      "▁wymówi": 5891,
      "▁wiedzieć,": 5892,
      "▁płó": 5893,
      "▁uzn": 5894,
      "fry": 5895,
      "ON": 5896,
      "▁zawa": 5897,
      "▁strzał": 5898,
      "▁krok": 5899,
      "▁rozwo": 5900,
      "▁wieś": 5901,
      "▁rękach": 5902,
      "▁zwycięz": 5903,
      "▁Bal": 5904,
      "▁pola": 5905,
      "czono": 5906,
      "▁pospoli": 5907,
      "▁pios": 5908,
      "▁Stra": 5909,
      "▁odparła": 5910,
      "▁wle": 5911,
      "▁rych": 5912,
      "gdyby": 5913,
      "▁prawdopodob": 5914,
      "pły": 5915,
      "▁druga": 5916,
      "leni": 5917,
      "lona": 5918,
      "▁Panna": 5919,
      "▁Amery": 5920,
      "kując": 5921,
      "▁który,": 5922,
      "▁przyjął": 5923,
      "▁namy": 5924,
      "▁świecie,": 5925,
      "▁mnóstwo": 5926,
      "sława": 5927,
      "▁przyjaź": 5928,
      "▁położył": 5929,
      "▁spojrzenie": 5930,
      "▁przemawi": 5931,
      "szy.": 5932,
      "nie!": 5933,
      "dzona": 5934,
      "▁rozpoczę": 5935,
      "jon": 5936,
      "▁ucze": 5937,
      "▁pyta": 5938,
      "▁Zale": 5939,
      "zupeł": 5940,
      "▁nową": 5941,
      "▁oboje": 5942,
      "▁staroży": 5943,
      "żył,": 5944,
      "▁Anie": 5945,
      "▁Por": 5946,
      "ował.": 5947,
      "▁trzyma": 5948,
      "-go": 5949,
      "ade": 5950,
      "▁pomyślał": 5951,
      "▁siero": 5952,
      "ie,": 5953,
      "▁myśleć": 5954,
      "▁łzami": 5955,
      ":\n\n\n": 5956,
      "▁kwad": 5957,
      "▁pieszczo": 5958,
      "▁proje": 5959,
      "▁pięciu": 5960,
      "▁nade": 5961,
      "▁szab": 5962,
      "▁zep": 5963,
      "▁okno": 5964,
      "▁pierwo": 5965,
      "▁ścież": 5966,
      "▁Wale": 5967,
      "sz?\n": 5968,
      "▁Kobie": 5969,
      "grze": 5970,
      "wie.": 5971,
      "nione": 5972,
      "▁towarzystwie": 5973,
      "łe,": 5974,
      "śniej": 5975,
      "▁Szu": 5976,
      "▁matki,": 5977,
      "▁naby": 5978,
      "ska.": 5979,
      "▁byłaby": 5980,
      "▁wiej": 5981,
      "▁salo": 5982,
      "▁płaszcz": 5983,
      ":\n\n": 5984,
      "▁ruszył": 5985,
      "▁złota": 5986,
      "▁miarę": 5987,
      "▁pamięć": 5988,
      "▁doktór": 5989,
      "▁rzym": 5990,
      "ler": 5991,
      "▁Cez": 5992,
      ".\n\nT": 5993,
      "▁słab": 5994,
      "▁ogło": 5995,
      "▁piękny": 5996,
      "▁Teo": 5997,
      "▁nasi": 5998,
      "▁przywo": 5999,
      "nu,": 6000,
      "▁brać": 6001,
      "▁żoną": 6002,
      "▁Można": 6003,
      "▁ziemię,": 6004,
      "▁wrze": 6005,
      "▁pierś": 6006,
      "▁pobu": 6007,
      "▁uśmiechnął": 6008,
      "▁najbliż": 6009,
      "▁radość": 6010,
      "▁Ostat": 6011,
      "▁własnego": 6012,
      "▁dyrek": 6013,
      "▁cokolwiek": 6014,
      "ani,": 6015,
      "▁kieszeni": 6016,
      "▁drż": 6017,
      "▁A!": 6018,
      "▁dram": 6019,
      "dziej,": 6020,
      "▁jakoby": 6021,
      "▁bit": 6022,
      "telu": 6023,
      "▁owi": 6024,
      "▁całkowi": 6025,
      "▁[11": 6026,
      "dnie,": 6027,
      "▁niepokoj": 6028,
      "▁Y": 6029,
      "▁pieśń": 6030,
      "unek": 6031,
      "▁trum": 6032,
      ".\n\nI": 6033,
      "▁zapal": 6034,
      "spek": 6035,
      "rędzej": 6036,
      "rzeniem": 6037,
      "▁łat": 6038,
      "rze.\n": 6039,
      "▁wody,": 6040,
      "tenczas": 6041,
      "▁Dro": 6042,
      "▁wina": 6043,
      "▁odrze": 6044,
      "▁córka": 6045,
      "owy.": 6046,
      "▁spotka": 6047,
      "▁wzdłuż": 6048,
      "▁uczuć": 6049,
      "▁przyrze": 6050,
      "▁oświet": 6051,
      "nowi": 6052,
      "▁patrzeć": 6053,
      "▁latar": 6054,
      "liwość": 6055,
      "▁energi": 6056,
      "▁chmur": 6057,
      "▁\nM": 6058,
      "▁matery": 6059,
      "▁chrześcija": 6060,
      "son": 6061,
      "▁rozległ": 6062,
      "▁błyskawi": 6063,
      "▁dodat": 6064,
      "▁narzę": 6065,
      "▁malu": 6066,
      "cznych,": 6067,
      "▁poda": 6068,
      "▁nara": 6069,
      "▁przeszka": 6070,
      "▁dokład": 6071,
      "ścił": 6072,
      "▁godzina": 6073,
      "cel": 6074,
      "▁pracy,": 6075,
      "▁przechadz": 6076,
      "▁wiecznie": 6077,
      "▁Polski": 6078,
      "▁regu": 6079,
      "▁humo": 6080,
      "▁pewno": 6081,
      "łąk": 6082,
      "▁zao": 6083,
      "rów,": 6084,
      "▁środku": 6085,
      "▁Włady": 6086,
      "▁ław": 6087,
      "▁zobaczyć": 6088,
      "▁ulu": 6089,
      "▁Zapew": 6090,
      "▁czemś": 6091,
      "▁zez": 6092,
      "ątpli": 6093,
      "▁większą": 6094,
      "▁przeję": 6095,
      "tach,": 6096,
      "chą": 6097,
      "▁Niema": 6098,
      "p,": 6099,
      "▁Czer": 6100,
      "▁ślady": 6101,
      "▁Ow": 6102,
      "▁przewodni": 6103,
      "▁komp": 6104,
      "ce.\n": 6105,
      "rzucił": 6106,
      "▁Kil": 6107,
      "▁Grze": 6108,
      "▁dwoma": 6109,
      "szko": 6110,
      "▁powierzch": 6111,
      "▁nader": 6112,
      "dniego": 6113,
      "▁przykła": 6114,
      "▁Wówczas": 6115,
      "▁śmiech": 6116,
      "▁język": 6117,
      "▁zakry": 6118,
      "▁udało": 6119,
      "▁Człowiek": 6120,
      "▁wyru": 6121,
      "▁było.": 6122,
      "▁ostrze": 6123,
      "▁przysię": 6124,
      "▁dokładnie": 6125,
      "▁śmiejąc": 6126,
      "▁zmysł": 6127,
      "▁czekać": 6128,
      "▁faj": 6129,
      "reszcie,": 6130,
      "▁taj": 6131,
      "▁bud": 6132,
      "▁Nazajutrz": 6133,
      "▁cmen": 6134,
      "▁skru": 6135,
      "u!": 6136,
      "▁sprzy": 6137,
      "▁mianowicie": 6138,
      "niki": 6139,
      "śmiertel": 6140,
      "▁ziar": 6141,
      "▁het": 6142,
      "rwa": 6143,
      "ciło": 6144,
      "▁Bę": 6145,
      "▁miejsce,": 6146,
      "▁Sło": 6147,
      "łos": 6148,
      "lne": 6149,
      "▁głowy,": 6150,
      "▁duży": 6151,
      "pią": 6152,
      "▁piękną": 6153,
      "try": 6154,
      "rast": 6155,
      "▁bój": 6156,
      "▁nadziei": 6157,
      "▁có": 6158,
      "▁mocy": 6159,
      "▁łaski": 6160,
      "▁milcz": 6161,
      "▁zrę": 6162,
      "▁przyjaciela": 6163,
      "▁buj": 6164,
      "ąc,": 6165,
      "ury": 6166,
      "▁cisza": 6167,
      "▁potra": 6168,
      "KA": 6169,
      "▁każe": 6170,
      "kru": 6171,
      "▁odpra": 6172,
      "ve": 6173,
      "ego.": 6174,
      "▁opieku": 6175,
      "kazując": 6176,
      "▁wznosi": 6177,
      "pozy": 6178,
      "ńską": 6179,
      "LE": 6180,
      "czoną": 6181,
      "▁poszuki": 6182,
      "niała": 6183,
      "▁świeżo": 6184,
      "▁znajomo": 6185,
      "łąd": 6186,
      "▁groma": 6187,
      "zów": 6188,
      "▁wtedy,": 6189,
      "▁ubogi": 6190,
      "Po": 6191,
      "▁d.": 6192,
      "▁najd": 6193,
      "▁obaj": 6194,
      "▁starał": 6195,
      "ktor": 6196,
      "czyłem": 6197,
      "▁Michał": 6198,
      "▁szele": 6199,
      "▁rozmowę": 6200,
      "▁stali": 6201,
      "▁góry,": 6202,
      ";\nA": 6203,
      "kich,": 6204,
      "▁siłę": 6205,
      "nicę": 6206,
      "▁wybrze": 6207,
      "hoć": 6208,
      "ęd": 6209,
      "▁Wido": 6210,
      "▁Takie": 6211,
      "▁ludźmi": 6212,
      "pać": 6213,
      ".\nD": 6214,
      "▁człon": 6215,
      "▁marmu": 6216,
      "▁samem": 6217,
      "rzymał": 6218,
      "▁słuchał": 6219,
      "▁gałęzi": 6220,
      "▁Kla": 6221,
      "▁ztąd": 6222,
      "▁Zn": 6223,
      "▁...": 6224,
      "▁puszcz": 6225,
      "▁jechać": 6226,
      "▁Rzym": 6227,
      "alił": 6228,
      "▁ostatniej": 6229,
      "▁nabo": 6230,
      "▁doktor": 6231,
      "▁zacze": 6232,
      "dziesię": 6233,
      "▁Zie": 6234,
      "▁miłości,": 6235,
      "pow": 6236,
      "cia.": 6237,
      "▁dowiedział": 6238,
      "▁doń": 6239,
      "▁Przyby": 6240,
      "wiła": 6241,
      "owi.\n": 6242,
      "▁zostały": 6243,
      "gorz": 6244,
      "łuma": 6245,
      "▁mruknął": 6246,
      "▁marszał": 6247,
      "liż": 6248,
      "▁mówią": 6249,
      "▁[12": 6250,
      "▁chi": 6251,
      "▁nie!": 6252,
      "rując": 6253,
      "▁czynić": 6254,
      "▁męcze": 6255,
      "stów": 6256,
      "▁sub": 6257,
      "aniec": 6258,
      "ciele": 6259,
      "▁można,": 6260,
      "▁rosyj": 6261,
      "wał.": 6262,
      "▁swemu": 6263,
      "ściem": 6264,
      ".\n\nO": 6265,
      "▁ter": 6266,
      "▁lekar": 6267,
      "▁Właśnie": 6268,
      "nące": 6269,
      "gnał": 6270,
      "▁zaczęły": 6271,
      "nku,": 6272,
      "▁głosy": 6273,
      "zem": 6274,
      "▁staj": 6275,
      "▁Ludzie": 6276,
      "patrz": 6277,
      "▁rewolu": 6278,
      "pienie": 6279,
      "ek.\n": 6280,
      "liśmy,": 6281,
      "▁nieszczęs": 6282,
      "By": 6283,
      "▁ośmie": 6284,
      "▁[10": 6285,
      "▁sena": 6286,
      "▁pewnej": 6287,
      "▁zwró": 6288,
      "▁tań": 6289,
      "▁blisko": 6290,
      "wość,": 6291,
      "▁utrzymy": 6292,
      "zwoi": 6293,
      "▁niego.": 6294,
      "▁warto": 6295,
      "▁wyrazem": 6296,
      "▁oddział": 6297,
      "▁lada": 6298,
      "pot": 6299,
      "arte": 6300,
      "▁innej": 6301,
      "jechać": 6302,
      "▁forte": 6303,
      "▁panów": 6304,
      "▁usposobie": 6305,
      "▁nauczyciel": 6306,
      "▁wolę": 6307,
      "▁wołał": 6308,
      "▁dworze": 6309,
      "▁rzeki": 6310,
      "cent": 6311,
      "vi": 6312,
      "szcie": 6313,
      "▁życiem": 6314,
      "▁starych": 6315,
      "▁Słuchaj": 6316,
      "ziem": 6317,
      "czonego": 6318,
      "▁prawdy": 6319,
      "cznik": 6320,
      "▁Aż": 6321,
      "ban": 6322,
      "▁hań": 6323,
      "▁pragnął": 6324,
      "▁dzieła": 6325,
      "▁złote": 6326,
      "dna": 6327,
      "▁poet": 6328,
      "k.\n": 6329,
      "LI": 6330,
      "▁krokiem": 6331,
      "▁niemoż": 6332,
      "▁odtąd": 6333,
      "▁jakgdyby": 6334,
      "▁wygląda": 6335,
      "▁słyszy": 6336,
      "▁powietrz": 6337,
      "▁zatru": 6338,
      "pę": 6339,
      "nemi,": 6340,
      "▁pójść": 6341,
      "▁kochać": 6342,
      "Za": 6343,
      "ament": 6344,
      "▁Paweł": 6345,
      "▁doty": 6346,
      "dom": 6347,
      "▁rozkazy": 6348,
      "▁krótko": 6349,
      "▁okoliczności": 6350,
      "▁rozwiąz": 6351,
      "laty": 6352,
      "▁śmiechem": 6353,
      "śnię": 6354,
      "▁wyżej": 6355,
      "▁ramionami": 6356,
      "▁żebym": 6357,
      "▁fol": 6358,
      "tat": 6359,
      ",\nPo": 6360,
      "▁Mnie": 6361,
      "▁ciężar": 6362,
      "▁wyjść": 6363,
      "▁bardzo,": 6364,
      "▁zapytała": 6365,
      "wieniem": 6366,
      "▁Chrystus": 6367,
      "▁zewnętrz": 6368,
      "▁przeważ": 6369,
      "liście": 6370,
      "▁proro": 6371,
      "▁Syl": 6372,
      "▁Euro": 6373,
      "▁szereg": 6374,
      "▁wykon": 6375,
      "▁niewiel": 6376,
      "mij": 6377,
      "czej,": 6378,
      "▁szepnęła": 6379,
      "▁Jakób": 6380,
      "▁podobno": 6381,
      "▁Łu": 6382,
      "niku": 6383,
      "▁sięg": 6384,
      "▁Pięk": 6385,
      "▁żołnierz": 6386,
      "▁Były": 6387,
      "▁niechaj": 6388,
      "▁Zoba": 6389,
      "▁załat": 6390,
      "▁rzuciła": 6391,
      "▁Czego": 6392,
      "lazł": 6393,
      "▁nato": 6394,
      "skutek": 6395,
      "nęła,": 6396,
      "▁skro": 6397,
      ".\n\nS": 6398,
      "▁komna": 6399,
      "▁Dziew": 6400,
      "▁szka": 6401,
      "tua": 6402,
      "tnej": 6403,
      "zwyczaj": 6404,
      "▁oczami": 6405,
      "▁ponie": 6406,
      "aną,": 6407,
      "▁Szczę": 6408,
      "▁Lit": 6409,
      "leka": 6410,
      "noszą": 6411,
      "▁dziecko,": 6412,
      "▁rol": 6413,
      "▁usłysz": 6414,
      "▁młodych": 6415,
      "▁współczu": 6416,
      "▁przypomi": 6417,
      "wy.\n": 6418,
      "▁państwo": 6419,
      "▁posęp": 6420,
      "▁pochodzi": 6421,
      "▁skoń": 6422,
      "▁wieczora": 6423,
      "tował": 6424,
      "▁ogrod": 6425,
      "▁wzgar": 6426,
      "▁zręcz": 6427,
      "▁listy": 6428,
      "▁dodała": 6429,
      "▁pogrzeb": 6430,
      "kować": 6431,
      "▁chodził": 6432,
      "▁dniach": 6433,
      "▁białych": 6434,
      ",\nLecz": 6435,
      "maty": 6436,
      "▁poci": 6437,
      "▁wiecze": 6438,
      "▁doktora": 6439,
      "▁Wz": 6440,
      "▁nauki": 6441,
      "wią": 6442,
      "▁poczęła": 6443,
      "▁przod": 6444,
      "▁brwi": 6445,
      "▁Książę": 6446,
      "▁cudzo": 6447,
      "▁hrabiego": 6448,
      "▁głąb": 6449,
      "▁ura": 6450,
      "▁starusz": 6451,
      "▁Ach!": 6452,
      "biony": 6453,
      "▁wysu": 6454,
      "▁latach": 6455,
      "▁zadr": 6456,
      "▁zważ": 6457,
      "▁nakoniec": 6458,
      "▁ukazał": 6459,
      "▁złoto": 6460,
      "stwa.": 6461,
      "▁kraju,": 6462,
      "graf": 6463,
      "▁Panie,": 6464,
      "log": 6465,
      "▁ruchem": 6466,
      "hu": 6467,
      "jum": 6468,
      "▁Ben": 6469,
      "▁rozb": 6470,
      "▁stanu": 6471,
      "Wy": 6472,
      "▁Adam": 6473,
      "▁aniżeli": 6474,
      "▁księżyc": 6475,
      "gól": 6476,
      "▁Zak": 6477,
      "▁rachu": 6478,
      "▁chory": 6479,
      "▁pokor": 6480,
      "▁wzięła": 6481,
      "▁skał": 6482,
      "wen": 6483,
      "▁gdym": 6484,
      "▁kolei": 6485,
      "wać.": 6486,
      "▁dziwa": 6487,
      "▁baro": 6488,
      "stań": 6489,
      "▁Chi": 6490,
      "▁młode": 6491,
      "▁roboty": 6492,
      "▁stół": 6493,
      "rzymu": 6494,
      "▁silnie": 6495,
      "lak": 6496,
      "▁zmiesz": 6497,
      "▁nai": 6498,
      "▁pogod": 6499,
      "▁zaczęli": 6500,
      "▁duchu": 6501,
      "ane.": 6502,
      "▁zwracając": 6503,
      "szych,": 6504,
      "▁Jej": 6505,
      "▁lesie": 6506,
      "wała,": 6507,
      "▁powiedział,": 6508,
      "rzykład": 6509,
      "▁serce,": 6510,
      "▁gwiazd": 6511,
      "święt": 6512,
      "ony,": 6513,
      "mia": 6514,
      "▁je,": 6515,
      "jaś": 6516,
      "▁twoim": 6517,
      "dźcie": 6518,
      "▁podał": 6519,
      "▁Czę": 6520,
      "▁szam": 6521,
      "▁też,": 6522,
      "wach": 6523,
      "pon": 6524,
      "tu.\n": 6525,
      "▁Jakto": 6526,
      "tro": 6527,
      "jącą": 6528,
      "▁czuje": 6529,
      "▁ziemi.": 6530,
      "▁żart": 6531,
      "ga.": 6532,
      "▁dowcip": 6533,
      "▁niewidzi": 6534,
      "▁Har": 6535,
      "▁otch": 6536,
      "▁Chłop": 6537,
      "dry": 6538,
      "dzając": 6539,
      "▁dwór": 6540,
      "rez": 6541,
      "▁inteli": 6542,
      "▁uto": 6543,
      "▁Per": 6544,
      "▁boku": 6545,
      "▁Hol": 6546,
      "▁drogie": 6547,
      "▁gmach": 6548,
      "▁mistrz": 6549,
      "▁lewo": 6550,
      "inte": 6551,
      "▁obywatel": 6552,
      "▁dostoj": 6553,
      "gent": 6554,
      "▁posła": 6555,
      "▁małego": 6556,
      "▁brzyd": 6557,
      "anki": 6558,
      "▁kawałek": 6559,
      "▁władzy": 6560,
      "▁leś": 6561,
      "▁piekie": 6562,
      "▁chaty": 6563,
      "▁kaj": 6564,
      "▁niepoko": 6565,
      "▁zły": 6566,
      "▁nieprzyjaciel": 6567,
      "▁ulicę": 6568,
      "▁uszy": 6569,
      "▁względu": 6570,
      "▁P.": 6571,
      "kali": 6572,
      "▁wyle": 6573,
      "▁szum": 6574,
      "▁górze": 6575,
      "▁ciszy": 6576,
      "▁przyjść": 6577,
      "na!": 6578,
      "▁miecz": 6579,
      "▁siedziała": 6580,
      "▁natomiast": 6581,
      "▁Obo": 6582,
      "▁pode": 6583,
      "▁stracił": 6584,
      "▁artysty": 6585,
      "▁cesarz": 6586,
      "▁własnych": 6587,
      "▁szaf": 6588,
      "▁otrzymał": 6589,
      "kach.": 6590,
      "▁wiadomości": 6591,
      "▁mowy": 6592,
      "▁nicz": 6593,
      "▁gabine": 6594,
      "paty": 6595,
      "▁koła": 6596,
      "▁wodz": 6597,
      "▁oczywiście": 6598,
      "▁Daj": 6599,
      "ach.\n": 6600,
      "▁czas,": 6601,
      "▁opuścił": 6602,
      "▁zbieg": 6603,
      "▁naprzykład": 6604,
      "nowa": 6605,
      "▁mły": 6606,
      "▁promieni": 6607,
      "▁zawsze,": 6608,
      "▁gład": 6609,
      "▁drę": 6610,
      "▁widziała": 6611,
      "onym": 6612,
      "anów": 6613,
      "▁Towarzy": 6614,
      "▁rozpaczy": 6615,
      "▁anioł": 6616,
      "▁słuchać": 6617,
      "lg": 6618,
      "▁wybo": 6619,
      "cach,": 6620,
      "▁potom": 6621,
      "rach,": 6622,
      "lekt": 6623,
      "▁Ale,": 6624,
      "▁najlepiej": 6625,
      "pisu": 6626,
      "▁Żad": 6627,
      "▁święto": 6628,
      "dną": 6629,
      "kiewicz": 6630,
      "▁mała": 6631,
      "zer": 6632,
      "▁posłusz": 6633,
      "zglę": 6634,
      "▁panien": 6635,
      "owem": 6636,
      "atarzy": 6637,
      "czaje": 6638,
      "▁chłopiec": 6639,
      "▁dziecka": 6640,
      "▁jał": 6641,
      "▁Mów": 6642,
      "▁obda": 6643,
      "kami.": 6644,
      "▁tle": 6645,
      "▁szp": 6646,
      "▁zobaczył": 6647,
      "▁gospodarz": 6648,
      "▁pisze": 6649,
      "▁jech": 6650,
      "▁szli": 6651,
      "▁usłyszał": 6652,
      "▁podzię": 6653,
      "▁podniosła": 6654,
      "dat": 6655,
      "▁wodą": 6656,
      "NI": 6657,
      "▁fe": 6658,
      "▁Patrz": 6659,
      "ca.\n": 6660,
      "▁tow": 6661,
      "nych.\n": 6662,
      "▁głosu": 6663,
      "▁wpływem": 6664,
      "▁wisi": 6665,
      "▁nieskończo": 6666,
      "czek,": 6667,
      "▁płynie": 6668,
      "am.": 6669,
      "▁lat,": 6670,
      "▁potrzeby": 6671,
      "▁popat": 6672,
      "▁uwiel": 6673,
      "▁Muszę": 6674,
      "▁księdza": 6675,
      "łożył": 6676,
      "▁nigdzie": 6677,
      "▁dostar": 6678,
      "anka": 6679,
      "ckim": 6680,
      "▁czasy": 6681,
      "▁nieśmiertel": 6682,
      "▁isk": 6683,
      "▁Andrzej": 6684,
      "▁wypły": 6685,
      "▁wszystkich,": 6686,
      "▁kas": 6687,
      "▁Albo": 6688,
      "▁szczerze": 6689,
      "▁sypial": 6690,
      "▁kochał": 6691,
      "▁przeklę": 6692,
      "▁stwier": 6693,
      "nosić": 6694,
      "▁are": 6695,
      "▁czekał": 6696,
      "▁odzna": 6697,
      "▁wrzas": 6698,
      "▁wyciągnął": 6699,
      "sz.\n": 6700,
      "▁ks.": 6701,
      "▁odezwała": 6702,
      "CZ": 6703,
      "rzy.": 6704,
      "▁maleń": 6705,
      "▁męża,": 6706,
      "py,": 6707,
      "▁porozu": 6708,
      "▁spytała": 6709,
      "▁filozof": 6710,
      "▁zle": 6711,
      "▁potem,": 6712,
      "▁trakt": 6713,
      "▁awan": 6714,
      "▁żadna": 6715,
      "dę.": 6716,
      "waniu": 6717,
      "▁starej": 6718,
      "▁rolę": 6719,
      "cła": 6720,
      "▁Nap": 6721,
      "▁biedny": 6722,
      "▁dochodzi": 6723,
      "▁przyjąć": 6724,
      "▁odczy": 6725,
      "twiej": 6726,
      "▁Ri": 6727,
      "jechali": 6728,
      "▁rozt": 6729,
      "▁przeszło": 6730,
      "▁Polsce": 6731,
      "rzyli": 6732,
      "▁ostro": 6733,
      "▁rys": 6734,
      "dzeniem": 6735,
      "▁Dale": 6736,
      "▁pisa": 6737,
      "▁Podczas": 6738,
      "▁\nD": 6739,
      "▁ukra": 6740,
      "▁złą": 6741,
      "▁prosił": 6742,
      "skiemu": 6743,
      "▁zdawała": 6744,
      "▁Ksią": 6745,
      "▁zabrał": 6746,
      "▁wtrą": 6747,
      "pokoj": 6748,
      "kiem.\n": 6749,
      "▁przytu": 6750,
      "▁miesięcy": 6751,
      "lie": 6752,
      "▁spać": 6753,
      "▁się!": 6754,
      "▁Mikoła": 6755,
      "lała": 6756,
      "ama": 6757,
      "▁Cię": 6758,
      "▁di": 6759,
      "▁śmierci,": 6760,
      "▁bada": 6761,
      "ków.\n": 6762,
      "▁dzień,": 6763,
      "▁Ach": 6764,
      "owym,": 6765,
      "▁Win": 6766,
      "▁com": 6767,
      "▁Nare": 6768,
      "gne": 6769,
      "▁cias": 6770,
      "▁Podob": 6771,
      "▁pomag": 6772,
      "▁spostrzeg": 6773,
      "▁wyzy": 6774,
      "▁prowadzi": 6775,
      "▁klucz": 6776,
      "aż": 6777,
      "▁kłó": 6778,
      "tecz": 6779,
      "....\n": 6780,
      "▁ojcu": 6781,
      "▁Byłem": 6782,
      "▁osoby": 6783,
      "▁oca": 6784,
      "▁spotkał": 6785,
      "▁chorąg": 6786,
      "tnego": 6787,
      "▁wojow": 6788,
      "▁układ": 6789,
      "▁inną": 6790,
      "▁wiek": 6791,
      "▁sprzeda": 6792,
      "wne": 6793,
      "pież": 6794,
      "▁[13": 6795,
      "▁prote": 6796,
      "▁osiąg": 6797,
      "▁stróż": 6798,
      "żona": 6799,
      "▁otu": 6800,
      "anna": 6801,
      ".\n\nK": 6802,
      "▁świadomo": 6803,
      "dzieli,": 6804,
      "uszcza": 6805,
      "▁musieli": 6806,
      "\nPo": 6807,
      "▁ary": 6808,
      "cona": 6809,
      "▁kół": 6810,
      "▁żebra": 6811,
      "▁gory": 6812,
      "▁słowach": 6813,
      "▁Alf": 6814,
      "mienia,": 6815,
      "▁pytanie": 6816,
      "▁okrąg": 6817,
      "▁robił": 6818,
      "▁ukła": 6819,
      "▁pozby": 6820,
      "▁dzwon": 6821,
      "▁spojrzała": 6822,
      "▁dłoni": 6823,
      "▁najwy": 6824,
      "▁mówić,": 6825,
      "▁nog": 6826,
      "▁Czem": 6827,
      "▁XI": 6828,
      "szczenia": 6829,
      "▁myślę": 6830,
      "▁krzes": 6831,
      "▁powrotem": 6832,
      "▁majątek": 6833,
      "▁znow": 6834,
      "▁wojska": 6835,
      "▁czasach": 6836,
      "dziesz": 6837,
      "▁winien": 6838,
      "▁ludzi.": 6839,
      "▁zapis": 6840,
      "bą,": 6841,
      "ącym": 6842,
      "▁odmawi": 6843,
      "▁monar": 6844,
      "▁jestem,": 6845,
      "▁niedale": 6846,
      "▁zapas": 6847,
      "dem,": 6848,
      "▁dając": 6849,
      "stawał": 6850,
      "▁ogó": 6851,
      "komo": 6852,
      "▁\nNie": 6853,
      "▁pierwsza": 6854,
      "▁prez": 6855,
      "▁kary": 6856,
      "▁punkt": 6857,
      "l.": 6858,
      "lij": 6859,
      "▁zdecy": 6860,
      "▁trzę": 6861,
      "posto": 6862,
      "kował": 6863,
      "▁klasy": 6864,
      "▁poety": 6865,
      "▁uderz": 6866,
      "czały": 6867,
      "▁tk": 6868,
      "▁gotow": 6869,
      "▁el": 6870,
      "▁izby": 6871,
      "jąca": 6872,
      "▁przesu": 6873,
      "▁niz": 6874,
      "larz": 6875,
      "▁surowo": 6876,
      "h!": 6877,
      "▁wpół": 6878,
      "▁Szcze": 6879,
      "▁zje": 6880,
      "▁nadzieję,": 6881,
      "▁napa": 6882,
      "▁tyle,": 6883,
      "szona": 6884,
      "łać": 6885,
      "▁Pewnego": 6886,
      "▁Ca": 6887,
      "dząc,": 6888,
      "skich.": 6889,
      "▁najwięcej": 6890,
      "ącej": 6891,
      "ciąga": 6892,
      "▁rozsze": 6893,
      "▁dworu": 6894,
      "▁Wtem": 6895,
      "▁Pomi": 6896,
      "▁litości": 6897,
      "▁gry": 6898,
      "▁powierz": 6899,
      "▁Bole": 6900,
      "▁strach": 6901,
      "▁łaci": 6902,
      "▁wyłącznie": 6903,
      "▁bliż": 6904,
      "▁Os": 6905,
      "▁dziwne": 6906,
      "mem": 6907,
      "▁schy": 6908,
      "▁pies": 6909,
      "▁Kur": 6910,
      "▁pur": 6911,
      "▁pł": 6912,
      "▁rozmyśl": 6913,
      "▁niedawno": 6914,
      "▁mężczyzna": 6915,
      "▁zepsu": 6916,
      "nąć.": 6917,
      "▁dokto": 6918,
      "▁nieod": 6919,
      "snęła": 6920,
      "Nad": 6921,
      "▁szanow": 6922,
      "ju,": 6923,
      "▁twych": 6924,
      "gip": 6925,
      "▁uderzył": 6926,
      "owanych": 6927,
      "▁krai": 6928,
      "▁szukał": 6929,
      "▁najmniej": 6930,
      "▁pozor": 6931,
      "owych.": 6932,
      "▁siostry": 6933,
      "żyć,": 6934,
      "▁opan": 6935,
      "▁musimy": 6936,
      "anad": 6937,
      "uch": 6938,
      "rzez": 6939,
      "▁wygn": 6940,
      "any.\n": 6941,
      "▁ucho": 6942,
      "▁zapy": 6943,
      "▁poczy": 6944,
      "ano.": 6945,
      "alne": 6946,
      "niem,": 6947,
      "▁tonem": 6948,
      "wę,": 6949,
      "▁posły": 6950,
      "gno": 6951,
      "▁widzę,": 6952,
      "▁stad": 6953,
      "▁czuła": 6954,
      "▁Wę": 6955,
      "red": 6956,
      "▁Rober": 6957,
      "dzie.\n": 6958,
      "▁Paryża": 6959,
      "▁Char": 6960,
      "miony": 6961,
      "▁głową,": 6962,
      "jaśni": 6963,
      "ord": 6964,
      "▁Słowa": 6965,
      "owiem,": 6966,
      "▁rozmowa": 6967,
      "GO": 6968,
      "▁nao": 6969,
      "▁żadne": 6970,
      "zdu": 6971,
      "▁wychodząc": 6972,
      "▁zadzi": 6973,
      "▁pożegn": 6974,
      "▁kąt": 6975,
      "dze,": 6976,
      "toli": 6977,
      "sam": 6978,
      "▁utk": 6979,
      "▁cesar": 6980,
      "▁Sain": 6981,
      "▁ognia": 6982,
      "▁siebie.\n": 6983,
      "ałą": 6984,
      "▁burz": 6985,
      "aniach": 6986,
      "piej,": 6987,
      "dziawszy": 6988,
      "▁osło": 6989,
      "stu,": 6990,
      "▁wysłuch": 6991,
      "atun": 6992,
      "▁Natu": 6993,
      "tli": 6994,
      "tury": 6995,
      "woka": 6996,
      "emi,": 6997,
      "▁posą": 6998,
      "rami,": 6999,
      "▁jakkolwiek": 7000,
      "wierci": 7001,
      "▁Fry": 7002,
      "▁zwa": 7003,
      "▁pokła": 7004,
      "tku,": 7005,
      "sia,": 7006,
      "▁blu": 7007,
      "▁naprzód,": 7008,
      "▁met": 7009,
      "rzenia,": 7010,
      "▁Jesteś": 7011,
      "▁kamien": 7012,
      ",\nZa": 7013,
      "▁czysto": 7014,
      "▁pouf": 7015,
      "czeniem": 7016,
      "ają.": 7017,
      "▁królowa": 7018,
      "▁złoty": 7019,
      "▁kapli": 7020,
      "▁zaż": 7021,
      "▁weszła": 7022,
      "▁bliżej": 7023,
      "amil": 7024,
      "▁szukając": 7025,
      "▁codzień": 7026,
      "▁matkę": 7027,
      "ras": 7028,
      "▁przynosi": 7029,
      "mistrz": 7030,
      "▁wyry": 7031,
      "▁bezpo": 7032,
      "▁jab": 7033,
      ";\nW": 7034,
      "▁narodu": 7035,
      "▁Jedno": 7036,
      "▁brz": 7037,
      "ci.": 7038,
      "▁orygi": 7039,
      "▁wszystkiego,": 7040,
      "▁dobrej": 7041,
      "▁szczęśliwy": 7042,
      "▁wsk": 7043,
      "▁dole": 7044,
      "▁odszedł": 7045,
      "▁25": 7046,
      "▁ofiary": 7047,
      "▁dusze": 7048,
      "▁prowadząc": 7049,
      "▁drogę,": 7050,
      "▁śmiercią": 7051,
      "ny!": 7052,
      "▁was,": 7053,
      "▁służyć": 7054,
      "▁oddali": 7055,
      "▁niezwykł": 7056,
      "▁pobliżu": 7057,
      "▁bracia": 7058,
      "▁szyję": 7059,
      "▁brał": 7060,
      "▁Gil": 7061,
      "CE": 7062,
      "dzonych": 7063,
      "rego": 7064,
      "czenie,": 7065,
      "liza": 7066,
      ".\n\nM": 7067,
      "▁nowej": 7068,
      "▁Czemu": 7069,
      "▁klasztor": 7070,
      "ós": 7071,
      "żono": 7072,
      "▁podobnego": 7073,
      "ałem.\n": 7074,
      "▁rados": 7075,
      "▁małej": 7076,
      "▁prosić": 7077,
      "▁szkoły": 7078,
      "bierze": 7079,
      "ały.\n": 7080,
      "czący": 7081,
      "▁Pierwszy": 7082,
      "▁zmarł": 7083,
      "▁razem,": 7084,
      "▁Fe": 7085,
      "▁Filip": 7086,
      "▁dzier": 7087,
      "▁mówi,": 7088,
      "▁odwróci": 7089,
      "niec,": 7090,
      "▁kolum": 7091,
      "bia": 7092,
      "▁dzieło": 7093,
      "▁kroki": 7094,
      "ny;": 7095,
      "▁tygod": 7096,
      "▁niebawem": 7097,
      "wiej": 7098,
      "nięta": 7099,
      "czą,": 7100,
      "aja": 7101,
      "▁ślad": 7102,
      "▁zkąd": 7103,
      "▁brzę": 7104,
      "▁eleg": 7105,
      "▁atak": 7106,
      "▁domu.\n": 7107,
      "▁resztę": 7108,
      "cono": 7109,
      "oni": 7110,
      "skiej.": 7111,
      "▁gwiazdy": 7112,
      "▁niewia": 7113,
      "▁wyrzekł": 7114,
      "ropej": 7115,
      "▁wnęt": 7116,
      "▁wywoł": 7117,
      "▁usprawiedli": 7118,
      "▁jasno": 7119,
      "▁radością": 7120,
      "▁Zło": 7121,
      "▁zwierząt": 7122,
      "Ży": 7123,
      "▁bodaj": 7124,
      "▁podobnych": 7125,
      "ko.": 7126,
      "▁zdoł": 7127,
      "sznie": 7128,
      "▁ograni": 7129,
      "siadła": 7130,
      "andar": 7131,
      "▁jeść": 7132,
      "▁czarnych": 7133,
      "▁świetle": 7134,
      "▁ową": 7135,
      "▁znalazła": 7136,
      "▁koron": 7137,
      "▁grub": 7138,
      "▁Następnie": 7139,
      "▁wyzn": 7140,
      "▁koleg": 7141,
      "▁Tom": 7142,
      "▁wszyscy,": 7143,
      "▁starannie": 7144,
      "Le": 7145,
      "gać": 7146,
      "▁wymieni": 7147,
      "▁profesor": 7148,
      "dyj": 7149,
      "duje": 7150,
      "▁trzas": 7151,
      "▁tłóma": 7152,
      "▁naczy": 7153,
      "raża": 7154,
      "▁obc": 7155,
      "▁kana": 7156,
      "▁przykry": 7157,
      "kowe": 7158,
      "lejno": 7159,
      "▁przeci": 7160,
      "▁cio": 7161,
      "▁Winne": 7162,
      "▁miot": 7163,
      "▁piętna": 7164,
      "▁stosunki": 7165,
      "▁wcze": 7166,
      "▁ściśle": 7167,
      "▁sytua": 7168,
      "ęt": 7169,
      "▁zapom": 7170,
      "▁praca": 7171,
      "▁dziecin": 7172,
      "knęła": 7173,
      "▁Lon": 7174,
      "▁Dawi": 7175,
      "czać": 7176,
      "▁Aby": 7177,
      "▁sobą.": 7178,
      "▁zgoła": 7179,
      "▁schro": 7180,
      "serw": 7181,
      "skiem,": 7182,
      "▁kościół": 7183,
      "▁kościel": 7184,
      "łod": 7185,
      "ką.\n": 7186,
      "▁ur": 7187,
      "▁cien": 7188,
      "▁przepad": 7189,
      "▁towarzyszy": 7190,
      "ńskich,": 7191,
      ",\nTo": 7192,
      "▁wewnątrz": 7193,
      "▁czuję": 7194,
      "▁powol": 7195,
      "▁papier": 7196,
      "rzymuje": 7197,
      "Jed": 7198,
      "▁mną,": 7199,
      "▁kąc": 7200,
      "▁mój,": 7201,
      "▁grzesz": 7202,
      "▁szło": 7203,
      "▁leci": 7204,
      "▁równi": 7205,
      "1.": 7206,
      "▁Skąd": 7207,
      "▁pozbawi": 7208,
      "▁chęć": 7209,
      "▁podobnie": 7210,
      "▁[14": 7211,
      "▁Old": 7212,
      "▁grzy": 7213,
      "▁niezawo": 7214,
      "▁posłuch": 7215,
      "▁słońca,": 7216,
      "bierać": 7217,
      "▁fale": 7218,
      "▁Winneto": 7219,
      "cyusz": 7220,
      "▁karcz": 7221,
      "▁sobie.": 7222,
      "▁Taki": 7223,
      "▁W.": 7224,
      "skupa": 7225,
      "akiem": 7226,
      "rzu,": 7227,
      "▁Choć": 7228,
      "▁a,": 7229,
      "▁węz": 7230,
      "▁ojcem": 7231,
      "▁wskutek": 7232,
      "▁kle": 7233,
      "▁pełną": 7234,
      "amtąd": 7235,
      "▁db": 7236,
      "▁może.": 7237,
      "biła": 7238,
      "▁paru": 7239,
      "▁dziewię": 7240,
      "lim": 7241,
      "łości,": 7242,
      "rzył,": 7243,
      "ona,": 7244,
      "▁miłością": 7245,
      "ana.\n": 7246,
      "▁zbudow": 7247,
      "▁tydzień": 7248,
      "▁pierwszą": 7249,
      "siła": 7250,
      "▁zamil": 7251,
      "▁czele": 7252,
      "kiego,": 7253,
      "▁czekając": 7254,
      "▁niewiad": 7255,
      "▁ale,": 7256,
      "▁zjad": 7257,
      "▁kościele": 7258,
      "▁dobrym": 7259,
      "enta": 7260,
      "▁lip": 7261,
      "▁zdołał": 7262,
      "▁wami": 7263,
      "wający": 7264,
      "▁nieśmi": 7265,
      "▁naboże": 7266,
      "▁niewątpli": 7267,
      "▁serdecznie": 7268,
      "▁wiarę": 7269,
      "▁Kom": 7270,
      "niały": 7271,
      "▁wnios": 7272,
      "▁stało,": 7273,
      "dor": 7274,
      "nym.\n": 7275,
      "▁rzuca": 7276,
      "▁docho": 7277,
      "ące,": 7278,
      "▁pokazy": 7279,
      "mion": 7280,
      "▁trzymając": 7281,
      "▁sznur": 7282,
      "▁córkę": 7283,
      "cił,": 7284,
      "kiemi": 7285,
      "jęła": 7286,
      "▁kryty": 7287,
      "\nU": 7288,
      "piony": 7289,
      "▁coś,": 7290,
      "ża,": 7291,
      "▁murzy": 7292,
      "▁orszak": 7293,
      "kały": 7294,
      "▁lin": 7295,
      "▁Toma": 7296,
      "▁wieków": 7297,
      "▁Fo": 7298,
      "ndu": 7299,
      "▁kam": 7300,
      "wione": 7301,
      "▁honor": 7302,
      "▁Izra": 7303,
      "wiście,": 7304,
      "▁króla,": 7305,
      "▁czoła": 7306,
      "ało.\n": 7307,
      "▁zapat": 7308,
      "▁powiedzi": 7309,
      "niły": 7310,
      "10": 7311,
      "czeni": 7312,
      "▁Kapi": 7313,
      "▁byd": 7314,
      "▁trady": 7315,
      "ku!": 7316,
      "▁dostatecz": 7317,
      "▁system": 7318,
      "▁prakty": 7319,
      "wnie": 7320,
      "▁kola": 7321,
      "▁pójdę": 7322,
      "chód": 7323,
      "▁kamień": 7324,
      "stąpiła": 7325,
      "▁mieszkania": 7326,
      "e.": 7327,
      "▁wraca": 7328,
      "▁set": 7329,
      "▁oc": 7330,
      "▁widział,": 7331,
      "▁odważ": 7332,
      "▁Moja": 7333,
      "krotnie": 7334,
      "▁porę": 7335,
      "▁chodzić": 7336,
      "▁wnu": 7337,
      "anda": 7338,
      "▁zbad": 7339,
      "?!": 7340,
      "▁gorąco": 7341,
      "▁co,": 7342,
      "kowski": 7343,
      "▁czuć": 7344,
      "▁idą": 7345,
      "▁dlań": 7346,
      "▁Henryk": 7347,
      "▁podpis": 7348,
      "▁Stanisław": 7349,
      "wiać": 7350,
      "▁dziewczyn": 7351,
      "▁kogoś": 7352,
      "lu.": 7353,
      "tanie": 7354,
      "▁uważał": 7355,
      "▁prawdziwie": 7356,
      "▁Ge": 7357,
      "tory": 7358,
      "2.": 7359,
      "h,": 7360,
      "▁zachę": 7361,
      "▁lśni": 7362,
      "szal": 7363,
      "▁powinno": 7364,
      "▁podług": 7365,
      ",\nU": 7366,
      "▁spot": 7367,
      "▁blasku": 7368,
      "▁jedn": 7369,
      "▁młodej": 7370,
      "▁Póź": 7371,
      "ło.\n": 7372,
      "▁Jam": 7373,
      "▁kobieta,": 7374,
      "▁postrze": 7375,
      "▁wypadku": 7376,
      "▁doszedł": 7377,
      "▁wygod": 7378,
      "▁Pój": 7379,
      "▁wyz": 7380,
      "▁szlachec": 7381,
      "cyi.": 7382,
      "▁piersi,": 7383,
      "▁narodow": 7384,
      "pij": 7385,
      "rają": 7386,
      "▁wykształ": 7387,
      "▁biało": 7388,
      "▁rozpro": 7389,
      "▁trz": 7390,
      "▁ludzkich": 7391,
      "ux": 7392,
      "eks": 7393,
      "g.": 7394,
      "▁czytać": 7395,
      "▁ście": 7396,
      "▁samo,": 7397,
      "▁wart": 7398,
      "cy.\n": 7399,
      "▁podnosząc": 7400,
      "▁pisał": 7401,
      "▁wynios": 7402,
      "▁bramy": 7403,
      "ść.\n": 7404,
      "▁such": 7405,
      "łością": 7406,
      "▁Dos": 7407,
      "jącym": 7408,
      "▁bat": 7409,
      "▁prześli": 7410,
      "▁przysł": 7411,
      "▁Dan": 7412,
      "▁Konstan": 7413,
      "▁zbroj": 7414,
      "To": 7415,
      "▁siły,": 7416,
      "▁własnym": 7417,
      "akro": 7418,
      "▁dziesiąt": 7419,
      "▁nieroz": 7420,
      "▁biur": 7421,
      "▁domyśl": 7422,
      "kowej": 7423,
      "▁zerwał": 7424,
      "▁odrzu": 7425,
      "▁stopni": 7426,
      "▁starzec": 7427,
      "▁Pomimo": 7428,
      "▁słody": 7429,
      "▁podejrz": 7430,
      "▁oczy.": 7431,
      "bl": 7432,
      "▁kędy": 7433,
      "▁niepotrzeb": 7434,
      "▁otwarte": 7435,
      "órz": 7436,
      "▁złotych": 7437,
      "▁sprzę": 7438,
      "Jeśli": 7439,
      "▁nawy": 7440,
      "▁koz": 7441,
      "▁Car": 7442,
      "▁podusz": 7443,
      "onego": 7444,
      "elan": 7445,
      "▁książki": 7446,
      "▁powieści": 7447,
      "nika.": 7448,
      "▁pojm": 7449,
      "▁doro": 7450,
      "brze": 7451,
      "▁uch": 7452,
      "▁br": 7453,
      "dywał": 7454,
      "▁gatun": 7455,
      "▁Róż": 7456,
      "są": 7457,
      "▁nadzieję": 7458,
      "▁wyba": 7459,
      "▁przemy": 7460,
      "go.": 7461,
      "wi,": 7462,
      "▁przeży": 7463,
      "▁pięknej": 7464,
      "▁takiem": 7465,
      "▁artyku": 7466,
      "▁ol": 7467,
      "żynie": 7468,
      "▁wszelkiego": 7469,
      "▁poni": 7470,
      "▁Feli": 7471,
      "▁stłu": 7472,
      "▁Wśród": 7473,
      "▁powinni": 7474,
      "czących": 7475,
      "▁bom": 7476,
      "mos": 7477,
      "▁niektóre": 7478,
      ",\nNi": 7479,
      "▁niezna": 7480,
      "bienia": 7481,
      "▁potwor": 7482,
      "▁boleści": 7483,
      "▁także,": 7484,
      "▁ucha": 7485,
      "▁mist": 7486,
      "ch.\n": 7487,
      "dusz": 7488,
      "▁politycz": 7489,
      "ństwa.": 7490,
      "▁gale": 7491,
      "▁part": 7492,
      "▁Jerzy": 7493,
      "▁wrócić": 7494,
      "▁orę": 7495,
      "▁przybr": 7496,
      "▁ląd": 7497,
      "▁rozporzą": 7498,
      "▁seku": 7499,
      "▁moty": 7500,
      "▁proboszcz": 7501,
      "utro": 7502,
      "▁kapelusz": 7503,
      "rzem,": 7504,
      "poli": 7505,
      "▁sprzed": 7506,
      "▁białą": 7507,
      "rowie": 7508,
      "▁kład": 7509,
      "15": 7510,
      "cić,": 7511,
      "▁Twarz": 7512,
      "▁najgor": 7513,
      "▁traf": 7514,
      "▁umysłu": 7515,
      "▁spe": 7516,
      "▁zapomniał": 7517,
      "łu,": 7518,
      "miała": 7519,
      "▁prywat": 7520,
      "▁podobie": 7521,
      "▁Chce": 7522,
      "▁Gdybym": 7523,
      "▁folwar": 7524,
      "ról": 7525,
      "jącej": 7526,
      "OR": 7527,
      "▁drzewa,": 7528,
      "▁odwrócił": 7529,
      "▁filozofi": 7530,
      "lub": 7531,
      "▁ruchu": 7532,
      "▁ne": 7533,
      "▁ta,": 7534,
      "▁generał": 7535,
      "zel": 7536,
      "▁wko": 7537,
      "▁szczęście,": 7538,
      "▁zanad": 7539,
      "▁owym": 7540,
      "▁wyobraże": 7541,
      "piła": 7542,
      "▁świat,": 7543,
      "▁długą": 7544,
      "chani": 7545,
      "▁wprowa": 7546,
      "▁przyczyny": 7547,
      "▁draż": 7548,
      "▁adwoka": 7549,
      "▁ską": 7550,
      "▁pogląd": 7551,
      "▁któryby": 7552,
      "▁opar": 7553,
      "▁Szko": 7554,
      "▁rob": 7555,
      "▁zdą": 7556,
      "▁niepodobna": 7557,
      "cami,": 7558,
      "▁trybu": 7559,
      "wicza": 7560,
      "▁nieboszczy": 7561,
      "▁ołta": 7562,
      "▁sma": 7563,
      "▁wchodząc": 7564,
      "▁zbrodnia": 7565,
      "▁przyzwoi": 7566,
      "▁konia,": 7567,
      "▁klejno": 7568,
      "▁zazna": 7569,
      "▁Ok": 7570,
      "▁Ind": 7571,
      "▁zry": 7572,
      "czyk": 7573,
      "▁miły": 7574,
      "▁loka": 7575,
      "▁dwoje": 7576,
      "▁rozciąg": 7577,
      "▁30": 7578,
      "▁pru": 7579,
      "▁Im": 7580,
      "▁rezy": 7581,
      "cję,": 7582,
      "▁wrażenie,": 7583,
      "▁dwudziestu": 7584,
      "▁pokoju.": 7585,
      "wca": 7586,
      "▁has": 7587,
      "▁spuszcz": 7588,
      "▁nagle,": 7589,
      "18": 7590,
      "▁porówn": 7591,
      "▁dopraw": 7592,
      "▁sprowa": 7593,
      "!\nW": 7594,
      "▁obrac": 7595,
      "▁długich": 7596,
      "▁duże": 7597,
      "▁Nareszcie": 7598,
      "sek": 7599,
      "▁Rzecz": 7600,
      "▁ulicz": 7601,
      "▁sos": 7602,
      "▁Któ": 7603,
      "▁niezad": 7604,
      "▁zazwyczaj": 7605,
      "▁przymu": 7606,
      "▁zamknął": 7607,
      "giem,": 7608,
      "▁smo": 7609,
      "dowa": 7610,
      "▁uniesie": 7611,
      "▁cieszy": 7612,
      "▁morzu": 7613,
      "▁uchy": 7614,
      "▁omy": 7615,
      "cle": 7616,
      "▁wieść": 7617,
      "▁ostatniego": 7618,
      "▁waszych": 7619,
      "▁zęby": 7620,
      "▁przypu": 7621,
      "conych": 7622,
      "nionych": 7623,
      "▁drzwiach": 7624,
      "▁ubó": 7625,
      "▁łatwiej": 7626,
      "▁niepokój": 7627,
      "▁Nale": 7628,
      "▁uczni": 7629,
      "sza.": 7630,
      "▁stosunku": 7631,
      "▁mógł,": 7632,
      "łeś": 7633,
      ",\nGdzie": 7634,
      "▁wu": 7635,
      "▁opła": 7636,
      "owego,": 7637,
      "▁[15": 7638,
      "▁znaleźli": 7639,
      "▁Jadwi": 7640,
      "▁Trud": 7641,
      "▁posie": 7642,
      "▁posąg": 7643,
      "▁trzecie": 7644,
      "▁zagro": 7645,
      "dobie": 7646,
      ".\n.\n.\n.\n.\n.\n.\n.\n": 7647,
      "▁miłos": 7648,
      "▁cieniu": 7649,
      "▁istnieje": 7650,
      "▁łok": 7651,
      "▁uzbro": 7652,
      "▁Dziękuję": 7653,
      "▁Widział": 7654,
      "▁stanęła": 7655,
      "▁właściciel": 7656,
      "▁rzucić": 7657,
      "▁średni": 7658,
      "ja.": 7659,
      "▁skończo": 7660,
      "▁Antoni": 7661,
      "▁Świat": 7662,
      "▁niewiele": 7663,
      "ćmi": 7664,
      "▁gdybyś": 7665,
      "jony": 7666,
      "▁łeb": 7667,
      "▁wieku,": 7668,
      "orst": 7669,
      "szep": 7670,
      "owo,": 7671,
      "żoną": 7672,
      "▁mówili": 7673,
      "ziął": 7674,
      "▁krzak": 7675,
      "▁wszelki": 7676,
      "▁cicho,": 7677,
      "▁laty": 7678,
      "▁niespodzie": 7679,
      "▁dawne": 7680,
      "▁Kas": 7681,
      "wana": 7682,
      "▁fortu": 7683,
      "▁Hisz": 7684,
      "▁naci": 7685,
      "▁pięknie": 7686,
      "▁powstał": 7687,
      "wiona": 7688,
      "▁podar": 7689,
      "▁tegoż": 7690,
      "▁Bro": 7691,
      "▁rozdzie": 7692,
      "▁Katarzy": 7693,
      "▁opowiadał": 7694,
      "chę,": 7695,
      "▁powoł": 7696,
      "▁słowi": 7697,
      "▁strasznie": 7698,
      "▁widząc,": 7699,
      "▁Nor": 7700,
      "alnie": 7701,
      "▁Gran": 7702,
      "▁starym": 7703,
      "▁chęci": 7704,
      "pole": 7705,
      "czne.": 7706,
      "▁wstrzą": 7707,
      "▁mnie.\n": 7708,
      "▁wszystko.": 7709,
      "▁kiedykolwiek": 7710,
      "▁rysu": 7711,
      "3.": 7712,
      "▁temat": 7713,
      "▁waszej": 7714,
      "▁wywie": 7715,
      "▁napróżno": 7716,
      "rek,": 7717,
      "▁wola": 7718,
      "rej": 7719,
      "tarzał": 7720,
      "cząć": 7721,
      "▁brzu": 7722,
      "▁obrzy": 7723,
      "▁większe": 7724,
      "▁ćwi": 7725,
      "▁wstrząs": 7726,
      "▁Bru": 7727,
      "da.\n": 7728,
      "żeś": 7729,
      "▁Par": 7730,
      "▁poez": 7731,
      "syte": 7732,
      "▁dokon": 7733,
      "▁fat": 7734,
      "▁twarze": 7735,
      "▁Ver": 7736,
      "▁Warszawie": 7737,
      "▁instynkt": 7738,
      "▁porze": 7739,
      "nę.\n": 7740,
      "▁śnieg": 7741,
      "▁Zaledwie": 7742,
      "▁ozd": 7743,
      "rzymując": 7744,
      "▁grób": 7745,
      "▁poezy": 7746,
      "▁man": 7747,
      "▁wstał": 7748,
      "wierciad": 7749,
      "nów,": 7750,
      "▁oddawna": 7751,
      "▁gniewu": 7752,
      "▁boja": 7753,
      "▁napisał": 7754,
      "▁dawna": 7755,
      "▁karmi": 7756,
      "▁przem": 7757,
      "▁pewnych": 7758,
      "▁melo": 7759,
      "▁j.\n": 7760,
      "▁udać": 7761,
      "▁go.": 7762,
      "kają": 7763,
      "▁Wiedział": 7764,
      "leniem": 7765,
      "▁stę": 7766,
      "▁zakład": 7767,
      "▁pełna": 7768,
      "szczenie": 7769,
      "▁przysięg": 7770,
      "▁poby": 7771,
      "▁mieści": 7772,
      "▁zmierz": 7773,
      "ręb": 7774,
      "▁mieszcz": 7775,
      "▁zapał": 7776,
      "▁zanied": 7777,
      "▁usiłu": 7778,
      "▁dowiedzieć": 7779,
      "▁musisz": 7780,
      "niejsze,": 7781,
      "▁wspomnienie": 7782,
      "skając": 7783,
      "▁szalo": 7784,
      "▁kwiatów": 7785,
      "▁zdaje,": 7786,
      "▁brud": 7787,
      "▁wino": 7788,
      "▁żebyś": 7789,
      "alny": 7790,
      "ckiego,": 7791,
      "▁niebezpieczeństwo": 7792,
      "▁rzekł:": 7793,
      "▁innemi": 7794,
      "▁przyjaciele": 7795,
      "▁syna,": 7796,
      "dach,": 7797,
      "▁podwój": 7798,
      "▁ugo": 7799,
      "▁karabi": 7800,
      "ger": 7801,
      "▁bowiem,": 7802,
      "kła,": 7803,
      "▁kobietę": 7804,
      "▁widzieli": 7805,
      "żyło": 7806,
      "ruje": 7807,
      "▁byłbym": 7808,
      "▁skutek": 7809,
      "▁zastana": 7810,
      "stą,": 7811,
      "▁uwię": 7812,
      "▁jedwab": 7813,
      "▁przyniósł": 7814,
      "lę,": 7815,
      "▁drobne": 7816,
      "▁Żeby": 7817,
      "▁była,": 7818,
      "ka!": 7819,
      "▁wolność": 7820,
      "▁cudzoziem": 7821,
      "ela": 7822,
      ",\nG": 7823,
      "▁nigdy,": 7824,
      "▁izbie": 7825,
      "\nZa": 7826,
      "▁prawdopodobnie": 7827,
      "letni": 7828,
      "pem": 7829,
      "rzało": 7830,
      "▁stopnia": 7831,
      "▁wesel": 7832,
      "▁uzy": 7833,
      "gi.\n": 7834,
      "▁Chociaż": 7835,
      "▁Idź": 7836,
      "rzeć,": 7837,
      "kim,": 7838,
      "cie?": 7839,
      "▁Rozumie": 7840,
      "dziesięciu": 7841,
      "brzy": 7842,
      "▁tkwi": 7843,
      "owana": 7844,
      "▁zdala": 7845,
      "▁elegan": 7846,
      "▁Dobrze,": 7847,
      "▁głównie": 7848,
      "ki;": 7849,
      "▁Rzu": 7850,
      "dzieć.": 7851,
      "▁dziesięciu": 7852,
      "▁młodości": 7853,
      "fy": 7854,
      "▁biegu": 7855,
      "▁czarny": 7856,
      "▁jasne": 7857,
      "ble": 7858,
      "▁świadec": 7859,
      "stry": 7860,
      "▁pełni": 7861,
      "▁pozór": 7862,
      "dzała": 7863,
      "▁wiąz": 7864,
      "szość": 7865,
      "........": 7866,
      "cając": 7867,
      "▁Gro": 7868,
      "▁Saint-": 7869,
      "▁smutek": 7870,
      "cać": 7871,
      "▁maje": 7872,
      "loną": 7873,
      "▁grzech": 7874,
      "▁urzędni": 7875,
      "▁niektórych": 7876,
      "▁przechodząc": 7877,
      "▁czarną": 7878,
      "▁straszne": 7879,
      "▁idź": 7880,
      "▁daleko,": 7881,
      "tnym": 7882,
      "▁leni": 7883,
      "▁lepi": 7884,
      "owości": 7885,
      "roczy": 7886,
      "jona": 7887,
      "sz!": 7888,
      "▁Bur": 7889,
      "▁Jas": 7890,
      "▁widzenia": 7891,
      "▁Fer": 7892,
      "żne": 7893,
      "ników.": 7894,
      "▁chału": 7895,
      "rzeli": 7896,
      "czony,": 7897,
      "▁święta": 7898,
      "▁Kaz": 7899,
      "▁oblicze": 7900,
      "ży.": 7901,
      "▁Zawsze": 7902,
      "▁wiar": 7903,
      "▁istniej": 7904,
      "▁gwałtownie": 7905,
      "▁jesteście": 7906,
      "▁braku": 7907,
      "▁zaklę": 7908,
      "▁wyobraż": 7909,
      "czące": 7910,
      "rzyłem": 7911,
      "owa.": 7912,
      "▁stamtąd": 7913,
      "▁powięk": 7914,
      "▁starszy": 7915,
      "▁ludzkiej": 7916,
      "▁eu": 7917,
      "▁wejść": 7918,
      "▁nikczem": 7919,
      "▁wartości": 7920,
      "łowę": 7921,
      "▁zago": 7922,
      "▁ocie": 7923,
      "dery": 7924,
      "4.": 7925,
      "▁królowej": 7926,
      "▁małych": 7927,
      "ly": 7928,
      "▁rozmi": 7929,
      "kowy": 7930,
      "▁skie": 7931,
      "▁pozostać": 7932,
      "▁najpierw": 7933,
      "▁towarzystwo": 7934,
      "▁każdemu": 7935,
      "▁wiedzi": 7936,
      "recz": 7937,
      "ski.\n": 7938,
      "▁jedyny": 7939,
      "▁przemo": 7940,
      "▁czynił": 7941,
      "▁wszelką": 7942,
      "ir": 7943,
      "rzyć,": 7944,
      "rumieni": 7945,
      "▁gli": 7946,
      "▁pracę": 7947,
      "szczyz": 7948,
      "▁Długo": 7949,
      "▁rozpu": 7950,
      "▁Kali": 7951,
      "▁łap": 7952,
      "▁gą": 7953,
      "▁Mal": 7954,
      "czonej": 7955,
      "▁podobna": 7956,
      "▁Cały": 7957,
      "aniel": 7958,
      "mu.": 7959,
      "coną": 7960,
      "▁opowiedział": 7961,
      "mist": 7962,
      "▁niemo": 7963,
      "▁literac": 7964,
      "▁strachu": 7965,
      "dej": 7966,
      "\nDo": 7967,
      "▁istoty": 7968,
      "▁tutaj,": 7969,
      "▁górę,": 7970,
      "▁rzekłem": 7971,
      "▁ramieniu": 7972,
      "▁popę": 7973,
      "▁toż": 7974,
      "▁pozwolił": 7975,
      "▁krą": 7976,
      "ów;": 7977,
      "▁zabij": 7978,
      "▁szmer": 7979,
      "▁dobrych": 7980,
      "▁ca": 7981,
      "wycię": 7982,
      "▁tat": 7983,
      "▁no,": 7984,
      "▁prześladow": 7985,
      "▁synem": 7986,
      "▁twarz,": 7987,
      "▁napi": 7988,
      "▁przery": 7989,
      "▁Isto": 7990,
      "▁don": 7991,
      "▁pełno": 7992,
      "▁kamieni": 7993,
      "▁naraż": 7994,
      "mości": 7995,
      "stety,": 7996,
      "żonych": 7997,
      "▁dobrowo": 7998,
      "▁rubli": 7999,
      "▁Powi": 8000,
      "▁roku,": 8001,
      "łość,": 8002,
      "piał": 8003,
      "▁odpowiedni": 8004,
      "wające": 8005,
      "2]\n": 8006,
      "▁zamor": 8007,
      "▁przecho": 8008,
      "▁przedsięw": 8009,
      "s.\n": 8010,
      "▁poga": 8011,
      "▁czarow": 8012,
      "▁Odpowie": 8013,
      "dym": 8014,
      "▁wasza": 8015,
      "cowi": 8016,
      "▁bogi": 8017,
      "▁Być": 8018,
      "▁tkli": 8019,
      "▁nim.": 8020,
      "dość": 8021,
      "dniu": 8022,
      "▁rachun": 8023,
      "interes": 8024,
      "onej": 8025,
      "▁Coś": 8026,
      "▁interesu": 8027,
      "t.\n": 8028,
      "dzają": 8029,
      "my.\n": 8030,
      "▁zagrani": 8031,
      "▁cichy": 8032,
      "czę,": 8033,
      "zul": 8034,
      "ryj": 8035,
      "▁Dzień": 8036,
      "▁zastos": 8037,
      "▁bezpoś": 8038,
      "▁kłę": 8039,
      "dza,": 8040,
      "ówić": 8041,
      "▁siostra": 8042,
      "▁Lw": 8043,
      "▁innych,": 8044,
      "▁wydać": 8045,
      "▁wierzyć": 8046,
      "▁wago": 8047,
      "▁w.": 8048,
      "wych,": 8049,
      "▁życie.": 8050,
      "▁spokoju": 8051,
      "ari": 8052,
      "▁poleg": 8053,
      "▁podnios": 8054,
      "▁zapomina": 8055,
      "▁śpiewa": 8056,
      "▁Dwa": 8057,
      "▁ręku,": 8058,
      "ąst": 8059,
      "▁nieobec": 8060,
      "liwym": 8061,
      "▁wiedziała": 8062,
      "▁piersiach": 8063,
      "▁zł": 8064,
      "▁nagł": 8065,
      "▁zada": 8066,
      "▁okrzyk": 8067,
      "▁prąd": 8068,
      "▁towarzystwa": 8069,
      "\nG": 8070,
      "▁skutkiem": 8071,
      "brew": 8072,
      "su,": 8073,
      "nie;": 8074,
      "wymi": 8075,
      "iędzy": 8076,
      "▁jaz": 8077,
      "▁pierście": 8078,
      "▁Joh": 8079,
      "▁spotkać": 8080,
      "▁lich": 8081,
      "▁kwest": 8082,
      "▁ilość": 8083,
      "▁zej": 8084,
      "▁imieniu": 8085,
      ".\n\n\n\n\n\n": 8086,
      "▁zgrzy": 8087,
      "▁kwesty": 8088,
      "▁Często": 8089,
      "▁Polak": 8090,
      "▁ego": 8091,
      "▁wyczerp": 8092,
      "▁pozosta": 8093,
      "hel": 8094,
      "▁dziwi": 8095,
      "ować.\n": 8096,
      "▁możnaby": 8097,
      "bym,": 8098,
      "▁święte": 8099,
      "▁obwi": 8100,
      "ałaś": 8101,
      "cale,": 8102,
      "▁dep": 8103,
      "jazd": 8104,
      "▁grobu": 8105,
      "▁zakła": 8106,
      "▁Tem": 8107,
      "▁Hrabia": 8108,
      "▁nogami": 8109,
      "▁opu": 8110,
      "▁dają": 8111,
      "▁przyk": 8112,
      "ałemi": 8113,
      "▁głosem,": 8114,
      "▁żywot": 8115,
      "▁franków": 8116,
      "▁dreszcz": 8117,
      "sch": 8118,
      "cznym,": 8119,
      "usza,": 8120,
      "▁wytłuma": 8121,
      "▁królem": 8122,
      "▁lubił": 8123,
      "nictwo": 8124,
      "▁żołnierzy": 8125,
      "pur": 8126,
      "▁Dzieci": 8127,
      "▁wyobraz": 8128,
      "▁zjawił": 8129,
      "szono": 8130,
      "▁ohy": 8131,
      "nienia,": 8132,
      "▁największą": 8133,
      "fo": 8134,
      "ciec,": 8135,
      "▁przywy": 8136,
      "▁słowo,": 8137,
      "▁przemi": 8138,
      "▁pogrąż": 8139,
      "▁sklep": 8140,
      "▁piw": 8141,
      "▁wszystkiem,": 8142,
      "wersyte": 8143,
      "▁ogniem": 8144,
      "▁IV": 8145,
      "▁powtarzał": 8146,
      "▁Don": 8147,
      "▁Ger": 8148,
      "▁najczę": 8149,
      "▁kosztow": 8150,
      "łki": 8151,
      "rodziej": 8152,
      "▁poeta": 8153,
      "ziono": 8154,
      "▁złożył": 8155,
      "▁Świ": 8156,
      "▁precz": 8157,
      "widu": 8158,
      "▁Oni": 8159,
      "▁człowieka.": 8160,
      "ley": 8161,
      "dzieliśmy": 8162,
      "▁wcale,": 8163,
      "▁most": 8164,
      "dzoną": 8165,
      "▁nud": 8166,
      "▁wróż": 8167,
      "▁dozor": 8168,
      "Ty": 8169,
      "▁duszą": 8170,
      "▁Justy": 8171,
      "ły.\n": 8172,
      "▁zawiad": 8173,
      "dzi.": 8174,
      "rza.\n": 8175,
      "\nJak": 8176,
      "owe.": 8177,
      "szczył": 8178,
      "▁pokład": 8179,
      "▁Czasem": 8180,
      "▁starą": 8181,
      "▁Wiecz": 8182,
      "▁pocałun": 8183,
      "▁zanu": 8184,
      "▁Han": 8185,
      "▁umrzeć": 8186,
      "▁pojedy": 8187,
      "▁blizko": 8188,
      "▁Dom": 8189,
      "▁For": 8190,
      "szawszy": 8191,
      "czce": 8192,
      "▁butel": 8193,
      "▁przysłu": 8194,
      "▁chwały": 8195,
      "rozumi": 8196,
      "▁przyjaźni": 8197,
      "▁płu": 8198,
      "zią": 8199,
      "mara": 8200,
      "▁Natural": 8201,
      "▁mózg": 8202,
      "land": 8203,
      "▁zimno": 8204,
      "▁Ab": 8205,
      "▁wojsko": 8206,
      "siąść": 8207,
      "▁Daw": 8208,
      "▁wysz": 8209,
      "▁zamknięte": 8210,
      "cko": 8211,
      "lia": 8212,
      "▁oder": 8213,
      "▁byłam": 8214,
      "▁Chwi": 8215,
      "▁zbie": 8216,
      "emon": 8217,
      "anym,": 8218,
      "▁Wiem": 8219,
      "▁gr": 8220,
      "▁dłonie": 8221,
      "liwą": 8222,
      "▁Fa": 8223,
      "▁Cała": 8224,
      "▁żydow": 8225,
      "długo": 8226,
      "▁Niektó": 8227,
      "knąć": 8228,
      "▁nada": 8229,
      "▁Gra": 8230,
      "▁zdanie": 8231,
      "sk,": 8232,
      "▁Uważ": 8233,
      "▁dźwięk": 8234,
      "▁później,": 8235,
      "▁zawar": 8236,
      "▁trzydzieści": 8237,
      "▁szuk": 8238,
      "▁dalej.": 8239,
      "▁wrza": 8240,
      "▁wyst": 8241,
      "▁Nie!": 8242,
      "▁nazwiska": 8243,
      "▁się;": 8244,
      "▁rozło": 8245,
      "grani": 8246,
      "▁umyślnie": 8247,
      "▁pięćdziesiąt": 8248,
      "▁zrazu": 8249,
      "ryn": 8250,
      "▁stary,": 8251,
      "▁służby": 8252,
      "▁nieprzyjaciół": 8253,
      "liwszy": 8254,
      "▁marg": 8255,
      "▁\nNa": 8256,
      "czną,": 8257,
      "▁jaj": 8258,
      "nić,": 8259,
      ".\nB": 8260,
      "▁ambi": 8261,
      "▁pieniądze,": 8262,
      "▁rodziców": 8263,
      "▁raj": 8264,
      "czając": 8265,
      "deb": 8266,
      "▁pannę": 8267,
      "▁wartość": 8268,
      "dzisz": 8269,
      "▁ośm": 8270,
      "▁żąda": 8271,
      "▁każdem": 8272,
      "▁pośredni": 8273,
      "▁Marya": 8274,
      "zę": 8275,
      "▁chyt": 8276,
      "▁pacie": 8277,
      "▁powinie": 8278,
      "pin": 8279,
      "▁niego.\n": 8280,
      "▁siod": 8281,
      "▁piękności": 8282,
      "▁szczególnie": 8283,
      "▁damy": 8284,
      "▁gniaz": 8285,
      "ver": 8286,
      "dz,": 8287,
      "▁te,": 8288,
      "▁północy": 8289,
      "▁tragi": 8290,
      "▁popra": 8291,
      "czywszy": 8292,
      "szcząc": 8293,
      "▁wtenczas": 8294,
      "czonym": 8295,
      "▁namio": 8296,
      "▁czym": 8297,
      "▁synów": 8298,
      "nących": 8299,
      "ena": 8300,
      "emną": 8301,
      "▁oczu,": 8302,
      "▁podejrze": 8303,
      "ÓR": 8304,
      "▁pielg": 8305,
      "mięsz": 8306,
      "▁wiosen": 8307,
      "▁odpar": 8308,
      "▁grobie": 8309,
      "▁Panu": 8310,
      "▁małym": 8311,
      "▁podda": 8312,
      "jętnie": 8313,
      "▁sympaty": 8314,
      "rzyj": 8315,
      "ł.\n": 8316,
      "▁skały": 8317,
      "towi": 8318,
      "▁wiadomość": 8319,
      "▁okolicy": 8320,
      "▁odpoczy": 8321,
      "▁udzie": 8322,
      "▁Ham": 8323,
      "▁pań": 8324,
      "-że": 8325,
      "▁znasz": 8326,
      "▁tyś": 8327,
      "▁zdobyć": 8328,
      "▁ona,": 8329,
      "▁objawi": 8330,
      "▁popeł": 8331,
      "▁pięknych": 8332,
      "▁francuz": 8333,
      "owaniem": 8334,
      "▁bronić": 8335,
      "▁siedem": 8336,
      "▁pełnym": 8337,
      "▁kona": 8338,
      "wieni": 8339,
      "▁[16": 8340,
      "▁połowie": 8341,
      "piąc": 8342,
      "▁rzecz,": 8343,
      "▁wyglądał": 8344,
      "▁jedyną": 8345,
      "▁odemnie": 8346,
      "▁atmos": 8347,
      "dzić.": 8348,
      "▁znuż": 8349,
      "▁mundu": 8350,
      "nący": 8351,
      "▁racz": 8352,
      "▁czytał": 8353,
      "an.": 8354,
      "▁Rom": 8355,
      "▁wielkiem": 8356,
      "▁zabój": 8357,
      "▁weźmie": 8358,
      "skała": 8359,
      "▁bezu": 8360,
      "zie,": 8361,
      "▁wykrzyknął": 8362,
      "▁kwadran": 8363,
      "▁to?": 8364,
      "!\nA": 8365,
      "!\nP": 8366,
      "▁eko": 8367,
      "▁mig": 8368,
      "▁zamek": 8369,
      "▁podniesi": 8370,
      "skach": 8371,
      "▁żalu": 8372,
      "▁środek": 8373,
      "▁Tra": 8374,
      "▁kwit": 8375,
      "ate": 8376,
      "▁szan": 8377,
      "▁nędzy": 8378,
      "▁złoci": 8379,
      "▁placu": 8380,
      "▁nakry": 8381,
      "▁dźwig": 8382,
      "▁bun": 8383,
      "▁\nJak": 8384,
      "▁działo": 8385,
      "▁polski": 8386,
      "zu,": 8387,
      "▁mono": 8388,
      "▁rui": 8389,
      "▁lekce": 8390,
      "▁sar": 8391,
      "▁djab": 8392,
      "▁chciał,": 8393,
      "gom": 8394,
      "▁młodzieniec": 8395,
      "▁świętej": 8396,
      "▁wsi,": 8397,
      "3]\n": 8398,
      "▁poszli": 8399,
      "▁wyci": 8400,
      "▁talen": 8401,
      "▁arysto": 8402,
      "▁mno": 8403,
      "▁człek": 8404,
      "▁Ol": 8405,
      "▁Gru": 8406,
      "▁rozstrzy": 8407,
      "▁admi": 8408,
      "▁obowiązek": 8409,
      "▁chcie": 8410,
      "▁Kan": 8411,
      "▁miesiące": 8412,
      "▁kilkanaście": 8413,
      "▁odet": 8414,
      "ńcem": 8415,
      "▁pieniędzy,": 8416,
      "kom,": 8417,
      "tru": 8418,
      "▁dopuści": 8419,
      "▁mowa": 8420,
      "▁spotyk": 8421,
      "▁stą": 8422,
      "▁Pot": 8423,
      "▁truci": 8424,
      "żeniem": 8425,
      "▁ostatnim": 8426,
      "▁urzęd": 8427,
      "ność.\n": 8428,
      "ROZDZIAŁ": 8429,
      "żbie": 8430,
      "▁cicha": 8431,
      "▁miłość,": 8432,
      "ER": 8433,
      "▁dniem": 8434,
      "da!": 8435,
      "▁chwile": 8436,
      "▁Jedy": 8437,
      "▁sprzeci": 8438,
      "▁pomyśle": 8439,
      "▁chłopca": 8440,
      "▁Alla": 8441,
      "▁wymawi": 8442,
      "▁Wiem,": 8443,
      "▁leżała": 8444,
      "▁puścił": 8445,
      "▁uchodzi": 8446,
      "▁ślep": 8447,
      "▁rej": 8448,
      "▁wyzwo": 8449,
      "▁przygląd": 8450,
      "▁ucał": 8451,
      "▁auto": 8452,
      "▁zawołał:\n": 8453,
      "▁wydawał": 8454,
      "▁ostatecznie": 8455,
      "▁rozkazu": 8456,
      "▁wznios": 8457,
      "▁uciekł": 8458,
      "szel": 8459,
      "▁party": 8460,
      "▁Paryżu": 8461,
      "rzona": 8462,
      "▁zabrać": 8463,
      "tując": 8464,
      "▁darmo": 8465,
      "▁wiad": 8466,
      "▁mieszkanie": 8467,
      "▁Chy": 8468,
      "▁Gar": 8469,
      "▁przejść": 8470,
      "▁najdroż": 8471,
      "sal": 8472,
      "czką": 8473,
      "▁potrzebuje": 8474,
      "▁lepszego": 8475,
      "▁wódz": 8476,
      "▁mio": 8477,
      "▁Zresztą,": 8478,
      "▁biedna": 8479,
      "▁szo": 8480,
      "it": 8481,
      "szek,": 8482,
      "ji.\n": 8483,
      "▁widzisz": 8484,
      "ine": 8485,
      "▁wali": 8486,
      "▁dni,": 8487,
      "▁Wielki": 8488,
      "ń.\n": 8489,
      "żeć": 8490,
      "kot": 8491,
      "▁przywie": 8492,
      "nością.": 8493,
      "▁Jezusa": 8494,
      "edy": 8495,
      "▁chce,": 8496,
      "▁wypadek": 8497,
      "▁zapowie": 8498,
      "▁Szwe": 8499,
      "▁wydała": 8500,
      "▁naiw": 8501,
      "▁podstęp": 8502,
      "▁mama": 8503,
      "▁Oprócz": 8504,
      "łód": 8505,
      "▁Ksiądz": 8506,
      "en,": 8507,
      "▁nadziei,": 8508,
      "▁zawdzię": 8509,
      "▁zależ": 8510,
      "▁bogaty": 8511,
      "▁pozwala": 8512,
      "▁pojęcia": 8513,
      "▁zjed": 8514,
      "▁obłąk": 8515,
      "▁zdrow": 8516,
      "▁większej": 8517,
      "▁spec": 8518,
      "▁pośrod": 8519,
      "▁schodzi": 8520,
      "anina": 8521,
      "gę.": 8522,
      "▁wspomni": 8523,
      "lad": 8524,
      "▁twą": 8525,
      "owskiego": 8526,
      "▁gie": 8527,
      "▁serc": 8528,
      "ety": 8529,
      "▁kierow": 8530,
      "bę,": 8531,
      "▁Gor": 8532,
      "!\nO": 8533,
      "▁raz,": 8534,
      "▁zaczyn": 8535,
      "stę": 8536,
      "▁głowie,": 8537,
      "▁kącie": 8538,
      "▁chcesz,": 8539,
      "▁wypełni": 8540,
      "▁odbij": 8541,
      "▁zakoch": 8542,
      "▁zaczy": 8543,
      "wiast": 8544,
      "▁pisać": 8545,
      "▁otwier": 8546,
      "▁pokoi": 8547,
      "▁gdzież": 8548,
      "▁dyab": 8549,
      "▁natura": 8550,
      "▁umil": 8551,
      "▁pomiesz": 8552,
      "▁porządku": 8553,
      "▁musiałem": 8554,
      "▁Indy": 8555,
      "▁kated": 8556,
      "▁tejże": 8557,
      "▁jeźdź": 8558,
      "▁wówczas,": 8559,
      "▁słońcu": 8560,
      "dzwo": 8561,
      "▁wieży": 8562,
      "har": 8563,
      "pry": 8564,
      "▁szept": 8565,
      "piesznie": 8566,
      "▁psu": 8567,
      "▁zwąt": 8568,
      "▁ogromne": 8569,
      "niach,": 8570,
      "rzó": 8571,
      "rzał,": 8572,
      "▁pańskie": 8573,
      "▁szumi": 8574,
      "▁przech": 8575,
      "▁Hale": 8576,
      "▁wykwi": 8577,
      ".\nNie": 8578,
      "▁wskazując": 8579,
      "▁plem": 8580,
      "stytu": 8581,
      "▁księżna": 8582,
      "▁barw": 8583,
      "▁liści": 8584,
      "▁kolana": 8585,
      "▁szó": 8586,
      "▁Paw": 8587,
      "uję": 8588,
      "▁doskonał": 8589,
      "Jest": 8590,
      "▁stoją": 8591,
      "▁szczęśliwie": 8592,
      "▁wyży": 8593,
      "▁oczyma,": 8594,
      "▁ton": 8595,
      "▁cyt": 8596,
      "▁szczup": 8597,
      "rzeniu": 8598,
      "▁milczenie": 8599,
      "▁byt": 8600,
      "▁panując": 8601,
      "▁skłon": 8602,
      "ke": 8603,
      "▁fla": 8604,
      "▁wielo": 8605,
      "▁scen": 8606,
      "owiec": 8607,
      "▁podszedł": 8608,
      "▁matką": 8609,
      "▁napow": 8610,
      "▁chra": 8611,
      "▁chmury": 8612,
      "▁Edwar": 8613,
      "▁byś": 8614,
      "ałoby": 8615,
      "▁znaczenie": 8616,
      "▁rozważ": 8617,
      "▁pozba": 8618,
      "▁wprzód": 8619,
      "20": 8620,
      "▁num": 8621,
      "▁niedzie": 8622,
      "rzywszy": 8623,
      "▁Iza": 8624,
      "▁przeważnie": 8625,
      "6.": 8626,
      "gal": 8627,
      "▁Napole": 8628,
      "dą.": 8629,
      "▁pewna": 8630,
      "▁codziennie": 8631,
      "bin": 8632,
      "▁ojcze": 8633,
      "▁delikat": 8634,
      "owę,": 8635,
      "▁obróci": 8636,
      "bacz": 8637,
      "rwo": 8638,
      "▁młodą": 8639,
      "▁uczuł": 8640,
      "▁spło": 8641,
      "▁kształt": 8642,
      "▁litość": 8643,
      "▁poro": 8644,
      "▁spowie": 8645,
      "chodzę": 8646,
      "owała,": 8647,
      "▁przypomniał": 8648,
      "▁Nau": 8649,
      "▁męczar": 8650,
      "▁ciemne": 8651,
      "dowi": 8652,
      "siedli": 8653,
      "▁dawnego": 8654,
      "cznie.": 8655,
      "▁spojrzeniem": 8656,
      "wym,": 8657,
      "▁bólu": 8658,
      "▁Będę": 8659,
      "▁elekt": 8660,
      "▁zajął": 8661,
      "▁chwali": 8662,
      "▁wuj": 8663,
      "▁władzę": 8664,
      "▁jaski": 8665,
      "▁zwal": 8666,
      "łogosła": 8667,
      "▁zob": 8668,
      "▁cząst": 8669,
      "▁Prawda,": 8670,
      "żek": 8671,
      "▁lubo": 8672,
      "▁posiadał": 8673,
      "▁powoli,": 8674,
      "▁kupi": 8675,
      "▁drodze,": 8676,
      "▁odrzekła": 8677,
      "▁spokojnie,": 8678,
      "▁przedsta": 8679,
      "▁lubię": 8680,
      "▁liczne": 8681,
      "...\n\n\n": 8682,
      "▁wstę": 8683,
      "▁zdumie": 8684,
      "▁ogrodu": 8685,
      "▁szły": 8686,
      "▁osłu": 8687,
      "niętą": 8688,
      "▁symbo": 8689,
      "▁podt": 8690,
      "▁Ur": 8691,
      "▁wyszu": 8692,
      "▁trzymać": 8693,
      "szając": 8694,
      "nego.\n": 8695,
      "▁nieznoś": 8696,
      "▁popełni": 8697,
      "▁wać": 8698,
      "▁Byli": 8699,
      "EN": 8700,
      "zami": 8701,
      "▁zwierciad": 8702,
      "loty": 8703,
      "owanego": 8704,
      "▁stawał": 8705,
      "▁odwiedzi": 8706,
      "▁odmien": 8707,
      "▁Tę": 8708,
      "▁trzeba,": 8709,
      "▁Maj": 8710,
      "▁Uj": 8711,
      "▁usłysze": 8712,
      "łami": 8713,
      "▁nędza": 8714,
      "▁poprawi": 8715,
      "bione": 8716,
      "▁jął": 8717,
      "▁dobrze.": 8718,
      "▁drzwiami": 8719,
      "▁\nB": 8720,
      ".\n\n\n(": 8721,
      "▁wypę": 8722,
      "▁nam,": 8723,
      "▁lepiej,": 8724,
      "om.": 8725,
      "▁targ": 8726,
      "rzyst": 8727,
      "oj": 8728,
      "▁pisto": 8729,
      "▁biorąc": 8730,
      "I.\n": 8731,
      "▁bok": 8732,
      "▁rezul": 8733,
      "▁rany": 8734,
      "▁y": 8735,
      "▁goni": 8736,
      "▁budzi": 8737,
      "▁nowa": 8738,
      "▁przeraź": 8739,
      "▁Zw": 8740,
      "▁maryna": 8741,
      "mu,": 8742,
      "▁mury": 8743,
      "gór": 8744,
      "▁doda": 8745,
      "▁trudem": 8746,
      "▁Leon": 8747,
      "▁przo": 8748,
      "▁J.": 8749,
      "▁służy": 8750,
      "▁ozdo": 8751,
      "▁Ła": 8752,
      "le.\n": 8753,
      "▁oczach,": 8754,
      "▁projekt": 8755,
      "▁wiedzy": 8756,
      "ospo": 8757,
      "▁chwał": 8758,
      "▁stal": 8759,
      "▁Bel": 8760,
      "▁dostanie": 8761,
      "ązu": 8762,
      "▁niejako": 8763,
      "▁wciąg": 8764,
      "▁mgła": 8765,
      "rzeni": 8766,
      "amp": 8767,
      "▁państw": 8768,
      "▁archi": 8769,
      "4]\n": 8770,
      "działy": 8771,
      "▁głębokie": 8772,
      "7]\n": 8773,
      "▁życi": 8774,
      "▁stosow": 8775,
      "▁Znaj": 8776,
      "dzenie,": 8777,
      "▁nocą": 8778,
      "▁Anna": 8779,
      "▁chciałbym": 8780,
      "▁em": 8781,
      "▁ma,": 8782,
      "▁Sędzi": 8783,
      "zja": 8784,
      "▁miną": 8785,
      "▁tajemnic": 8786,
      "▁odgłos": 8787,
      "la.\n": 8788,
      "▁Sch": 8789,
      "▁stronę,": 8790,
      "nikami": 8791,
      "▁wspomnienia": 8792,
      "▁żony,": 8793,
      "▁goście": 8794,
      "▁bić": 8795,
      "▁obrazy": 8796,
      "▁rozkoszy": 8797,
      "▁wysokości": 8798,
      "▁znowu,": 8799,
      "▁napeł": 8800,
      "wa.\n": 8801,
      "▁wąz": 8802,
      "tobli": 8803,
      "nomi": 8804,
      "▁Tar": 8805,
      "▁opuszczo": 8806,
      "▁przeło": 8807,
      "▁zawzię": 8808,
      "niejszy,": 8809,
      "7.": 8810,
      "▁obmy": 8811,
      "dzenia.": 8812,
      "▁wyprost": 8813,
      "▁nauk": 8814,
      "ałeś": 8815,
      "▁parob": 8816,
      "▁rozumiem": 8817,
      "▁zdaleka": 8818,
      "▁porwał": 8819,
      "asa": 8820,
      "łszy": 8821,
      "▁nogi,": 8822,
      "ko!": 8823,
      "nu.": 8824,
      "▁Wer": 8825,
      "▁otrzyma": 8826,
      "▁napew": 8827,
      "kać,": 8828,
      "▁Boży": 8829,
      "▁poroz": 8830,
      "▁nie.": 8831,
      "▁wysta": 8832,
      "▁mieszkańców": 8833,
      "▁Ciebie": 8834,
      "▁nało": 8835,
      "▁rzecze": 8836,
      "▁najstar": 8837,
      "▁oswo": 8838,
      "amen": 8839,
      "wali,": 8840,
      "in,": 8841,
      "▁Chrystusa": 8842,
      "▁handl": 8843,
      "car": 8844,
      "▁porów": 8845,
      "▁losu": 8846,
      "▁charaktery": 8847,
      "▁przekle": 8848,
      "▁uważa": 8849,
      "▁August": 8850,
      "▁rękoma": 8851,
      "9]\n": 8852,
      "▁celem": 8853,
      "▁areszt": 8854,
      "▁wodzie": 8855,
      "▁pysz": 8856,
      "▁będziecie": 8857,
      "zal": 8858,
      "▁Trzy": 8859,
      "▁fut": 8860,
      "▁zrobiła": 8861,
      "▁wstyd": 8862,
      "łka": 8863,
      "▁rozmaitych": 8864,
      "▁obraż": 8865,
      "gali": 8866,
      "?\n\n\n": 8867,
      "▁boj": 8868,
      "8]\n": 8869,
      "lały": 8870,
      "mej": 8871,
      "niona": 8872,
      "▁przyzwy": 8873,
      "▁odraz": 8874,
      "▁Wyso": 8875,
      "▁piekiel": 8876,
      "czysz": 8877,
      "▁łyż": 8878,
      "▁mur": 8879,
      "▁wpo": 8880,
      "▁wytwor": 8881,
      "▁popie": 8882,
      "▁wysokie": 8883,
      "▁skrzyp": 8884,
      "▁czasami": 8885,
      "▁bram": 8886,
      "▁polskich": 8887,
      "▁san": 8888,
      "▁sprawiedliwości": 8889,
      "▁szer": 8890,
      "▁szczęścia,": 8891,
      "▁ledwo": 8892,
      "wamy": 8893,
      "▁powód": 8894,
      "▁pozostaje": 8895,
      "▁chrześcij": 8896,
      "▁przestrzeni": 8897,
      "▁momen": 8898,
      "▁krzesła": 8899,
      "▁wilgot": 8900,
      "szała": 8901,
      "słuchi": 8902,
      "▁Zaczę": 8903,
      "▁zachodzi": 8904,
      "▁tak!": 8905,
      "▁Niemie": 8906,
      ".\n\nZ": 8907,
      "▁moje,": 8908,
      "zmu,": 8909,
      "▁włości": 8910,
      "czom": 8911,
      "▁samemu": 8912,
      "▁spojrzenia": 8913,
      "▁Znowu": 8914,
      "ciem,": 8915,
      "nieśli": 8916,
      "marz": 8917,
      "▁krakow": 8918,
      "▁ścig": 8919,
      "▁grunt": 8920,
      "▁zewnątrz": 8921,
      "▁zażąd": 8922,
      "▁Bos": 8923,
      "▁ciała,": 8924,
      "▁opuścić": 8925,
      "owaną": 8926,
      "▁szkol": 8927,
      "▁utrzymać": 8928,
      "▁Jedna": 8929,
      "▁będzie.": 8930,
      "jechała": 8931,
      "▁śniegu": 8932,
      "▁skier": 8933,
      "▁wbrew": 8934,
      "szczą": 8935,
      "▁sześciu": 8936,
      "▁dęb": 8937,
      "▁śladu": 8938,
      "▁kazała": 8939,
      "▁Sobie": 8940,
      "▁jakichś": 8941,
      "OL": 8942,
      "czna,": 8943,
      "▁wieści": 8944,
      "nictwa": 8945,
      "▁wytę": 8946,
      "Tak": 8947,
      "hand": 8948,
      "▁niezbyt": 8949,
      "▁stanowisko": 8950,
      "▁harmo": 8951,
      "▁poem": 8952,
      "▁odwagi": 8953,
      "▁właśnie,": 8954,
      "▁Mosk": 8955,
      "atek": 8956,
      "▁arm": 8957,
      "▁powóz": 8958,
      "▁drudzy": 8959,
      "ing": 8960,
      "▁nor": 8961,
      "ku;": 8962,
      "▁zakoń": 8963,
      "▁jedne": 8964,
      "▁Powiad": 8965,
      "elancho": 8966,
      "▁południe": 8967,
      "▁zakło": 8968,
      "leniu": 8969,
      "▁Egip": 8970,
      "▁pobiegł": 8971,
      "▁upra": 8972,
      "▁Gdzież": 8973,
      "cę.": 8974,
      "▁ostrożnie": 8975,
      "▁gość": 8976,
      "▁Rę": 8977,
      "ląkł": 8978,
      "▁zostawił": 8979,
      "ałości": 8980,
      "▁prawej": 8981,
      "wało,": 8982,
      "▁pocze": 8983,
      "▁Iwan": 8984,
      "▁Kie": 8985,
      "lonych": 8986,
      "▁człowiekiem,": 8987,
      "cząt": 8988,
      "▁pożar": 8989,
      "▁rozpra": 8990,
      "▁chwyt": 8991,
      "▁ołtarz": 8992,
      "cznością": 8993,
      "▁rycerz": 8994,
      "▁europej": 8995,
      "lane": 8996,
      "▁epi": 8997,
      "▁Przyj": 8998,
      "▁przestęp": 8999,
      "▁prowadził": 9000,
      "▁Serce": 9001,
      "▁okazał": 9002,
      "▁Tade": 9003,
      "▁Zad": 9004,
      "▁zanadto": 9005,
      "czności,": 9006,
      "▁świeże": 9007,
      "▁słyszałem": 9008,
      "▁siedm": 9009,
      "karz": 9010,
      "▁nosił": 9011,
      "es,": 9012,
      "sem,": 9013,
      "1]\n": 9014,
      "▁widzisz,": 9015,
      "▁wiadomo,": 9016,
      "▁wynagro": 9017,
      "▁\nC": 9018,
      "▁jeden,": 9019,
      "▁umiera": 9020,
      "▁Syn": 9021,
      "▁Hal": 9022,
      "▁piór": 9023,
      "▁Śmier": 9024,
      "nkiem": 9025,
      "▁darem": 9026,
      "▁herbat": 9027,
      "▁wyraże": 9028,
      "▁bezsil": 9029,
      "▁pamięta": 9030,
      "łowro": 9031,
      "▁Życie": 9032,
      "▁brata,": 9033,
      "▁pismo": 9034,
      "▁położenie": 9035,
      "▁piąt": 9036,
      "▁usta,": 9037,
      "▁wyrazy": 9038,
      "▁rozmowie": 9039,
      "pety": 9040,
      "▁Ró": 9041,
      "▁świateł": 9042,
      "wających": 9043,
      "▁musiało": 9044,
      "▁mógłbym": 9045,
      "▁wskazał": 9046,
      "wie.\n": 9047,
      "▁walka": 9048,
      "▁znalazłem": 9049,
      "▁ostatnią": 9050,
      "▁smę": 9051,
      "▁sztyw": 9052,
      "▁dzikie": 9053,
      "▁drobi": 9054,
      "▁siód": 9055,
      "▁uniwersyte": 9056,
      "amy,": 9057,
      "▁instru": 9058,
      "▁zabiera": 9059,
      "▁radę": 9060,
      "▁ojcow": 9061,
      "▁RO": 9062,
      "▁krzyża": 9063,
      "▁zani": 9064,
      "▁sądzę,": 9065,
      "▁183": 9066,
      "dnych": 9067,
      "▁Postanowi": 9068,
      "▁królowi": 9069,
      "▁ukryć": 9070,
      "▁rozmaite": 9071,
      "▁jaskra": 9072,
      "▁izdeb": 9073,
      "▁najmniejszego": 9074,
      "▁Raff": 9075,
      "cza.": 9076,
      "▁wiedząc,": 9077,
      "▁rodu": 9078,
      "▁szpie": 9079,
      "▁oczy.\n": 9080,
      "▁drugich": 9081,
      "ić,": 9082,
      "▁indywidu": 9083,
      "ktu": 9084,
      "wem,": 9085,
      "▁pokazał": 9086,
      "łoby": 9087,
      "nem.\n": 9088,
      ".\n\nD": 9089,
      "▁biu": 9090,
      "▁ciemno": 9091,
      "▁najprzód": 9092,
      "▁stale": 9093,
      "8.": 9094,
      "▁przestał": 9095,
      "▁skrzydeł": 9096,
      "▁poczyna": 9097,
      "▁męz": 9098,
      "ló": 9099,
      "▁nowym": 9100,
      "▁przystęp": 9101,
      "▁wspomina": 9102,
      "▁przede": 9103,
      "nach,": 9104,
      "▁ober": 9105,
      "sunęła": 9106,
      "▁gościn": 9107,
      "▁zwrócić": 9108,
      "▁Pom": 9109,
      "▁Gene": 9110,
      "kłe": 9111,
      "▁(w": 9112,
      "▁łaskę": 9113,
      "snąć": 9114,
      "▁potrzebował": 9115,
      "▁jadal": 9116,
      "▁zadum": 9117,
      "▁Zygmun": 9118,
      "▁zostali": 9119,
      "▁odpowiada": 9120,
      "▁Bogu,": 9121,
      "▁tamtej": 9122,
      "▁Hel": 9123,
      "▁niepoję": 9124,
      "▁łóżka": 9125,
      "▁wygo": 9126,
      "▁Niez": 9127,
      "różni": 9128,
      "▁uczucia,": 9129,
      "▁wer": 9130,
      "▁przym": 9131,
      "▁rzeczywisto": 9132,
      "▁wiele,": 9133,
      "▁zajmu": 9134,
      "▁wskazów": 9135,
      "jer": 9136,
      "▁zarumieni": 9137,
      "▁najpo": 9138,
      "9.": 9139,
      "▁całkowicie": 9140,
      "▁klat": 9141,
      "▁Pis": 9142,
      "▁walczyć": 9143,
      "▁straszny": 9144,
      "▁złodziej": 9145,
      "▁mieszkał": 9146,
      "▁ukazała": 9147,
      "nią,": 9148,
      "▁piecho": 9149,
      "▁równocześnie": 9150,
      "▁redak": 9151,
      "▁Jeste": 9152,
      "▁Pierw": 9153,
      "sku.": 9154,
      "▁wykrzyk": 9155,
      "czeki": 9156,
      "▁rozrzu": 9157,
      "▁gruncie": 9158,
      "▁Shat": 9159,
      "▁szpita": 9160,
      "▁zbior": 9161,
      "!..": 9162,
      "siu": 9163,
      "▁piosen": 9164,
      "Roz": 9165,
      "▁gruby": 9166,
      "▁czerwone": 9167,
      "▁wielb": 9168,
      "▁upoko": 9169,
      "owania,": 9170,
      "▁zmo": 9171,
      "▁zwali": 9172,
      "▁inżynie": 9173,
      "dzonego": 9174,
      "oże": 9175,
      ",\nDo": 9176,
      "▁prawdziwy": 9177,
      "5]\n": 9178,
      "siu,": 9179,
      "▁Jednakże": 9180,
      "▁matce": 9181,
      "am.\n": 9182,
      "▁oddziel": 9183,
      "▁Elżbie": 9184,
      "▁zrozumieć": 9185,
      "cek": 9186,
      "▁bezwzglę": 9187,
      "▁wsta": 9188,
      "▁pilnie": 9189,
      "▁jest?": 9190,
      "▁pią": 9191,
      "▁przepę": 9192,
      "▁wał": 9193,
      "▁nadej": 9194,
      "▁zmienił": 9195,
      "dziw": 9196,
      "▁Młody": 9197,
      "liwa": 9198,
      "▁słowy": 9199,
      "▁zostaje": 9200,
      "▁piln": 9201,
      "▁cnoty": 9202,
      "▁niedaleko": 9203,
      "szty": 9204,
      "▁spry": 9205,
      "▁obozu": 9206,
      "▁184": 9207,
      ",\nNiech": 9208,
      "▁Trudno": 9209,
      "szar": 9210,
      "▁gorzej": 9211,
      "▁tamten": 9212,
      "▁Shatter": 9213,
      "▁Cor": 9214,
      "▁rada": 9215,
      "▁niesprawiedli": 9216,
      "▁podwo": 9217,
      "▁bije": 9218,
      "▁wymaga": 9219,
      "▁szybko,": 9220,
      "▁hy": 9221,
      "TA": 9222,
      "czci": 9223,
      "▁znikł": 9224,
      "▁teo": 9225,
      "▁abyśmy": 9226,
      "▁bibli": 9227,
      "▁polskie": 9228,
      "▁gałąz": 9229,
      "▁186": 9230,
      "▁rozwar": 9231,
      "▁logi": 9232,
      "▁roli": 9233,
      "▁Bogiem": 9234,
      "▁znajdują": 9235,
      "dziem": 9236,
      "▁chwilach": 9237,
      "▁kultu": 9238,
      "..\n": 9239,
      "roi": 9240,
      "▁palce": 9241,
      "▁prawdziwe": 9242,
      "szonym": 9243,
      "szemi": 9244,
      "▁panu,": 9245,
      "rator": 9246,
      "▁Podni": 9247,
      "▁dek": 9248,
      "▁wychy": 9249,
      "▁skra": 9250,
      "▁Przeciw": 9251,
      "▁obawy": 9252,
      "▁Tut": 9253,
      "▁test": 9254,
      "▁decy": 9255,
      "▁wzdych": 9256,
      "▁Duch": 9257,
      "▁swobodnie": 9258,
      "▁pch": 9259,
      "▁Lucj": 9260,
      "▁niewiast": 9261,
      "6]\n": 9262,
      "▁Kilka": 9263,
      "błag": 9264,
      "▁głodu": 9265,
      "▁zapamię": 9266,
      "nicy.": 9267,
      "▁atoli": 9268,
      "▁oble": 9269,
      "▁przekonać": 9270,
      "czka,": 9271,
      "▁zdraj": 9272,
      "▁czarno": 9273,
      "▁reszta": 9274,
      "▁unika": 9275,
      "▁typ": 9276,
      "tę.": 9277,
      "▁rychło": 9278,
      "▁życiu,": 9279,
      "▁szwa": 9280,
      "▁powiem,": 9281,
      "▁zaku": 9282,
      "▁pokar": 9283,
      "\nWy": 9284,
      "▁służbę": 9285,
      "jga": 9286,
      "bran": 9287,
      "▁ludzkiego": 9288,
      "▁świeci": 9289,
      "▁płacze": 9290,
      "▁zachowy": 9291,
      "-\n": 9292,
      "mie.": 9293,
      "▁Mah": 9294,
      "▁mogę,": 9295,
      "▁wprzó": 9296,
      "▁łodzi": 9297,
      "▁wierzcho": 9298,
      "▁pił": 9299,
      "fon": 9300,
      "▁pomie": 9301,
      "nął.": 9302,
      "▁wpraw": 9303,
      "▁języka": 9304,
      "ałość": 9305,
      "▁zależy": 9306,
      "▁niewiadomo": 9307,
      "▁ber": 9308,
      "ską.": 9309,
      "▁paste": 9310,
      "▁fortepi": 9311,
      "▁uwi": 9312,
      "▁lewej": 9313,
      "▁wynik": 9314,
      "▁odwo": 9315,
      "▁statek": 9316,
      "▁cesarza": 9317,
      "▁niewidzial": 9318,
      "wasz": 9319,
      "▁obejrzał": 9320,
      "▁aksami": 9321,
      "▁myśli.": 9322,
      "▁Rów": 9323,
      "▁nic.": 9324,
      "▁owie": 9325,
      "▁Cha": 9326,
      "▁nikogo,": 9327,
      "▁zwróciła": 9328,
      "▁powtór": 9329,
      "tem.\n": 9330,
      "▁pragnę": 9331,
      "▁tobie,": 9332,
      ")\n": 9333,
      "nict": 9334,
      "▁polskiego": 9335,
      "▁przygot": 9336,
      "▁zastał": 9337,
      "▁rewol": 9338,
      "▁upodob": 9339,
      "▁dąż": 9340,
      "b,": 9341,
      "gą.": 9342,
      "-by": 9343,
      "▁podać": 9344,
      "▁współczes": 9345,
      "tywał": 9346,
      "zach": 9347,
      "▁szyi": 9348,
      "▁słowa.": 9349,
      "śmiał": 9350,
[...]
